<?xml version="1.0"?>
<MethodSetup Method="BDT::BDTG">
  <GeneralInfo>
    <Info name="TMVA Release" value="4.2.1 [262657]"/>
    <Info name="ROOT Release" value="6.26/04 [399876]"/>
    <Info name="Creator" value="zhangyulei"/>
    <Info name="Date" value="Mon Mar 13 01:29:15 2023"/>
    <Info name="Host" value="Linux centos7-docker 4.18.0-365.el8.x86_64 #1 SMP Thu Feb 10 16:11:23 UTC 2022 x86_64 x86_64 x86_64 GNU/Linux"/>
    <Info name="Dir" value="/lustre/collider/zhangyulei/ATLAS/hhml/workspace/Optimization/best_train"/>
    <Info name="Training events" value="306304"/>
    <Info name="TrainingTime" value="1.02614067e+03"/>
    <Info name="AnalysisType" value="Classification"/>
  </GeneralInfo>
  <Options>
    <Option name="V" modified="No">False</Option>
    <Option name="VerbosityLevel" modified="No">Default</Option>
    <Option name="VarTransform" modified="No">None</Option>
    <Option name="H" modified="No">False</Option>
    <Option name="CreateMVAPdfs" modified="No">False</Option>
    <Option name="IgnoreNegWeightsInTraining" modified="Yes">True</Option>
    <Option name="NTrees" modified="Yes">715</Option>
    <Option name="MaxDepth" modified="Yes">4</Option>
    <Option name="MinNodeSize" modified="Yes">1</Option>
    <Option name="nCuts" modified="No">20</Option>
    <Option name="BoostType" modified="Yes">Grad</Option>
    <Option name="AdaBoostR2Loss" modified="No">quadratic</Option>
    <Option name="UseBaggedBoost" modified="No">False</Option>
    <Option name="Shrinkage" modified="Yes">2.000000e-01</Option>
    <Option name="AdaBoostBeta" modified="No">5.000000e-01</Option>
    <Option name="UseRandomisedTrees" modified="No">False</Option>
    <Option name="UseNvars" modified="No">5</Option>
    <Option name="UsePoissonNvars" modified="No">True</Option>
    <Option name="BaggedSampleFraction" modified="No">6.000000e-01</Option>
    <Option name="UseYesNoLeaf" modified="No">True</Option>
    <Option name="NegWeightTreatment" modified="No">pray</Option>
    <Option name="Css" modified="No">1.000000e+00</Option>
    <Option name="Cts_sb" modified="No">1.000000e+00</Option>
    <Option name="Ctb_ss" modified="No">1.000000e+00</Option>
    <Option name="Cbb" modified="No">1.000000e+00</Option>
    <Option name="NodePurityLimit" modified="No">5.000000e-01</Option>
    <Option name="SeparationType" modified="No">giniindex</Option>
    <Option name="RegressionLossFunctionBDTG" modified="No">huber</Option>
    <Option name="HuberQuantile" modified="No">7.000000e-01</Option>
    <Option name="DoBoostMonitor" modified="No">False</Option>
    <Option name="UseFisherCuts" modified="No">False</Option>
    <Option name="MinLinCorrForFisher" modified="No">8.000000e-01</Option>
    <Option name="UseExclusiveVars" modified="No">False</Option>
    <Option name="DoPreselection" modified="No">False</Option>
    <Option name="SigToBkgFraction" modified="No">1.000000e+00</Option>
    <Option name="PruneMethod" modified="No">nopruning</Option>
    <Option name="PruneStrength" modified="No">0.000000e+00</Option>
    <Option name="PruningValFraction" modified="No">5.000000e-01</Option>
    <Option name="SkipNormalization" modified="No">False</Option>
    <Option name="nEventsMin" modified="No">0</Option>
    <Option name="UseBaggedGrad" modified="No">False</Option>
    <Option name="GradBaggingFraction" modified="No">6.000000e-01</Option>
    <Option name="UseNTrainEvents" modified="No">0</Option>
    <Option name="NNodesMax" modified="No">0</Option>
  </Options>
  <Variables NVar="22">
    <Variable VarIndex="0" Expression="FlavorCat" Label="FlavorCat" Title="FlavorCat" Unit="" Internal="FlavorCat" Type="F" Min="1.00000000e+00" Max="8.00000000e+00"/>
    <Variable VarIndex="1" Expression="met_met" Label="met_met" Title="met_met" Unit="" Internal="met_met" Type="F" Min="1.38697693e+02" Max="1.05882496e+08"/>
    <Variable VarIndex="2" Expression="M_llljj" Label="M_llljj" Title="M_llljj" Unit="" Internal="M_llljj" Type="F" Min="3.97048438e+04" Max="1.38310010e+07"/>
    <Variable VarIndex="3" Expression="M_lll" Label="M_lll" Title="M_lll" Unit="" Internal="M_lll" Type="F" Min="1.60982080e+04" Max="9.04962600e+06"/>
    <Variable VarIndex="4" Expression="HT" Label="HT" Title="HT" Unit="" Internal="HT" Type="F" Min="6.98107109e+04" Max="1.06121288e+08"/>
    <Variable VarIndex="5" Expression="HT_jets" Label="HT_jets" Title="HT_jets" Unit="" Internal="HT_jets" Type="F" Min="2.50002266e+04" Max="4.32664700e+06"/>
    <Variable VarIndex="6" Expression="HT_lep" Label="HT_lep" Title="HT_lep" Unit="" Internal="HT_lep" Type="F" Min="4.47300078e+04" Max="1.05964832e+08"/>
    <Variable VarIndex="7" Expression="best_Z_Mll" Label="best_Z_Mll" Title="best_Z_Mll" Unit="" Internal="best_Z_Mll" Type="F" Min="0.00000000e+00" Max="5.36872550e+06"/>
    <Variable VarIndex="8" Expression="M_l0l1" Label="M_l0l1" Title="M_l0l1" Unit="" Internal="M_l0l1" Type="F" Min="4.74657324e+03" Max="4.12253600e+06"/>
    <Variable VarIndex="9" Expression="M_l0l2" Label="M_l0l2" Title="M_l0l2" Unit="" Internal="M_l0l2" Type="F" Min="6.66766309e+03" Max="8.68866900e+06"/>
    <Variable VarIndex="10" Expression="M_l1l2" Label="M_l1l2" Title="M_l1l2" Unit="" Internal="M_l1l2" Type="F" Min="-7.40265625e+02" Max="2.46048800e+06"/>
    <Variable VarIndex="11" Expression="dR_l0l1" Label="dR_l0l1" Title="dR_l0l1" Unit="" Internal="dR_l0l1" Type="F" Min="2.07845215e-02" Max="5.03746939e+00"/>
    <Variable VarIndex="12" Expression="dR_l0l2" Label="dR_l0l2" Title="dR_l0l2" Unit="" Internal="dR_l0l2" Type="F" Min="1.95673347e-01" Max="5.82311153e+00"/>
    <Variable VarIndex="13" Expression="dR_l1l2" Label="dR_l1l2" Title="dR_l1l2" Unit="" Internal="dR_l1l2" Type="F" Min="0.00000000e+00" Max="5.75932074e+00"/>
    <Variable VarIndex="14" Expression="dR_l0j" Label="dR_l0j" Title="dR_l0j" Unit="" Internal="dR_l0j" Type="F" Min="4.43507219e-03" Max="5.39260912e+00"/>
    <Variable VarIndex="15" Expression="dR_l1j" Label="dR_l1j" Title="dR_l1j" Unit="" Internal="dR_l1j" Type="F" Min="3.50226182e-03" Max="5.33255196e+00"/>
    <Variable VarIndex="16" Expression="dR_l2j" Label="dR_l2j" Title="dR_l2j" Unit="" Internal="dR_l2j" Type="F" Min="9.54862591e-03" Max="5.20483971e+00"/>
    <Variable VarIndex="17" Expression="M_l0j" Label="M_l0j" Title="M_l0j" Unit="" Internal="M_l0j" Type="F" Min="-6.92559448e+02" Max="9.46578700e+06"/>
    <Variable VarIndex="18" Expression="M_l1j" Label="M_l1j" Title="M_l1j" Unit="" Internal="M_l1j" Type="F" Min="-6.64579529e+02" Max="3.11609950e+06"/>
    <Variable VarIndex="19" Expression="M_l2j" Label="M_l2j" Title="M_l2j" Unit="" Internal="M_l2j" Type="F" Min="-7.23159058e+02" Max="2.98946375e+06"/>
    <Variable VarIndex="20" Expression="minOSMll" Label="minOSMll" Title="minOSMll" Unit="" Internal="minOSMll" Type="F" Min="4.74657227e+03" Max="2.52651875e+06"/>
    <Variable VarIndex="21" Expression="minOSSFMll" Label="minOSSFMll" Title="minOSSFMll" Unit="" Internal="minOSSFMll" Type="F" Min="0.00000000e+00" Max="5.36872550e+06"/>
  </Variables>
  <Spectators NSpec="0"/>
  <Classes NClass="2">
    <Class Name="Signal" Index="0"/>
    <Class Name="Background" Index="1"/>
  </Classes>
  <Transformations NTransformations="0"/>
  <MVAPdfs/>
  <Weights NTrees="715" AnalysisType="1">
    <BinaryTree type="DecisionTree" boostWeight="1.0000000000000000e+00" itree="0">
      <Node pos="s" depth="0" NCoef="0" IVar="16" Cut="1.2465226650238037e+00" cType="1" res="-1.5184948567656398e-12" rms="5.0000000000000000e-01" purity="5.0000000000000000e-01" nType="0">
        <Node pos="l" depth="1" NCoef="0" IVar="11" Cut="1.5513389110565186e+00" cType="1" res="1.7921563982963562e-01" rms="4.6677806973457336e-01" purity="6.7921566963195801e-01" nType="0">
          <Node pos="l" depth="2" NCoef="0" IVar="13" Cut="1.8326239585876465e+00" cType="1" res="2.5753155350685120e-01" rms="4.2857614159584045e-01" purity="7.5753158330917358e-01" nType="0">
            <Node pos="l" depth="3" NCoef="0" IVar="1" Cut="4.1111843750000000e+04" cType="1" res="-5.1461379975080490e-02" rms="4.9734467267990112e-01" purity="4.4853863120079041e-01" nType="0">
              <Node pos="l" depth="4" NCoef="0" IVar="-1" Cut="0.0000000000000000e+00" cType="1" res="-8.8673226535320282e-02" rms="4.4817030429840088e-01" purity="2.7831691503524780e-01" nType="-99"/>
              <Node pos="r" depth="4" NCoef="0" IVar="-1" Cut="0.0000000000000000e+00" cType="1" res="1.4477685093879700e-02" rms="4.9868825078010559e-01" purity="5.3619420528411865e-01" nType="-99"/>
            </Node>
            <Node pos="r" depth="3" NCoef="0" IVar="19" Cut="8.6612539062500000e+04" cType="1" res="2.8826904296875000e-01" rms="4.0853515267372131e-01" purity="7.8826898336410522e-01" nType="0">
              <Node pos="l" depth="4" NCoef="0" IVar="-1" Cut="0.0000000000000000e+00" cType="1" res="1.2651154398918152e-01" rms="3.8725662231445312e-01" purity="8.1627887487411499e-01" nType="-99"/>
              <Node pos="r" depth="4" NCoef="0" IVar="-1" Cut="0.0000000000000000e+00" cType="1" res="-1.7704553902149200e-02" rms="4.9803707003593445e-01" purity="4.5573860406875610e-01" nType="-99"/>
            </Node>
          </Node>
          <Node pos="r" depth="2" NCoef="0" IVar="20" Cut="1.0202133593750000e+05" cType="1" res="-1.1279059201478958e-01" rms="4.8711219429969788e-01" purity="3.8720941543579102e-01" nType="0">
            <Node pos="l" depth="3" NCoef="0" IVar="7" Cut="7.1263570312500000e+04" cType="1" res="1.4299005270004272e-03" rms="4.9999794363975525e-01" purity="5.0142985582351685e-01" nType="0">
              <Node pos="l" depth="4" NCoef="0" IVar="-1" Cut="0.0000000000000000e+00" cType="1" res="5.4032176733016968e-02" rms="4.8140758275985718e-01" purity="6.3508045673370361e-01" nType="-99"/>
              <Node pos="r" depth="4" NCoef="0" IVar="-1" Cut="0.0000000000000000e+00" cType="1" res="-6.8647265434265137e-02" rms="4.6962454915046692e-01" purity="3.2838186621665955e-01" nType="-99"/>
            </Node>
            <Node pos="r" depth="3" NCoef="0" IVar="15" Cut="1.6695929765701294e+00" cType="1" res="-4.8944956064224243e-01" rms="1.0217197984457016e-01" purity="1.0550425387918949e-02" nType="0">
              <Node pos="l" depth="4" NCoef="0" IVar="-1" Cut="0.0000000000000000e+00" cType="1" res="-1.9304001331329346e-01" rms="1.3075631856918335e-01" purity="1.7399974167346954e-02" nType="-99"/>
              <Node pos="r" depth="4" NCoef="0" IVar="-1" Cut="0.0000000000000000e+00" cType="1" res="-1.9847726821899414e-01" rms="6.1582054942846298e-02" purity="3.8068415597081184e-03" nType="-99"/>
            </Node>
          </Node>
        </Node>
        <Node pos="r" depth="1" NCoef="0" IVar="20" Cut="7.3403414062500000e+04" cType="1" res="-1.3908855617046356e-01" rms="4.8026490211486816e-01" purity="3.6091145873069763e-01" nType="0">
          <Node pos="l" depth="2" NCoef="0" IVar="13" Cut="1.9209173917770386e+00" cType="1" res="-4.3528221547603607e-02" rms="4.9810168147087097e-01" purity="4.5647174119949341e-01" nType="0">
            <Node pos="l" depth="3" NCoef="0" IVar="1" Cut="5.2706539062500000e+04" cType="1" res="-2.2612284123897552e-01" rms="4.4594669342041016e-01" purity="2.7387717366218567e-01" nType="0">
              <Node pos="l" depth="4" NCoef="0" IVar="-1" Cut="0.0000000000000000e+00" cType="1" res="-1.2932333350181580e-01" rms="3.8140755891799927e-01" purity="1.7669168114662170e-01" nType="-99"/>
              <Node pos="r" depth="4" NCoef="0" IVar="-1" Cut="0.0000000000000000e+00" cType="1" res="-4.3191261589527130e-02" rms="4.8820149898529053e-01" purity="3.9202183485031128e-01" nType="-99"/>
            </Node>
            <Node pos="r" depth="3" NCoef="0" IVar="1" Cut="5.9042082031250000e+04" cType="1" res="4.2564004659652710e-02" rms="4.9818500876426697e-01" purity="5.4256397485733032e-01" nType="0">
              <Node pos="l" depth="4" NCoef="0" IVar="-1" Cut="0.0000000000000000e+00" cType="1" res="-2.4031316861510277e-02" rms="4.9637746810913086e-01" purity="4.3992173671722412e-01" nType="-99"/>
              <Node pos="r" depth="4" NCoef="0" IVar="-1" Cut="0.0000000000000000e+00" cType="1" res="6.3347615301609039e-02" rms="4.7425651550292969e-01" purity="6.5836906433105469e-01" nType="-99"/>
            </Node>
          </Node>
          <Node pos="r" depth="2" NCoef="0" IVar="2" Cut="4.2768771875000000e+05" cType="1" res="-4.4464823603630066e-01" rms="2.2866556048393250e-01" purity="5.5351752787828445e-02" nType="0">
            <Node pos="l" depth="3" NCoef="0" IVar="8" Cut="9.6757742187500000e+04" cType="1" res="-4.0203571319580078e-01" rms="2.9726636409759521e-01" purity="9.7964279353618622e-02" nType="0">
              <Node pos="l" depth="4" NCoef="0" IVar="-1" Cut="0.0000000000000000e+00" cType="1" res="-1.2614801526069641e-01" rms="3.8799709081649780e-01" purity="1.8462996184825897e-01" nType="-99"/>
              <Node pos="r" depth="4" NCoef="0" IVar="-1" Cut="0.0000000000000000e+00" cType="1" res="-1.9297327101230621e-01" rms="1.3137051463127136e-01" purity="1.7566805705428123e-02" nType="-99"/>
            </Node>
            <Node pos="r" depth="3" NCoef="0" IVar="20" Cut="1.3868345312500000e+05" cType="1" res="-4.6635091304779053e-01" rms="1.8032421171665192e-01" purity="3.3649083226919174e-02" nType="0">
              <Node pos="l" depth="4" NCoef="0" IVar="-1" Cut="0.0000000000000000e+00" cType="1" res="-1.8307507038116455e-01" rms="2.0130077004432678e-01" purity="4.2312331497669220e-02" nType="-99"/>
              <Node pos="r" depth="4" NCoef="0" IVar="-1" Cut="0.0000000000000000e+00" cType="1" res="-1.9836203753948212e-01" rms="6.3860408961772919e-02" purity="4.0949205867946148e-03" nType="-99"/>
            </Node>
          </Node>
        </Node>
      </Node>
    </BinaryTree>
    <BinaryTree type="DecisionTree" boostWeight="1.0000000000000000e+00" itree="1">
      <Node pos="s" depth="0" NCoef="0" IVar="16" Cut="1.2465226650238037e+00" cType="1" res="-8.3936662122141570e-05" rms="4.7208708524703979e-01" purity="5.0000000000000000e-01" nType="0">
        <Node pos="l" depth="1" NCoef="0" IVar="8" Cut="1.2449911718750000e+05" cType="1" res="1.4352943003177643e-01" rms="4.4682782888412476e-01" purity="6.7921566963195801e-01" nType="0">
          <Node pos="l" depth="2" NCoef="0" IVar="8" Cut="7.3171742187500000e+04" cType="1" res="1.7157809436321259e-01" rms="4.3822064995765686e-01" purity="7.1212309598922729e-01" nType="0">
            <Node pos="l" depth="3" NCoef="0" IVar="3" Cut="9.1927523437500000e+04" cType="1" res="2.3448309302330017e-01" rms="4.0488472580909729e-01" purity="7.8143680095672607e-01" nType="0">
              <Node pos="l" depth="4" NCoef="0" IVar="-1" Cut="0.0000000000000000e+00" cType="1" res="-2.6162138208746910e-02" rms="4.9362033605575562e-01" purity="4.5875722169876099e-01" nType="-99"/>
              <Node pos="r" depth="4" NCoef="0" IVar="-1" Cut="0.0000000000000000e+00" cType="1" res="1.0912279784679413e-01" rms="3.7821227312088013e-01" purity="8.1892901659011841e-01" nType="-99"/>
            </Node>
            <Node pos="r" depth="3" NCoef="0" IVar="7" Cut="7.4794992187500000e+04" cType="1" res="-2.4020579457283020e-01" rms="4.2491331696510315e-01" purity="2.5838658213615417e-01" nType="0">
              <Node pos="l" depth="4" NCoef="0" IVar="-1" Cut="0.0000000000000000e+00" cType="1" res="1.9397921860218048e-02" rms="4.8300442099571228e-01" purity="5.7201421260833740e-01" nType="-99"/>
              <Node pos="r" depth="4" NCoef="0" IVar="-1" Cut="0.0000000000000000e+00" cType="1" res="-1.2976145744323730e-01" rms="3.6947399377822876e-01" purity="1.7145185172557831e-01" nType="-99"/>
            </Node>
          </Node>
          <Node pos="r" depth="2" NCoef="0" IVar="11" Cut="2.1100888252258301e+00" cType="1" res="-4.1847473382949829e-01" rms="1.4380092918872833e-01" purity="1.9857538864016533e-02" nType="0">
            <Node pos="l" depth="3" NCoef="0" IVar="-1" Cut="0.0000000000000000e+00" cType="1" res="-1.8529881536960602e-01" rms="1.0520691424608231e-01" purity="8.0687608569860458e-03" nType="-99"/>
            <Node pos="r" depth="3" NCoef="0" IVar="-1" Cut="0.0000000000000000e+00" cType="1" res="-1.5917862951755524e-01" rms="1.6659024357795715e-01" purity="3.1284518539905548e-02" nType="-99"/>
          </Node>
        </Node>
        <Node pos="r" depth="1" NCoef="0" IVar="20" Cut="7.3403414062500000e+04" cType="1" res="-1.1154170334339142e-01" rms="4.6092367172241211e-01" purity="3.6091145873069763e-01" nType="0">
          <Node pos="l" depth="2" NCoef="0" IVar="13" Cut="2.1950891017913818e+00" cType="1" res="-3.4874800592660904e-02" rms="4.8810490965843201e-01" purity="4.5647174119949341e-01" nType="0">
            <Node pos="l" depth="3" NCoef="0" IVar="7" Cut="5.6969605468750000e+04" cType="1" res="-1.5689830482006073e-01" rms="4.5505428314208984e-01" purity="3.0948022007942200e-01" nType="0">
              <Node pos="l" depth="4" NCoef="0" IVar="-1" Cut="0.0000000000000000e+00" cType="1" res="-2.9885105788707733e-02" rms="4.7974285483360291e-01" purity="3.9229881763458252e-01" nType="-99"/>
              <Node pos="r" depth="4" NCoef="0" IVar="-1" Cut="0.0000000000000000e+00" cType="1" res="-1.0908301174640656e-01" rms="3.9131253957748413e-01" purity="1.9589786231517792e-01" nType="-99"/>
            </Node>
            <Node pos="r" depth="3" NCoef="0" IVar="0" Cut="6.3333334922790527e+00" cType="1" res="4.9443084746599197e-02" rms="4.9232906103134155e-01" purity="5.5804252624511719e-01" nType="0">
              <Node pos="l" depth="4" NCoef="0" IVar="-1" Cut="0.0000000000000000e+00" cType="1" res="4.8784498125314713e-02" rms="4.7850614786148071e-01" purity="6.3110917806625366e-01" nType="-99"/>
              <Node pos="r" depth="4" NCoef="0" IVar="-1" Cut="0.0000000000000000e+00" cType="1" res="-2.5191191583871841e-02" rms="4.9246910214424133e-01" purity="4.4447252154350281e-01" nType="-99"/>
            </Node>
          </Node>
          <Node pos="r" depth="2" NCoef="0" IVar="2" Cut="4.2768771875000000e+05" cType="1" res="-3.5668855905532837e-01" rms="2.2599884867668152e-01" purity="5.5351752787828445e-02" nType="0">
            <Node pos="l" depth="3" NCoef="0" IVar="8" Cut="9.6757742187500000e+04" cType="1" res="-3.2240074872970581e-01" rms="2.9311373829841614e-01" purity="9.7964279353618622e-02" nType="0">
              <Node pos="l" depth="4" NCoef="0" IVar="-1" Cut="0.0000000000000000e+00" cType="1" res="-1.0266800224781036e-01" rms="3.8799712061882019e-01" purity="1.8462996184825897e-01" nType="-99"/>
              <Node pos="r" depth="4" NCoef="0" IVar="-1" Cut="0.0000000000000000e+00" cType="1" res="-1.6068902611732483e-01" rms="1.3137051463127136e-01" purity="1.7566805705428123e-02" nType="-99"/>
            </Node>
            <Node pos="r" depth="3" NCoef="0" IVar="4" Cut="5.7851468750000000e+05" cType="1" res="-3.7415143847465515e-01" rms="1.8007656931877136e-01" purity="3.3649083226919174e-02" nType="0">
              <Node pos="l" depth="4" NCoef="0" IVar="-1" Cut="0.0000000000000000e+00" cType="1" res="-1.5016178786754608e-01" rms="2.0773760974407196e-01" purity="4.5322556048631668e-02" nType="-99"/>
              <Node pos="r" depth="4" NCoef="0" IVar="-1" Cut="0.0000000000000000e+00" cType="1" res="-1.6342483460903168e-01" rms="1.1271463334560394e-01" purity="1.2893469072878361e-02" nType="-99"/>
            </Node>
          </Node>
        </Node>
      </Node>
    </BinaryTree>
    <BinaryTree type="DecisionTree" boostWeight="1.0000000000000000e+00" itree="2">
      <Node pos="s" depth="0" NCoef="0" IVar="16" Cut="1.4939174652099609e+00" cType="1" res="-2.4683319497853518e-04" rms="4.4998872280120850e-01" purity="5.0000000000000000e-01" nType="0">
        <Node pos="l" depth="1" NCoef="0" IVar="11" Cut="1.3607265949249268e+00" cType="1" res="9.6168279647827148e-02" rms="4.3537157773971558e-01" purity="6.4082282781600952e-01" nType="0">
          <Node pos="l" depth="2" NCoef="0" IVar="2" Cut="6.9643325000000000e+05" cType="1" res="1.6749253869056702e-01" rms="4.1173231601715088e-01" purity="7.4039369821548462e-01" nType="0">
            <Node pos="l" depth="3" NCoef="0" IVar="1" Cut="4.0998117187500000e+04" cType="1" res="1.9651564955711365e-01" rms="3.9704230427742004e-01" purity="7.7480316162109375e-01" nType="0">
              <Node pos="l" depth="4" NCoef="0" IVar="-1" Cut="0.0000000000000000e+00" cType="1" res="3.2205458730459213e-02" rms="4.5419588685035706e-01" purity="6.4215666055679321e-01" nType="-99"/>
              <Node pos="r" depth="4" NCoef="0" IVar="-1" Cut="0.0000000000000000e+00" cType="1" res="1.0294968634843826e-01" rms="3.5827451944351196e-01" purity="8.3123856782913208e-01" nType="-99"/>
            </Node>
            <Node pos="r" depth="3" NCoef="0" IVar="19" Cut="9.9862796875000000e+04" cType="1" res="-8.9075140655040741e-02" rms="4.4864109158515930e-01" purity="4.3620961904525757e-01" nType="0">
              <Node pos="l" depth="4" NCoef="0" IVar="-1" Cut="0.0000000000000000e+00" cType="1" res="-3.4500745823606849e-04" rms="4.5516425371170044e-01" purity="5.5371844768524170e-01" nType="-99"/>
              <Node pos="r" depth="4" NCoef="0" IVar="-1" Cut="0.0000000000000000e+00" cType="1" res="-1.0535704344511032e-01" rms="3.8422921299934387e-01" purity="2.1419751644134521e-01" nType="-99"/>
            </Node>
          </Node>
          <Node pos="r" depth="2" NCoef="0" IVar="20" Cut="9.8837562500000000e+04" cType="1" res="-7.0379517972469330e-02" rms="4.4349870085716248e-01" purity="4.0831702947616577e-01" nType="0">
            <Node pos="l" depth="3" NCoef="0" IVar="7" Cut="3.0621802734375000e+04" cType="1" res="2.9675024561583996e-03" rms="4.7246971726417542e-01" purity="5.1867687702178955e-01" nType="0">
              <Node pos="l" depth="4" NCoef="0" IVar="-1" Cut="0.0000000000000000e+00" cType="1" res="1.0762271285057068e-01" rms="3.7412965297698975e-01" purity="8.1808984279632568e-01" nType="-99"/>
              <Node pos="r" depth="4" NCoef="0" IVar="-1" Cut="0.0000000000000000e+00" cType="1" res="-2.1781215444207191e-02" rms="4.7276309132575989e-01" purity="4.5404830574989319e-01" nType="-99"/>
            </Node>
            <Node pos="r" depth="3" NCoef="0" IVar="11" Cut="1.8393918275833130e+00" cType="1" res="-3.3358997106552124e-01" rms="1.1347964406013489e-01" purity="1.2283910997211933e-02" nType="0">
              <Node pos="l" depth="4" NCoef="0" IVar="-1" Cut="0.0000000000000000e+00" cType="1" res="-1.5298651158809662e-01" rms="1.4439126849174500e-01" purity="1.9611509516835213e-02" nType="-99"/>
              <Node pos="r" depth="4" NCoef="0" IVar="-1" Cut="0.0000000000000000e+00" cType="1" res="-1.4662265777587891e-01" rms="9.6527747809886932e-02" purity="9.1693503782153130e-03" nType="-99"/>
            </Node>
          </Node>
        </Node>
        <Node pos="r" depth="1" NCoef="0" IVar="20" Cut="6.9249031250000000e+04" cType="1" res="-1.1322473734617233e-01" rms="4.4045168161392212e-01" purity="3.3498573303222656e-01" nType="0">
          <Node pos="l" depth="2" NCoef="0" IVar="1" Cut="5.9040796875000000e+04" cType="1" res="-4.3915029615163803e-02" rms="4.7922313213348389e-01" purity="4.3898186087608337e-01" nType="0">
            <Node pos="l" depth="3" NCoef="0" IVar="1" Cut="3.6623894531250000e+04" cType="1" res="-1.3027617335319519e-01" rms="4.5876717567443848e-01" purity="3.3035525679588318e-01" nType="0">
              <Node pos="l" depth="4" NCoef="0" IVar="-1" Cut="0.0000000000000000e+00" cType="1" res="-7.8859165310859680e-02" rms="4.2935469746589661e-01" purity="2.6262807846069336e-01" nType="-99"/>
              <Node pos="r" depth="4" NCoef="0" IVar="-1" Cut="0.0000000000000000e+00" cType="1" res="-1.4730316586792469e-02" rms="4.8394691944122314e-01" purity="4.3024924397468567e-01" nType="-99"/>
            </Node>
            <Node pos="r" depth="3" NCoef="0" IVar="5" Cut="1.6403592187500000e+05" cType="1" res="6.3864186406135559e-02" rms="4.8236563801765442e-01" purity="5.7454854249954224e-01" nType="0">
              <Node pos="l" depth="4" NCoef="0" IVar="-1" Cut="0.0000000000000000e+00" cType="1" res="5.6908994913101196e-02" rms="4.6570143103599548e-01" purity="6.5957754850387573e-01" nType="-99"/>
              <Node pos="r" depth="4" NCoef="0" IVar="-1" Cut="0.0000000000000000e+00" cType="1" res="-1.8711619079113007e-02" rms="4.8432952165603638e-01" purity="4.5316794514656067e-01" nType="-99"/>
            </Node>
          </Node>
          <Node pos="r" depth="2" NCoef="0" IVar="0" Cut="5.3333334922790527e+00" cType="1" res="-2.9293677210807800e-01" rms="2.3830796778202057e-01" purity="6.5335921943187714e-02" nType="0">
            <Node pos="l" depth="3" NCoef="0" IVar="0" Cut="2.1428570747375488e+00" cType="1" res="-2.6834926009178162e-01" rms="2.7460515499114990e-01" purity="9.1515906155109406e-02" nType="0">
              <Node pos="l" depth="4" NCoef="0" IVar="-1" Cut="0.0000000000000000e+00" cType="1" res="-1.3404452800750732e-01" rms="2.1468321979045868e-01" purity="5.3303938359022141e-02" nType="-99"/>
              <Node pos="r" depth="4" NCoef="0" IVar="-1" Cut="0.0000000000000000e+00" cType="1" res="-8.2974515855312347e-02" rms="3.6144778132438660e-01" purity="1.7528855800628662e-01" nType="-99"/>
            </Node>
            <Node pos="r" depth="3" NCoef="0" IVar="2" Cut="3.8977534375000000e+05" cType="1" res="-3.1025275588035583e-01" rms="2.0725265145301819e-01" purity="4.6898402273654938e-02" nType="0">
              <Node pos="l" depth="4" NCoef="0" IVar="-1" Cut="0.0000000000000000e+00" cType="1" res="-1.2333948910236359e-01" rms="2.8023716807365417e-01" purity="9.0040951967239380e-02" nType="-99"/>
              <Node pos="r" depth="4" NCoef="0" IVar="-1" Cut="0.0000000000000000e+00" cType="1" res="-1.4158953726291656e-01" rms="1.6970571875572205e-01" purity="3.0101863667368889e-02" nType="-99"/>
            </Node>
          </Node>
        </Node>
      </Node>
    </BinaryTree>
    <BinaryTree type="DecisionTree" boostWeight="1.0000000000000000e+00" itree="3">
      <Node pos="s" depth="0" NCoef="0" IVar="13" Cut="2.1940269470214844e+00" cType="1" res="-3.9694810402579606e-04" rms="4.3455332517623901e-01" purity="5.0000000000000000e-01" nType="0">
        <Node pos="l" depth="1" NCoef="0" IVar="20" Cut="8.7832734375000000e+04" cType="1" res="-1.2739124894142151e-01" rms="4.1334074735641479e-01" purity="2.9838448762893677e-01" nType="0">
          <Node pos="l" depth="2" NCoef="0" IVar="1" Cut="5.2683695312500000e+04" cType="1" res="-9.8529860377311707e-02" rms="4.4339036941528320e-01" purity="3.5423964262008667e-01" nType="0">
            <Node pos="l" depth="3" NCoef="0" IVar="7" Cut="2.1716019531250000e+04" cType="1" res="-1.8317762017250061e-01" rms="4.0281054377555847e-01" purity="2.3359039425849915e-01" nType="0">
              <Node pos="l" depth="4" NCoef="0" IVar="-1" Cut="0.0000000000000000e+00" cType="1" res="-2.0974630024284124e-03" rms="4.7458827495574951e-01" purity="4.4824486970901489e-01" nType="-99"/>
              <Node pos="r" depth="4" NCoef="0" IVar="-1" Cut="0.0000000000000000e+00" cType="1" res="-9.1512411832809448e-02" rms="3.7973394989967346e-01" purity="1.9498598575592041e-01" nType="-99"/>
            </Node>
            <Node pos="r" depth="3" NCoef="0" IVar="7" Cut="6.8569078125000000e+04" cType="1" res="-1.0295763611793518e-02" rms="4.6597695350646973e-01" purity="4.8000055551528931e-01" nType="0">
              <Node pos="l" depth="4" NCoef="0" IVar="-1" Cut="0.0000000000000000e+00" cType="1" res="2.8088103979825974e-02" rms="4.7379264235496521e-01" purity="5.8597826957702637e-01" nType="-99"/>
              <Node pos="r" depth="4" NCoef="0" IVar="-1" Cut="0.0000000000000000e+00" cType="1" res="-6.5779872238636017e-02" rms="4.1398778557777405e-01" purity="2.8622284531593323e-01" nType="-99"/>
            </Node>
          </Node>
          <Node pos="r" depth="2" NCoef="0" IVar="11" Cut="1.5750502347946167e+00" cType="1" res="-2.7467551827430725e-01" rms="1.1631429940462112e-01" purity="1.3346741907298565e-02" nType="0">
            <Node pos="l" depth="3" NCoef="0" IVar="-1" Cut="0.0000000000000000e+00" cType="1" res="-1.4141821861267090e-01" rms="1.3384702801704407e-01" purity="1.5396627597510815e-02" nType="-99"/>
            <Node pos="r" depth="3" NCoef="0" IVar="10" Cut="9.4662156250000000e+04" cType="1" res="-2.6847344636917114e-01" rms="1.1017268151044846e-01" purity="1.2779589742422104e-02" nType="0">
              <Node pos="l" depth="4" NCoef="0" IVar="-1" Cut="0.0000000000000000e+00" cType="1" res="-1.3007557392120361e-01" rms="1.3912515342235565e-01" purity="2.0610494539141655e-02" nType="-99"/>
              <Node pos="r" depth="4" NCoef="0" IVar="-1" Cut="0.0000000000000000e+00" cType="1" res="-1.3815023005008698e-01" rms="3.6523994058370590e-02" purity="1.1747424723580480e-03" nType="-99"/>
            </Node>
          </Node>
        </Node>
        <Node pos="r" depth="1" NCoef="0" IVar="11" Cut="1.1374028921127319e+00" cType="1" res="6.4880527555942535e-02" rms="4.3073275685310364e-01" purity="6.0363417863845825e-01" nType="0">
          <Node pos="l" depth="2" NCoef="0" IVar="19" Cut="9.7094625000000000e+04" cType="1" res="1.3868868350982666e-01" rms="4.1078713536262512e-01" purity="7.1952480077743530e-01" nType="0">
            <Node pos="l" depth="3" NCoef="0" IVar="8" Cut="7.4835742187500000e+04" cType="1" res="1.8377257883548737e-01" rms="3.8168266415596008e-01" purity="7.8999334573745728e-01" nType="0">
              <Node pos="l" depth="4" NCoef="0" IVar="-1" Cut="0.0000000000000000e+00" cType="1" res="8.5669741034507751e-02" rms="3.7173366546630859e-01" purity="8.1202328205108643e-01" nType="-99"/>
              <Node pos="r" depth="4" NCoef="0" IVar="-1" Cut="0.0000000000000000e+00" cType="1" res="-8.7167955935001373e-02" rms="4.1209861636161804e-01" purity="2.5329488515853882e-01" nType="-99"/>
            </Node>
            <Node pos="r" depth="3" NCoef="0" IVar="0" Cut="6.3333334922790527e+00" cType="1" res="-2.3755131289362907e-02" rms="4.6705350279808044e-01" purity="4.6561649441719055e-01" nType="0">
              <Node pos="l" depth="4" NCoef="0" IVar="-1" Cut="0.0000000000000000e+00" cType="1" res="2.0333403721451759e-02" rms="4.6972653269767761e-01" purity="5.6125253438949585e-01" nType="-99"/>
              <Node pos="r" depth="4" NCoef="0" IVar="-1" Cut="0.0000000000000000e+00" cType="1" res="-5.1177084445953369e-02" rms="4.4452282786369324e-01" purity="3.3583414554595947e-01" nType="-99"/>
            </Node>
          </Node>
          <Node pos="r" depth="2" NCoef="0" IVar="8" Cut="1.3306314062500000e+05" cType="1" res="-4.1834235191345215e-02" rms="4.3650215864181519e-01" purity="4.3607494235038757e-01" nType="0">
            <Node pos="l" depth="3" NCoef="0" IVar="7" Cut="5.0259101562500000e+04" cType="1" res="-1.8883969634771347e-02" rms="4.4913989305496216e-01" purity="4.7692158818244934e-01" nType="0">
              <Node pos="l" depth="4" NCoef="0" IVar="-1" Cut="0.0000000000000000e+00" cType="1" res="6.9246836006641388e-02" rms="4.2281270027160645e-01" purity="7.2669422626495361e-01" nType="-99"/>
              <Node pos="r" depth="4" NCoef="0" IVar="-1" Cut="0.0000000000000000e+00" cType="1" res="-4.2687859386205673e-02" rms="4.3610972166061401e-01" purity="3.6738458275794983e-01" nType="-99"/>
            </Node>
            <Node pos="r" depth="3" NCoef="0" IVar="11" Cut="1.9884655475616455e+00" cType="1" res="-2.7812474966049194e-01" rms="1.1850184202194214e-01" purity="1.5527917072176933e-02" nType="0">
              <Node pos="l" depth="4" NCoef="0" IVar="-1" Cut="0.0000000000000000e+00" cType="1" res="-1.4425237476825714e-01" rms="7.7739931643009186e-02" purity="2.0074108615517616e-03" nType="-99"/>
              <Node pos="r" depth="4" NCoef="0" IVar="-1" Cut="0.0000000000000000e+00" cType="1" res="-1.3033087551593781e-01" rms="1.4014968276023865e-01" purity="2.5716725736856461e-02" nType="-99"/>
            </Node>
          </Node>
        </Node>
      </Node>
    </BinaryTree>
    <BinaryTree type="DecisionTree" boostWeight="1.0000000000000000e+00" itree="4">
      <Node pos="s" depth="0" NCoef="0" IVar="16" Cut="9.9912786483764648e-01" cType="1" res="-4.3215433834120631e-04" rms="4.2239341139793396e-01" purity="5.0000000000000000e-01" nType="0">
        <Node pos="l" depth="1" NCoef="0" IVar="19" Cut="2.0246425781250000e+04" cType="1" res="1.1502947658300400e-01" rms="3.8512557744979858e-01" purity="7.2007471323013306e-01" nType="0">
          <Node pos="l" depth="2" NCoef="0" IVar="1" Cut="4.6872625000000000e+04" cType="1" res="-6.3999921083450317e-02" rms="4.3941819667816162e-01" purity="4.9905970692634583e-01" nType="0">
            <Node pos="l" depth="3" NCoef="0" IVar="13" Cut="2.3430864810943604e+00" cType="1" res="-1.6556207835674286e-01" rms="4.3111288547515869e-01" purity="3.6306360363960266e-01" nType="0">
              <Node pos="l" depth="4" NCoef="0" IVar="-1" Cut="0.0000000000000000e+00" cType="1" res="-1.0645345598459244e-01" rms="3.7513306736946106e-01" purity="2.0148743689060211e-01" nType="-99"/>
              <Node pos="r" depth="4" NCoef="0" IVar="-1" Cut="0.0000000000000000e+00" cType="1" res="-4.4682458043098450e-02" rms="4.5943379402160645e-01" purity="4.8712241649627686e-01" nType="-99"/>
            </Node>
            <Node pos="r" depth="3" NCoef="0" IVar="8" Cut="5.5474066406250000e+04" cType="1" res="2.6666779071092606e-02" rms="4.2674818634986877e-01" purity="6.2046635150909424e-01" nType="0">
              <Node pos="l" depth="4" NCoef="0" IVar="-1" Cut="0.0000000000000000e+00" cType="1" res="5.0526723265647888e-02" rms="4.0981602668762207e-01" purity="7.6402121782302856e-01" nType="-99"/>
              <Node pos="r" depth="4" NCoef="0" IVar="-1" Cut="0.0000000000000000e+00" cType="1" res="-6.4007095992565155e-02" rms="4.0797439217567444e-01" purity="3.3541595935821533e-01" nType="-99"/>
            </Node>
          </Node>
          <Node pos="r" depth="2" NCoef="0" IVar="8" Cut="1.2495989062500000e+05" cType="1" res="1.5625011920928955e-01" rms="3.5907599329948425e-01" purity="7.7096241712570190e-01" nType="0">
            <Node pos="l" depth="3" NCoef="0" IVar="8" Cut="7.9329265625000000e+04" cType="1" res="1.7271804809570312e-01" rms="3.5562300682067871e-01" purity="8.0188536643981934e-01" nType="0">
              <Node pos="l" depth="4" NCoef="0" IVar="-1" Cut="0.0000000000000000e+00" cType="1" res="8.9287236332893372e-02" rms="3.3940169215202332e-01" purity="8.4436106681823730e-01" nType="-99"/>
              <Node pos="r" depth="4" NCoef="0" IVar="-1" Cut="0.0000000000000000e+00" cType="1" res="-8.2855343818664551e-02" rms="3.7264758348464966e-01" purity="2.2351433336734772e-01" nType="-99"/>
            </Node>
            <Node pos="r" depth="3" NCoef="0" IVar="-1" Cut="0.0000000000000000e+00" cType="1" res="-1.2938712537288666e-01" rms="1.4931254088878632e-01" purity="1.9862623885273933e-02" nType="-99"/>
          </Node>
        </Node>
        <Node pos="r" depth="1" NCoef="0" IVar="20" Cut="8.7570343750000000e+04" cType="1" res="-5.5529996752738953e-02" rms="4.2822855710983276e-01" purity="3.9498117566108704e-01" nType="0">
          <Node pos="l" depth="2" NCoef="0" IVar="0" Cut="5.3333334922790527e+00" cType="1" res="-2.7091510593891144e-02" rms="4.5214948058128357e-01" purity="4.5597752928733826e-01" nType="0">
            <Node pos="l" depth="3" NCoef="0" IVar="0" Cut="3.0952382087707520e+00" cType="1" res="4.8551451414823532e-02" rms="4.5170697569847107e-01" purity="5.5700701475143433e-01" nType="0">
              <Node pos="l" depth="4" NCoef="0" IVar="-1" Cut="0.0000000000000000e+00" cType="1" res="-2.0984470844268799e-02" rms="4.5460513234138489e-01" purity="4.3490138649940491e-01" nType="-99"/>
              <Node pos="r" depth="4" NCoef="0" IVar="-1" Cut="0.0000000000000000e+00" cType="1" res="1.2340665608644485e-01" rms="3.3703404664993286e-01" purity="8.6198860406875610e-01" nType="-99"/>
            </Node>
            <Node pos="r" depth="3" NCoef="0" IVar="8" Cut="6.3428230468750000e+04" cType="1" res="-9.4129189848899841e-02" rms="4.4184681773185730e-01" purity="3.6644136905670166e-01" nType="0">
              <Node pos="l" depth="4" NCoef="0" IVar="-1" Cut="0.0000000000000000e+00" cType="1" res="-2.2773837670683861e-02" rms="4.6340137720108032e-01" purity="4.3753305077552795e-01" nType="-99"/>
              <Node pos="r" depth="4" NCoef="0" IVar="-1" Cut="0.0000000000000000e+00" cType="1" res="-9.3776099383831024e-02" rms="3.4799608588218689e-01" purity="1.6052648425102234e-01" nType="-99"/>
            </Node>
          </Node>
          <Node pos="r" depth="2" NCoef="0" IVar="16" Cut="1.1986306905746460e+00" cType="1" res="-2.3112310469150543e-01" rms="1.3236968219280243e-01" purity="1.8360061571002007e-02" nType="0">
            <Node pos="l" depth="3" NCoef="0" IVar="-1" Cut="0.0000000000000000e+00" cType="1" res="-1.3691830635070801e-01" rms="1.5575841069221497e-01" purity="2.4256439879536629e-02" nType="-99"/>
            <Node pos="r" depth="3" NCoef="0" IVar="10" Cut="1.1646107812500000e+05" cType="1" res="-2.2604709863662720e-01" rms="1.2832152843475342e-01" purity="1.7645182088017464e-02" nType="0">
              <Node pos="l" depth="4" NCoef="0" IVar="-1" Cut="0.0000000000000000e+00" cType="1" res="-1.1816608160734177e-01" rms="1.4898818731307983e-01" purity="2.4695981293916702e-02" nType="-99"/>
              <Node pos="r" depth="4" NCoef="0" IVar="-1" Cut="0.0000000000000000e+00" cType="1" res="-1.2682341039180756e-01" rms="1.1113133281469345e-01" purity="1.2808620929718018e-02" nType="-99"/>
            </Node>
          </Node>
        </Node>
      </Node>
    </BinaryTree>
    <BinaryTree type="DecisionTree" boostWeight="1.0000000000000000e+00" itree="5">
      <Node pos="s" depth="0" NCoef="0" IVar="13" Cut="1.6455202102661133e+00" cType="1" res="-3.9399947854690254e-04" rms="4.1052946448326111e-01" purity="5.0000000000000000e-01" nType="0">
        <Node pos="l" depth="1" NCoef="0" IVar="2" Cut="3.3400731250000000e+05" cType="1" res="-1.4482155442237854e-01" rms="3.7051793932914734e-01" purity="2.1933060884475708e-01" nType="0">
          <Node pos="l" depth="2" NCoef="0" IVar="1" Cut="3.8288269531250000e+04" cType="1" res="-9.3464255332946777e-02" rms="4.1487458348274231e-01" purity="3.0503562092781067e-01" nType="0">
            <Node pos="l" depth="3" NCoef="0" IVar="1" Cut="2.3753839843750000e+04" cType="1" res="-2.0188395678997040e-01" rms="3.2977056503295898e-01" purity="1.3479354977607727e-01" nType="0">
              <Node pos="l" depth="4" NCoef="0" IVar="-1" Cut="0.0000000000000000e+00" cType="1" res="-1.1157108098268509e-01" rms="2.7975469827651978e-01" purity="9.1464072465896606e-02" nType="-99"/>
              <Node pos="r" depth="4" NCoef="0" IVar="-1" Cut="0.0000000000000000e+00" cType="1" res="-6.7360088229179382e-02" rms="3.8038131594657898e-01" purity="1.9327387213706970e-01" nType="-99"/>
            </Node>
            <Node pos="r" depth="3" NCoef="0" IVar="7" Cut="5.9324984375000000e+04" cType="1" res="-3.5634923260658979e-03" rms="4.5479619503021240e-01" purity="4.4619894027709961e-01" nType="0">
              <Node pos="l" depth="4" NCoef="0" IVar="-1" Cut="0.0000000000000000e+00" cType="1" res="2.3556526750326157e-02" rms="4.7446244955062866e-01" purity="5.5721926689147949e-01" nType="-99"/>
              <Node pos="r" depth="4" NCoef="0" IVar="-1" Cut="0.0000000000000000e+00" cType="1" res="-5.4204326122999191e-02" rms="3.9101988077163696e-01" purity="2.3864760994911194e-01" nType="-99"/>
            </Node>
          </Node>
          <Node pos="r" depth="2" NCoef="0" IVar="4" Cut="3.1981937500000000e+05" cType="1" res="-1.8699538707733154e-01" rms="3.2362180948257446e-01" purity="1.4895100891590118e-01" nType="0">
            <Node pos="l" depth="3" NCoef="0" IVar="1" Cut="3.7049898437500000e+04" cType="1" res="-1.2869450449943542e-01" rms="3.7129330635070801e-01" purity="2.1953687071800232e-01" nType="0">
              <Node pos="l" depth="4" NCoef="0" IVar="-1" Cut="0.0000000000000000e+00" cType="1" res="-9.4609767198562622e-02" rms="3.0116721987724304e-01" purity="1.0847513377666473e-01" nType="-99"/>
              <Node pos="r" depth="4" NCoef="0" IVar="-1" Cut="0.0000000000000000e+00" cType="1" res="-3.6833666265010834e-02" rms="4.0930908918380737e-01" purity="3.0212467908859253e-01" nType="-99"/>
            </Node>
            <Node pos="r" depth="3" NCoef="0" IVar="0" Cut="6.3333334922790527e+00" cType="1" res="-2.0489065349102020e-01" rms="3.0528527498245239e-01" purity="1.2728488445281982e-01" nType="0">
              <Node pos="l" depth="4" NCoef="0" IVar="-1" Cut="0.0000000000000000e+00" cType="1" res="-8.7639153003692627e-02" rms="3.3020335435867310e-01" purity="1.5771915018558502e-01" nType="-99"/>
              <Node pos="r" depth="4" NCoef="0" IVar="-1" Cut="0.0000000000000000e+00" cType="1" res="-1.1509068310260773e-01" rms="2.6706650853157043e-01" purity="8.8315844535827637e-02" nType="-99"/>
            </Node>
          </Node>
        </Node>
        <Node pos="r" depth="1" NCoef="0" IVar="11" Cut="9.1407924890518188e-01" cType="1" res="3.3512402325868607e-02" rms="4.1209754347801208e-01" purity="5.6589108705520630e-01" nType="0">
          <Node pos="l" depth="2" NCoef="0" IVar="8" Cut="6.4235589843750000e+04" cType="1" res="1.0441708564758301e-01" rms="3.9641800522804260e-01" purity="7.1414083242416382e-01" nType="0">
            <Node pos="l" depth="3" NCoef="0" IVar="20" Cut="1.8910169921875000e+04" cType="1" res="1.2572267651557922e-01" rms="3.9194595813751221e-01" purity="7.5108903646469116e-01" nType="0">
              <Node pos="l" depth="4" NCoef="0" IVar="-1" Cut="0.0000000000000000e+00" cType="1" res="4.5203792979009449e-04" rms="4.4218283891677856e-01" purity="5.9691733121871948e-01" nType="-99"/>
              <Node pos="r" depth="4" NCoef="0" IVar="-1" Cut="0.0000000000000000e+00" cType="1" res="7.1768648922443390e-02" rms="3.7074530124664307e-01" purity="7.9159843921661377e-01" nType="-99"/>
            </Node>
            <Node pos="r" depth="3" NCoef="0" IVar="2" Cut="6.6846031250000000e+05" cType="1" res="-1.6060508787631989e-01" rms="3.5372197628021240e-01" purity="2.5453817844390869e-01" nType="0">
              <Node pos="l" depth="4" NCoef="0" IVar="-1" Cut="0.0000000000000000e+00" cType="1" res="-2.7542343363165855e-02" rms="4.2780190706253052e-01" purity="4.5632541179656982e-01" nType="-99"/>
              <Node pos="r" depth="4" NCoef="0" IVar="-1" Cut="0.0000000000000000e+00" cType="1" res="-1.1286637932062149e-01" rms="2.6799049973487854e-01" purity="1.1116413027048111e-01" nType="-99"/>
            </Node>
          </Node>
          <Node pos="r" depth="2" NCoef="0" IVar="16" Cut="1.0166679620742798e+00" cType="1" res="-2.2731207311153412e-02" rms="4.1560673713684082e-01" purity="4.4829523563385010e-01" nType="0">
            <Node pos="l" depth="3" NCoef="0" IVar="19" Cut="2.0246425781250000e+04" cType="1" res="5.6829288601875305e-02" rms="4.0283152461051941e-01" purity="6.3710206747055054e-01" nType="0">
              <Node pos="l" depth="4" NCoef="0" IVar="-1" Cut="0.0000000000000000e+00" cType="1" res="-3.4569986164569855e-02" rms="4.3655592203140259e-01" purity="4.4199904799461365e-01" nType="-99"/>
              <Node pos="r" depth="4" NCoef="0" IVar="-1" Cut="0.0000000000000000e+00" cType="1" res="4.2668838053941727e-02" rms="3.8586419820785522e-01" purity="6.8795990943908691e-01" nType="-99"/>
            </Node>
            <Node pos="r" depth="3" NCoef="0" IVar="8" Cut="8.0294414062500000e+04" cType="1" res="-5.8523792773485184e-02" rms="4.1629794239997864e-01" purity="3.6335501074790955e-01" nType="0">
              <Node pos="l" depth="4" NCoef="0" IVar="-1" Cut="0.0000000000000000e+00" cType="1" res="-5.9355674311518669e-03" rms="4.5955470204353333e-01" purity="4.7070437669754028e-01" nType="-99"/>
              <Node pos="r" depth="4" NCoef="0" IVar="-1" Cut="0.0000000000000000e+00" cType="1" res="-1.0408500581979752e-01" rms="2.1359938383102417e-01" purity="6.1789721250534058e-02" nType="-99"/>
            </Node>
          </Node>
        </Node>
      </Node>
    </BinaryTree>
    <BinaryTree type="DecisionTree" boostWeight="1.0000000000000000e+00" itree="6">
      <Node pos="s" depth="0" NCoef="0" IVar="13" Cut="1.9197735786437988e+00" cType="1" res="-4.9250823212787509e-04" rms="4.0321934223175049e-01" purity="5.0000000000000000e-01" nType="0">
        <Node pos="l" depth="1" NCoef="0" IVar="6" Cut="2.1104887500000000e+05" cType="1" res="-9.7891964018344879e-02" rms="3.7912777066230774e-01" purity="2.5426813960075378e-01" nType="0">
          <Node pos="l" depth="2" NCoef="0" IVar="1" Cut="5.2683695312500000e+04" cType="1" res="-7.2924949228763580e-02" rms="4.0909326076507568e-01" purity="3.0691853165626526e-01" nType="0">
            <Node pos="l" depth="3" NCoef="0" IVar="1" Cut="2.5158474609375000e+04" cType="1" res="-1.3151776790618896e-01" rms="3.6456236243247986e-01" purity="1.8939451873302460e-01" nType="0">
              <Node pos="l" depth="4" NCoef="0" IVar="-1" Cut="0.0000000000000000e+00" cType="1" res="-9.2387683689594269e-02" rms="3.0011972784996033e-01" purity="1.1234504729509354e-01" nType="-99"/>
              <Node pos="r" depth="4" NCoef="0" IVar="-1" Cut="0.0000000000000000e+00" cType="1" res="-4.2196020483970642e-02" rms="4.0133920311927795e-01" purity="2.4743741750717163e-01" nType="-99"/>
            </Node>
            <Node pos="r" depth="3" NCoef="0" IVar="20" Cut="5.3986000000000000e+04" cType="1" res="-1.3313110684975982e-03" rms="4.4736182689666748e-01" purity="4.5051929354667664e-01" nType="0">
              <Node pos="l" depth="4" NCoef="0" IVar="-1" Cut="0.0000000000000000e+00" cType="1" res="1.9563093781471252e-02" rms="4.7243890166282654e-01" purity="5.5370837450027466e-01" nType="-99"/>
              <Node pos="r" depth="4" NCoef="0" IVar="-1" Cut="0.0000000000000000e+00" cType="1" res="-4.8923134803771973e-02" rms="3.7291380763053894e-01" purity="2.4191185832023621e-01" nType="-99"/>
            </Node>
          </Node>
          <Node pos="r" depth="2" NCoef="0" IVar="12" Cut="1.6484069824218750e+00" cType="1" res="-1.7385952174663544e-01" rms="2.5338283181190491e-01" purity="9.4067826867103577e-02" nType="0">
            <Node pos="l" depth="3" NCoef="0" IVar="9" Cut="8.9215898437500000e+04" cType="1" res="-2.2697941958904266e-01" rms="2.6434358954429626e-01" purity="8.5432194173336029e-02" nType="0">
              <Node pos="l" depth="4" NCoef="0" IVar="-1" Cut="0.0000000000000000e+00" cType="1" res="-9.8073869943618774e-02" rms="3.2233047485351562e-01" purity="1.3103005290031433e-01" nType="-99"/>
              <Node pos="r" depth="4" NCoef="0" IVar="-1" Cut="0.0000000000000000e+00" cType="1" res="-1.2763310968875885e-01" rms="1.9318513572216034e-01" purity="4.2453944683074951e-02" nType="-99"/>
            </Node>
            <Node pos="r" depth="3" NCoef="0" IVar="4" Cut="4.5356125000000000e+05" cType="1" res="-1.4810477197170258e-01" rms="2.4376244843006134e-01" purity="9.8254732787609100e-02" nType="0">
              <Node pos="l" depth="4" NCoef="0" IVar="-1" Cut="0.0000000000000000e+00" cType="1" res="-6.7548446357250214e-02" rms="2.7215152978897095e-01" purity="1.3828165829181671e-01" nType="-99"/>
              <Node pos="r" depth="4" NCoef="0" IVar="-1" Cut="0.0000000000000000e+00" cType="1" res="-1.0246527940034866e-01" rms="2.2011880576610565e-01" purity="7.1894668042659760e-02" nType="-99"/>
            </Node>
          </Node>
        </Node>
        <Node pos="r" depth="1" NCoef="0" IVar="0" Cut="6.3333334922790527e+00" cType="1" res="3.3204045146703720e-02" rms="4.0581899881362915e-01" purity="5.8501398563385010e-01" nType="0">
          <Node pos="l" depth="2" NCoef="0" IVar="20" Cut="5.9296796875000000e+04" cType="1" res="7.6374515891075134e-02" rms="3.9192649722099304e-01" purity="6.5647989511489868e-01" nType="0">
            <Node pos="l" depth="3" NCoef="0" IVar="1" Cut="4.7348394531250000e+04" cType="1" res="1.2373507767915726e-01" rms="3.8537600636482239e-01" purity="7.6825517416000366e-01" nType="0">
              <Node pos="l" depth="4" NCoef="0" IVar="-1" Cut="0.0000000000000000e+00" cType="1" res="1.8698535859584808e-02" rms="4.3556863069534302e-01" purity="6.4345389604568481e-01" nType="-99"/>
              <Node pos="r" depth="4" NCoef="0" IVar="-1" Cut="0.0000000000000000e+00" cType="1" res="7.8691534698009491e-02" rms="3.4687480330467224e-01" purity="8.3664888143539429e-01" nType="-99"/>
            </Node>
            <Node pos="r" depth="3" NCoef="0" IVar="8" Cut="1.1171950000000000e+05" cType="1" res="-5.4394129663705826e-02" rms="3.7996259331703186e-01" purity="3.4785372018814087e-01" nType="0">
              <Node pos="l" depth="4" NCoef="0" IVar="-1" Cut="0.0000000000000000e+00" cType="1" res="-6.3866823911666870e-03" rms="4.1932013630867004e-01" purity="4.4816973805427551e-01" nType="-99"/>
              <Node pos="r" depth="4" NCoef="0" IVar="-1" Cut="0.0000000000000000e+00" cType="1" res="-1.1969167739152908e-01" rms="1.3205729424953461e-01" purity="1.7329782247543335e-02" nType="-99"/>
            </Node>
          </Node>
          <Node pos="r" depth="2" NCoef="0" IVar="2" Cut="7.2866818750000000e+05" cType="1" res="-3.7527084350585938e-02" rms="4.1807973384857178e-01" purity="4.6792325377464294e-01" nType="0">
            <Node pos="l" depth="3" NCoef="0" IVar="20" Cut="6.7501578125000000e+04" cType="1" res="-1.6622560098767281e-02" rms="4.2623397707939148e-01" purity="5.1068121194839478e-01" nType="0">
              <Node pos="l" depth="4" NCoef="0" IVar="-1" Cut="0.0000000000000000e+00" cType="1" res="1.0795962065458298e-02" rms="4.4471490383148193e-01" purity="6.1364668607711792e-01" nType="-99"/>
              <Node pos="r" depth="4" NCoef="0" IVar="-1" Cut="0.0000000000000000e+00" cType="1" res="-8.6089886724948883e-02" rms="3.0963325500488281e-01" purity="1.4015574753284454e-01" nType="-99"/>
            </Node>
            <Node pos="r" depth="3" NCoef="0" IVar="5" Cut="3.1067309375000000e+05" cType="1" res="-1.7155572772026062e-01" rms="3.3148747682571411e-01" purity="1.9378226995468140e-01" nType="0">
              <Node pos="l" depth="4" NCoef="0" IVar="-1" Cut="0.0000000000000000e+00" cType="1" res="-6.4805537462234497e-02" rms="3.4812101721763611e-01" purity="2.3768220841884613e-01" nType="-99"/>
              <Node pos="r" depth="4" NCoef="0" IVar="-1" Cut="0.0000000000000000e+00" cType="1" res="-1.0891074687242508e-01" rms="3.0519795417785645e-01" purity="1.4565275609493256e-01" nType="-99"/>
            </Node>
          </Node>
        </Node>
      </Node>
    </BinaryTree>
    <BinaryTree type="DecisionTree" boostWeight="1.0000000000000000e+00" itree="7">
      <Node pos="s" depth="0" NCoef="0" IVar="16" Cut="1.4939174652099609e+00" cType="1" res="-5.2298291120678186e-04" rms="3.9691933989524841e-01" purity="5.0000000000000000e-01" nType="0">
        <Node pos="l" depth="1" NCoef="0" IVar="11" Cut="1.8073740005493164e+00" cType="1" res="4.8720952123403549e-02" rms="3.8504359126091003e-01" purity="6.4082282781600952e-01" nType="0">
          <Node pos="l" depth="2" NCoef="0" IVar="19" Cut="9.9862796875000000e+04" cType="1" res="7.0424042642116547e-02" rms="3.8448685407638550e-01" purity="7.0435106754302979e-01" nType="0">
            <Node pos="l" depth="3" NCoef="0" IVar="19" Cut="1.4030588867187500e+04" cType="1" res="8.4984324872493744e-02" rms="3.7985962629318237e-01" purity="7.3383277654647827e-01" nType="0">
              <Node pos="l" depth="4" NCoef="0" IVar="-1" Cut="0.0000000000000000e+00" cType="1" res="-2.4319622665643692e-02" rms="4.3686923384666443e-01" purity="5.2137941122055054e-01" nType="-99"/>
              <Node pos="r" depth="4" NCoef="0" IVar="-1" Cut="0.0000000000000000e+00" cType="1" res="5.6022938340902328e-02" rms="3.6012551188468933e-01" purity="7.7840352058410645e-01" nType="-99"/>
            </Node>
            <Node pos="r" depth="3" NCoef="0" IVar="8" Cut="5.7785031250000000e+04" cType="1" res="-1.1901901662349701e-01" rms="3.9395472407341003e-01" purity="3.2076659798622131e-01" nType="0">
              <Node pos="l" depth="4" NCoef="0" IVar="-1" Cut="0.0000000000000000e+00" cType="1" res="-1.7927709966897964e-02" rms="4.6614736318588257e-01" purity="5.1849776506423950e-01" nType="-99"/>
              <Node pos="r" depth="4" NCoef="0" IVar="-1" Cut="0.0000000000000000e+00" cType="1" res="-1.0978839546442032e-01" rms="2.6306363940238953e-01" purity="9.3619070947170258e-02" nType="-99"/>
            </Node>
          </Node>
          <Node pos="r" depth="2" NCoef="0" IVar="6" Cut="1.7005987500000000e+05" cType="1" res="-7.2507351636886597e-02" rms="3.6513596773147583e-01" purity="2.8596886992454529e-01" nType="0">
            <Node pos="l" depth="3" NCoef="0" IVar="1" Cut="3.7804277343750000e+04" cType="1" res="-3.9733752608299255e-02" rms="4.1909107565879822e-01" purity="3.9311274886131287e-01" nType="0">
              <Node pos="l" depth="4" NCoef="0" IVar="-1" Cut="0.0000000000000000e+00" cType="1" res="-7.3165200650691986e-02" rms="3.7523782253265381e-01" purity="2.1239753067493439e-01" nType="-99"/>
              <Node pos="r" depth="4" NCoef="0" IVar="-1" Cut="0.0000000000000000e+00" cType="1" res="1.3044094666838646e-02" rms="4.2835542559623718e-01" purity="4.9965324997901917e-01" nType="-99"/>
            </Node>
            <Node pos="r" depth="3" NCoef="0" IVar="0" Cut="5.3333334922790527e+00" cType="1" res="-1.3475361466407776e-01" rms="2.1689929068088531e-01" purity="8.2472510635852814e-02" nType="0">
              <Node pos="l" depth="4" NCoef="0" IVar="-1" Cut="0.0000000000000000e+00" cType="1" res="-7.8458301723003387e-02" rms="2.4145643413066864e-01" purity="1.1157993227243423e-01" nType="-99"/>
              <Node pos="r" depth="4" NCoef="0" IVar="-1" Cut="0.0000000000000000e+00" cType="1" res="-9.8559506237506866e-02" rms="1.9223891198635101e-01" purity="5.7233300060033798e-02" nType="-99"/>
            </Node>
          </Node>
        </Node>
        <Node pos="r" depth="1" NCoef="0" IVar="20" Cut="6.9249031250000000e+04" cType="1" res="-5.8226346969604492e-02" rms="4.0280944108963013e-01" purity="3.3498573303222656e-01" nType="0">
          <Node pos="l" depth="2" NCoef="0" IVar="1" Cut="5.9040796875000000e+04" cType="1" res="-3.1638264656066895e-02" rms="4.4946429133415222e-01" purity="4.3898186087608337e-01" nType="0">
            <Node pos="l" depth="3" NCoef="0" IVar="0" Cut="5.3333334922790527e+00" cType="1" res="-8.0749906599521637e-02" rms="4.3617156147956848e-01" purity="3.3035525679588318e-01" nType="0">
              <Node pos="l" depth="4" NCoef="0" IVar="-1" Cut="0.0000000000000000e+00" cType="1" res="-8.0962376669049263e-03" rms="4.5316001772880554e-01" purity="4.2811015248298645e-01" nType="-99"/>
              <Node pos="r" depth="4" NCoef="0" IVar="-1" Cut="0.0000000000000000e+00" cType="1" res="-5.6952219456434250e-02" rms="4.1620230674743652e-01" purity="2.5451436638832092e-01" nType="-99"/>
            </Node>
            <Node pos="r" depth="3" NCoef="0" IVar="5" Cut="3.0307140625000000e+05" cType="1" res="2.9653351753950119e-02" rms="4.5819592475891113e-01" purity="5.7454854249954224e-01" nType="0">
              <Node pos="l" depth="4" NCoef="0" IVar="-1" Cut="0.0000000000000000e+00" cType="1" res="2.4032505229115486e-02" rms="4.5706552267074585e-01" purity="6.1845308542251587e-01" nType="-99"/>
              <Node pos="r" depth="4" NCoef="0" IVar="-1" Cut="0.0000000000000000e+00" cType="1" res="-4.5062065124511719e-02" rms="4.3951126933097839e-01" purity="3.5499000549316406e-01" nType="-99"/>
            </Node>
          </Node>
          <Node pos="r" depth="2" NCoef="0" IVar="15" Cut="1.2397446632385254e+00" cType="1" res="-1.2716615200042725e-01" rms="2.2928079962730408e-01" purity="6.5335921943187714e-02" nType="0">
            <Node pos="l" depth="3" NCoef="0" IVar="11" Cut="1.9996898174285889e+00" cType="1" res="-1.0106735676527023e-01" rms="2.8224232792854309e-01" purity="1.0448826104402542e-01" nType="0">
              <Node pos="l" depth="4" NCoef="0" IVar="-1" Cut="0.0000000000000000e+00" cType="1" res="-4.5969251543283463e-02" rms="3.2572525739669800e-01" purity="1.4520590007305145e-01" nType="-99"/>
              <Node pos="r" depth="4" NCoef="0" IVar="-1" Cut="0.0000000000000000e+00" cType="1" res="-9.5180198550224304e-02" rms="1.9733653962612152e-01" purity="4.5465081930160522e-02" nType="-99"/>
            </Node>
            <Node pos="r" depth="3" NCoef="0" IVar="19" Cut="1.4191425000000000e+05" cType="1" res="-1.3514336943626404e-01" rms="2.0980314910411835e-01" purity="5.3368851542472839e-02" nType="0">
              <Node pos="l" depth="4" NCoef="0" IVar="-1" Cut="0.0000000000000000e+00" cType="1" res="-8.1658281385898590e-02" rms="2.4230101704597473e-01" purity="7.2856463491916656e-02" nType="-99"/>
              <Node pos="r" depth="4" NCoef="0" IVar="-1" Cut="0.0000000000000000e+00" cType="1" res="-1.0758551210165024e-01" rms="1.4602984488010406e-01" purity="2.3801010102033615e-02" nType="-99"/>
            </Node>
          </Node>
        </Node>
      </Node>
    </BinaryTree>
    <BinaryTree type="DecisionTree" boostWeight="1.0000000000000000e+00" itree="8">
      <Node pos="s" depth="0" NCoef="0" IVar="16" Cut="7.5173306465148926e-01" cType="1" res="-5.4659246234223247e-04" rms="3.9216300845146179e-01" purity="5.0000000000000000e-01" nType="0">
        <Node pos="l" depth="1" NCoef="0" IVar="20" Cut="8.8514195312500000e+04" cType="1" res="9.0355336666107178e-02" rms="3.3892068266868591e-01" purity="7.5940573215484619e-01" nType="0">
          <Node pos="l" depth="2" NCoef="0" IVar="19" Cut="1.3260629882812500e+04" cType="1" res="1.0970760881900787e-01" rms="3.3787536621093750e-01" purity="8.0975598096847534e-01" nType="0">
            <Node pos="l" depth="3" NCoef="0" IVar="15" Cut="1.8598433732986450e+00" cType="1" res="-1.6058288514614105e-02" rms="4.3133178353309631e-01" purity="5.5801409482955933e-01" nType="0">
              <Node pos="l" depth="4" NCoef="0" IVar="-1" Cut="0.0000000000000000e+00" cType="1" res="-4.7856945544481277e-02" rms="4.2557781934738159e-01" purity="3.9517304301261902e-01" nType="-99"/>
              <Node pos="r" depth="4" NCoef="0" IVar="-1" Cut="0.0000000000000000e+00" cType="1" res="1.8275380134582520e-02" rms="4.2540436983108521e-01" purity="6.5922683477401733e-01" nType="-99"/>
            </Node>
            <Node pos="r" depth="3" NCoef="0" IVar="8" Cut="7.4105578125000000e+04" cType="1" res="1.3324517011642456e-01" rms="3.1175556778907776e-01" purity="8.5687041282653809e-01" nType="0">
              <Node pos="l" depth="4" NCoef="0" IVar="-1" Cut="0.0000000000000000e+00" cType="1" res="7.6935753226280212e-02" rms="2.9733368754386902e-01" purity="8.8404560089111328e-01" nType="-99"/>
              <Node pos="r" depth="4" NCoef="0" IVar="-1" Cut="0.0000000000000000e+00" cType="1" res="2.2885852959007025e-03" rms="4.5235857367515564e-01" purity="4.7029528021812439e-01" nType="-99"/>
            </Node>
          </Node>
          <Node pos="r" depth="2" NCoef="0" IVar="-1" Cut="0.0000000000000000e+00" cType="1" res="-1.0781738162040710e-01" rms="2.1775346994400024e-01" purity="6.0938853770494461e-02" nType="-99"/>
        </Node>
        <Node pos="r" depth="1" NCoef="0" IVar="0" Cut="7.3333334922790527e+00" cType="1" res="-2.2748313844203949e-02" rms="4.0098330378532410e-01" purity="4.3664324283599854e-01" nType="0">
          <Node pos="l" depth="2" NCoef="0" IVar="0" Cut="1.2857142686843872e+00" cType="1" res="7.2126492159441113e-04" rms="4.0197193622589111e-01" purity="4.8107612133026123e-01" nType="0">
            <Node pos="l" depth="3" NCoef="0" IVar="1" Cut="4.6259339843750000e+04" cType="1" res="0.0000000000000000e+00" rms="0.0000000000000000e+00" purity="3.2444721460342407e-01" nType="0">
              <Node pos="l" depth="4" NCoef="0" IVar="-1" Cut="0.0000000000000000e+00" cType="1" res="-8.3426818251609802e-02" rms="3.6278322339057922e-01" purity="2.0312494039535522e-01" nType="-99"/>
              <Node pos="r" depth="4" NCoef="0" IVar="-1" Cut="0.0000000000000000e+00" cType="1" res="-2.3370858281850815e-02" rms="4.1051229834556580e-01" purity="4.3919882178306580e-01" nType="-99"/>
            </Node>
            <Node pos="r" depth="3" NCoef="0" IVar="0" Cut="5.0952382087707520e+00" cType="1" res="2.0882859826087952e-02" rms="4.0058553218841553e-01" purity="5.1089900732040405e-01" nType="0">
              <Node pos="l" depth="4" NCoef="0" IVar="-1" Cut="0.0000000000000000e+00" cType="1" res="3.1397394835948944e-02" rms="3.9287474751472473e-01" purity="6.0268193483352661e-01" nType="-99"/>
              <Node pos="r" depth="4" NCoef="0" IVar="-1" Cut="0.0000000000000000e+00" cType="1" res="-1.5405054204165936e-02" rms="4.0349739789962769e-01" purity="4.0083202719688416e-01" nType="-99"/>
            </Node>
          </Node>
          <Node pos="r" depth="2" NCoef="0" IVar="1" Cut="5.0520847656250000e+04" cType="1" res="0.0000000000000000e+00" rms="0.0000000000000000e+00" purity="2.9043692350387573e-01" nType="0">
            <Node pos="l" depth="3" NCoef="0" IVar="6" Cut="1.1829942968750000e+05" cType="1" res="0.0000000000000000e+00" rms="0.0000000000000000e+00" purity="2.0437090098857880e-01" nType="0">
              <Node pos="l" depth="4" NCoef="0" IVar="-1" Cut="0.0000000000000000e+00" cType="1" res="-9.1831699013710022e-02" rms="3.7456148862838745e-01" purity="1.7447158694267273e-01" nType="-99"/>
              <Node pos="r" depth="4" NCoef="0" IVar="-1" Cut="0.0000000000000000e+00" cType="1" res="-6.1668150126934052e-02" rms="3.5268434882164001e-01" purity="2.1834637224674225e-01" nType="-99"/>
            </Node>
            <Node pos="r" depth="3" NCoef="0" IVar="2" Cut="3.7623462500000000e+05" cType="1" res="0.0000000000000000e+00" rms="0.0000000000000000e+00" purity="3.7356132268905640e-01" nType="0">
              <Node pos="l" depth="4" NCoef="0" IVar="-1" Cut="0.0000000000000000e+00" cType="1" res="5.6535057956352830e-04" rms="4.4835808873176575e-01" purity="5.1770985126495361e-01" nType="-99"/>
              <Node pos="r" depth="4" NCoef="0" IVar="-1" Cut="0.0000000000000000e+00" cType="1" res="-5.6490316987037659e-02" rms="3.6495935916900635e-01" purity="2.6058775186538696e-01" nType="-99"/>
            </Node>
          </Node>
        </Node>
      </Node>
    </BinaryTree>
    <BinaryTree type="DecisionTree" boostWeight="1.0000000000000000e+00" itree="9">
      <Node pos="s" depth="0" NCoef="0" IVar="13" Cut="2.4682803153991699e+00" cType="1" res="-3.9128391654230654e-04" rms="3.8813292980194092e-01" purity="5.0000000000000000e-01" nType="0">
        <Node pos="l" depth="1" NCoef="0" IVar="4" Cut="5.2870568750000000e+05" cType="1" res="-4.6265900135040283e-02" rms="3.8441333174705505e-01" purity="3.5427215695381165e-01" nType="0">
          <Node pos="l" depth="2" NCoef="0" IVar="1" Cut="4.6535082031250000e+04" cType="1" res="-3.0222751200199127e-02" rms="3.9612969756126404e-01" purity="3.9086660742759705e-01" nType="0">
            <Node pos="l" depth="3" NCoef="0" IVar="1" Cut="3.1069216796875000e+04" cType="1" res="-8.4389343857765198e-02" rms="3.6997759342193604e-01" purity="2.4359717965126038e-01" nType="0">
              <Node pos="l" depth="4" NCoef="0" IVar="-1" Cut="0.0000000000000000e+00" cType="1" res="-6.2209244817495346e-02" rms="3.4433534741401672e-01" purity="1.9182786345481873e-01" nType="-99"/>
              <Node pos="r" depth="4" NCoef="0" IVar="-1" Cut="0.0000000000000000e+00" cType="1" res="-1.7271276563405991e-02" rms="4.0294367074966431e-01" purity="3.2720512151718140e-01" nType="-99"/>
            </Node>
            <Node pos="r" depth="3" NCoef="0" IVar="7" Cut="6.3774089843750000e+04" cType="1" res="1.6060147434473038e-02" rms="4.1156885027885437e-01" purity="5.1670169830322266e-01" nType="0">
              <Node pos="l" depth="4" NCoef="0" IVar="-1" Cut="0.0000000000000000e+00" cType="1" res="3.2960779964923859e-02" rms="4.2579171061515808e-01" purity="6.6409778594970703e-01" nType="-99"/>
              <Node pos="r" depth="4" NCoef="0" IVar="-1" Cut="0.0000000000000000e+00" cType="1" res="-3.0064301565289497e-02" rms="3.8000860810279846e-01" purity="3.2567232847213745e-01" nType="-99"/>
            </Node>
          </Node>
          <Node pos="r" depth="2" NCoef="0" IVar="14" Cut="2.0986065864562988e+00" cType="1" res="-1.3063742220401764e-01" rms="3.0200469493865967e-01" purity="1.6182060539722443e-01" nType="0">
            <Node pos="l" depth="3" NCoef="0" IVar="12" Cut="1.9266637563705444e+00" cType="1" res="-1.4960472285747528e-01" rms="2.9916322231292725e-01" purity="1.4351925253868103e-01" nType="0">
              <Node pos="l" depth="4" NCoef="0" IVar="-1" Cut="0.0000000000000000e+00" cType="1" res="-9.2700920999050140e-02" rms="3.2446923851966858e-01" purity="1.4626102149486542e-01" nType="-99"/>
              <Node pos="r" depth="4" NCoef="0" IVar="-1" Cut="0.0000000000000000e+00" cType="1" res="-8.4385678172111511e-02" rms="2.8294998407363892e-01" purity="1.4201518893241882e-01" nType="-99"/>
            </Node>
            <Node pos="r" depth="3" NCoef="0" IVar="12" Cut="2.0190157890319824e+00" cType="1" res="-1.0691115260124207e-01" rms="3.0385959148406982e-01" purity="1.8471384048461914e-01" nType="0">
              <Node pos="l" depth="4" NCoef="0" IVar="-1" Cut="0.0000000000000000e+00" cType="1" res="-7.5438559055328369e-02" rms="2.9384002089500427e-01" purity="1.3676270842552185e-01" nType="-99"/>
              <Node pos="r" depth="4" NCoef="0" IVar="-1" Cut="0.0000000000000000e+00" cType="1" res="-4.5428313314914703e-02" rms="3.1412848830223083e-01" purity="2.5043359398841858e-01" nType="-99"/>
            </Node>
          </Node>
        </Node>
        <Node pos="r" depth="1" NCoef="0" IVar="19" Cut="9.7094625000000000e+04" cType="1" res="3.6886580288410187e-02" rms="3.8714662194252014e-01" purity="6.1841893196105957e-01" nType="0">
          <Node pos="l" depth="2" NCoef="0" IVar="19" Cut="1.7908783203125000e+04" cType="1" res="6.0477960854768753e-02" rms="3.7668111920356750e-01" purity="6.9066452980041504e-01" nType="0">
            <Node pos="l" depth="3" NCoef="0" IVar="1" Cut="4.6784730468750000e+04" cType="1" res="-2.2792961448431015e-02" rms="4.2283773422241211e-01" purity="4.9493288993835449e-01" nType="0">
              <Node pos="l" depth="4" NCoef="0" IVar="-1" Cut="0.0000000000000000e+00" cType="1" res="-4.5626979321241379e-02" rms="4.2439141869544983e-01" purity="3.5669028759002686e-01" nType="-99"/>
              <Node pos="r" depth="4" NCoef="0" IVar="-1" Cut="0.0000000000000000e+00" cType="1" res="1.9208436831831932e-02" rms="4.1108790040016174e-01" purity="6.0710966587066650e-01" nType="-99"/>
            </Node>
            <Node pos="r" depth="3" NCoef="0" IVar="0" Cut="7.3333334922790527e+00" cType="1" res="8.8123105466365814e-02" rms="3.5576805472373962e-01" purity="7.5564551353454590e-01" nType="0">
              <Node pos="l" depth="4" NCoef="0" IVar="-1" Cut="0.0000000000000000e+00" cType="1" res="5.5042453110218048e-02" rms="3.4013822674751282e-01" purity="7.8808999061584473e-01" nType="-99"/>
              <Node pos="r" depth="4" NCoef="0" IVar="-1" Cut="0.0000000000000000e+00" cType="1" res="1.0638669133186340e-02" rms="4.1032978892326355e-01" purity="6.1462086439132690e-01" nType="-99"/>
            </Node>
          </Node>
          <Node pos="r" depth="2" NCoef="0" IVar="20" Cut="6.0753894531250000e+04" cType="1" res="-4.1967518627643585e-02" rms="4.1051620244979858e-01" purity="3.7693825364112854e-01" nType="0">
            <Node pos="l" depth="3" NCoef="0" IVar="1" Cut="4.7583863281250000e+04" cType="1" res="7.3494082316756248e-03" rms="4.6788585186004639e-01" purity="5.4477161169052124e-01" nType="0">
              <Node pos="l" depth="4" NCoef="0" IVar="-1" Cut="0.0000000000000000e+00" cType="1" res="-2.9144439846277237e-02" rms="4.6548375487327576e-01" purity="3.8630801439285278e-01" nType="-99"/>
              <Node pos="r" depth="4" NCoef="0" IVar="-1" Cut="0.0000000000000000e+00" cType="1" res="2.0958159118890762e-02" rms="4.6383869647979736e-01" purity="6.3008177280426025e-01" nType="-99"/>
            </Node>
            <Node pos="r" depth="3" NCoef="0" IVar="3" Cut="2.8806056250000000e+05" cType="1" res="-1.1832768470048904e-01" rms="2.8442853689193726e-01" purity="1.1707240343093872e-01" nType="0">
              <Node pos="l" depth="4" NCoef="0" IVar="-1" Cut="0.0000000000000000e+00" cType="1" res="-5.1299560815095901e-02" rms="3.5867667198181152e-01" purity="1.9254754483699799e-01" nType="-99"/>
              <Node pos="r" depth="4" NCoef="0" IVar="-1" Cut="0.0000000000000000e+00" cType="1" res="-9.3286298215389252e-02" rms="2.1805109083652496e-01" purity="6.5471835434436798e-02" nType="-99"/>
            </Node>
          </Node>
        </Node>
      </Node>
    </BinaryTree>
    <BinaryTree type="DecisionTree" boostWeight="1.0000000000000000e+00" itree="10">
      <Node pos="s" depth="0" NCoef="0" IVar="13" Cut="1.6455202102661133e+00" cType="1" res="-3.5343793570064008e-04" rms="3.8457188010215759e-01" purity="5.0000000000000000e-01" nType="0">
        <Node pos="l" depth="1" NCoef="0" IVar="2" Cut="3.3400731250000000e+05" cType="1" res="-7.5221203267574310e-02" rms="3.5502019524574280e-01" purity="2.1933060884475708e-01" nType="0">
          <Node pos="l" depth="2" NCoef="0" IVar="1" Cut="7.6437835937500000e+04" cType="1" res="-4.4041179120540619e-02" rms="3.9564922451972961e-01" purity="3.0503562092781067e-01" nType="0">
            <Node pos="l" depth="3" NCoef="0" IVar="19" Cut="1.2356953125000000e+04" cType="1" res="-7.0346966385841370e-02" rms="3.7660577893257141e-01" purity="2.3327979445457458e-01" nType="0">
              <Node pos="l" depth="4" NCoef="0" IVar="-1" Cut="0.0000000000000000e+00" cType="1" res="-6.5076977014541626e-02" rms="3.3904817700386047e-01" purity="1.6069166362285614e-01" nType="-99"/>
              <Node pos="r" depth="4" NCoef="0" IVar="-1" Cut="0.0000000000000000e+00" cType="1" res="-1.9060637801885605e-02" rms="3.9622971415519714e-01" purity="2.8190100193023682e-01" nType="-99"/>
            </Node>
            <Node pos="r" depth="3" NCoef="0" IVar="-1" Cut="0.0000000000000000e+00" cType="1" res="2.2605661302804947e-02" rms="4.4523864984512329e-01" purity="5.6507116556167603e-01" nType="-99"/>
          </Node>
          <Node pos="r" depth="2" NCoef="0" IVar="14" Cut="2.2341790199279785e+00" cType="1" res="-1.0082575678825378e-01" rms="3.1549978256225586e-01" purity="1.4895100891590118e-01" nType="0">
            <Node pos="l" depth="3" NCoef="0" IVar="9" Cut="1.0971636718750000e+05" cType="1" res="-1.1715677380561829e-01" rms="2.9885432124137878e-01" purity="1.2806382775306702e-01" nType="0">
              <Node pos="l" depth="4" NCoef="0" IVar="-1" Cut="0.0000000000000000e+00" cType="1" res="-7.4589535593986511e-02" rms="3.3333641290664673e-01" purity="1.5854649245738983e-01" nType="-99"/>
              <Node pos="r" depth="4" NCoef="0" IVar="-1" Cut="0.0000000000000000e+00" cType="1" res="-6.6201396286487579e-02" rms="2.4579952657222748e-01" purity="9.0036854147911072e-02" nType="-99"/>
            </Node>
            <Node pos="r" depth="3" NCoef="0" IVar="19" Cut="1.4198121875000000e+05" cType="1" res="-7.6164923608303070e-02" rms="3.3759650588035583e-01" purity="1.8049190938472748e-01" nType="0">
              <Node pos="l" depth="4" NCoef="0" IVar="-1" Cut="0.0000000000000000e+00" cType="1" res="-2.4609329178929329e-02" rms="3.6707419157028198e-01" purity="2.3215271532535553e-01" nType="-99"/>
              <Node pos="r" depth="4" NCoef="0" IVar="-1" Cut="0.0000000000000000e+00" cType="1" res="-7.6153971254825592e-02" rms="2.8184089064598083e-01" purity="1.0430525243282318e-01" nType="-99"/>
            </Node>
          </Node>
        </Node>
        <Node pos="r" depth="1" NCoef="0" IVar="11" Cut="6.9075554609298706e-01" cType="1" res="1.7222821712493896e-02" rms="3.8910380005836487e-01" purity="5.6589108705520630e-01" nType="0">
          <Node pos="l" depth="2" NCoef="0" IVar="4" Cut="7.9787556250000000e+05" cType="1" res="7.4876546859741211e-02" rms="3.6656901240348816e-01" purity="7.4503797292709351e-01" nType="0">
            <Node pos="l" depth="3" NCoef="0" IVar="6" Cut="1.1691175000000000e+05" cType="1" res="8.4740132093429565e-02" rms="3.6440730094909668e-01" purity="7.6716041564941406e-01" nType="0">
              <Node pos="l" depth="4" NCoef="0" IVar="-1" Cut="0.0000000000000000e+00" cType="1" res="-3.2972548156976700e-02" rms="4.4402557611465454e-01" purity="5.3395885229110718e-01" nType="-99"/>
              <Node pos="r" depth="4" NCoef="0" IVar="-1" Cut="0.0000000000000000e+00" cType="1" res="5.3054593503475189e-02" rms="3.5103088617324829e-01" purity="7.9163521528244019e-01" nType="-99"/>
            </Node>
            <Node pos="r" depth="3" NCoef="0" IVar="-1" Cut="0.0000000000000000e+00" cType="1" res="-7.5141035020351410e-02" rms="3.4697195887565613e-01" purity="2.6217982172966003e-01" nType="-99"/>
          </Node>
          <Node pos="r" depth="2" NCoef="0" IVar="0" Cut="5.3333334922790527e+00" cType="1" res="-7.4052489362657070e-03" rms="3.9578986167907715e-01" purity="4.8936447501182556e-01" nType="0">
            <Node pos="l" depth="3" NCoef="0" IVar="0" Cut="3.0952382087707520e+00" cType="1" res="2.6546645909547806e-02" rms="3.8797762989997864e-01" purity="5.8223187923431396e-01" nType="0">
              <Node pos="l" depth="4" NCoef="0" IVar="-1" Cut="0.0000000000000000e+00" cType="1" res="-1.7181171104311943e-02" rms="4.0362414717674255e-01" purity="4.6177732944488525e-01" nType="-99"/>
              <Node pos="r" depth="4" NCoef="0" IVar="-1" Cut="0.0000000000000000e+00" cType="1" res="8.6777739226818085e-02" rms="3.0917522311210632e-01" purity="8.5427808761596680e-01" nType="-99"/>
            </Node>
            <Node pos="r" depth="3" NCoef="0" IVar="0" Cut="7.0476188659667969e+00" cType="1" res="-3.9332803338766098e-02" rms="4.0037998557090759e-01" purity="4.0203425288200378e-01" nType="0">
              <Node pos="l" depth="4" NCoef="0" IVar="-1" Cut="0.0000000000000000e+00" cType="1" res="-8.6465300992131233e-03" rms="4.0377911925315857e-01" purity="4.5166835188865662e-01" nType="-99"/>
              <Node pos="r" depth="4" NCoef="0" IVar="-1" Cut="0.0000000000000000e+00" cType="1" res="-3.5187922418117523e-02" rms="3.9402121305465698e-01" purity="3.3726847171783447e-01" nType="-99"/>
            </Node>
          </Node>
        </Node>
      </Node>
    </BinaryTree>
    <BinaryTree type="DecisionTree" boostWeight="1.0000000000000000e+00" itree="11">
      <Node pos="s" depth="0" NCoef="0" IVar="11" Cut="1.6930128335952759e+00" cType="1" res="-2.0353203581180423e-04" rms="3.8128709793090820e-01" purity="5.0000000000000000e-01" nType="0">
        <Node pos="l" depth="1" NCoef="0" IVar="19" Cut="1.4166668750000000e+05" cType="1" res="1.7830334603786469e-02" rms="3.9131242036819458e-01" purity="5.7933968305587769e-01" nType="0">
          <Node pos="l" depth="2" NCoef="0" IVar="0" Cut="6.3333334922790527e+00" cType="1" res="3.3607475459575653e-02" rms="3.9146268367767334e-01" purity="6.3182681798934937e-01" nType="0">
            <Node pos="l" depth="3" NCoef="0" IVar="0" Cut="3.1428570747375488e+00" cType="1" res="5.9594202786684036e-02" rms="3.7492254376411438e-01" purity="6.9967472553253174e-01" nType="0">
              <Node pos="l" depth="4" NCoef="0" IVar="-1" Cut="0.0000000000000000e+00" cType="1" res="3.8590766489505768e-03" rms="4.0595871210098267e-01" purity="6.0426491498947144e-01" nType="-99"/>
              <Node pos="r" depth="4" NCoef="0" IVar="-1" Cut="0.0000000000000000e+00" cType="1" res="6.5146692097187042e-02" rms="3.2676982879638672e-01" purity="8.0719912052154541e-01" nType="-99"/>
            </Node>
            <Node pos="r" depth="3" NCoef="0" IVar="19" Cut="1.9617544921875000e+04" cType="1" res="-1.0307214222848415e-02" rms="4.1423976421356201e-01" purity="5.1717138290405273e-01" nType="0">
              <Node pos="l" depth="4" NCoef="0" IVar="-1" Cut="0.0000000000000000e+00" cType="1" res="-3.7283532321453094e-02" rms="4.2295277118682861e-01" purity="3.6790728569030762e-01" nType="-99"/>
              <Node pos="r" depth="4" NCoef="0" IVar="-1" Cut="0.0000000000000000e+00" cType="1" res="5.8120917528867722e-03" rms="4.0900877118110657e-01" purity="5.6442230939865112e-01" nType="-99"/>
            </Node>
          </Node>
          <Node pos="r" depth="2" NCoef="0" IVar="0" Cut="2.3333332538604736e+00" cType="1" res="-7.1374319493770599e-02" rms="3.7827971577644348e-01" purity="2.8257498145103455e-01" nType="0">
            <Node pos="l" depth="3" NCoef="0" IVar="1" Cut="7.0683742187500000e+04" cType="1" res="-1.2271796911954880e-01" rms="3.7236344814300537e-01" purity="2.4246132373809814e-01" nType="0">
              <Node pos="l" depth="4" NCoef="0" IVar="-1" Cut="0.0000000000000000e+00" cType="1" res="-8.0121986567974091e-02" rms="3.5236442089080811e-01" purity="1.7386496067047119e-01" nType="-99"/>
              <Node pos="r" depth="4" NCoef="0" IVar="-1" Cut="0.0000000000000000e+00" cType="1" res="-4.2416561394929886e-02" rms="3.9488008618354797e-01" purity="3.3650162816047668e-01" nType="-99"/>
            </Node>
            <Node pos="r" depth="3" NCoef="0" IVar="0" Cut="5.1428570747375488e+00" cType="1" res="-5.2206613123416901e-02" rms="3.7868449091911316e-01" purity="2.9755032062530518e-01" nType="0">
              <Node pos="l" depth="4" NCoef="0" IVar="-1" Cut="0.0000000000000000e+00" cType="1" res="2.6621613651514053e-02" rms="4.2237183451652527e-01" purity="5.7340037822723389e-01" nType="-99"/>
              <Node pos="r" depth="4" NCoef="0" IVar="-1" Cut="0.0000000000000000e+00" cType="1" res="-4.8258889466524124e-02" rms="3.5629990696907043e-01" purity="2.0755851268768311e-01" nType="-99"/>
            </Node>
          </Node>
        </Node>
        <Node pos="r" depth="1" NCoef="0" IVar="20" Cut="1.0202133593750000e+05" cType="1" res="-5.9998512268066406e-02" rms="3.3918151259422302e-01" purity="2.3693297803401947e-01" nType="0">
          <Node pos="l" depth="2" NCoef="0" IVar="7" Cut="4.2880289062500000e+04" cType="1" res="-4.2834009975194931e-02" rms="3.9619320631027222e-01" purity="3.2860335707664490e-01" nType="0">
            <Node pos="l" depth="3" NCoef="0" IVar="7" Cut="2.0418952636718750e+03" cType="1" res="6.8543739616870880e-02" rms="4.2317172884941101e-01" purity="6.4738750457763672e-01" nType="0">
              <Node pos="l" depth="4" NCoef="0" IVar="-1" Cut="0.0000000000000000e+00" cType="1" res="5.6873802095651627e-02" rms="3.9971604943275452e-01" purity="7.5020730495452881e-01" nType="-99"/>
              <Node pos="r" depth="4" NCoef="0" IVar="-1" Cut="0.0000000000000000e+00" cType="1" res="-9.1458167880773544e-03" rms="4.4996738433837891e-01" purity="4.5745411515235901e-01" nType="-99"/>
            </Node>
            <Node pos="r" depth="3" NCoef="0" IVar="1" Cut="4.7291058593750000e+04" cType="1" res="-6.8012796342372894e-02" rms="3.8540041446685791e-01" purity="2.5653690099716187e-01" nType="0">
              <Node pos="l" depth="4" NCoef="0" IVar="-1" Cut="0.0000000000000000e+00" cType="1" res="-5.6375350803136826e-02" rms="3.4604799747467041e-01" purity="1.6746805608272552e-01" nType="-99"/>
              <Node pos="r" depth="4" NCoef="0" IVar="-1" Cut="0.0000000000000000e+00" cType="1" res="-1.4118749648332596e-02" rms="4.2234164476394653e-01" purity="3.5749137401580811e-01" nType="-99"/>
            </Node>
          </Node>
          <Node pos="r" depth="2" NCoef="0" IVar="13" Cut="1.0645841360092163e+00" cType="1" res="-1.0307542979717255e-01" rms="8.5041373968124390e-02" purity="6.8723321892321110e-03" nType="0">
            <Node pos="l" depth="3" NCoef="0" IVar="-1" Cut="0.0000000000000000e+00" cType="1" res="-8.9755579829216003e-02" rms="1.4032953977584839e-01" purity="1.9889788702130318e-02" nType="-99"/>
            <Node pos="r" depth="3" NCoef="0" IVar="4" Cut="4.8459346875000000e+05" cType="1" res="-1.0717509686946869e-01" rms="6.9306924939155579e-02" purity="4.4469614513218403e-03" nType="0">
              <Node pos="l" depth="4" NCoef="0" IVar="-1" Cut="0.0000000000000000e+00" cType="1" res="-1.0924255847930908e-01" rms="7.3048770427703857e-02" purity="5.0881453789770603e-03" nType="-99"/>
              <Node pos="r" depth="4" NCoef="0" IVar="-1" Cut="0.0000000000000000e+00" cType="1" res="-1.0856273770332336e-01" rms="5.6474894285202026e-02" purity="2.7280696667730808e-03" nType="-99"/>
            </Node>
          </Node>
        </Node>
      </Node>
    </BinaryTree>
    <BinaryTree type="DecisionTree" boostWeight="1.0000000000000000e+00" itree="12">
      <Node pos="s" depth="0" NCoef="0" IVar="16" Cut="7.5173306465148926e-01" cType="1" res="-2.2860738681629300e-04" rms="3.7859696149826050e-01" purity="5.0000000000000000e-01" nType="0">
        <Node pos="l" depth="1" NCoef="0" IVar="8" Cut="1.0614405468750000e+05" cType="1" res="5.8820225298404694e-02" rms="3.2609599828720093e-01" purity="7.5940573215484619e-01" nType="0">
          <Node pos="l" depth="2" NCoef="0" IVar="3" Cut="9.5723320312500000e+04" cType="1" res="7.1424461901187897e-02" rms="3.2893100380897522e-01" purity="8.0445480346679688e-01" nType="0">
            <Node pos="l" depth="3" NCoef="0" IVar="-1" Cut="0.0000000000000000e+00" cType="1" res="-4.2935069650411606e-02" rms="4.3411964178085327e-01" purity="4.6026298403739929e-01" nType="-99"/>
            <Node pos="r" depth="3" NCoef="0" IVar="8" Cut="6.8456976562500000e+04" cType="1" res="8.3466887474060059e-02" rms="3.1650155782699585e-01" purity="8.2978427410125732e-01" nType="0">
              <Node pos="l" depth="4" NCoef="0" IVar="-1" Cut="0.0000000000000000e+00" cType="1" res="6.2009122222661972e-02" rms="2.9375931620597839e-01" purity="8.8351380825042725e-01" nType="-99"/>
              <Node pos="r" depth="4" NCoef="0" IVar="-1" Cut="0.0000000000000000e+00" cType="1" res="-7.0070833899080753e-03" rms="4.2564222216606140e-01" purity="4.7331735491752625e-01" nType="-99"/>
            </Node>
          </Node>
          <Node pos="r" depth="2" NCoef="0" IVar="-1" Cut="0.0000000000000000e+00" cType="1" res="-1.1508504301309586e-01" rms="1.7538006603717804e-01" purity="2.1901043131947517e-02" nType="-99"/>
        </Node>
        <Node pos="r" depth="1" NCoef="0" IVar="5" Cut="2.2984054687500000e+05" cType="1" res="-1.4650586061179638e-02" rms="3.8898864388465881e-01" purity="4.3664324283599854e-01" nType="0">
          <Node pos="l" depth="2" NCoef="0" IVar="11" Cut="1.0031572580337524e+00" cType="1" res="-1.7750205006450415e-03" rms="3.9455735683441162e-01" purity="4.7299057245254517e-01" nType="0">
            <Node pos="l" depth="3" NCoef="0" IVar="20" Cut="2.3392281250000000e+04" cType="1" res="3.3040858805179596e-02" rms="4.0428563952445984e-01" purity="6.3238441944122314e-01" nType="0">
              <Node pos="l" depth="4" NCoef="0" IVar="-1" Cut="0.0000000000000000e+00" cType="1" res="-1.9937846809625626e-02" rms="4.2281028628349304e-01" purity="5.1785707473754883e-01" nType="-99"/>
              <Node pos="r" depth="4" NCoef="0" IVar="-1" Cut="0.0000000000000000e+00" cType="1" res="3.9991598576307297e-02" rms="3.8548937439918518e-01" purity="7.0227360725402832e-01" nType="-99"/>
            </Node>
            <Node pos="r" depth="3" NCoef="0" IVar="11" Cut="2.1558325290679932e+00" cType="1" res="-2.7479475364089012e-02" rms="3.8520422577857971e-01" purity="3.5531058907508850e-01" nType="0">
              <Node pos="l" depth="4" NCoef="0" IVar="-1" Cut="0.0000000000000000e+00" cType="1" res="-6.4192432910203934e-03" rms="4.0799218416213989e-01" purity="4.1907069087028503e-01" nType="-99"/>
              <Node pos="r" depth="4" NCoef="0" IVar="-1" Cut="0.0000000000000000e+00" cType="1" res="-5.0907131284475327e-02" rms="2.9727372527122498e-01" purity="1.5385581552982330e-01" nType="-99"/>
            </Node>
          </Node>
          <Node pos="r" depth="2" NCoef="0" IVar="2" Cut="4.6369568750000000e+05" cType="1" res="-6.6788323223590851e-02" rms="3.6090692877769470e-01" purity="2.8945988416671753e-01" nType="0">
            <Node pos="l" depth="3" NCoef="0" IVar="7" Cut="4.8743332031250000e+04" cType="1" res="2.8378615155816078e-02" rms="4.3294695019721985e-01" purity="5.5318886041641235e-01" nType="0">
              <Node pos="l" depth="4" NCoef="0" IVar="-1" Cut="0.0000000000000000e+00" cType="1" res="2.6401350274682045e-02" rms="4.3237596750259399e-01" purity="6.3773155212402344e-01" nType="-99"/>
              <Node pos="r" depth="4" NCoef="0" IVar="-1" Cut="0.0000000000000000e+00" cType="1" res="-1.0522550437599421e-03" rms="4.3156611919403076e-01" purity="4.5748010277748108e-01" nType="-99"/>
            </Node>
            <Node pos="r" depth="3" NCoef="0" IVar="14" Cut="1.6814742088317871e+00" cType="1" res="-8.4190092980861664e-02" rms="3.4327477216720581e-01" purity="2.4123564362525940e-01" nType="0">
              <Node pos="l" depth="4" NCoef="0" IVar="-1" Cut="0.0000000000000000e+00" cType="1" res="-7.0860452950000763e-02" rms="3.3329087495803833e-01" purity="1.9281314313411713e-01" nType="-99"/>
              <Node pos="r" depth="4" NCoef="0" IVar="-1" Cut="0.0000000000000000e+00" cType="1" res="-3.6952901631593704e-02" rms="3.4725195169448853e-01" purity="2.6991936564445496e-01" nType="-99"/>
            </Node>
          </Node>
        </Node>
      </Node>
    </BinaryTree>
    <BinaryTree type="DecisionTree" boostWeight="1.0000000000000000e+00" itree="13">
      <Node pos="s" depth="0" NCoef="0" IVar="13" Cut="1.3712668418884277e+00" cType="1" res="-1.4029764861334115e-04" rms="3.7646269798278809e-01" purity="5.0000000000000000e-01" nType="0">
        <Node pos="l" depth="1" NCoef="0" IVar="10" Cut="6.5533195312500000e+04" cType="1" res="-6.4574897289276123e-02" rms="3.4187424182891846e-01" purity="1.9962127506732941e-01" nType="0">
          <Node pos="l" depth="2" NCoef="0" IVar="7" Cut="5.1463964843750000e+04" cType="1" res="-5.3674895316362381e-02" rms="3.6480879783630371e-01" purity="2.3366650938987732e-01" nType="0">
            <Node pos="l" depth="3" NCoef="0" IVar="7" Cut="1.4703935546875000e+04" cType="1" res="-2.1079855039715767e-02" rms="4.2922434210777283e-01" purity="3.6045098304748535e-01" nType="0">
              <Node pos="l" depth="4" NCoef="0" IVar="-1" Cut="0.0000000000000000e+00" cType="1" res="3.8127090781927109e-02" rms="4.3505713343620300e-01" purity="5.4935634136199951e-01" nType="-99"/>
              <Node pos="r" depth="4" NCoef="0" IVar="-1" Cut="0.0000000000000000e+00" cType="1" res="-2.4423731490969658e-02" rms="4.2295390367507935e-01" purity="3.0667856335639954e-01" nType="-99"/>
            </Node>
            <Node pos="r" depth="3" NCoef="0" IVar="13" Cut="1.1101213693618774e+00" cType="1" res="-8.2975991070270538e-02" rms="2.9204902052879333e-01" purity="1.1969445645809174e-01" nType="0">
              <Node pos="l" depth="4" NCoef="0" IVar="-1" Cut="0.0000000000000000e+00" cType="1" res="-6.9275312125682831e-02" rms="2.6934477686882019e-01" purity="9.4538882374763489e-02" nType="-99"/>
              <Node pos="r" depth="4" NCoef="0" IVar="-1" Cut="0.0000000000000000e+00" cType="1" res="-2.6820410043001175e-02" rms="3.4390982985496521e-01" purity="1.8917299807071686e-01" nType="-99"/>
            </Node>
          </Node>
          <Node pos="r" depth="2" NCoef="0" IVar="21" Cut="9.6209414062500000e+04" cType="1" res="-1.1114127933979034e-01" rms="2.1204093098640442e-01" purity="5.4175172001123428e-02" nType="0">
            <Node pos="l" depth="3" NCoef="0" IVar="-1" Cut="0.0000000000000000e+00" cType="1" res="-8.6920969188213348e-02" rms="2.5644132494926453e-01" purity="8.2929804921150208e-02" nType="-99"/>
            <Node pos="r" depth="3" NCoef="0" IVar="-1" Cut="0.0000000000000000e+00" cType="1" res="-9.8790757358074188e-02" rms="1.1817560344934464e-01" purity="1.3471233658492565e-02" nType="-99"/>
          </Node>
        </Node>
        <Node pos="r" depth="1" NCoef="0" IVar="19" Cut="1.2900694531250000e+05" cType="1" res="1.0043442249298096e-02" rms="3.8064569234848022e-01" purity="5.4747420549392700e-01" nType="0">
          <Node pos="l" depth="2" NCoef="0" IVar="19" Cut="1.7809707031250000e+04" cType="1" res="2.2024566307663918e-02" rms="3.8102254271507263e-01" purity="5.9930729866027832e-01" nType="0">
            <Node pos="l" depth="3" NCoef="0" IVar="1" Cut="4.6784730468750000e+04" cType="1" res="-3.5722885280847549e-02" rms="4.0328750014305115e-01" purity="4.3014299869537354e-01" nType="0">
              <Node pos="l" depth="4" NCoef="0" IVar="-1" Cut="0.0000000000000000e+00" cType="1" res="-4.5274149626493454e-02" rms="3.9148953557014465e-01" purity="2.8913313150405884e-01" nType="-99"/>
              <Node pos="r" depth="4" NCoef="0" IVar="-1" Cut="0.0000000000000000e+00" cType="1" res="5.4736076854169369e-03" rms="4.0759217739105225e-01" purity="5.5251795053482056e-01" nType="-99"/>
            </Node>
            <Node pos="r" depth="3" NCoef="0" IVar="19" Cut="8.6646687500000000e+04" cType="1" res="4.0389090776443481e-02" rms="3.7178897857666016e-01" purity="6.5310406684875488e-01" nType="0">
              <Node pos="l" depth="4" NCoef="0" IVar="-1" Cut="0.0000000000000000e+00" cType="1" res="3.3337280154228210e-02" rms="3.5968124866485596e-01" purity="7.1848237514495850e-01" nType="-99"/>
              <Node pos="r" depth="4" NCoef="0" IVar="-1" Cut="0.0000000000000000e+00" cType="1" res="-1.4210974797606468e-02" rms="4.0696966648101807e-01" purity="4.0734413266181946e-01" nType="-99"/>
            </Node>
          </Node>
          <Node pos="r" depth="2" NCoef="0" IVar="8" Cut="6.8561515625000000e+04" cType="1" res="-5.0836641341447830e-02" rms="3.7282288074493408e-01" purity="2.8409254550933838e-01" nType="0">
            <Node pos="l" depth="3" NCoef="0" IVar="1" Cut="5.9277550781250000e+04" cType="1" res="-3.1245343387126923e-02" rms="4.4690033793449402e-01" purity="4.3054071068763733e-01" nType="0">
              <Node pos="l" depth="4" NCoef="0" IVar="-1" Cut="0.0000000000000000e+00" cType="1" res="-3.2430365681648254e-02" rms="4.2466706037521362e-01" purity="3.1013655662536621e-01" nType="-99"/>
              <Node pos="r" depth="4" NCoef="0" IVar="-1" Cut="0.0000000000000000e+00" cType="1" res="7.3849514592438936e-04" rms="4.6200725436210632e-01" purity="5.3069478273391724e-01" nType="-99"/>
            </Node>
            <Node pos="r" depth="3" NCoef="0" IVar="0" Cut="2.3333332538604736e+00" cType="1" res="-8.1951931118965149e-02" rms="2.0242933928966522e-01" purity="5.1500655710697174e-02" nType="0">
              <Node pos="l" depth="4" NCoef="0" IVar="-1" Cut="0.0000000000000000e+00" cType="1" res="-9.1148853302001953e-02" rms="1.8323251605033875e-01" purity="3.5784855484962463e-02" nType="-99"/>
              <Node pos="r" depth="4" NCoef="0" IVar="-1" Cut="0.0000000000000000e+00" cType="1" res="-7.0169307291507721e-02" rms="2.0904150605201721e-01" purity="5.7723049074411392e-02" nType="-99"/>
            </Node>
          </Node>
        </Node>
      </Node>
    </BinaryTree>
    <BinaryTree type="DecisionTree" boostWeight="1.0000000000000000e+00" itree="14">
      <Node pos="s" depth="0" NCoef="0" IVar="0" Cut="5.3333334922790527e+00" cType="1" res="-1.8889814964495599e-04" rms="3.7474778294563293e-01" purity="5.0000000000000000e-01" nType="0">
        <Node pos="l" depth="1" NCoef="0" IVar="0" Cut="3.0952382087707520e+00" cType="1" res="2.5184791535139084e-02" rms="3.6518073081970215e-01" purity="5.9258693456649780e-01" nType="0">
          <Node pos="l" depth="2" NCoef="0" IVar="8" Cut="6.5326148437500000e+04" cType="1" res="-1.9513869658112526e-02" rms="3.8601407408714294e-01" purity="4.7118261456489563e-01" nType="0">
            <Node pos="l" depth="3" NCoef="0" IVar="1" Cut="5.1324226562500000e+04" cType="1" res="4.1596256196498871e-03" rms="4.1321980953216553e-01" purity="6.0478371381759644e-01" nType="0">
              <Node pos="l" depth="4" NCoef="0" IVar="-1" Cut="0.0000000000000000e+00" cType="1" res="-2.4814706295728683e-02" rms="4.2346724867820740e-01" purity="4.5930823683738708e-01" nType="-99"/>
              <Node pos="r" depth="4" NCoef="0" IVar="-1" Cut="0.0000000000000000e+00" cType="1" res="2.4616625159978867e-02" rms="3.9949688315391541e-01" purity="7.2199809551239014e-01" nType="-99"/>
            </Node>
            <Node pos="r" depth="3" NCoef="0" IVar="20" Cut="7.7034312500000000e+04" cType="1" res="-7.2429604828357697e-02" rms="3.1040591001510620e-01" purity="1.7255325615406036e-01" nType="0">
              <Node pos="l" depth="4" NCoef="0" IVar="-1" Cut="0.0000000000000000e+00" cType="1" res="-1.8020704388618469e-02" rms="4.1834002733230591e-01" purity="3.5304245352745056e-01" nType="-99"/>
              <Node pos="r" depth="4" NCoef="0" IVar="-1" Cut="0.0000000000000000e+00" cType="1" res="-8.5880793631076813e-02" rms="2.0410801470279694e-01" purity="5.0564829260110855e-02" nType="-99"/>
            </Node>
          </Node>
          <Node pos="r" depth="2" NCoef="0" IVar="1" Cut="4.5988226562500000e+04" cType="1" res="1.2699282169342041e-01" rms="2.8774359822273254e-01" purity="8.6910378932952881e-01" nType="0">
            <Node pos="l" depth="3" NCoef="0" IVar="-1" Cut="0.0000000000000000e+00" cType="1" res="1.0699269175529480e-01" rms="2.7772700786590576e-01" purity="8.9175623655319214e-01" nType="-99"/>
            <Node pos="r" depth="3" NCoef="0" IVar="11" Cut="1.1744242906570435e+00" cType="1" res="1.0194364190101624e-01" rms="2.8762337565422058e-01" purity="8.6036568880081177e-01" nType="0">
              <Node pos="l" depth="4" NCoef="0" IVar="-1" Cut="0.0000000000000000e+00" cType="1" res="8.7579682469367981e-02" rms="2.4605737626552582e-01" purity="9.2999577522277832e-01" nType="-99"/>
              <Node pos="r" depth="4" NCoef="0" IVar="-1" Cut="0.0000000000000000e+00" cType="1" res="3.1581904739141464e-02" rms="3.4782886505126953e-01" purity="7.2855818271636963e-01" nType="-99"/>
            </Node>
          </Node>
        </Node>
        <Node pos="r" depth="1" NCoef="0" IVar="13" Cut="2.4684805870056152e+00" cType="1" res="-2.4266045540571213e-02" rms="3.8205039501190186e-01" purity="4.1214406490325928e-01" nType="0">
          <Node pos="l" depth="2" NCoef="0" IVar="12" Cut="1.7492465972900391e+00" cType="1" res="-4.9124650657176971e-02" rms="3.6496692895889282e-01" purity="2.7896755933761597e-01" nType="0">
            <Node pos="l" depth="3" NCoef="0" IVar="3" Cut="1.2221068750000000e+05" cType="1" res="-8.2554131746292114e-02" rms="3.7339729070663452e-01" purity="2.3511429131031036e-01" nType="0">
              <Node pos="l" depth="4" NCoef="0" IVar="-1" Cut="0.0000000000000000e+00" cType="1" res="-3.2773043960332870e-02" rms="4.0760222077369690e-01" purity="2.8909093141555786e-01" nType="-99"/>
              <Node pos="r" depth="4" NCoef="0" IVar="-1" Cut="0.0000000000000000e+00" cType="1" res="-8.0848708748817444e-02" rms="2.8140190243721008e-01" purity="1.1738645285367966e-01" nType="-99"/>
            </Node>
            <Node pos="r" depth="3" NCoef="0" IVar="1" Cut="7.0191773437500000e+04" cType="1" res="-3.8408435881137848e-02" rms="3.6156934499740601e-01" purity="2.9302525520324707e-01" nType="0">
              <Node pos="l" depth="4" NCoef="0" IVar="-1" Cut="0.0000000000000000e+00" cType="1" res="-3.7653505802154541e-02" rms="3.5105061531066895e-01" purity="2.2781442105770111e-01" nType="-99"/>
              <Node pos="r" depth="4" NCoef="0" IVar="-1" Cut="0.0000000000000000e+00" cType="1" res="4.7501348890364170e-03" rms="3.7840038537979126e-01" purity="4.2970395088195801e-01" nType="-99"/>
            </Node>
          </Node>
          <Node pos="r" depth="2" NCoef="0" IVar="3" Cut="4.7552346875000000e+05" cType="1" res="-2.1205376833677292e-03" rms="3.9533576369285583e-01" purity="5.3078550100326538e-01" nType="0">
            <Node pos="l" depth="3" NCoef="0" IVar="8" Cut="6.5201542968750000e+04" cType="1" res="4.9064680933952332e-03" rms="4.0088370442390442e-01" purity="5.5358141660690308e-01" nType="0">
              <Node pos="l" depth="4" NCoef="0" IVar="-1" Cut="0.0000000000000000e+00" cType="1" res="1.6877541318535805e-02" rms="4.1499754786491394e-01" purity="6.7247408628463745e-01" nType="-99"/>
              <Node pos="r" depth="4" NCoef="0" IVar="-1" Cut="0.0000000000000000e+00" cType="1" res="-5.0745096057653427e-02" rms="3.4047794342041016e-01" purity="1.9429334998130798e-01" nType="-99"/>
            </Node>
            <Node pos="r" depth="3" NCoef="0" IVar="-1" Cut="0.0000000000000000e+00" cType="1" res="-9.9658317863941193e-02" rms="2.3851659893989563e-01" purity="1.0954824090003967e-01" nType="-99"/>
          </Node>
        </Node>
      </Node>
    </BinaryTree>
    <BinaryTree type="DecisionTree" boostWeight="1.0000000000000000e+00" itree="15">
      <Node pos="s" depth="0" NCoef="0" IVar="0" Cut="7.3333334922790527e+00" cType="1" res="-1.1605470353970304e-04" rms="3.7185660004615784e-01" purity="5.0000000000000000e-01" nType="0">
        <Node pos="l" depth="1" NCoef="0" IVar="0" Cut="1.2857142686843872e+00" cType="1" res="1.1097474023699760e-02" rms="3.6923709511756897e-01" purity="5.4426568746566772e-01" nType="0">
          <Node pos="l" depth="2" NCoef="0" IVar="1" Cut="4.6259339843750000e+04" cType="1" res="0.0000000000000000e+00" rms="0.0000000000000000e+00" purity="3.7987464666366577e-01" nType="0">
            <Node pos="l" depth="3" NCoef="0" IVar="1" Cut="2.6533138671875000e+04" cType="1" res="0.0000000000000000e+00" rms="0.0000000000000000e+00" purity="2.4076247215270996e-01" nType="0">
              <Node pos="l" depth="4" NCoef="0" IVar="-1" Cut="0.0000000000000000e+00" cType="1" res="-7.9671412706375122e-02" rms="3.3681976795196533e-01" purity="1.7404322326183319e-01" nType="-99"/>
              <Node pos="r" depth="4" NCoef="0" IVar="-1" Cut="0.0000000000000000e+00" cType="1" res="-2.7288008481264114e-02" rms="3.8351893424987793e-01" purity="3.1020230054855347e-01" nType="-99"/>
            </Node>
            <Node pos="r" depth="3" NCoef="0" IVar="19" Cut="7.8093429687500000e+04" cType="1" res="0.0000000000000000e+00" rms="0.0000000000000000e+00" purity="5.0233089923858643e-01" nType="0">
              <Node pos="l" depth="4" NCoef="0" IVar="-1" Cut="0.0000000000000000e+00" cType="1" res="8.4585836157202721e-03" rms="3.8735052943229675e-01" purity="6.2320685386657715e-01" nType="-99"/>
              <Node pos="r" depth="4" NCoef="0" IVar="-1" Cut="0.0000000000000000e+00" cType="1" res="-3.5131316632032394e-02" rms="3.8566344976425171e-01" purity="3.2281196117401123e-01" nType="-99"/>
            </Node>
          </Node>
          <Node pos="r" depth="2" NCoef="0" IVar="11" Cut="1.9319025278091431e+00" cType="1" res="2.2275669500231743e-02" rms="3.6641842126846313e-01" purity="5.7401639223098755e-01" nType="0">
            <Node pos="l" depth="3" NCoef="0" IVar="5" Cut="2.2984120312500000e+05" cType="1" res="3.2489053905010223e-02" rms="3.7169811129570007e-01" purity="6.3484561443328857e-01" nType="0">
              <Node pos="l" depth="4" NCoef="0" IVar="-1" Cut="0.0000000000000000e+00" cType="1" res="2.4963321164250374e-02" rms="3.7112209200859070e-01" purity="6.7611199617385864e-01" nType="-99"/>
              <Node pos="r" depth="4" NCoef="0" IVar="-1" Cut="0.0000000000000000e+00" cType="1" res="-1.1087615042924881e-02" rms="3.6976036429405212e-01" purity="4.5998504757881165e-01" nType="-99"/>
            </Node>
            <Node pos="r" depth="3" NCoef="0" IVar="18" Cut="8.4572093750000000e+04" cType="1" res="-3.4255102276802063e-02" rms="3.3002936840057373e-01" purity="2.3732830584049225e-01" nType="0">
              <Node pos="l" depth="4" NCoef="0" IVar="-1" Cut="0.0000000000000000e+00" cType="1" res="-1.0559488087892532e-02" rms="3.5274001955986023e-01" purity="2.7903601527214050e-01" nType="-99"/>
              <Node pos="r" depth="4" NCoef="0" IVar="-1" Cut="0.0000000000000000e+00" cType="1" res="-5.4461438208818436e-02" rms="2.7441808581352234e-01" purity="1.5208332240581512e-01" nType="-99"/>
            </Node>
          </Node>
        </Node>
        <Node pos="r" depth="1" NCoef="0" IVar="1" Cut="7.5549445312500000e+04" cType="1" res="0.0000000000000000e+00" rms="0.0000000000000000e+00" purity="3.4550502896308899e-01" nType="0">
          <Node pos="l" depth="2" NCoef="0" IVar="1" Cut="2.8916841796875000e+04" cType="1" res="0.0000000000000000e+00" rms="0.0000000000000000e+00" purity="2.8884261846542358e-01" nType="0">
            <Node pos="l" depth="3" NCoef="0" IVar="6" Cut="1.1868696093750000e+05" cType="1" res="0.0000000000000000e+00" rms="0.0000000000000000e+00" purity="1.9372142851352692e-01" nType="0">
              <Node pos="l" depth="4" NCoef="0" IVar="-1" Cut="0.0000000000000000e+00" cType="1" res="-8.9238516986370087e-02" rms="3.3234032988548279e-01" purity="1.2296244502067566e-01" nType="-99"/>
              <Node pos="r" depth="4" NCoef="0" IVar="-1" Cut="0.0000000000000000e+00" cType="1" res="-4.5092795044183731e-02" rms="3.3860746026039124e-01" purity="2.3183922469615936e-01" nType="-99"/>
            </Node>
            <Node pos="r" depth="3" NCoef="0" IVar="2" Cut="3.7632968750000000e+05" cType="1" res="0.0000000000000000e+00" rms="0.0000000000000000e+00" purity="3.3899083733558655e-01" nType="0">
              <Node pos="l" depth="4" NCoef="0" IVar="-1" Cut="0.0000000000000000e+00" cType="1" res="-1.0624854825437069e-02" rms="4.2741057276725769e-01" purity="4.2181563377380371e-01" nType="-99"/>
              <Node pos="r" depth="4" NCoef="0" IVar="-1" Cut="0.0000000000000000e+00" cType="1" res="-4.2497724294662476e-02" rms="3.4107363224029541e-01" purity="2.5015673041343689e-01" nType="-99"/>
            </Node>
          </Node>
          <Node pos="r" depth="2" NCoef="0" IVar="4" Cut="5.6608843750000000e+05" cType="1" res="0.0000000000000000e+00" rms="0.0000000000000000e+00" purity="4.6898037195205688e-01" nType="0">
            <Node pos="l" depth="3" NCoef="0" IVar="8" Cut="6.4219003906250000e+04" cType="1" res="0.0000000000000000e+00" rms="0.0000000000000000e+00" purity="5.4706603288650513e-01" nType="0">
              <Node pos="l" depth="4" NCoef="0" IVar="-1" Cut="0.0000000000000000e+00" cType="1" res="3.5653319209814072e-02" rms="4.2259153723716736e-01" purity="6.8770551681518555e-01" nType="-99"/>
              <Node pos="r" depth="4" NCoef="0" IVar="-1" Cut="0.0000000000000000e+00" cType="1" res="-5.2697945386171341e-02" rms="3.1701788306236267e-01" purity="1.6250678896903992e-01" nType="-99"/>
            </Node>
            <Node pos="r" depth="3" NCoef="0" IVar="-1" Cut="0.0000000000000000e+00" cType="1" res="-6.7740686237812042e-02" rms="2.7281597256660461e-01" purity="1.4649398624897003e-01" nType="-99"/>
          </Node>
        </Node>
      </Node>
    </BinaryTree>
    <BinaryTree type="DecisionTree" boostWeight="1.0000000000000000e+00" itree="16">
      <Node pos="s" depth="0" NCoef="0" IVar="16" Cut="7.5173306465148926e-01" cType="1" res="-1.3717645197175443e-04" rms="3.7037032842636108e-01" purity="5.0000000000000000e-01" nType="0">
        <Node pos="l" depth="1" NCoef="0" IVar="20" Cut="8.8514195312500000e+04" cType="1" res="3.9019864052534103e-02" rms="3.1765854358673096e-01" purity="7.5940573215484619e-01" nType="0">
          <Node pos="l" depth="2" NCoef="0" IVar="3" Cut="8.9092359375000000e+04" cType="1" res="4.8952989280223846e-02" rms="3.2211297750473022e-01" purity="8.0975598096847534e-01" nType="0">
            <Node pos="l" depth="3" NCoef="0" IVar="-1" Cut="0.0000000000000000e+00" cType="1" res="-3.3342674374580383e-02" rms="4.2478114366531372e-01" purity="4.6026298403739929e-01" nType="-99"/>
            <Node pos="r" depth="3" NCoef="0" IVar="19" Cut="2.6660761718750000e+04" cType="1" res="5.7758558541536331e-02" rms="3.1133776903152466e-01" purity="8.3576208353042603e-01" nType="0">
              <Node pos="l" depth="4" NCoef="0" IVar="-1" Cut="0.0000000000000000e+00" cType="1" res="1.0064746253192425e-02" rms="3.8054341077804565e-01" purity="6.9686990976333618e-01" nType="-99"/>
              <Node pos="r" depth="4" NCoef="0" IVar="-1" Cut="0.0000000000000000e+00" cType="1" res="5.2922464907169342e-02" rms="2.8164306282997131e-01" purity="8.8459891080856323e-01" nType="-99"/>
            </Node>
          </Node>
          <Node pos="r" depth="2" NCoef="0" IVar="-1" Cut="0.0000000000000000e+00" cType="1" res="-8.7477996945381165e-02" rms="2.0252864062786102e-01" purity="6.0938853770494461e-02" nType="-99"/>
        </Node>
        <Node pos="r" depth="1" NCoef="0" IVar="3" Cut="4.4626618750000000e+05" cType="1" res="-9.7008207812905312e-03" rms="3.8153123855590820e-01" purity="4.3664324283599854e-01" nType="0">
          <Node pos="l" depth="2" NCoef="0" IVar="7" Cut="6.0343417968750000e+04" cType="1" res="-5.9687155298888683e-03" rms="3.8608595728874207e-01" purity="4.5103713870048523e-01" nType="0">
            <Node pos="l" depth="3" NCoef="0" IVar="3" Cut="9.8016117187500000e+04" cType="1" res="2.7704894542694092e-02" rms="4.0580692887306213e-01" purity="6.0356134176254272e-01" nType="0">
              <Node pos="l" depth="4" NCoef="0" IVar="-1" Cut="0.0000000000000000e+00" cType="1" res="-2.5153063237667084e-02" rms="4.2417123913764954e-01" purity="3.6420845985412598e-01" nType="-99"/>
              <Node pos="r" depth="4" NCoef="0" IVar="-1" Cut="0.0000000000000000e+00" cType="1" res="3.0358271673321724e-02" rms="3.9434522390365601e-01" purity="6.9539421796798706e-01" nType="-99"/>
            </Node>
            <Node pos="r" depth="3" NCoef="0" IVar="7" Cut="1.1206654687500000e+05" cType="1" res="-3.9026789367198944e-02" rms="3.6266365647315979e-01" purity="3.0130100250244141e-01" nType="0">
              <Node pos="l" depth="4" NCoef="0" IVar="-1" Cut="0.0000000000000000e+00" cType="1" res="-3.6673374474048615e-02" rms="3.7105113267898560e-01" purity="2.6447102427482605e-01" nType="-99"/>
              <Node pos="r" depth="4" NCoef="0" IVar="-1" Cut="0.0000000000000000e+00" cType="1" res="7.5749419629573822e-03" rms="3.3838778734207153e-01" purity="3.8087251782417297e-01" nType="-99"/>
            </Node>
          </Node>
          <Node pos="r" depth="2" NCoef="0" IVar="11" Cut="1.5840502977371216e+00" cType="1" res="-9.7340963780879974e-02" rms="2.3549079895019531e-01" purity="9.8634622991085052e-02" nType="0">
            <Node pos="l" depth="3" NCoef="0" IVar="-1" Cut="0.0000000000000000e+00" cType="1" res="-8.4853157401084900e-02" rms="2.8928458690643311e-01" purity="1.5540482103824615e-01" nType="-99"/>
            <Node pos="r" depth="3" NCoef="0" IVar="-1" Cut="0.0000000000000000e+00" cType="1" res="-9.5408931374549866e-02" rms="1.0633549839258194e-01" purity="1.4076096005737782e-02" nType="-99"/>
          </Node>
        </Node>
      </Node>
    </BinaryTree>
    <BinaryTree type="DecisionTree" boostWeight="1.0000000000000000e+00" itree="17">
      <Node pos="s" depth="0" NCoef="0" IVar="2" Cut="6.9643325000000000e+05" cType="1" res="-1.0037760512204841e-04" rms="3.6868932843208313e-01" purity="5.0000000000000000e-01" nType="0">
        <Node pos="l" depth="1" NCoef="0" IVar="1" Cut="4.7291058593750000e+04" cType="1" res="7.0799035020172596e-03" rms="3.7583261728286743e-01" purity="5.3972923755645752e-01" nType="0">
          <Node pos="l" depth="2" NCoef="0" IVar="6" Cut="9.9572031250000000e+04" cType="1" res="-2.7916394174098969e-02" rms="3.7896078824996948e-01" purity="3.9437747001647949e-01" nType="0">
            <Node pos="l" depth="3" NCoef="0" IVar="8" Cut="2.1156632812500000e+04" cType="1" res="-1.0645101964473724e-01" rms="3.9642846584320068e-01" purity="2.4965575337409973e-01" nType="0">
              <Node pos="l" depth="4" NCoef="0" IVar="-1" Cut="0.0000000000000000e+00" cType="1" res="-9.5374926924705505e-02" rms="3.7163594365119934e-01" purity="1.8444336950778961e-01" nType="-99"/>
              <Node pos="r" depth="4" NCoef="0" IVar="-1" Cut="0.0000000000000000e+00" cType="1" res="-3.6987632513046265e-02" rms="4.0058344602584839e-01" purity="2.7716594934463501e-01" nType="-99"/>
            </Node>
            <Node pos="r" depth="3" NCoef="0" IVar="7" Cut="5.8017410156250000e+04" cType="1" res="-9.5104696229100227e-03" rms="3.7236094474792480e-01" purity="4.2829546332359314e-01" nType="0">
              <Node pos="l" depth="4" NCoef="0" IVar="-1" Cut="0.0000000000000000e+00" cType="1" res="1.9328242167830467e-02" rms="3.9010488986968994e-01" purity="6.3037335872650146e-01" nType="-99"/>
              <Node pos="r" depth="4" NCoef="0" IVar="-1" Cut="0.0000000000000000e+00" cType="1" res="-2.4580588564276695e-02" rms="3.5732758045196533e-01" purity="2.9664507508277893e-01" nType="-99"/>
            </Node>
          </Node>
          <Node pos="r" depth="2" NCoef="0" IVar="8" Cut="8.3749789062500000e+04" cType="1" res="3.3134762197732925e-02" rms="3.7135103344917297e-01" purity="6.4794403314590454e-01" nType="0">
            <Node pos="l" depth="3" NCoef="0" IVar="19" Cut="8.2559937500000000e+04" cType="1" res="4.5977342873811722e-02" rms="3.8132748007774353e-01" purity="7.1064859628677368e-01" nType="0">
              <Node pos="l" depth="4" NCoef="0" IVar="-1" Cut="0.0000000000000000e+00" cType="1" res="3.6841969937086105e-02" rms="3.5867944359779358e-01" purity="7.7536535263061523e-01" nType="-99"/>
              <Node pos="r" depth="4" NCoef="0" IVar="-1" Cut="0.0000000000000000e+00" cType="1" res="-6.5341708250343800e-04" rms="4.3690887093544006e-01" purity="5.2339738607406616e-01" nType="-99"/>
            </Node>
            <Node pos="r" depth="3" NCoef="0" IVar="16" Cut="1.2105654478073120e+00" cType="1" res="-8.1842370331287384e-02" rms="2.3659676313400269e-01" purity="8.6561903357505798e-02" nType="0">
              <Node pos="l" depth="4" NCoef="0" IVar="-1" Cut="0.0000000000000000e+00" cType="1" res="-8.3776406943798065e-02" rms="2.5762832164764404e-01" purity="1.1657854169607162e-01" nType="-99"/>
              <Node pos="r" depth="4" NCoef="0" IVar="-1" Cut="0.0000000000000000e+00" cType="1" res="-6.2213595956563950e-02" rms="2.2342011332511902e-01" purity="7.1882843971252441e-02" nType="-99"/>
            </Node>
          </Node>
        </Node>
        <Node pos="r" depth="1" NCoef="0" IVar="14" Cut="1.8140770196914673e+00" cType="1" res="-4.4368814677000046e-02" rms="3.1759294867515564e-01" purity="2.5505840778350830e-01" nType="0">
          <Node pos="l" depth="2" NCoef="0" IVar="16" Cut="1.2190173864364624e+00" cType="1" res="-7.5851485133171082e-02" rms="3.0540999770164490e-01" purity="1.8329021334648132e-01" nType="0">
            <Node pos="l" depth="3" NCoef="0" IVar="-1" Cut="0.0000000000000000e+00" cType="1" res="-7.4677534401416779e-02" rms="3.3235779404640198e-01" purity="2.6079520583152771e-01" nType="-99"/>
            <Node pos="r" depth="3" NCoef="0" IVar="0" Cut="2.3333332538604736e+00" cType="1" res="-6.1492897570133209e-02" rms="2.9433411359786987e-01" purity="1.5700513124465942e-01" nType="0">
              <Node pos="l" depth="4" NCoef="0" IVar="-1" Cut="0.0000000000000000e+00" cType="1" res="-7.1643836796283722e-02" rms="2.9104855656623840e-01" purity="1.2848432362079620e-01" nType="-99"/>
              <Node pos="r" depth="4" NCoef="0" IVar="-1" Cut="0.0000000000000000e+00" cType="1" res="-3.7330970168113708e-02" rms="2.9457971453666687e-01" purity="1.6860935091972351e-01" nType="-99"/>
            </Node>
          </Node>
          <Node pos="r" depth="2" NCoef="0" IVar="0" Cut="6.3333334922790527e+00" cType="1" res="-2.5226296856999397e-02" rms="3.2328185439109802e-01" purity="2.9869586229324341e-01" nType="0">
            <Node pos="l" depth="3" NCoef="0" IVar="8" Cut="6.7304187500000000e+04" cType="1" res="-3.6559766158461571e-03" rms="3.4000313282012939e-01" purity="3.8729923963546753e-01" nType="0">
              <Node pos="l" depth="4" NCoef="0" IVar="-1" Cut="0.0000000000000000e+00" cType="1" res="2.3243479430675507e-02" rms="3.9551433920860291e-01" purity="6.1550885438919067e-01" nType="-99"/>
              <Node pos="r" depth="4" NCoef="0" IVar="-1" Cut="0.0000000000000000e+00" cType="1" res="-6.3778176903724670e-02" rms="2.3390047252178192e-01" purity="8.5354425013065338e-02" nType="-99"/>
            </Node>
            <Node pos="r" depth="3" NCoef="0" IVar="15" Cut="2.4778423309326172e+00" cType="1" res="-5.1562067121267319e-02" rms="2.9951339960098267e-01" purity="1.9051766395568848e-01" nType="0">
              <Node pos="l" depth="4" NCoef="0" IVar="-1" Cut="0.0000000000000000e+00" cType="1" res="-5.9631098061800003e-02" rms="2.7327415347099304e-01" purity="1.4004449546337128e-01" nType="-99"/>
              <Node pos="r" depth="4" NCoef="0" IVar="-1" Cut="0.0000000000000000e+00" cType="1" res="-2.1285146474838257e-02" rms="3.2011497020721436e-01" purity="2.3684625327587128e-01" nType="-99"/>
            </Node>
          </Node>
        </Node>
      </Node>
    </BinaryTree>
    <BinaryTree type="DecisionTree" boostWeight="1.0000000000000000e+00" itree="18">
      <Node pos="s" depth="0" NCoef="0" IVar="0" Cut="5.3333334922790527e+00" cType="1" res="-1.1247967631788924e-04" rms="3.6689579486846924e-01" purity="5.0000000000000000e-01" nType="0">
        <Node pos="l" depth="1" NCoef="0" IVar="0" Cut="3.0952382087707520e+00" cType="1" res="1.7358586192131042e-02" rms="3.5644331574440002e-01" purity="5.9258693456649780e-01" nType="0">
          <Node pos="l" depth="2" NCoef="0" IVar="16" Cut="1.5057002305984497e+00" cType="1" res="-1.3844877481460571e-02" rms="3.7987163662910461e-01" purity="4.7118261456489563e-01" nType="0">
            <Node pos="l" depth="3" NCoef="0" IVar="2" Cut="4.8334143750000000e+05" cType="1" res="6.0917520895600319e-03" rms="3.7075898051261902e-01" purity="6.0911411046981812e-01" nType="0">
              <Node pos="l" depth="4" NCoef="0" IVar="-1" Cut="0.0000000000000000e+00" cType="1" res="1.4182395301759243e-02" rms="3.7707948684692383e-01" purity="6.5992724895477295e-01" nType="-99"/>
              <Node pos="r" depth="4" NCoef="0" IVar="-1" Cut="0.0000000000000000e+00" cType="1" res="-2.9026374220848083e-02" rms="3.4756645560264587e-01" purity="4.6748223900794983e-01" nType="-99"/>
            </Node>
            <Node pos="r" depth="3" NCoef="0" IVar="1" Cut="7.0331976562500000e+04" cType="1" res="-3.6994419991970062e-02" rms="3.8890570402145386e-01" purity="3.1102257966995239e-01" nType="0">
              <Node pos="l" depth="4" NCoef="0" IVar="-1" Cut="0.0000000000000000e+00" cType="1" res="-2.8745617717504501e-02" rms="3.8134407997131348e-01" purity="2.4992191791534424e-01" nType="-99"/>
              <Node pos="r" depth="4" NCoef="0" IVar="-1" Cut="0.0000000000000000e+00" cType="1" res="-7.3558092117309570e-03" rms="4.0227597951889038e-01" purity="4.3071201443672180e-01" nType="-99"/>
            </Node>
          </Node>
          <Node pos="r" depth="2" NCoef="0" IVar="1" Cut="4.5988226562500000e+04" cType="1" res="8.8429242372512817e-02" rms="2.8371149301528931e-01" purity="8.6910378932952881e-01" nType="0">
            <Node pos="l" depth="3" NCoef="0" IVar="-1" Cut="0.0000000000000000e+00" cType="1" res="8.9246973395347595e-02" rms="2.7517580986022949e-01" purity="8.9175623655319214e-01" nType="-99"/>
            <Node pos="r" depth="3" NCoef="0" IVar="11" Cut="7.3240458965301514e-01" cType="1" res="6.8561084568500519e-02" rms="2.8445446491241455e-01" purity="8.6036568880081177e-01" nType="0">
              <Node pos="l" depth="4" NCoef="0" IVar="-1" Cut="0.0000000000000000e+00" cType="1" res="8.6174637079238892e-02" rms="2.1407623589038849e-01" purity="9.4908916950225830e-01" nType="-99"/>
              <Node pos="r" depth="4" NCoef="0" IVar="-1" Cut="0.0000000000000000e+00" cType="1" res="3.3451341092586517e-02" rms="3.1891503930091858e-01" purity="8.0469334125518799e-01" nType="-99"/>
            </Node>
          </Node>
        </Node>
        <Node pos="r" depth="1" NCoef="0" IVar="12" Cut="2.0714859962463379e+00" cType="1" res="-1.6690809279680252e-02" rms="3.7579566240310669e-01" purity="4.1214406490325928e-01" nType="0">
          <Node pos="l" depth="2" NCoef="0" IVar="7" Cut="7.2018781250000000e+04" cType="1" res="-4.5656282454729080e-02" rms="3.8738825917243958e-01" purity="3.0540314316749573e-01" nType="0">
            <Node pos="l" depth="3" NCoef="0" IVar="21" Cut="1.7716304687500000e+04" cType="1" res="-2.3303026333451271e-02" rms="4.1834494471549988e-01" purity="3.7713673710823059e-01" nType="0">
              <Node pos="l" depth="4" NCoef="0" IVar="-1" Cut="0.0000000000000000e+00" cType="1" res="-6.4311273396015167e-02" rms="3.7317040562629700e-01" purity="2.1377412974834442e-01" nType="-99"/>
              <Node pos="r" depth="4" NCoef="0" IVar="-1" Cut="0.0000000000000000e+00" cType="1" res="-7.8588508768007159e-04" rms="4.2447215318679810e-01" purity="4.1280126571655273e-01" nType="-99"/>
            </Node>
            <Node pos="r" depth="3" NCoef="0" IVar="13" Cut="1.9376974105834961e+00" cType="1" res="-9.6583172678947449e-02" rms="2.9918402433395386e-01" purity="1.4197437465190887e-01" nType="0">
              <Node pos="l" depth="4" NCoef="0" IVar="-1" Cut="0.0000000000000000e+00" cType="1" res="-6.7247509956359863e-02" rms="2.4002079665660858e-01" purity="7.6230935752391815e-02" nType="-99"/>
              <Node pos="r" depth="4" NCoef="0" IVar="-1" Cut="0.0000000000000000e+00" cType="1" res="-7.3322989046573639e-02" rms="3.4689813852310181e-01" purity="2.0768405497074127e-01" nType="-99"/>
            </Node>
          </Node>
          <Node pos="r" depth="2" NCoef="0" IVar="11" Cut="7.3745375871658325e-01" cType="1" res="-8.7862703949213028e-03" rms="3.7217810750007629e-01" purity="4.4127318263053894e-01" nType="0">
            <Node pos="l" depth="3" NCoef="0" IVar="8" Cut="1.7657324218750000e+04" cType="1" res="2.3913238197565079e-02" rms="3.7742766737937927e-01" purity="6.8802195787429810e-01" nType="0">
              <Node pos="l" depth="4" NCoef="0" IVar="-1" Cut="0.0000000000000000e+00" cType="1" res="-4.6594381332397461e-02" rms="4.2250728607177734e-01" purity="5.0818920135498047e-01" nType="-99"/>
              <Node pos="r" depth="4" NCoef="0" IVar="-1" Cut="0.0000000000000000e+00" cType="1" res="3.0016470700502396e-02" rms="3.6094108223915100e-01" purity="7.2938686609268188e-01" nType="-99"/>
            </Node>
            <Node pos="r" depth="3" NCoef="0" IVar="10" Cut="2.3366242187500000e+05" cType="1" res="-2.1262893453240395e-02" rms="3.6939337849617004e-01" purity="3.4712523221969604e-01" nType="0">
              <Node pos="l" depth="4" NCoef="0" IVar="-1" Cut="0.0000000000000000e+00" cType="1" res="-9.7003318369388580e-03" rms="3.7738785147666931e-01" purity="3.6598747968673706e-01" nType="-99"/>
              <Node pos="r" depth="4" NCoef="0" IVar="-1" Cut="0.0000000000000000e+00" cType="1" res="-6.0513261705636978e-02" rms="2.7104520797729492e-01" purity="1.5723527967929840e-01" nType="-99"/>
            </Node>
          </Node>
        </Node>
      </Node>
    </BinaryTree>
    <BinaryTree type="DecisionTree" boostWeight="1.0000000000000000e+00" itree="19">
      <Node pos="s" depth="0" NCoef="0" IVar="11" Cut="4.9856403470039368e-01" cType="1" res="-1.5910010915831663e-05" rms="3.6530846357345581e-01" purity="5.0000000000000000e-01" nType="0">
        <Node pos="l" depth="1" NCoef="0" IVar="20" Cut="1.4967666992187500e+04" cType="1" res="3.4334089607000351e-02" rms="3.4856319427490234e-01" purity="7.0127981901168823e-01" nType="0">
          <Node pos="l" depth="2" NCoef="0" IVar="11" Cut="3.8479435443878174e-01" cType="1" res="-4.8162683844566345e-02" rms="3.9852023124694824e-01" purity="5.1973229646682739e-01" nType="0">
            <Node pos="l" depth="3" NCoef="0" IVar="-1" Cut="0.0000000000000000e+00" cType="1" res="-6.4761945977807045e-03" rms="3.9345994591712952e-01" purity="5.9449672698974609e-01" nType="-99"/>
            <Node pos="r" depth="3" NCoef="0" IVar="-1" Cut="0.0000000000000000e+00" cType="1" res="-5.0341300666332245e-02" rms="4.0002480149269104e-01" purity="4.2149746417999268e-01" nType="-99"/>
          </Node>
          <Node pos="r" depth="2" NCoef="0" IVar="0" Cut="2.3333332538604736e+00" cType="1" res="5.0380777567625046e-02" rms="3.3564174175262451e-01" purity="7.3659318685531616e-01" nType="0">
            <Node pos="l" depth="3" NCoef="0" IVar="2" Cut="5.6737956250000000e+05" cType="1" res="-2.8761387802660465e-03" rms="3.7338256835937500e-01" purity="6.6084426641464233e-01" nType="0">
              <Node pos="l" depth="4" NCoef="0" IVar="-1" Cut="0.0000000000000000e+00" cType="1" res="1.7946179956197739e-02" rms="3.5815188288688660e-01" purity="7.6209098100662231e-01" nType="-99"/>
              <Node pos="r" depth="4" NCoef="0" IVar="-1" Cut="0.0000000000000000e+00" cType="1" res="-3.7951279431581497e-02" rms="3.9505478739738464e-01" purity="4.5229816436767578e-01" nType="-99"/>
            </Node>
            <Node pos="r" depth="3" NCoef="0" IVar="0" Cut="6.0952382087707520e+00" cType="1" res="6.9256998598575592e-02" rms="3.1907576322555542e-01" purity="7.6344132423400879e-01" nType="0">
              <Node pos="l" depth="4" NCoef="0" IVar="-1" Cut="0.0000000000000000e+00" cType="1" res="8.4725797176361084e-02" rms="2.4081745743751526e-01" purity="9.0347599983215332e-01" nType="-99"/>
              <Node pos="r" depth="4" NCoef="0" IVar="-1" Cut="0.0000000000000000e+00" cType="1" res="1.2333909980952740e-02" rms="3.8261488080024719e-01" purity="6.0709458589553833e-01" nType="-99"/>
            </Node>
          </Node>
        </Node>
        <Node pos="r" depth="1" NCoef="0" IVar="19" Cut="1.2900694531250000e+05" cType="1" res="-6.1525478959083557e-03" rms="3.6788231134414673e-01" purity="4.6404129266738892e-01" nType="0">
          <Node pos="l" depth="2" NCoef="0" IVar="19" Cut="2.3987005859375000e+04" cType="1" res="5.9615768259391189e-04" rms="3.7311270833015442e-01" purity="5.1480829715728760e-01" nType="0">
            <Node pos="l" depth="3" NCoef="0" IVar="5" Cut="1.1241366406250000e+05" cType="1" res="-3.8104832172393799e-02" rms="3.7827223539352417e-01" purity="3.7956750392913818e-01" nType="0">
              <Node pos="l" depth="4" NCoef="0" IVar="-1" Cut="0.0000000000000000e+00" cType="1" res="-1.5667352825403214e-02" rms="3.8409423828125000e-01" purity="3.9414072036743164e-01" nType="-99"/>
              <Node pos="r" depth="4" NCoef="0" IVar="-1" Cut="0.0000000000000000e+00" cType="1" res="-5.6964613497257233e-02" rms="3.4275257587432861e-01" purity="3.0695351958274841e-01" nType="-99"/>
            </Node>
            <Node pos="r" depth="3" NCoef="0" IVar="19" Cut="8.8999085937500000e+04" cType="1" res="1.6190152615308762e-02" rms="3.6987066268920898e-01" purity="5.6930172443389893e-01" nType="0">
              <Node pos="l" depth="4" NCoef="0" IVar="-1" Cut="0.0000000000000000e+00" cType="1" res="1.8413148820400238e-02" rms="3.6537960171699524e-01" purity="6.3814055919647217e-01" nType="-99"/>
              <Node pos="r" depth="4" NCoef="0" IVar="-1" Cut="0.0000000000000000e+00" cType="1" res="-1.9634667783975601e-02" rms="3.8148659467697144e-01" purity="3.2173830270767212e-01" nType="-99"/>
            </Node>
          </Node>
          <Node pos="r" depth="2" NCoef="0" IVar="15" Cut="9.9492383003234863e-01" cType="1" res="-3.7923708558082581e-02" rms="3.4039363265037537e-01" purity="2.2504316270351410e-01" nType="0">
            <Node pos="l" depth="3" NCoef="0" IVar="17" Cut="7.0207906250000000e+04" cType="1" res="3.9559244178235531e-03" rms="3.9275270700454712e-01" purity="3.3005067706108093e-01" nType="0">
              <Node pos="l" depth="4" NCoef="0" IVar="-1" Cut="0.0000000000000000e+00" cType="1" res="2.3275388404726982e-02" rms="4.3260547518730164e-01" purity="4.3858644366264343e-01" nType="-99"/>
              <Node pos="r" depth="4" NCoef="0" IVar="-1" Cut="0.0000000000000000e+00" cType="1" res="-4.2277637869119644e-02" rms="3.1542551517486572e-01" purity="1.6894014179706573e-01" nType="-99"/>
            </Node>
            <Node pos="r" depth="3" NCoef="0" IVar="1" Cut="8.3764296875000000e+04" cType="1" res="-4.6338357031345367e-02" rms="3.2822513580322266e-01" purity="2.0394457876682281e-01" nType="0">
              <Node pos="l" depth="4" NCoef="0" IVar="-1" Cut="0.0000000000000000e+00" cType="1" res="-4.4580783694982529e-02" rms="3.0712166428565979e-01" purity="1.5755781531333923e-01" nType="-99"/>
              <Node pos="r" depth="4" NCoef="0" IVar="-1" Cut="0.0000000000000000e+00" cType="1" res="-1.4407477341592312e-02" rms="3.6450088024139404e-01" purity="2.9394766688346863e-01" nType="-99"/>
            </Node>
          </Node>
        </Node>
      </Node>
    </BinaryTree>
    <BinaryTree type="DecisionTree" boostWeight="1.0000000000000000e+00" itree="20">
      <Node pos="s" depth="0" NCoef="0" IVar="5" Cut="4.3468087500000000e+05" cType="1" res="1.5521785826422274e-05" rms="3.6423060297966003e-01" purity="5.0000000000000000e-01" nType="0">
        <Node pos="l" depth="1" NCoef="0" IVar="0" Cut="5.3333334922790527e+00" cType="1" res="3.1388117931783199e-03" rms="3.6628183722496033e-01" purity="5.1539814472198486e-01" nType="0">
          <Node pos="l" depth="2" NCoef="0" IVar="0" Cut="3.0952382087707520e+00" cType="1" res="1.7237868160009384e-02" rms="3.5320407152175903e-01" purity="6.0763514041900635e-01" nType="0">
            <Node pos="l" depth="3" NCoef="0" IVar="1" Cut="4.1686164062500000e+04" cType="1" res="-7.0051979273557663e-03" rms="3.8035571575164795e-01" purity="4.8659607768058777e-01" nType="0">
              <Node pos="l" depth="4" NCoef="0" IVar="-1" Cut="0.0000000000000000e+00" cType="1" res="-2.4870723485946655e-02" rms="3.7699404358863831e-01" purity="3.2584071159362793e-01" nType="-99"/>
              <Node pos="r" depth="4" NCoef="0" IVar="-1" Cut="0.0000000000000000e+00" cType="1" res="8.0521237105131149e-03" rms="3.8085836172103882e-01" purity="5.8313739299774170e-01" nType="-99"/>
            </Node>
            <Node pos="r" depth="3" NCoef="0" IVar="1" Cut="7.9912539062500000e+04" cType="1" res="7.1335598826408386e-02" rms="2.7580794692039490e-01" purity="8.7773060798645020e-01" nType="0">
              <Node pos="l" depth="4" NCoef="0" IVar="-1" Cut="0.0000000000000000e+00" cType="1" res="6.9478958845138550e-02" rms="2.6647636294364929e-01" purity="8.9364802837371826e-01" nType="-99"/>
              <Node pos="r" depth="4" NCoef="0" IVar="-1" Cut="0.0000000000000000e+00" cType="1" res="3.3456612378358841e-02" rms="2.8683835268020630e-01" purity="8.5304170846939087e-01" nType="-99"/>
            </Node>
          </Node>
          <Node pos="r" depth="2" NCoef="0" IVar="13" Cut="2.4688239097595215e+00" cType="1" res="-1.0345841757953167e-02" rms="3.7787520885467529e-01" purity="4.2718061804771423e-01" nType="0">
            <Node pos="l" depth="3" NCoef="0" IVar="1" Cut="7.3709640625000000e+04" cType="1" res="-2.5708591565489769e-02" rms="3.6491546034812927e-01" purity="2.9169288277626038e-01" nType="0">
              <Node pos="l" depth="4" NCoef="0" IVar="-1" Cut="0.0000000000000000e+00" cType="1" res="-2.5268701836466789e-02" rms="3.5436776280403137e-01" purity="2.2886945307254791e-01" nType="-99"/>
              <Node pos="r" depth="4" NCoef="0" IVar="-1" Cut="0.0000000000000000e+00" cType="1" res="3.5045952536165714e-03" rms="3.8824158906936646e-01" purity="4.4905900955200195e-01" nType="-99"/>
            </Node>
            <Node pos="r" depth="3" NCoef="0" IVar="10" Cut="2.4098975000000000e+05" cType="1" res="2.7491243090480566e-03" rms="3.8810098171234131e-01" purity="5.4266822338104248e-01" nType="0">
              <Node pos="l" depth="4" NCoef="0" IVar="-1" Cut="0.0000000000000000e+00" cType="1" res="5.5705294944345951e-03" rms="3.9662408828735352e-01" purity="5.7712328433990479e-01" nType="-99"/>
              <Node pos="r" depth="4" NCoef="0" IVar="-1" Cut="0.0000000000000000e+00" cType="1" res="-3.3026743680238724e-02" rms="3.2131570577621460e-01" purity="3.1246364116668701e-01" nType="-99"/>
            </Node>
          </Node>
        </Node>
        <Node pos="r" depth="1" NCoef="0" IVar="16" Cut="1.1978760957717896e+00" cType="1" res="-5.9222456067800522e-02" rms="3.1709536910057068e-01" purity="2.0795036852359772e-01" nType="0">
          <Node pos="l" depth="2" NCoef="0" IVar="-1" Cut="0.0000000000000000e+00" cType="1" res="-6.6970147192478180e-02" rms="3.3963772654533386e-01" purity="3.2573771476745605e-01" nType="-99"/>
          <Node pos="r" depth="2" NCoef="0" IVar="4" Cut="9.1772518750000000e+05" cType="1" res="-3.8906253874301910e-02" rms="3.0437093973159790e-01" purity="1.5572388470172882e-01" nType="0">
            <Node pos="l" depth="3" NCoef="0" IVar="-1" Cut="0.0000000000000000e+00" cType="1" res="-1.4452351257205009e-02" rms="3.5255891084671021e-01" purity="2.2630555927753448e-01" nType="-99"/>
            <Node pos="r" depth="3" NCoef="0" IVar="-1" Cut="0.0000000000000000e+00" cType="1" res="-6.3821494579315186e-02" rms="2.3079656064510345e-01" purity="6.9834724068641663e-02" nType="-99"/>
          </Node>
        </Node>
      </Node>
    </BinaryTree>
    <BinaryTree type="DecisionTree" boostWeight="1.0000000000000000e+00" itree="21">
      <Node pos="s" depth="0" NCoef="0" IVar="13" Cut="1.3712668418884277e+00" cType="1" res="5.4090553021524101e-05" rms="3.6335185170173645e-01" purity="5.0000000000000000e-01" nType="0">
        <Node pos="l" depth="1" NCoef="0" IVar="10" Cut="6.5533195312500000e+04" cType="1" res="-3.1611021608114243e-02" rms="3.3280646800994873e-01" purity="1.9962127506732941e-01" nType="0">
          <Node pos="l" depth="2" NCoef="0" IVar="13" Cut="8.4886533021926880e-01" cType="1" res="-2.3370455950498581e-02" rms="3.5538887977600098e-01" purity="2.3366650938987732e-01" nType="0">
            <Node pos="l" depth="3" NCoef="0" IVar="12" Cut="1.2313888072967529e+00" cType="1" res="-4.1875869035720825e-02" rms="3.4012511372566223e-01" purity="1.8874298036098480e-01" nType="0">
              <Node pos="l" depth="4" NCoef="0" IVar="-1" Cut="0.0000000000000000e+00" cType="1" res="-3.8045182824134827e-02" rms="3.7660577893257141e-01" purity="2.0780684053897858e-01" nType="-99"/>
              <Node pos="r" depth="4" NCoef="0" IVar="-1" Cut="0.0000000000000000e+00" cType="1" res="-2.3690689355134964e-02" rms="3.2136866450309753e-01" purity="1.7995601892471313e-01" nType="-99"/>
            </Node>
            <Node pos="r" depth="3" NCoef="0" IVar="1" Cut="8.1847781250000000e+04" cType="1" res="-7.0047993212938309e-03" rms="3.6758562922477722e-01" purity="2.7339553833007812e-01" nType="0">
              <Node pos="l" depth="4" NCoef="0" IVar="-1" Cut="0.0000000000000000e+00" cType="1" res="-1.3142481446266174e-02" rms="3.5018977522850037e-01" purity="2.1730494499206543e-01" nType="-99"/>
              <Node pos="r" depth="4" NCoef="0" IVar="-1" Cut="0.0000000000000000e+00" cType="1" res="1.6985991969704628e-02" rms="4.1586616635322571e-01" purity="4.5264714956283569e-01" nType="-99"/>
            </Node>
          </Node>
          <Node pos="r" depth="2" NCoef="0" IVar="21" Cut="9.6209414062500000e+04" cType="1" res="-6.6815905272960663e-02" rms="2.0697042346000671e-01" purity="5.4175172001123428e-02" nType="0">
            <Node pos="l" depth="3" NCoef="0" IVar="-1" Cut="0.0000000000000000e+00" cType="1" res="-7.0105999708175659e-02" rms="2.5091010332107544e-01" purity="8.2929804921150208e-02" nType="-99"/>
            <Node pos="r" depth="3" NCoef="0" IVar="-1" Cut="0.0000000000000000e+00" cType="1" res="-8.4865704178810120e-02" rms="1.1576747149229050e-01" purity="1.3471233658492565e-02" nType="-99"/>
          </Node>
        </Node>
        <Node pos="r" depth="1" NCoef="0" IVar="3" Cut="4.6188300000000000e+05" cType="1" res="5.0586881116032600e-03" rms="3.6769804358482361e-01" purity="5.4747420549392700e-01" nType="0">
          <Node pos="l" depth="2" NCoef="0" IVar="8" Cut="8.5019460937500000e+04" cType="1" res="7.8278733417391777e-03" rms="3.7158396840095520e-01" purity="5.6338709592819214e-01" nType="0">
            <Node pos="l" depth="3" NCoef="0" IVar="21" Cut="1.2719526562500000e+05" cType="1" res="1.8064331263303757e-02" rms="3.8720664381980896e-01" purity="6.2942600250244141e-01" nType="0">
              <Node pos="l" depth="4" NCoef="0" IVar="-1" Cut="0.0000000000000000e+00" cType="1" res="6.5990826115012169e-03" rms="3.8941979408264160e-01" purity="6.1683911085128784e-01" nType="-99"/>
              <Node pos="r" depth="4" NCoef="0" IVar="-1" Cut="0.0000000000000000e+00" cType="1" res="6.5940573811531067e-02" rms="3.4249922633171082e-01" purity="8.0304735898971558e-01" nType="-99"/>
            </Node>
            <Node pos="r" depth="3" NCoef="0" IVar="16" Cut="1.2605226039886475e+00" cType="1" res="-6.9548569619655609e-02" rms="2.0418010652065277e-01" purity="6.4205177128314972e-02" nType="0">
              <Node pos="l" depth="4" NCoef="0" IVar="-1" Cut="0.0000000000000000e+00" cType="1" res="-8.2439705729484558e-02" rms="2.3073633015155792e-01" purity="9.2949800193309784e-02" nType="-99"/>
              <Node pos="r" depth="4" NCoef="0" IVar="-1" Cut="0.0000000000000000e+00" cType="1" res="-6.4012594521045685e-02" rms="1.8552961945533752e-01" purity="4.8574559390544891e-02" nType="-99"/>
            </Node>
          </Node>
          <Node pos="r" depth="2" NCoef="0" IVar="11" Cut="1.5840502977371216e+00" cType="1" res="-6.4091466367244720e-02" rms="2.4184979498386383e-01" purity="1.5010710060596466e-01" nType="0">
            <Node pos="l" depth="3" NCoef="0" IVar="19" Cut="1.2900694531250000e+05" cType="1" res="-7.7768959105014801e-02" rms="2.8693950176239014e-01" purity="2.1780063211917877e-01" nType="0">
              <Node pos="l" depth="4" NCoef="0" IVar="-1" Cut="0.0000000000000000e+00" cType="1" res="-6.9738425314426422e-02" rms="3.1104990839958191e-01" purity="3.1019610166549683e-01" nType="-99"/>
              <Node pos="r" depth="4" NCoef="0" IVar="-1" Cut="0.0000000000000000e+00" cType="1" res="-5.0505999475717545e-02" rms="2.6108783483505249e-01" purity="1.3379040360450745e-01" nType="-99"/>
            </Node>
            <Node pos="r" depth="3" NCoef="0" IVar="-1" Cut="0.0000000000000000e+00" cType="1" res="-7.7141046524047852e-02" rms="1.1041129380464554e-01" purity="2.1576112136244774e-02" nType="-99"/>
          </Node>
        </Node>
      </Node>
    </BinaryTree>
    <BinaryTree type="DecisionTree" boostWeight="1.0000000000000000e+00" itree="22">
      <Node pos="s" depth="0" NCoef="0" IVar="14" Cut="2.0570728778839111e+00" cType="1" res="-1.8667959011509083e-05" rms="3.6252489686012268e-01" purity="5.0000000000000000e-01" nType="0">
        <Node pos="l" depth="1" NCoef="0" IVar="8" Cut="8.6806945312500000e+04" cType="1" res="-1.0622608475387096e-02" rms="3.7129369378089905e-01" purity="4.6550387144088745e-01" nType="0">
          <Node pos="l" depth="2" NCoef="0" IVar="20" Cut="2.4284666015625000e+04" cType="1" res="-3.0147351790219545e-03" rms="3.9604189991950989e-01" purity="5.4213762283325195e-01" nType="0">
            <Node pos="l" depth="3" NCoef="0" IVar="1" Cut="5.2824820312500000e+04" cType="1" res="-5.1016226410865784e-02" rms="4.0468123555183411e-01" purity="5.2786588668823242e-01" nType="0">
              <Node pos="l" depth="4" NCoef="0" IVar="-1" Cut="0.0000000000000000e+00" cType="1" res="-5.3881376981735229e-02" rms="3.9990738034248352e-01" purity="3.5563236474990845e-01" nType="-99"/>
              <Node pos="r" depth="4" NCoef="0" IVar="-1" Cut="0.0000000000000000e+00" cType="1" res="-2.0409831777215004e-03" rms="4.0338000655174255e-01" purity="6.8889898061752319e-01" nType="-99"/>
            </Node>
            <Node pos="r" depth="3" NCoef="0" IVar="7" Cut="6.8569078125000000e+04" cType="1" res="1.0060618631541729e-02" rms="3.9264008402824402e-01" purity="5.4602515697479248e-01" nType="0">
              <Node pos="l" depth="4" NCoef="0" IVar="-1" Cut="0.0000000000000000e+00" cType="1" res="1.5321685932576656e-02" rms="3.9123150706291199e-01" purity="6.4148455858230591e-01" nType="-99"/>
              <Node pos="r" depth="4" NCoef="0" IVar="-1" Cut="0.0000000000000000e+00" cType="1" res="-8.8793002068996429e-03" rms="3.9340925216674805e-01" purity="4.0198478102684021e-01" nType="-99"/>
            </Node>
          </Node>
          <Node pos="r" depth="2" NCoef="0" IVar="16" Cut="1.2182360887527466e+00" cType="1" res="-5.2821919322013855e-02" rms="1.7442062497138977e-01" purity="4.0432345122098923e-02" nType="0">
            <Node pos="l" depth="3" NCoef="0" IVar="11" Cut="1.9722580909729004e+00" cType="1" res="-8.5322745144367218e-02" rms="1.9773882627487183e-01" purity="5.3839229047298431e-02" nType="0">
              <Node pos="l" depth="4" NCoef="0" IVar="-1" Cut="0.0000000000000000e+00" cType="1" res="-9.7255788743495941e-02" rms="1.9916543364524841e-01" purity="5.9693604707717896e-02" nType="-99"/>
              <Node pos="r" depth="4" NCoef="0" IVar="-1" Cut="0.0000000000000000e+00" cType="1" res="-6.7003108561038971e-02" rms="1.9060675799846649e-01" purity="4.7503240406513214e-02" nType="-99"/>
            </Node>
            <Node pos="r" depth="3" NCoef="0" IVar="15" Cut="1.3388040065765381e+00" cType="1" res="-4.1455406695604324e-02" rms="1.6397850215435028e-01" purity="3.5743553191423416e-02" nType="0">
              <Node pos="l" depth="4" NCoef="0" IVar="-1" Cut="0.0000000000000000e+00" cType="1" res="-4.0070559829473495e-02" rms="1.9773159921169281e-01" purity="5.7731438428163528e-02" nType="-99"/>
              <Node pos="r" depth="4" NCoef="0" IVar="-1" Cut="0.0000000000000000e+00" cType="1" res="-7.5960978865623474e-02" rms="1.4689873158931732e-01" purity="2.6386827230453491e-02" nType="-99"/>
            </Node>
          </Node>
        </Node>
        <Node pos="r" depth="1" NCoef="0" IVar="16" Cut="1.7535141706466675e+00" cType="1" res="1.4097134582698345e-02" rms="3.5001367330551147e-01" purity="5.4592067003250122e-01" nType="0">
          <Node pos="l" depth="2" NCoef="0" IVar="8" Cut="1.2492447656250000e+05" cType="1" res="2.6129888370633125e-02" rms="3.3958342671394348e-01" purity="6.5593141317367554e-01" nType="0">
            <Node pos="l" depth="3" NCoef="0" IVar="8" Cut="9.6405054687500000e+04" cType="1" res="3.0961973592638969e-02" rms="3.4727704524993896e-01" purity="6.9222688674926758e-01" nType="0">
              <Node pos="l" depth="4" NCoef="0" IVar="-1" Cut="0.0000000000000000e+00" cType="1" res="2.4660190567374229e-02" rms="3.5323408246040344e-01" purity="7.3429626226425171e-01" nType="-99"/>
              <Node pos="r" depth="4" NCoef="0" IVar="-1" Cut="0.0000000000000000e+00" cType="1" res="-8.0579407513141632e-02" rms="2.0797476172447205e-01" purity="6.1388190835714340e-02" nType="-99"/>
            </Node>
            <Node pos="r" depth="3" NCoef="0" IVar="-1" Cut="0.0000000000000000e+00" cType="1" res="-8.8547870516777039e-02" rms="1.2269058823585510e-01" purity="1.9415142014622688e-02" nType="-99"/>
          </Node>
          <Node pos="r" depth="2" NCoef="0" IVar="0" Cut="2.3333332538604736e+00" cType="1" res="-1.2504546903073788e-02" rms="3.7065231800079346e-01" purity="3.0271193385124207e-01" nType="0">
            <Node pos="l" depth="3" NCoef="0" IVar="3" Cut="1.3387185937500000e+05" cType="1" res="-4.8730414360761642e-02" rms="3.6601337790489197e-01" purity="2.4266518652439117e-01" nType="0">
              <Node pos="l" depth="4" NCoef="0" IVar="-1" Cut="0.0000000000000000e+00" cType="1" res="-1.2156011536717415e-02" rms="4.2264133691787720e-01" purity="2.9991418123245239e-01" nType="-99"/>
              <Node pos="r" depth="4" NCoef="0" IVar="-1" Cut="0.0000000000000000e+00" cType="1" res="-4.5002661645412445e-02" rms="3.2474622130393982e-01" purity="2.0702214539051056e-01" nType="-99"/>
            </Node>
            <Node pos="r" depth="3" NCoef="0" IVar="0" Cut="5.1428570747375488e+00" cType="1" res="-6.3334271544590592e-04" rms="3.7139204144477844e-01" purity="3.2238924503326416e-01" nType="0">
              <Node pos="l" depth="4" NCoef="0" IVar="-1" Cut="0.0000000000000000e+00" cType="1" res="2.6260010898113251e-02" rms="3.8168081641197205e-01" purity="5.8779412508010864e-01" nType="-99"/>
              <Node pos="r" depth="4" NCoef="0" IVar="-1" Cut="0.0000000000000000e+00" cType="1" res="-1.0361932218074799e-02" rms="3.6672160029411316e-01" purity="2.3685614764690399e-01" nType="-99"/>
            </Node>
          </Node>
        </Node>
      </Node>
    </BinaryTree>
    <BinaryTree type="DecisionTree" boostWeight="1.0000000000000000e+00" itree="23">
      <Node pos="s" depth="0" NCoef="0" IVar="11" Cut="4.9856403470039368e-01" cType="1" res="-7.7006516221445054e-05" rms="3.6160102486610413e-01" purity="5.0000000000000000e-01" nType="0">
        <Node pos="l" depth="1" NCoef="0" IVar="20" Cut="1.4967666992187500e+04" cType="1" res="2.7124708518385887e-02" rms="3.4309434890747070e-01" purity="7.0127981901168823e-01" nType="0">
          <Node pos="l" depth="2" NCoef="0" IVar="11" Cut="3.8479435443878174e-01" cType="1" res="-3.5073187202215195e-02" rms="3.9349424839019775e-01" purity="5.1973229646682739e-01" nType="0">
            <Node pos="l" depth="3" NCoef="0" IVar="-1" Cut="0.0000000000000000e+00" cType="1" res="-4.4438280165195465e-03" rms="3.8902643322944641e-01" purity="5.9449672698974609e-01" nType="-99"/>
            <Node pos="r" depth="3" NCoef="0" IVar="-1" Cut="0.0000000000000000e+00" cType="1" res="-3.8208711892366409e-02" rms="3.9643090963363647e-01" purity="4.2149746417999268e-01" nType="-99"/>
          </Node>
          <Node pos="r" depth="2" NCoef="0" IVar="0" Cut="2.3333332538604736e+00" cType="1" res="3.9223004132509232e-02" rms="3.3104950189590454e-01" purity="7.3659318685531616e-01" nType="0">
            <Node pos="l" depth="3" NCoef="0" IVar="2" Cut="5.6737956250000000e+05" cType="1" res="7.8579335240647197e-04" rms="3.7006828188896179e-01" purity="6.6084426641464233e-01" nType="0">
              <Node pos="l" depth="4" NCoef="0" IVar="-1" Cut="0.0000000000000000e+00" cType="1" res="1.5026066452264786e-02" rms="3.5659459233283997e-01" purity="7.6209098100662231e-01" nType="-99"/>
              <Node pos="r" depth="4" NCoef="0" IVar="-1" Cut="0.0000000000000000e+00" cType="1" res="-2.6153143495321274e-02" rms="3.9231458306312561e-01" purity="4.5229816436767578e-01" nType="-99"/>
            </Node>
            <Node pos="r" depth="3" NCoef="0" IVar="0" Cut="6.0952382087707520e+00" cType="1" res="5.2846573293209076e-02" rms="3.1494167447090149e-01" purity="7.6344132423400879e-01" nType="0">
              <Node pos="l" depth="4" NCoef="0" IVar="-1" Cut="0.0000000000000000e+00" cType="1" res="7.1786016225814819e-02" rms="2.3786628246307373e-01" purity="9.0347599983215332e-01" nType="-99"/>
              <Node pos="r" depth="4" NCoef="0" IVar="-1" Cut="0.0000000000000000e+00" cType="1" res="1.1899369768798351e-02" rms="3.8043740391731262e-01" purity="6.0709458589553833e-01" nType="-99"/>
            </Node>
          </Node>
        </Node>
        <Node pos="r" depth="1" NCoef="0" IVar="5" Cut="2.2984054687500000e+05" cType="1" res="-4.9366015009582043e-03" rms="3.6459481716156006e-01" purity="4.6404129266738892e-01" nType="0">
          <Node pos="l" depth="2" NCoef="0" IVar="16" Cut="7.6148426532745361e-01" cType="1" res="4.6155671589076519e-04" rms="3.6973714828491211e-01" purity="4.9684962630271912e-01" nType="0">
            <Node pos="l" depth="3" NCoef="0" IVar="19" Cut="2.9735417968750000e+04" cType="1" res="2.6152957230806351e-02" rms="3.2000389695167542e-01" purity="7.4090862274169922e-01" nType="0">
              <Node pos="l" depth="4" NCoef="0" IVar="-1" Cut="0.0000000000000000e+00" cType="1" res="-4.1231880895793438e-03" rms="3.7198856472969055e-01" purity="6.0265982151031494e-01" nType="-99"/>
              <Node pos="r" depth="4" NCoef="0" IVar="-1" Cut="0.0000000000000000e+00" cType="1" res="4.4479500502347946e-02" rms="2.6991230249404907e-01" purity="8.4876996278762817e-01" nType="-99"/>
            </Node>
            <Node pos="r" depth="3" NCoef="0" IVar="15" Cut="7.6479506492614746e-01" cType="1" res="-5.6645763106644154e-03" rms="3.8038167357444763e-01" purity="4.3865355849266052e-01" nType="0">
              <Node pos="l" depth="4" NCoef="0" IVar="-1" Cut="0.0000000000000000e+00" cType="1" res="1.7667038366198540e-02" rms="4.0527516603469849e-01" purity="4.8526704311370850e-01" nType="-99"/>
              <Node pos="r" depth="4" NCoef="0" IVar="-1" Cut="0.0000000000000000e+00" cType="1" res="-5.8670430444180965e-03" rms="3.7740316987037659e-01" purity="4.3366062641143799e-01" nType="-99"/>
            </Node>
          </Node>
          <Node pos="r" depth="2" NCoef="0" IVar="2" Cut="4.5967728125000000e+05" cType="1" res="-2.9019040986895561e-02" rms="3.3966603875160217e-01" purity="3.1767576932907104e-01" nType="0">
            <Node pos="l" depth="3" NCoef="0" IVar="2" Cut="4.0101656250000000e+05" cType="1" res="2.4728324264287949e-02" rms="4.0780046582221985e-01" purity="6.1333489418029785e-01" nType="0">
              <Node pos="l" depth="4" NCoef="0" IVar="-1" Cut="0.0000000000000000e+00" cType="1" res="2.9470680281519890e-02" rms="4.0653678774833679e-01" purity="6.6960251331329346e-01" nType="-99"/>
              <Node pos="r" depth="4" NCoef="0" IVar="-1" Cut="0.0000000000000000e+00" cType="1" res="-6.5925237722694874e-03" rms="4.0667918324470520e-01" purity="5.3842210769653320e-01" nType="-99"/>
            </Node>
            <Node pos="r" depth="3" NCoef="0" IVar="14" Cut="1.6814742088317871e+00" cType="1" res="-4.0445189923048019e-02" rms="3.2218241691589355e-01" purity="2.5482159852981567e-01" nType="0">
              <Node pos="l" depth="4" NCoef="0" IVar="-1" Cut="0.0000000000000000e+00" cType="1" res="-4.6959456056356430e-02" rms="3.1981182098388672e-01" purity="2.1025285124778748e-01" nType="-99"/>
              <Node pos="r" depth="4" NCoef="0" IVar="-1" Cut="0.0000000000000000e+00" cType="1" res="-2.1132748574018478e-02" rms="3.2299876213073730e-01" purity="2.8309777379035950e-01" nType="-99"/>
            </Node>
          </Node>
        </Node>
      </Node>
    </BinaryTree>
    <BinaryTree type="DecisionTree" boostWeight="1.0000000000000000e+00" itree="24">
      <Node pos="s" depth="0" NCoef="0" IVar="0" Cut="5.3333334922790527e+00" cType="1" res="-2.1703859601984732e-05" rms="3.6103013157844543e-01" purity="5.0000000000000000e-01" nType="0">
        <Node pos="l" depth="1" NCoef="0" IVar="0" Cut="3.0952382087707520e+00" cType="1" res="1.0716425254940987e-02" rms="3.4960794448852539e-01" purity="5.9258693456649780e-01" nType="0">
          <Node pos="l" depth="2" NCoef="0" IVar="1" Cut="8.3570585937500000e+04" cType="1" res="-7.9513341188430786e-03" rms="3.7497833371162415e-01" purity="4.7118261456489563e-01" nType="0">
            <Node pos="l" depth="3" NCoef="0" IVar="1" Cut="2.0007066406250000e+04" cType="1" res="-1.7751969397068024e-02" rms="3.7906774878501892e-01" purity="4.2403742671012878e-01" nType="0">
              <Node pos="l" depth="4" NCoef="0" IVar="-1" Cut="0.0000000000000000e+00" cType="1" res="-5.0325091928243637e-02" rms="3.4649485349655151e-01" purity="2.4167427420616150e-01" nType="-99"/>
              <Node pos="r" depth="4" NCoef="0" IVar="-1" Cut="0.0000000000000000e+00" cType="1" res="-2.8311463538557291e-03" rms="3.8456571102142334e-01" purity="4.6384286880493164e-01" nType="-99"/>
            </Node>
            <Node pos="r" depth="3" NCoef="0" IVar="8" Cut="6.0734585937500000e+04" cType="1" res="1.7345396801829338e-02" rms="3.6298996210098267e-01" purity="5.9287053346633911e-01" nType="0">
              <Node pos="l" depth="4" NCoef="0" IVar="-1" Cut="0.0000000000000000e+00" cType="1" res="2.3435402661561966e-02" rms="3.8000378012657166e-01" purity="7.5277072191238403e-01" nType="-99"/>
              <Node pos="r" depth="4" NCoef="0" IVar="-1" Cut="0.0000000000000000e+00" cType="1" res="-2.5865251198410988e-02" rms="3.1629690527915955e-01" purity="2.3959329724311829e-01" nType="-99"/>
            </Node>
          </Node>
          <Node pos="r" depth="2" NCoef="0" IVar="1" Cut="4.5988226562500000e+04" cType="1" res="5.3235098719596863e-02" rms="2.7884405851364136e-01" purity="8.6910378932952881e-01" nType="0">
            <Node pos="l" depth="3" NCoef="0" IVar="-1" Cut="0.0000000000000000e+00" cType="1" res="6.8880386650562286e-02" rms="2.7028897404670715e-01" purity="8.9175623655319214e-01" nType="-99"/>
            <Node pos="r" depth="3" NCoef="0" IVar="11" Cut="1.1744242906570435e+00" cType="1" res="3.9389811456203461e-02" rms="2.8085151314735413e-01" purity="8.6036568880081177e-01" nType="0">
              <Node pos="l" depth="4" NCoef="0" IVar="-1" Cut="0.0000000000000000e+00" cType="1" res="5.5871691554784775e-02" rms="2.4149303138256073e-01" purity="9.2999577522277832e-01" nType="-99"/>
              <Node pos="r" depth="4" NCoef="0" IVar="-1" Cut="0.0000000000000000e+00" cType="1" res="7.3637943714857101e-03" rms="3.4129664301872253e-01" purity="7.2855818271636963e-01" nType="-99"/>
            </Node>
          </Node>
        </Node>
        <Node pos="r" depth="1" NCoef="0" IVar="14" Cut="2.3136525154113770e+00" cType="1" res="-1.0211137123405933e-02" rms="3.7125706672668457e-01" purity="4.1214406490325928e-01" nType="0">
          <Node pos="l" depth="2" NCoef="0" IVar="1" Cut="7.9088960937500000e+04" cType="1" res="-1.7606891691684723e-02" rms="3.7520235776901245e-01" purity="3.8904529809951782e-01" nType="0">
            <Node pos="l" depth="3" NCoef="0" IVar="1" Cut="3.0214708984375000e+04" cType="1" res="-3.2819435000419617e-02" rms="3.7557688355445862e-01" purity="3.3458012342453003e-01" nType="0">
              <Node pos="l" depth="4" NCoef="0" IVar="-1" Cut="0.0000000000000000e+00" cType="1" res="-5.1128525286912918e-02" rms="3.4691849350929260e-01" purity="2.1168547868728638e-01" nType="-99"/>
              <Node pos="r" depth="4" NCoef="0" IVar="-1" Cut="0.0000000000000000e+00" cType="1" res="-5.1519908010959625e-03" rms="3.8875809311866760e-01" purity="4.0404251217842102e-01" nType="-99"/>
            </Node>
            <Node pos="r" depth="3" NCoef="0" IVar="2" Cut="3.5196434375000000e+05" cType="1" res="1.9335431978106499e-02" rms="3.7170860171318054e-01" purity="5.2130925655364990e-01" nType="0">
              <Node pos="l" depth="4" NCoef="0" IVar="-1" Cut="0.0000000000000000e+00" cType="1" res="3.4678637981414795e-02" rms="3.9175218343734741e-01" purity="6.9491714239120483e-01" nType="-99"/>
              <Node pos="r" depth="4" NCoef="0" IVar="-1" Cut="0.0000000000000000e+00" cType="1" res="-9.2871217057108879e-03" rms="3.5269647836685181e-01" purity="3.9474141597747803e-01" nType="-99"/>
            </Node>
          </Node>
          <Node pos="r" depth="2" NCoef="0" IVar="12" Cut="1.8035128116607666e+00" cType="1" res="5.6102965027093887e-03" rms="3.6216616630554199e-01" purity="4.6155834197998047e-01" nType="0">
            <Node pos="l" depth="3" NCoef="0" IVar="16" Cut="2.5197920799255371e+00" cType="1" res="-3.5863820463418961e-02" rms="3.5612043738365173e-01" purity="2.1323853731155396e-01" nType="0">
              <Node pos="l" depth="4" NCoef="0" IVar="-1" Cut="0.0000000000000000e+00" cType="1" res="-3.1019572168588638e-02" rms="3.5807734727859497e-01" purity="2.3302680253982544e-01" nType="-99"/>
              <Node pos="r" depth="4" NCoef="0" IVar="-1" Cut="0.0000000000000000e+00" cType="1" res="-1.0857085697352886e-02" rms="3.5209029912948608e-01" purity="1.8294459581375122e-01" nType="-99"/>
            </Node>
            <Node pos="r" depth="3" NCoef="0" IVar="19" Cut="9.0819406250000000e+04" cType="1" res="1.4380903914570808e-02" rms="3.6282500624656677e-01" purity="5.1407092809677124e-01" nType="0">
              <Node pos="l" depth="4" NCoef="0" IVar="-1" Cut="0.0000000000000000e+00" cType="1" res="1.3633562251925468e-02" rms="3.6556059122085571e-01" purity="5.9640985727310181e-01" nType="-99"/>
              <Node pos="r" depth="4" NCoef="0" IVar="-1" Cut="0.0000000000000000e+00" cType="1" res="-6.4522982574999332e-03" rms="3.5267210006713867e-01" purity="2.4440541863441467e-01" nType="-99"/>
            </Node>
          </Node>
        </Node>
      </Node>
    </BinaryTree>
    <BinaryTree type="DecisionTree" boostWeight="1.0000000000000000e+00" itree="25">
      <Node pos="s" depth="0" NCoef="0" IVar="12" Cut="2.0714859962463379e+00" cType="1" res="1.4911575817677658e-05" rms="3.6003971099853516e-01" purity="5.0000000000000000e-01" nType="0">
        <Node pos="l" depth="1" NCoef="0" IVar="2" Cut="3.5297062500000000e+05" cType="1" res="-1.9267359748482704e-02" rms="3.8310110569000244e-01" purity="3.7926226854324341e-01" nType="0">
          <Node pos="l" depth="2" NCoef="0" IVar="20" Cut="1.8663871093750000e+04" cType="1" res="7.7034253627061844e-03" rms="4.1008004546165466e-01" purity="5.0443267822265625e-01" nType="0">
            <Node pos="l" depth="3" NCoef="0" IVar="19" Cut="4.2306500000000000e+04" cType="1" res="-4.0481194853782654e-02" rms="3.9417442679405212e-01" purity="3.5692539811134338e-01" nType="0">
              <Node pos="l" depth="4" NCoef="0" IVar="-1" Cut="0.0000000000000000e+00" cType="1" res="-3.8669019937515259e-02" rms="3.7834510207176208e-01" purity="3.2858830690383911e-01" nType="-99"/>
              <Node pos="r" depth="4" NCoef="0" IVar="-1" Cut="0.0000000000000000e+00" cType="1" res="-7.7335620298981667e-03" rms="4.0569999814033508e-01" purity="3.8168674707412720e-01" nType="-99"/>
            </Node>
            <Node pos="r" depth="3" NCoef="0" IVar="7" Cut="6.5402320312500000e+04" cType="1" res="2.2786872461438179e-02" rms="4.1378223896026611e-01" purity="5.5060750246047974e-01" nType="0">
              <Node pos="l" depth="4" NCoef="0" IVar="-1" Cut="0.0000000000000000e+00" cType="1" res="2.2676078602671623e-02" rms="4.1009539365768433e-01" purity="5.9840637445449829e-01" nType="-99"/>
              <Node pos="r" depth="4" NCoef="0" IVar="-1" Cut="0.0000000000000000e+00" cType="1" res="-2.5599569082260132e-02" rms="4.1973492503166199e-01" purity="3.7177678942680359e-01" nType="-99"/>
            </Node>
          </Node>
          <Node pos="r" depth="2" NCoef="0" IVar="9" Cut="5.7528109375000000e+04" cType="1" res="-4.3134901672601700e-02" rms="3.5583150386810303e-01" purity="2.6849392056465149e-01" nType="0">
            <Node pos="l" depth="3" NCoef="0" IVar="17" Cut="9.5260726562500000e+04" cType="1" res="-6.4533692784607410e-03" rms="4.1182717680931091e-01" purity="3.7151607871055603e-01" nType="0">
              <Node pos="l" depth="4" NCoef="0" IVar="-1" Cut="0.0000000000000000e+00" cType="1" res="-1.9790472462773323e-02" rms="4.0134403109550476e-01" purity="3.7957030534744263e-01" nType="-99"/>
              <Node pos="r" depth="4" NCoef="0" IVar="-1" Cut="0.0000000000000000e+00" cType="1" res="1.8837850540876389e-02" rms="4.2198985815048218e-01" purity="3.6091887950897217e-01" nType="-99"/>
            </Node>
            <Node pos="r" depth="3" NCoef="0" IVar="0" Cut="3.3333332538604736e+00" cType="1" res="-6.0432240366935730e-02" rms="3.2467266917228699e-01" purity="2.1991336345672607e-01" nType="0">
              <Node pos="l" depth="4" NCoef="0" IVar="-1" Cut="0.0000000000000000e+00" cType="1" res="-5.8205261826515198e-02" rms="3.2587566971778870e-01" purity="1.9904242455959320e-01" nType="-99"/>
              <Node pos="r" depth="4" NCoef="0" IVar="-1" Cut="0.0000000000000000e+00" cType="1" res="-3.6176908761262894e-02" rms="3.2322871685028076e-01" purity="2.3161365091800690e-01" nType="-99"/>
            </Node>
          </Node>
        </Node>
        <Node pos="r" depth="1" NCoef="0" IVar="11" Cut="9.7634357213973999e-01" cType="1" res="4.8601883463561535e-03" rms="3.5384356975555420e-01" purity="5.3033912181854248e-01" nType="0">
          <Node pos="l" depth="2" NCoef="0" IVar="20" Cut="2.3392281250000000e+04" cType="1" res="1.9550917670130730e-02" rms="3.4901893138885498e-01" purity="7.3148453235626221e-01" nType="0">
            <Node pos="l" depth="3" NCoef="0" IVar="1" Cut="3.3181890625000000e+04" cType="1" res="-2.4478221312165260e-02" rms="3.7974569201469421e-01" purity="6.6575008630752563e-01" nType="0">
              <Node pos="l" depth="4" NCoef="0" IVar="-1" Cut="0.0000000000000000e+00" cType="1" res="-6.4267978072166443e-02" rms="3.9942559599876404e-01" purity="4.0608006715774536e-01" nType="-99"/>
              <Node pos="r" depth="4" NCoef="0" IVar="-1" Cut="0.0000000000000000e+00" cType="1" res="5.5128261446952820e-03" rms="3.6704769730567932e-01" purity="7.5233113765716553e-01" nType="-99"/>
            </Node>
            <Node pos="r" depth="3" NCoef="0" IVar="8" Cut="6.1275937500000000e+04" cType="1" res="3.8057327270507812e-02" rms="3.3353382349014282e-01" purity="7.5911414623260498e-01" nType="0">
              <Node pos="l" depth="4" NCoef="0" IVar="-1" Cut="0.0000000000000000e+00" cType="1" res="3.3962760120630264e-02" rms="3.3195787668228149e-01" purity="8.2234162092208862e-01" nType="-99"/>
              <Node pos="r" depth="4" NCoef="0" IVar="-1" Cut="0.0000000000000000e+00" cType="1" res="-2.1239804103970528e-02" rms="3.3585974574089050e-01" purity="3.4658488631248474e-01" nType="-99"/>
            </Node>
          </Node>
          <Node pos="r" depth="2" NCoef="0" IVar="11" Cut="2.1366732120513916e+00" cType="1" res="-6.3899545930325985e-03" rms="3.5708582401275635e-01" purity="3.7630224227905273e-01" nType="0">
            <Node pos="l" depth="3" NCoef="0" IVar="10" Cut="2.3917348437500000e+05" cType="1" res="7.7675207285210490e-04" rms="3.7777212262153625e-01" purity="4.5346021652221680e-01" nType="0">
              <Node pos="l" depth="4" NCoef="0" IVar="-1" Cut="0.0000000000000000e+00" cType="1" res="3.0143572948873043e-03" rms="3.8523066043853760e-01" purity="4.7581461071968079e-01" nType="-99"/>
              <Node pos="r" depth="4" NCoef="0" IVar="-1" Cut="0.0000000000000000e+00" cType="1" res="-4.5290526002645493e-02" rms="2.7014973759651184e-01" purity="1.9009327888488770e-01" nType="-99"/>
            </Node>
            <Node pos="r" depth="3" NCoef="0" IVar="15" Cut="1.0345126390457153e+00" cType="1" res="-2.6618957519531250e-02" rms="2.8991007804870605e-01" purity="1.5851350128650665e-01" nType="0">
              <Node pos="l" depth="4" NCoef="0" IVar="-1" Cut="0.0000000000000000e+00" cType="1" res="3.3413488417863846e-03" rms="3.2985725998878479e-01" purity="2.0775730907917023e-01" nType="-99"/>
              <Node pos="r" depth="4" NCoef="0" IVar="-1" Cut="0.0000000000000000e+00" cType="1" res="-3.1690761446952820e-02" rms="2.7950459718704224e-01" purity="1.4725141227245331e-01" nType="-99"/>
            </Node>
          </Node>
        </Node>
      </Node>
    </BinaryTree>
    <BinaryTree type="DecisionTree" boostWeight="1.0000000000000000e+00" itree="26">
      <Node pos="s" depth="0" NCoef="0" IVar="3" Cut="4.4626618750000000e+05" cType="1" res="1.6262250937870704e-05" rms="3.5917910933494568e-01" purity="5.0000000000000000e-01" nType="0">
        <Node pos="l" depth="1" NCoef="0" IVar="20" Cut="7.5909031250000000e+04" cType="1" res="1.9138695206493139e-03" rms="3.6317458748817444e-01" purity="5.1428800821304321e-01" nType="0">
          <Node pos="l" depth="2" NCoef="0" IVar="20" Cut="2.5078460937500000e+04" cType="1" res="9.2894751578569412e-03" rms="3.8316085934638977e-01" purity="5.9555608034133911e-01" nType="0">
            <Node pos="l" depth="3" NCoef="0" IVar="11" Cut="4.4321396946907043e-01" cType="1" res="-2.5720912963151932e-02" rms="3.8659667968750000e-01" purity="5.5856931209564209e-01" nType="0">
              <Node pos="l" depth="4" NCoef="0" IVar="-1" Cut="0.0000000000000000e+00" cType="1" res="1.3665602542459965e-02" rms="3.5631060600280762e-01" purity="6.8938940763473511e-01" nType="-99"/>
              <Node pos="r" depth="4" NCoef="0" IVar="-1" Cut="0.0000000000000000e+00" cType="1" res="-2.9592381790280342e-02" rms="4.0066990256309509e-01" purity="4.8247563838958740e-01" nType="-99"/>
            </Node>
            <Node pos="r" depth="3" NCoef="0" IVar="7" Cut="1.1938964843750000e+05" cType="1" res="2.0296674221754074e-02" rms="3.8141080737113953e-01" purity="6.0718470811843872e-01" nType="0">
              <Node pos="l" depth="4" NCoef="0" IVar="-1" Cut="0.0000000000000000e+00" cType="1" res="8.6942324414849281e-03" rms="3.8312211632728577e-01" purity="5.9181755781173706e-01" nType="-99"/>
              <Node pos="r" depth="4" NCoef="0" IVar="-1" Cut="0.0000000000000000e+00" cType="1" res="4.4911988079547882e-02" rms="3.6188533902168274e-01" purity="7.4209541082382202e-01" nType="-99"/>
            </Node>
          </Node>
          <Node pos="r" depth="2" NCoef="0" IVar="8" Cut="9.2361812500000000e+04" cType="1" res="-3.7208046764135361e-02" rms="2.2573533654212952e-01" purity="8.3223305642604828e-02" nType="0">
            <Node pos="l" depth="3" NCoef="0" IVar="2" Cut="3.8108162500000000e+05" cType="1" res="-1.4805579558014870e-02" rms="3.4382814168930054e-01" purity="2.0750969648361206e-01" nType="0">
              <Node pos="l" depth="4" NCoef="0" IVar="-1" Cut="0.0000000000000000e+00" cType="1" res="6.5949251875281334e-03" rms="3.7701395153999329e-01" purity="2.7722725272178650e-01" nType="-99"/>
              <Node pos="r" depth="4" NCoef="0" IVar="-1" Cut="0.0000000000000000e+00" cType="1" res="-2.7417466044425964e-02" rms="3.1700977683067322e-01" purity="1.5804786980152130e-01" nType="-99"/>
            </Node>
            <Node pos="r" depth="3" NCoef="0" IVar="16" Cut="1.2574127912521362e+00" cType="1" res="-4.8208374530076981e-02" rms="1.3251990079879761e-01" purity="2.2194711491465569e-02" nType="0">
              <Node pos="l" depth="4" NCoef="0" IVar="-1" Cut="0.0000000000000000e+00" cType="1" res="-8.5319049656391144e-02" rms="1.6456133127212524e-01" purity="3.7777416408061981e-02" nType="-99"/>
              <Node pos="r" depth="4" NCoef="0" IVar="-1" Cut="0.0000000000000000e+00" cType="1" res="-7.8518301248550415e-02" rms="1.1290226131677628e-01" purity="1.4846111647784710e-02" nType="-99"/>
            </Node>
          </Node>
        </Node>
        <Node pos="r" depth="1" NCoef="0" IVar="11" Cut="1.5840502977371216e+00" cType="1" res="-4.6480804681777954e-02" rms="2.3672747611999512e-01" purity="1.4990006387233734e-01" nType="0">
          <Node pos="l" depth="2" NCoef="0" IVar="13" Cut="3.1382167339324951e+00" cType="1" res="-6.0161359608173370e-02" rms="2.8583732247352600e-01" purity="2.2863686084747314e-01" nType="0">
            <Node pos="l" depth="3" NCoef="0" IVar="-1" Cut="0.0000000000000000e+00" cType="1" res="-4.3216086924076080e-02" rms="2.7003145217895508e-01" purity="2.1111270785331726e-01" nType="-99"/>
            <Node pos="r" depth="3" NCoef="0" IVar="-1" Cut="0.0000000000000000e+00" cType="1" res="-6.0544166713953018e-02" rms="3.0340832471847534e-01" purity="2.5053635239601135e-01" nType="-99"/>
          </Node>
          <Node pos="r" depth="2" NCoef="0" IVar="-1" Cut="0.0000000000000000e+00" cType="1" res="-6.5295383334159851e-02" rms="1.1283910274505615e-01" purity="1.9553594291210175e-02" nType="-99"/>
        </Node>
      </Node>
    </BinaryTree>
    <BinaryTree type="DecisionTree" boostWeight="1.0000000000000000e+00" itree="27">
      <Node pos="s" depth="0" NCoef="0" IVar="0" Cut="7.3333334922790527e+00" cType="1" res="-4.0759437979431823e-05" rms="3.5847994685173035e-01" purity="5.0000000000000000e-01" nType="0">
        <Node pos="l" depth="1" NCoef="0" IVar="0" Cut="1.2857142686843872e+00" cType="1" res="4.5784269459545612e-03" rms="3.5560178756713867e-01" purity="5.4426568746566772e-01" nType="0">
          <Node pos="l" depth="2" NCoef="0" IVar="1" Cut="9.2285515625000000e+04" cType="1" res="0.0000000000000000e+00" rms="0.0000000000000000e+00" purity="3.7987464666366577e-01" nType="0">
            <Node pos="l" depth="3" NCoef="0" IVar="1" Cut="2.6532097656250000e+04" cType="1" res="0.0000000000000000e+00" rms="0.0000000000000000e+00" purity="3.3861088752746582e-01" nType="0">
              <Node pos="l" depth="4" NCoef="0" IVar="-1" Cut="0.0000000000000000e+00" cType="1" res="-4.7610208392143250e-02" rms="3.2894465327262878e-01" purity="1.7404322326183319e-01" nType="-99"/>
              <Node pos="r" depth="4" NCoef="0" IVar="-1" Cut="0.0000000000000000e+00" cType="1" res="-1.1200961656868458e-02" rms="3.8327708840370178e-01" purity="4.0982258319854736e-01" nType="-99"/>
            </Node>
            <Node pos="r" depth="3" NCoef="0" IVar="12" Cut="2.6692528724670410e+00" cType="1" res="0.0000000000000000e+00" rms="0.0000000000000000e+00" purity="5.3559160232543945e-01" nType="0">
              <Node pos="l" depth="4" NCoef="0" IVar="-1" Cut="0.0000000000000000e+00" cType="1" res="-1.3116495683789253e-02" rms="3.7525627017021179e-01" purity="4.5936894416809082e-01" nType="-99"/>
              <Node pos="r" depth="4" NCoef="0" IVar="-1" Cut="0.0000000000000000e+00" cType="1" res="2.7736153453588486e-02" rms="3.5192069411277771e-01" purity="6.0259383916854858e-01" nType="-99"/>
            </Node>
          </Node>
          <Node pos="r" depth="2" NCoef="0" IVar="5" Cut="2.2984054687500000e+05" cType="1" res="9.4981612637639046e-03" rms="3.5310092568397522e-01" purity="5.7401639223098755e-01" nType="0">
            <Node pos="l" depth="3" NCoef="0" IVar="16" Cut="1.7413122653961182e+00" cType="1" res="1.4528915286064148e-02" rms="3.5365301370620728e-01" purity="6.0815739631652832e-01" nType="0">
              <Node pos="l" depth="4" NCoef="0" IVar="-1" Cut="0.0000000000000000e+00" cType="1" res="1.6240088269114494e-02" rms="3.3591932058334351e-01" purity="7.0303285121917725e-01" nType="-99"/>
              <Node pos="r" depth="4" NCoef="0" IVar="-1" Cut="0.0000000000000000e+00" cType="1" res="-1.2075101258233190e-03" rms="3.8672187924385071e-01" purity="4.1503220796585083e-01" nType="-99"/>
            </Node>
            <Node pos="r" depth="3" NCoef="0" IVar="4" Cut="5.0313921875000000e+05" cType="1" res="-1.2932169251143932e-02" rms="3.4974935650825500e-01" purity="4.2179375886917114e-01" nType="0">
              <Node pos="l" depth="4" NCoef="0" IVar="-1" Cut="0.0000000000000000e+00" cType="1" res="7.7681606635451317e-03" rms="3.8715320825576782e-01" purity="5.7611715793609619e-01" nType="-99"/>
              <Node pos="r" depth="4" NCoef="0" IVar="-1" Cut="0.0000000000000000e+00" cType="1" res="-2.2450108081102371e-02" rms="3.2357826828956604e-01" purity="3.2672280073165894e-01" nType="-99"/>
            </Node>
          </Node>
        </Node>
        <Node pos="r" depth="1" NCoef="0" IVar="1" Cut="7.5549445312500000e+04" cType="1" res="0.0000000000000000e+00" rms="0.0000000000000000e+00" purity="3.4550502896308899e-01" nType="0">
          <Node pos="l" depth="2" NCoef="0" IVar="1" Cut="1.8155837890625000e+04" cType="1" res="0.0000000000000000e+00" rms="0.0000000000000000e+00" purity="2.8884261846542358e-01" nType="0">
            <Node pos="l" depth="3" NCoef="0" IVar="4" Cut="2.0678698437500000e+05" cType="1" res="0.0000000000000000e+00" rms="0.0000000000000000e+00" purity="1.6443957388401031e-01" nType="0">
              <Node pos="l" depth="4" NCoef="0" IVar="-1" Cut="0.0000000000000000e+00" cType="1" res="-7.6026394963264465e-02" rms="3.0607834458351135e-01" purity="1.0853032767772675e-01" nType="-99"/>
              <Node pos="r" depth="4" NCoef="0" IVar="-1" Cut="0.0000000000000000e+00" cType="1" res="-2.9857952147722244e-02" rms="3.2990407943725586e-01" purity="2.0242126286029816e-01" nType="-99"/>
            </Node>
            <Node pos="r" depth="3" NCoef="0" IVar="15" Cut="9.7784459590911865e-01" cType="1" res="0.0000000000000000e+00" rms="0.0000000000000000e+00" purity="3.1418645381927490e-01" nType="0">
              <Node pos="l" depth="4" NCoef="0" IVar="-1" Cut="0.0000000000000000e+00" cType="1" res="5.0964588299393654e-03" rms="4.0074664354324341e-01" purity="3.3982861042022705e-01" nType="-99"/>
              <Node pos="r" depth="4" NCoef="0" IVar="-1" Cut="0.0000000000000000e+00" cType="1" res="-1.6352174803614616e-02" rms="3.6811473965644836e-01" purity="3.0987137556076050e-01" nType="-99"/>
            </Node>
          </Node>
          <Node pos="r" depth="2" NCoef="0" IVar="20" Cut="7.4334726562500000e+04" cType="1" res="0.0000000000000000e+00" rms="0.0000000000000000e+00" purity="4.6898037195205688e-01" nType="0">
            <Node pos="l" depth="3" NCoef="0" IVar="20" Cut="5.3557699218750000e+04" cType="1" res="0.0000000000000000e+00" rms="0.0000000000000000e+00" purity="5.8921796083450317e-01" nType="0">
              <Node pos="l" depth="4" NCoef="0" IVar="-1" Cut="0.0000000000000000e+00" cType="1" res="2.1277971565723419e-02" rms="4.1173571348190308e-01" purity="6.5370470285415649e-01" nType="-99"/>
              <Node pos="r" depth="4" NCoef="0" IVar="-1" Cut="0.0000000000000000e+00" cType="1" res="-2.3573752492666245e-02" rms="3.9026343822479248e-01" purity="3.7872636318206787e-01" nType="-99"/>
            </Node>
            <Node pos="r" depth="3" NCoef="0" IVar="-1" Cut="0.0000000000000000e+00" cType="1" res="-5.5522687733173370e-02" rms="1.8907010555267334e-01" purity="4.5281961560249329e-02" nType="-99"/>
          </Node>
        </Node>
      </Node>
    </BinaryTree>
    <BinaryTree type="DecisionTree" boostWeight="1.0000000000000000e+00" itree="28">
      <Node pos="s" depth="0" NCoef="0" IVar="14" Cut="2.0570728778839111e+00" cType="1" res="-4.4403521314961836e-05" rms="3.5807675123214722e-01" purity="5.0000000000000000e-01" nType="0">
        <Node pos="l" depth="1" NCoef="0" IVar="2" Cut="3.3400731250000000e+05" cType="1" res="-7.2435550391674042e-03" rms="3.6685118079185486e-01" purity="4.6550387144088745e-01" nType="0">
          <Node pos="l" depth="2" NCoef="0" IVar="4" Cut="1.3472231250000000e+05" cType="1" res="5.7725715450942516e-03" rms="3.8728865981101990e-01" purity="5.4301762580871582e-01" nType="0">
            <Node pos="l" depth="3" NCoef="0" IVar="13" Cut="2.0748655796051025e+00" cType="1" res="-8.3401627838611603e-02" rms="3.9308241009712219e-01" purity="2.9605945944786072e-01" nType="0">
              <Node pos="l" depth="4" NCoef="0" IVar="-1" Cut="0.0000000000000000e+00" cType="1" res="-1.8070440739393234e-02" rms="3.6332109570503235e-01" purity="2.3876659572124481e-01" nType="-99"/>
              <Node pos="r" depth="4" NCoef="0" IVar="-1" Cut="0.0000000000000000e+00" cType="1" res="-6.2803633511066437e-02" rms="4.1035115718841553e-01" purity="3.4310469031333923e-01" nType="-99"/>
            </Node>
            <Node pos="r" depth="3" NCoef="0" IVar="1" Cut="2.7993337890625000e+04" cType="1" res="1.6379890963435173e-02" rms="3.8522237539291382e-01" purity="5.7239341735839844e-01" nType="0">
              <Node pos="l" depth="4" NCoef="0" IVar="-1" Cut="0.0000000000000000e+00" cType="1" res="-1.8199564889073372e-02" rms="3.7367227673530579e-01" purity="3.3039397001266479e-01" nType="-99"/>
              <Node pos="r" depth="4" NCoef="0" IVar="-1" Cut="0.0000000000000000e+00" cType="1" res="1.7204388976097107e-02" rms="3.8746517896652222e-01" purity="6.3986539840698242e-01" nType="-99"/>
            </Node>
          </Node>
          <Node pos="r" depth="2" NCoef="0" IVar="12" Cut="2.0388650894165039e+00" cType="1" res="-1.9242744892835617e-02" rms="3.4651276469230652e-01" purity="3.9404627680778503e-01" nType="0">
            <Node pos="l" depth="3" NCoef="0" IVar="16" Cut="1.8888911008834839e+00" cType="1" res="-4.8390369862318039e-02" rms="3.6466929316520691e-01" purity="2.7506223320960999e-01" nType="0">
              <Node pos="l" depth="4" NCoef="0" IVar="-1" Cut="0.0000000000000000e+00" cType="1" res="-4.3989770114421844e-02" rms="3.6502891778945923e-01" purity="3.0465063452720642e-01" nType="-99"/>
              <Node pos="r" depth="4" NCoef="0" IVar="-1" Cut="0.0000000000000000e+00" cType="1" res="-1.0780663229525089e-02" rms="3.6161798238754272e-01" purity="2.3049996793270111e-01" nType="-99"/>
            </Node>
            <Node pos="r" depth="3" NCoef="0" IVar="11" Cut="1.1446343660354614e+00" cType="1" res="-1.3691322878003120e-02" rms="3.4266474843025208e-01" purity="4.1670784354209900e-01" nType="0">
              <Node pos="l" depth="4" NCoef="0" IVar="-1" Cut="0.0000000000000000e+00" cType="1" res="1.8303123069927096e-03" rms="3.7378290295600891e-01" purity="6.2965786457061768e-01" nType="-99"/>
              <Node pos="r" depth="4" NCoef="0" IVar="-1" Cut="0.0000000000000000e+00" cType="1" res="-2.6147296652197838e-02" rms="3.0825853347778320e-01" purity="2.0786070823669434e-01" nType="-99"/>
            </Node>
          </Node>
        </Node>
        <Node pos="r" depth="1" NCoef="0" IVar="19" Cut="1.4166829687500000e+05" cType="1" res="9.5389960333704948e-03" rms="3.4581884741783142e-01" purity="5.4592067003250122e-01" nType="0">
          <Node pos="l" depth="2" NCoef="0" IVar="19" Cut="6.0588603515625000e+03" cType="1" res="1.4463584870100021e-02" rms="3.4848269820213318e-01" purity="5.9838998317718506e-01" nType="0">
            <Node pos="l" depth="3" NCoef="0" IVar="5" Cut="1.1241366406250000e+05" cType="1" res="-2.1220238879323006e-02" rms="3.7319749593734741e-01" purity="4.1952008008956909e-01" nType="0">
              <Node pos="l" depth="4" NCoef="0" IVar="-1" Cut="0.0000000000000000e+00" cType="1" res="-6.2742480076849461e-03" rms="3.7983104586601257e-01" purity="4.4379305839538574e-01" nType="-99"/>
              <Node pos="r" depth="4" NCoef="0" IVar="-1" Cut="0.0000000000000000e+00" cType="1" res="-5.1317334175109863e-02" rms="3.3254089951515198e-01" purity="2.9785698652267456e-01" nType="-99"/>
            </Node>
            <Node pos="r" depth="3" NCoef="0" IVar="19" Cut="7.8814937500000000e+04" cType="1" res="2.4047015234827995e-02" rms="3.4090495109558105e-01" purity="6.4642822742462158e-01" nType="0">
              <Node pos="l" depth="4" NCoef="0" IVar="-1" Cut="0.0000000000000000e+00" cType="1" res="2.7652120217680931e-02" rms="3.2635089755058289e-01" purity="7.3934960365295410e-01" nType="-99"/>
              <Node pos="r" depth="4" NCoef="0" IVar="-1" Cut="0.0000000000000000e+00" cType="1" res="-8.8096829131245613e-03" rms="3.7636199593544006e-01" purity="3.8441139459609985e-01" nType="-99"/>
            </Node>
          </Node>
          <Node pos="r" depth="2" NCoef="0" IVar="12" Cut="2.4990503787994385e+00" cType="1" res="-2.1164758130908012e-02" rms="3.2705572247505188e-01" purity="2.1878559887409210e-01" nType="0">
            <Node pos="l" depth="3" NCoef="0" IVar="2" Cut="8.0623000000000000e+05" cType="1" res="-3.5636443644762039e-02" rms="3.2035839557647705e-01" purity="1.7458991706371307e-01" nType="0">
              <Node pos="l" depth="4" NCoef="0" IVar="-1" Cut="0.0000000000000000e+00" cType="1" res="-3.7278451025485992e-02" rms="3.4679016470909119e-01" purity="1.9852086901664734e-01" nType="-99"/>
              <Node pos="r" depth="4" NCoef="0" IVar="-1" Cut="0.0000000000000000e+00" cType="1" res="-1.1140793561935425e-02" rms="2.8030157089233398e-01" purity="1.4341050386428833e-01" nType="-99"/>
            </Node>
            <Node pos="r" depth="3" NCoef="0" IVar="1" Cut="7.0484578125000000e+04" cType="1" res="3.0138557776808739e-03" rms="3.3656385540962219e-01" purity="2.9262563586235046e-01" nType="0">
              <Node pos="l" depth="4" NCoef="0" IVar="-1" Cut="0.0000000000000000e+00" cType="1" res="-1.4645901508629322e-02" rms="3.1088721752166748e-01" purity="1.9631329178810120e-01" nType="-99"/>
              <Node pos="r" depth="4" NCoef="0" IVar="-1" Cut="0.0000000000000000e+00" cType="1" res="1.9244220107793808e-02" rms="3.6383384466171265e-01" purity="4.0982893109321594e-01" nType="-99"/>
            </Node>
          </Node>
        </Node>
      </Node>
    </BinaryTree>
    <BinaryTree type="DecisionTree" boostWeight="1.0000000000000000e+00" itree="29">
      <Node pos="s" depth="0" NCoef="0" IVar="0" Cut="5.3333334922790527e+00" cType="1" res="-3.4244778362335637e-05" rms="3.5743016004562378e-01" purity="5.0000000000000000e-01" nType="0">
        <Node pos="l" depth="1" NCoef="0" IVar="0" Cut="3.0952382087707520e+00" cType="1" res="8.3341607823967934e-03" rms="3.4604671597480774e-01" purity="5.9258693456649780e-01" nType="0">
          <Node pos="l" depth="2" NCoef="0" IVar="16" Cut="7.6587229967117310e-01" cType="1" res="-6.0039125382900238e-03" rms="3.7136355042457581e-01" purity="4.7118261456489563e-01" nType="0">
            <Node pos="l" depth="3" NCoef="0" IVar="4" Cut="2.1463131250000000e+05" cType="1" res="1.5425326302647591e-02" rms="3.2062518596649170e-01" purity="7.3304754495620728e-01" nType="0">
              <Node pos="l" depth="4" NCoef="0" IVar="-1" Cut="0.0000000000000000e+00" cType="1" res="-2.2147256880998611e-02" rms="4.0652486681938171e-01" purity="5.7044219970703125e-01" nType="-99"/>
              <Node pos="r" depth="4" NCoef="0" IVar="-1" Cut="0.0000000000000000e+00" cType="1" res="2.2118574008345604e-02" rms="2.9855272173881531e-01" purity="7.6680409908294678e-01" nType="-99"/>
            </Node>
            <Node pos="r" depth="3" NCoef="0" IVar="10" Cut="1.9651206250000000e+05" cType="1" res="-1.1366216465830803e-02" rms="3.8282239437103271e-01" purity="4.0565535426139832e-01" nType="0">
              <Node pos="l" depth="4" NCoef="0" IVar="-1" Cut="0.0000000000000000e+00" cType="1" res="-3.8723365869373083e-03" rms="3.9029914140701294e-01" purity="4.2246490716934204e-01" nType="-99"/>
              <Node pos="r" depth="4" NCoef="0" IVar="-1" Cut="0.0000000000000000e+00" cType="1" res="-3.0120311304926872e-02" rms="3.3370763063430786e-01" purity="3.0621245503425598e-01" nType="-99"/>
            </Node>
          </Node>
          <Node pos="r" depth="2" NCoef="0" IVar="1" Cut="4.5988226562500000e+04" cType="1" res="4.0991313755512238e-02" rms="2.7721044421195984e-01" purity="8.6910378932952881e-01" nType="0">
            <Node pos="l" depth="3" NCoef="0" IVar="-1" Cut="0.0000000000000000e+00" cType="1" res="5.9811867773532867e-02" rms="2.6874744892120361e-01" purity="8.9175623655319214e-01" nType="-99"/>
            <Node pos="r" depth="3" NCoef="0" IVar="1" Cut="1.3301210937500000e+05" cType="1" res="2.9737088829278946e-02" rms="2.7959427237510681e-01" purity="8.6036568880081177e-01" nType="0">
              <Node pos="l" depth="4" NCoef="0" IVar="-1" Cut="0.0000000000000000e+00" cType="1" res="3.6660030484199524e-02" rms="2.6920157670974731e-01" purity="8.7774550914764404e-01" nType="-99"/>
              <Node pos="r" depth="4" NCoef="0" IVar="-1" Cut="0.0000000000000000e+00" cType="1" res="-4.6949195675551891e-03" rms="3.2140892744064331e-01" purity="7.7928638458251953e-01" nType="-99"/>
            </Node>
          </Node>
        </Node>
        <Node pos="r" depth="1" NCoef="0" IVar="15" Cut="7.3969864845275879e-01" cType="1" res="-7.9750427976250648e-03" rms="3.6773031949996948e-01" purity="4.1214406490325928e-01" nType="0">
          <Node pos="l" depth="2" NCoef="0" IVar="18" Cut="2.1404416015625000e+04" cType="1" res="1.9530527293682098e-02" rms="3.9577299356460571e-01" purity="4.3375760316848755e-01" nType="0">
            <Node pos="l" depth="3" NCoef="0" IVar="9" Cut="1.0185368750000000e+05" cType="1" res="-1.0307170450687408e-02" rms="3.8246017694473267e-01" purity="4.1230136156082153e-01" nType="0">
              <Node pos="l" depth="4" NCoef="0" IVar="-1" Cut="0.0000000000000000e+00" cType="1" res="-5.8757034130394459e-03" rms="4.1714823246002197e-01" purity="4.1596648097038269e-01" nType="-99"/>
              <Node pos="r" depth="4" NCoef="0" IVar="-1" Cut="0.0000000000000000e+00" cType="1" res="-6.6244299523532391e-03" rms="3.4284862875938416e-01" purity="4.0850502252578735e-01" nType="-99"/>
            </Node>
            <Node pos="r" depth="3" NCoef="0" IVar="-1" Cut="0.0000000000000000e+00" cType="1" res="2.9219660907983780e-02" rms="4.0659976005554199e-01" purity="4.5551350712776184e-01" nType="-99"/>
          </Node>
          <Node pos="r" depth="2" NCoef="0" IVar="11" Cut="4.9856403470039368e-01" cType="1" res="-1.0365810245275497e-02" rms="3.6509329080581665e-01" purity="4.1026544570922852e-01" nType="0">
            <Node pos="l" depth="3" NCoef="0" IVar="20" Cut="1.5393029296875000e+04" cType="1" res="1.3142532669007778e-02" rms="3.6620131134986877e-01" purity="6.1978381872177124e-01" nType="0">
              <Node pos="l" depth="4" NCoef="0" IVar="-1" Cut="0.0000000000000000e+00" cType="1" res="-2.9973357915878296e-02" rms="3.9647823572158813e-01" purity="4.1028159856796265e-01" nType="-99"/>
              <Node pos="r" depth="4" NCoef="0" IVar="-1" Cut="0.0000000000000000e+00" cType="1" res="1.8946206197142601e-02" rms="3.5705798864364624e-01" purity="6.6830873489379883e-01" nType="-99"/>
            </Node>
            <Node pos="r" depth="3" NCoef="0" IVar="14" Cut="2.3136525154113770e+00" cType="1" res="-1.4152114279568195e-02" rms="3.6477288603782654e-01" purity="3.7651997804641724e-01" nType="0">
              <Node pos="l" depth="4" NCoef="0" IVar="-1" Cut="0.0000000000000000e+00" cType="1" res="-1.3128809630870819e-02" rms="3.6583140492439270e-01" purity="3.5210126638412476e-01" nType="-99"/>
              <Node pos="r" depth="4" NCoef="0" IVar="-1" Cut="0.0000000000000000e+00" cType="1" res="-1.5924619510769844e-03" rms="3.6228778958320618e-01" purity="4.2708370089530945e-01" nType="-99"/>
            </Node>
          </Node>
        </Node>
      </Node>
    </BinaryTree>
    <BinaryTree type="DecisionTree" boostWeight="1.0000000000000000e+00" itree="30">
      <Node pos="s" depth="0" NCoef="0" IVar="3" Cut="4.4626618750000000e+05" cType="1" res="5.7919778555515222e-06" rms="3.5702380537986755e-01" purity="5.0000000000000000e-01" nType="0">
        <Node pos="l" depth="1" NCoef="0" IVar="20" Cut="7.5909031250000000e+04" cType="1" res="1.4616462867707014e-03" rms="3.6104491353034973e-01" purity="5.1428800821304321e-01" nType="0">
          <Node pos="l" depth="2" NCoef="0" IVar="20" Cut="1.8301164062500000e+04" cType="1" res="7.2461105883121490e-03" rms="3.8111048936843872e-01" purity="5.9555608034133911e-01" nType="0">
            <Node pos="l" depth="3" NCoef="0" IVar="11" Cut="4.0989229083061218e-01" cType="1" res="-3.9718378335237503e-02" rms="3.8396900892257690e-01" purity="4.8962047696113586e-01" nType="0">
              <Node pos="l" depth="4" NCoef="0" IVar="-1" Cut="0.0000000000000000e+00" cType="1" res="6.1017055995762348e-03" rms="3.7099412083625793e-01" purity="6.4324665069580078e-01" nType="-99"/>
              <Node pos="r" depth="4" NCoef="0" IVar="-1" Cut="0.0000000000000000e+00" cType="1" res="-3.8321260362863541e-02" rms="3.8845327496528625e-01" purity="4.0004417300224304e-01" nType="-99"/>
            </Node>
            <Node pos="r" depth="3" NCoef="0" IVar="21" Cut="1.1938964843750000e+05" cType="1" res="1.3047371990978718e-02" rms="3.8035371899604797e-01" purity="6.0864180326461792e-01" nType="0">
              <Node pos="l" depth="4" NCoef="0" IVar="-1" Cut="0.0000000000000000e+00" cType="1" res="5.6389980018138885e-03" rms="3.8271769881248474e-01" purity="5.9497487545013428e-01" nType="-99"/>
              <Node pos="r" depth="4" NCoef="0" IVar="-1" Cut="0.0000000000000000e+00" cType="1" res="4.2335867881774902e-02" rms="3.4542265534400940e-01" purity="7.8073185682296753e-01" nType="-99"/>
            </Node>
          </Node>
          <Node pos="r" depth="2" NCoef="0" IVar="16" Cut="1.5030962228775024e+00" cType="1" res="-2.9220489785075188e-02" rms="2.2415441274642944e-01" purity="8.3223305642604828e-02" nType="0">
            <Node pos="l" depth="3" NCoef="0" IVar="11" Cut="1.4691478013992310e+00" cType="1" res="-4.3435320258140564e-02" rms="2.6027354598045349e-01" purity="1.2988226115703583e-01" nType="0">
              <Node pos="l" depth="4" NCoef="0" IVar="-1" Cut="0.0000000000000000e+00" cType="1" res="-4.5482505112886429e-02" rms="3.0797371268272400e-01" purity="2.0334778726100922e-01" nType="-99"/>
              <Node pos="r" depth="4" NCoef="0" IVar="-1" Cut="0.0000000000000000e+00" cType="1" res="-3.9111539721488953e-02" rms="2.3196142911911011e-01" purity="9.3088082969188690e-02" nType="-99"/>
            </Node>
            <Node pos="r" depth="3" NCoef="0" IVar="8" Cut="9.2362687500000000e+04" cType="1" res="-1.8019124865531921e-02" rms="1.9019116461277008e-01" purity="4.6455800533294678e-02" nType="0">
              <Node pos="l" depth="4" NCoef="0" IVar="-1" Cut="0.0000000000000000e+00" cType="1" res="1.2281953822821379e-03" rms="2.9330164194107056e-01" purity="1.1490746587514877e-01" nType="-99"/>
              <Node pos="r" depth="4" NCoef="0" IVar="-1" Cut="0.0000000000000000e+00" cType="1" res="-7.0889420807361603e-02" rms="1.1055018007755280e-01" purity="1.3921339996159077e-02" nType="-99"/>
            </Node>
          </Node>
        </Node>
        <Node pos="r" depth="1" NCoef="0" IVar="11" Cut="1.5840502977371216e+00" cType="1" res="-3.5667005926370621e-02" rms="2.3535189032554626e-01" purity="1.4990006387233734e-01" nType="0">
          <Node pos="l" depth="2" NCoef="0" IVar="0" Cut="6.3333334922790527e+00" cType="1" res="-4.6522743999958038e-02" rms="2.8439822793006897e-01" purity="2.2863686084747314e-01" nType="0">
            <Node pos="l" depth="3" NCoef="0" IVar="-1" Cut="0.0000000000000000e+00" cType="1" res="-2.6654951274394989e-02" rms="3.2014834880828857e-01" purity="3.3359193801879883e-01" nType="-99"/>
            <Node pos="r" depth="3" NCoef="0" IVar="-1" Cut="0.0000000000000000e+00" cType="1" res="-6.1528004705905914e-02" rms="2.4011535942554474e-01" purity="1.1790043860673904e-01" nType="-99"/>
          </Node>
          <Node pos="r" depth="2" NCoef="0" IVar="-1" Cut="0.0000000000000000e+00" cType="1" res="-5.6361749768257141e-02" rms="1.1256758123636246e-01" purity="1.9553594291210175e-02" nType="-99"/>
        </Node>
      </Node>
    </BinaryTree>
    <BinaryTree type="DecisionTree" boostWeight="1.0000000000000000e+00" itree="31">
      <Node pos="s" depth="0" NCoef="0" IVar="11" Cut="7.3745375871658325e-01" cType="1" res="-2.2380821974365972e-05" rms="3.5660612583160400e-01" purity="5.0000000000000000e-01" nType="0">
        <Node pos="l" depth="1" NCoef="0" IVar="8" Cut="2.1785000000000000e+04" cType="1" res="1.0864303447306156e-02" rms="3.4528440237045288e-01" purity="6.6764646768569946e-01" nType="0">
          <Node pos="l" depth="2" NCoef="0" IVar="0" Cut="2.3333332538604736e+00" cType="1" res="-1.2422686442732811e-02" rms="3.7857136130332947e-01" purity="5.7207518815994263e-01" nType="0">
            <Node pos="l" depth="3" NCoef="0" IVar="21" Cut="1.5728209960937500e+04" cType="1" res="-6.6517755389213562e-02" rms="4.0340977907180786e-01" purity="4.8496711254119873e-01" nType="0">
              <Node pos="l" depth="4" NCoef="0" IVar="-1" Cut="0.0000000000000000e+00" cType="1" res="-6.3914023339748383e-02" rms="4.0336760878562927e-01" purity="3.5620045661926270e-01" nType="-99"/>
              <Node pos="r" depth="4" NCoef="0" IVar="-1" Cut="0.0000000000000000e+00" cType="1" res="-1.9878325983881950e-02" rms="4.0005713701248169e-01" purity="5.6348043680191040e-01" nType="-99"/>
            </Node>
            <Node pos="r" depth="3" NCoef="0" IVar="0" Cut="6.0952382087707520e+00" cType="1" res="5.0138388760387897e-03" rms="3.6852177977561951e-01" purity="6.0015285015106201e-01" nType="0">
              <Node pos="l" depth="4" NCoef="0" IVar="-1" Cut="0.0000000000000000e+00" cType="1" res="3.6009337753057480e-02" rms="3.1846740841865540e-01" purity="7.7046817541122437e-01" nType="-99"/>
              <Node pos="r" depth="4" NCoef="0" IVar="-1" Cut="0.0000000000000000e+00" cType="1" res="-2.0282929763197899e-02" rms="4.0555909276008606e-01" purity="4.4048798084259033e-01" nType="-99"/>
            </Node>
          </Node>
          <Node pos="r" depth="2" NCoef="0" IVar="20" Cut="6.2108046875000000e+04" cType="1" res="2.3937446996569633e-02" rms="3.2437518239021301e-01" purity="7.2129946947097778e-01" nType="0">
            <Node pos="l" depth="3" NCoef="0" IVar="5" Cut="1.4820885937500000e+05" cType="1" res="3.0467653647065163e-02" rms="3.2831037044525146e-01" purity="7.7177578210830688e-01" nType="0">
              <Node pos="l" depth="4" NCoef="0" IVar="-1" Cut="0.0000000000000000e+00" cType="1" res="3.4768588840961456e-02" rms="3.1208115816116333e-01" purity="8.4394514560699463e-01" nType="-99"/>
              <Node pos="r" depth="4" NCoef="0" IVar="-1" Cut="0.0000000000000000e+00" cType="1" res="9.3116983771324158e-03" rms="3.4674844145774841e-01" purity="6.8152695894241333e-01" nType="-99"/>
            </Node>
            <Node pos="r" depth="3" NCoef="0" IVar="-1" Cut="0.0000000000000000e+00" cType="1" res="-4.1062612086534500e-02" rms="2.7222949266433716e-01" purity="2.0585380494594574e-01" nType="-99"/>
          </Node>
        </Node>
        <Node pos="r" depth="1" NCoef="0" IVar="15" Cut="1.0185593366622925e+00" cType="1" res="-5.0040176138281822e-03" rms="3.6155936121940613e-01" purity="4.2328667640686035e-01" nType="0">
          <Node pos="l" depth="2" NCoef="0" IVar="17" Cut="7.7035945312500000e+04" cType="1" res="1.6588045284152031e-02" rms="3.8711348176002502e-01" purity="4.4419983029365540e-01" nType="0">
            <Node pos="l" depth="3" NCoef="0" IVar="18" Cut="1.7210900390625000e+04" cType="1" res="2.8712615370750427e-02" rms="4.0029007196426392e-01" purity="5.0393724441528320e-01" nType="0">
              <Node pos="l" depth="4" NCoef="0" IVar="-1" Cut="0.0000000000000000e+00" cType="1" res="-3.4832356031984091e-03" rms="3.7088033556938171e-01" purity="4.5048862695693970e-01" nType="-99"/>
              <Node pos="r" depth="4" NCoef="0" IVar="-1" Cut="0.0000000000000000e+00" cType="1" res="3.3261355012655258e-02" rms="4.2258936166763306e-01" purity="5.5187839269638062e-01" nType="-99"/>
            </Node>
            <Node pos="r" depth="3" NCoef="0" IVar="14" Cut="1.8668022155761719e+00" cType="1" res="-2.2933555766940117e-02" rms="3.3763301372528076e-01" purity="2.4947813153266907e-01" nType="0">
              <Node pos="l" depth="4" NCoef="0" IVar="-1" Cut="0.0000000000000000e+00" cType="1" res="-4.0542900562286377e-02" rms="3.2720363140106201e-01" purity="2.2376835346221924e-01" nType="-99"/>
              <Node pos="r" depth="4" NCoef="0" IVar="-1" Cut="0.0000000000000000e+00" cType="1" res="6.0835336335003376e-03" rms="3.4720277786254883e-01" purity="2.8015133738517761e-01" nType="-99"/>
            </Node>
          </Node>
          <Node pos="r" depth="2" NCoef="0" IVar="14" Cut="2.8268120288848877e+00" cType="1" res="-9.4391405582427979e-03" rms="3.5592135787010193e-01" purity="4.1899099946022034e-01" nType="0">
            <Node pos="l" depth="3" NCoef="0" IVar="16" Cut="7.4001020193099976e-01" cType="1" res="-1.3021352700889111e-02" rms="3.5641607642173767e-01" purity="4.1080290079116821e-01" nType="0">
              <Node pos="l" depth="4" NCoef="0" IVar="-1" Cut="0.0000000000000000e+00" cType="1" res="2.1628190297633410e-03" rms="3.3363813161849976e-01" purity="6.8238192796707153e-01" nType="-99"/>
              <Node pos="r" depth="4" NCoef="0" IVar="-1" Cut="0.0000000000000000e+00" cType="1" res="-1.1115034110844135e-02" rms="3.6068028211593628e-01" purity="3.5693418979644775e-01" nType="-99"/>
            </Node>
            <Node pos="r" depth="3" NCoef="0" IVar="21" Cut="6.8774812500000000e+04" cType="1" res="1.6279315575957298e-02" rms="3.5127803683280945e-01" purity="4.7777718305587769e-01" nType="0">
              <Node pos="l" depth="4" NCoef="0" IVar="-1" Cut="0.0000000000000000e+00" cType="1" res="2.3296326398849487e-02" rms="3.7918543815612793e-01" purity="6.4007157087326050e-01" nType="-99"/>
              <Node pos="r" depth="4" NCoef="0" IVar="-1" Cut="0.0000000000000000e+00" cType="1" res="-1.5262279659509659e-02" rms="3.0213734507560730e-01" purity="2.3655197024345398e-01" nType="-99"/>
            </Node>
          </Node>
        </Node>
      </Node>
    </BinaryTree>
    <BinaryTree type="DecisionTree" boostWeight="1.0000000000000000e+00" itree="32">
      <Node pos="s" depth="0" NCoef="0" IVar="13" Cut="1.0970134735107422e+00" cType="1" res="-2.7548426260182168e-06" rms="3.5608854889869690e-01" purity="5.0000000000000000e-01" nType="0">
        <Node pos="l" depth="1" NCoef="0" IVar="10" Cut="5.0939558593750000e+04" cType="1" res="-2.1213557571172714e-02" rms="3.2545086741447449e-01" purity="1.8591614067554474e-01" nType="0">
          <Node pos="l" depth="2" NCoef="0" IVar="7" Cut="4.9184964843750000e+04" cType="1" res="-1.6264084726572037e-02" rms="3.4775546193122864e-01" purity="2.1733593940734863e-01" nType="0">
            <Node pos="l" depth="3" NCoef="0" IVar="21" Cut="2.3420128906250000e+04" cType="1" res="-2.3220346774905920e-03" rms="4.1126430034637451e-01" purity="3.4072852134704590e-01" nType="0">
              <Node pos="l" depth="4" NCoef="0" IVar="-1" Cut="0.0000000000000000e+00" cType="1" res="-1.7017066478729248e-02" rms="3.8497725129127502e-01" purity="3.2595935463905334e-01" nType="-99"/>
              <Node pos="r" depth="4" NCoef="0" IVar="-1" Cut="0.0000000000000000e+00" cType="1" res="1.7161425203084946e-02" rms="4.3973383307456970e-01" purity="3.5928821563720703e-01" nType="-99"/>
            </Node>
            <Node pos="r" depth="3" NCoef="0" IVar="6" Cut="1.8178901562500000e+05" cType="1" res="-2.8335703536868095e-02" rms="2.8086003661155701e-01" purity="1.1049737036228180e-01" nType="0">
              <Node pos="l" depth="4" NCoef="0" IVar="-1" Cut="0.0000000000000000e+00" cType="1" res="-3.1990561634302139e-02" rms="2.9359254240989685e-01" purity="1.2572082877159119e-01" nType="-99"/>
              <Node pos="r" depth="4" NCoef="0" IVar="-1" Cut="0.0000000000000000e+00" cType="1" res="-7.9851457849144936e-03" rms="2.4252630770206451e-01" purity="7.0299372076988220e-02" nType="-99"/>
            </Node>
          </Node>
          <Node pos="r" depth="2" NCoef="0" IVar="-1" Cut="0.0000000000000000e+00" cType="1" res="-5.2185848355293274e-02" rms="2.1854375302791595e-01" purity="6.5178193151950836e-02" nType="-99"/>
        </Node>
        <Node pos="r" depth="1" NCoef="0" IVar="11" Cut="4.6743187308311462e-01" cType="1" res="2.1054686512798071e-03" rms="3.5892242193222046e-01" purity="5.3121799230575562e-01" nType="0">
          <Node pos="l" depth="2" NCoef="0" IVar="0" Cut="2.3333332538604736e+00" cType="1" res="2.2586306557059288e-02" rms="3.3145472407341003e-01" purity="7.4910008907318115e-01" nType="0">
            <Node pos="l" depth="3" NCoef="0" IVar="0" Cut="1.0476191043853760e+00" cType="1" res="-4.5835222117602825e-03" rms="3.7398955225944519e-01" purity="6.6774010658264160e-01" nType="0">
              <Node pos="l" depth="4" NCoef="0" IVar="-1" Cut="0.0000000000000000e+00" cType="1" res="9.6226958557963371e-03" rms="3.8380563259124756e-01" purity="6.3964724540710449e-01" nType="-99"/>
              <Node pos="r" depth="4" NCoef="0" IVar="-1" Cut="0.0000000000000000e+00" cType="1" res="-1.3832848519086838e-02" rms="3.6492756009101868e-01" purity="6.9070363044738770e-01" nType="-99"/>
            </Node>
            <Node pos="r" depth="3" NCoef="0" IVar="0" Cut="6.0952382087707520e+00" cType="1" res="3.1932536512613297e-02" rms="3.1495890021324158e-01" purity="7.7708733081817627e-01" nType="0">
              <Node pos="l" depth="4" NCoef="0" IVar="-1" Cut="0.0000000000000000e+00" cType="1" res="5.7286128401756287e-02" rms="2.3911382257938385e-01" purity="9.0918564796447754e-01" nType="-99"/>
              <Node pos="r" depth="4" NCoef="0" IVar="-1" Cut="0.0000000000000000e+00" cType="1" res="2.0041789393872023e-03" rms="3.8583216071128845e-01" purity="6.1626940965652466e-01" nType="-99"/>
            </Node>
          </Node>
          <Node pos="r" depth="2" NCoef="0" IVar="10" Cut="2.4955026562500000e+05" cType="1" res="-1.0453154100105166e-03" rms="3.6286103725433350e-01" purity="4.9769890308380127e-01" nType="0">
            <Node pos="l" depth="3" NCoef="0" IVar="8" Cut="1.2578055468750000e+05" cType="1" res="1.2402888387441635e-03" rms="3.6801645159721375e-01" purity="5.1649922132492065e-01" nType="0">
              <Node pos="l" depth="4" NCoef="0" IVar="-1" Cut="0.0000000000000000e+00" cType="1" res="1.9809666555374861e-03" rms="3.7727272510528564e-01" purity="5.4480004310607910e-01" nType="-99"/>
              <Node pos="r" depth="4" NCoef="0" IVar="-1" Cut="0.0000000000000000e+00" cType="1" res="-7.5275033712387085e-02" rms="1.1177033185958862e-01" purity="1.6865545883774757e-02" nType="-99"/>
            </Node>
            <Node pos="r" depth="3" NCoef="0" IVar="12" Cut="3.1030659675598145e+00" cType="1" res="-2.9632156714797020e-02" rms="2.8923761844635010e-01" purity="2.6255705952644348e-01" nType="0">
              <Node pos="l" depth="4" NCoef="0" IVar="-1" Cut="0.0000000000000000e+00" cType="1" res="-2.0365325734019279e-02" rms="2.9166090488433838e-01" purity="2.6612561941146851e-01" nType="-99"/>
              <Node pos="r" depth="4" NCoef="0" IVar="-1" Cut="0.0000000000000000e+00" cType="1" res="-4.3069805949926376e-02" rms="2.8451928496360779e-01" purity="2.5659886002540588e-01" nType="-99"/>
            </Node>
          </Node>
        </Node>
      </Node>
    </BinaryTree>
    <BinaryTree type="DecisionTree" boostWeight="1.0000000000000000e+00" itree="33">
      <Node pos="s" depth="0" NCoef="0" IVar="5" Cut="4.3468087500000000e+05" cType="1" res="-9.9576536740642041e-06" rms="3.5587427020072937e-01" purity="5.0000000000000000e-01" nType="0">
        <Node pos="l" depth="1" NCoef="0" IVar="13" Cut="2.7425336837768555e+00" cType="1" res="1.4860680093988776e-03" rms="3.5806694626808167e-01" purity="5.1539814472198486e-01" nType="0">
          <Node pos="l" depth="2" NCoef="0" IVar="1" Cut="3.9950210937500000e+04" cType="1" res="-4.6736514195799828e-03" rms="3.5868674516677856e-01" purity="4.2998388409614563e-01" nType="0">
            <Node pos="l" depth="3" NCoef="0" IVar="1" Cut="1.7200281250000000e+04" cType="1" res="-2.0618505775928497e-02" rms="3.3914580941200256e-01" purity="2.6363447308540344e-01" nType="0">
              <Node pos="l" depth="4" NCoef="0" IVar="-1" Cut="0.0000000000000000e+00" cType="1" res="-4.1900768876075745e-02" rms="3.0813252925872803e-01" purity="1.8748039007186890e-01" nType="-99"/>
              <Node pos="r" depth="4" NCoef="0" IVar="-1" Cut="0.0000000000000000e+00" cType="1" res="-5.4252771660685539e-03" rms="3.5061189532279968e-01" purity="2.9588752985000610e-01" nType="-99"/>
            </Node>
            <Node pos="r" depth="3" NCoef="0" IVar="2" Cut="2.6067610937500000e+05" cType="1" res="4.4335513375699520e-03" rms="3.6907541751861572e-01" purity="5.2499747276306152e-01" nType="0">
              <Node pos="l" depth="4" NCoef="0" IVar="-1" Cut="0.0000000000000000e+00" cType="1" res="1.8481364473700523e-02" rms="3.9837738871574402e-01" purity="6.4737546443939209e-01" nType="-99"/>
              <Node pos="r" depth="4" NCoef="0" IVar="-1" Cut="0.0000000000000000e+00" cType="1" res="-4.2961547151207924e-03" rms="3.5701280832290649e-01" purity="4.7959092259407043e-01" nType="-99"/>
            </Node>
          </Node>
          <Node pos="r" depth="2" NCoef="0" IVar="10" Cut="2.4223359375000000e+05" cType="1" res="9.9662672728300095e-03" rms="3.5703805088996887e-01" purity="6.3298952579498291e-01" nType="0">
            <Node pos="l" depth="3" NCoef="0" IVar="10" Cut="6.1204214843750000e+04" cType="1" res="1.3417872600257397e-02" rms="3.6357581615447998e-01" purity="6.6882246732711792e-01" nType="0">
              <Node pos="l" depth="4" NCoef="0" IVar="-1" Cut="0.0000000000000000e+00" cType="1" res="-6.0432333499193192e-02" rms="4.0239334106445312e-01" purity="4.8435455560684204e-01" nType="-99"/>
              <Node pos="r" depth="4" NCoef="0" IVar="-1" Cut="0.0000000000000000e+00" cType="1" res="1.3370284810662270e-02" rms="3.6041957139968872e-01" purity="6.7802417278289795e-01" nType="-99"/>
            </Node>
            <Node pos="r" depth="3" NCoef="0" IVar="13" Cut="3.1735217571258545e+00" cType="1" res="-1.0272651910781860e-02" rms="3.1523317098617554e-01" purity="4.2287886142730713e-01" nType="0">
              <Node pos="l" depth="4" NCoef="0" IVar="-1" Cut="0.0000000000000000e+00" cType="1" res="1.0240582749247551e-02" rms="3.1133663654327393e-01" purity="5.0192916393280029e-01" nType="-99"/>
              <Node pos="r" depth="4" NCoef="0" IVar="-1" Cut="0.0000000000000000e+00" cType="1" res="-2.6330387219786644e-02" rms="3.1738689541816711e-01" purity="3.4975564479827881e-01" nType="-99"/>
            </Node>
          </Node>
        </Node>
        <Node pos="r" depth="1" NCoef="0" IVar="16" Cut="1.1978760957717896e+00" cType="1" res="-2.8384376317262650e-02" rms="3.1001281738281250e-01" purity="2.0795036852359772e-01" nType="0">
          <Node pos="l" depth="2" NCoef="0" IVar="-1" Cut="0.0000000000000000e+00" cType="1" res="-4.7432132065296173e-02" rms="3.2860246300697327e-01" purity="3.2573771476745605e-01" nType="-99"/>
          <Node pos="r" depth="2" NCoef="0" IVar="13" Cut="2.0581028461456299e+00" cType="1" res="-1.2469114735722542e-02" rms="3.0003261566162109e-01" purity="1.5572388470172882e-01" nType="0">
            <Node pos="l" depth="3" NCoef="0" IVar="-1" Cut="0.0000000000000000e+00" cType="1" res="2.4030825588852167e-03" rms="2.7839747071266174e-01" purity="1.1958029121160507e-01" nType="-99"/>
            <Node pos="r" depth="3" NCoef="0" IVar="-1" Cut="0.0000000000000000e+00" cType="1" res="-2.5174900889396667e-02" rms="3.2518628239631653e-01" purity="2.0298147201538086e-01" nType="-99"/>
          </Node>
        </Node>
      </Node>
    </BinaryTree>
    <BinaryTree type="DecisionTree" boostWeight="1.0000000000000000e+00" itree="34">
      <Node pos="s" depth="0" NCoef="0" IVar="0" Cut="5.3333334922790527e+00" cType="1" res="-1.0549600119702518e-05" rms="3.5544177889823914e-01" purity="5.0000000000000000e-01" nType="0">
        <Node pos="l" depth="1" NCoef="0" IVar="0" Cut="3.0952382087707520e+00" cType="1" res="6.4146253280341625e-03" rms="3.4389793872833252e-01" purity="5.9258693456649780e-01" nType="0">
          <Node pos="l" depth="2" NCoef="0" IVar="12" Cut="2.5570740699768066e+00" cType="1" res="-4.5530018396675587e-03" rms="3.6927738785743713e-01" purity="4.7118261456489563e-01" nType="0">
            <Node pos="l" depth="3" NCoef="0" IVar="15" Cut="9.5217239856719971e-01" cType="1" res="-1.6508249565958977e-02" rms="3.8772994279861450e-01" purity="4.1498583555221558e-01" nType="0">
              <Node pos="l" depth="4" NCoef="0" IVar="-1" Cut="0.0000000000000000e+00" cType="1" res="1.0595706291496754e-02" rms="4.1598632931709290e-01" purity="4.6579349040985107e-01" nType="-99"/>
              <Node pos="r" depth="4" NCoef="0" IVar="-1" Cut="0.0000000000000000e+00" cType="1" res="-1.3986694626510143e-02" rms="3.8249522447586060e-01" purity="4.0651020407676697e-01" nType="-99"/>
            </Node>
            <Node pos="r" depth="3" NCoef="0" IVar="3" Cut="3.0715321875000000e+05" cType="1" res="3.7887110374867916e-03" rms="3.5559794306755066e-01" purity="5.1039367914199829e-01" nType="0">
              <Node pos="l" depth="4" NCoef="0" IVar="-1" Cut="0.0000000000000000e+00" cType="1" res="6.2085548415780067e-03" rms="3.6751803755760193e-01" purity="5.5256462097167969e-01" nType="-99"/>
              <Node pos="r" depth="4" NCoef="0" IVar="-1" Cut="0.0000000000000000e+00" cType="1" res="-2.0720817148685455e-02" rms="2.9455602169036865e-01" purity="3.2006973028182983e-01" nType="-99"/>
            </Node>
          </Node>
          <Node pos="r" depth="2" NCoef="0" IVar="5" Cut="1.1915241406250000e+05" cType="1" res="3.1395073980093002e-02" rms="2.7593883872032166e-01" purity="8.6910378932952881e-01" nType="0">
            <Node pos="l" depth="3" NCoef="0" IVar="11" Cut="1.3630259037017822e+00" cType="1" res="4.5783735811710358e-02" rms="2.5394394993782043e-01" purity="9.0067970752716064e-01" nType="0">
              <Node pos="l" depth="4" NCoef="0" IVar="-1" Cut="0.0000000000000000e+00" cType="1" res="6.3945822417736053e-02" rms="2.1150034666061401e-01" purity="9.5272284746170044e-01" nType="-99"/>
              <Node pos="r" depth="4" NCoef="0" IVar="-1" Cut="0.0000000000000000e+00" cType="1" res="2.2579887881875038e-02" rms="3.3200585842132568e-01" purity="7.7926558256149292e-01" nType="-99"/>
            </Node>
            <Node pos="r" depth="3" NCoef="0" IVar="11" Cut="9.5302242040634155e-01" cType="1" res="1.3477941974997520e-02" rms="3.0012694001197815e-01" purity="8.2978457212448120e-01" nType="0">
              <Node pos="l" depth="4" NCoef="0" IVar="-1" Cut="0.0000000000000000e+00" cType="1" res="4.3812267482280731e-02" rms="2.4526700377464294e-01" purity="9.2600429058074951e-01" nType="-99"/>
              <Node pos="r" depth="4" NCoef="0" IVar="-1" Cut="0.0000000000000000e+00" cType="1" res="-1.6345649957656860e-02" rms="3.6185431480407715e-01" purity="6.9203287363052368e-01" nType="-99"/>
            </Node>
          </Node>
        </Node>
        <Node pos="r" depth="1" NCoef="0" IVar="14" Cut="2.3136525154113770e+00" cType="1" res="-6.1074118129909039e-03" rms="3.6595499515533447e-01" purity="4.1214406490325928e-01" nType="0">
          <Node pos="l" depth="2" NCoef="0" IVar="1" Cut="7.9088960937500000e+04" cType="1" res="-1.0070394724607468e-02" rms="3.6983835697174072e-01" purity="3.8904529809951782e-01" nType="0">
            <Node pos="l" depth="3" NCoef="0" IVar="1" Cut="2.6455207031250000e+04" cType="1" res="-1.9871413707733154e-02" rms="3.7064099311828613e-01" purity="3.3458012342453003e-01" nType="0">
              <Node pos="l" depth="4" NCoef="0" IVar="-1" Cut="0.0000000000000000e+00" cType="1" res="-3.8377746939659119e-02" rms="3.3768954873085022e-01" purity="2.0113518834114075e-01" nType="-99"/>
              <Node pos="r" depth="4" NCoef="0" IVar="-1" Cut="0.0000000000000000e+00" cType="1" res="-4.2351540178060532e-03" rms="3.8312214612960815e-01" purity="3.9169928431510925e-01" nType="-99"/>
            </Node>
            <Node pos="r" depth="3" NCoef="0" IVar="4" Cut="3.0080465625000000e+05" cType="1" res="1.3730516657233238e-02" rms="3.6679333448410034e-01" purity="5.2130925655364990e-01" nType="0">
              <Node pos="l" depth="4" NCoef="0" IVar="-1" Cut="0.0000000000000000e+00" cType="1" res="2.2619349882006645e-02" rms="3.9957997202873230e-01" purity="6.6116833686828613e-01" nType="-99"/>
              <Node pos="r" depth="4" NCoef="0" IVar="-1" Cut="0.0000000000000000e+00" cType="1" res="-3.5337577573955059e-03" rms="3.4144842624664307e-01" purity="4.2613559961318970e-01" nType="-99"/>
            </Node>
          </Node>
          <Node pos="r" depth="2" NCoef="0" IVar="12" Cut="1.8035128116607666e+00" cType="1" res="2.3704345803707838e-03" rms="3.5735830664634705e-01" purity="4.6155834197998047e-01" nType="0">
            <Node pos="l" depth="3" NCoef="0" IVar="16" Cut="2.5197920799255371e+00" cType="1" res="-2.0578268915414810e-02" rms="3.5259029269218445e-01" purity="2.1323853731155396e-01" nType="0">
              <Node pos="l" depth="4" NCoef="0" IVar="-1" Cut="0.0000000000000000e+00" cType="1" res="-2.2515626624226570e-02" rms="3.5442012548446655e-01" purity="2.3302680253982544e-01" nType="-99"/>
              <Node pos="r" depth="4" NCoef="0" IVar="-1" Cut="0.0000000000000000e+00" cType="1" res="-4.1795565630309284e-04" rms="3.4882020950317383e-01" purity="1.8294459581375122e-01" nType="-99"/>
            </Node>
            <Node pos="r" depth="3" NCoef="0" IVar="12" Cut="3.3348281383514404e+00" cType="1" res="7.2234389372169971e-03" rms="3.5817018151283264e-01" purity="5.1407092809677124e-01" nType="0">
              <Node pos="l" depth="4" NCoef="0" IVar="-1" Cut="0.0000000000000000e+00" cType="1" res="2.1845335140824318e-03" rms="3.5861361026763916e-01" purity="5.1792836189270020e-01" nType="-99"/>
              <Node pos="r" depth="4" NCoef="0" IVar="-1" Cut="0.0000000000000000e+00" cType="1" res="2.1874871104955673e-02" rms="3.5473752021789551e-01" purity="4.9195677042007446e-01" nType="-99"/>
            </Node>
          </Node>
        </Node>
      </Node>
    </BinaryTree>
    <BinaryTree type="DecisionTree" boostWeight="1.0000000000000000e+00" itree="35">
      <Node pos="s" depth="0" NCoef="0" IVar="16" Cut="5.0433826446533203e-01" cType="1" res="2.0227120330673642e-05" rms="3.5501337051391602e-01" purity="5.0000000000000000e-01" nType="0">
        <Node pos="l" depth="1" NCoef="0" IVar="19" Cut="1.1686430664062500e+04" cType="1" res="2.4729155004024506e-02" rms="2.9651856422424316e-01" purity="7.5754016637802124e-01" nType="0">
          <Node pos="l" depth="2" NCoef="0" IVar="-1" Cut="0.0000000000000000e+00" cType="1" res="-1.2845008634030819e-02" rms="3.7842482328414917e-01" purity="5.0368708372116089e-01" nType="-99"/>
          <Node pos="r" depth="2" NCoef="0" IVar="-1" Cut="0.0000000000000000e+00" cType="1" res="3.9796635508537292e-02" rms="2.5956547260284424e-01" purity="8.4745806455612183e-01" nType="-99"/>
        </Node>
        <Node pos="r" depth="1" NCoef="0" IVar="14" Cut="1.8004931211471558e+00" cType="1" res="-1.4553964138031006e-03" rms="3.5815060138702393e-01" purity="4.8461961746215820e-01" nType="0">
          <Node pos="l" depth="2" NCoef="0" IVar="18" Cut="8.4259210937500000e+04" cType="1" res="-7.3658679611980915e-03" rms="3.6731860041618347e-01" purity="4.4681024551391602e-01" nType="0">
            <Node pos="l" depth="3" NCoef="0" IVar="12" Cut="1.2721550464630127e+00" cType="1" res="3.3594181877560914e-04" rms="3.8039407134056091e-01" purity="4.8819643259048462e-01" nType="0">
              <Node pos="l" depth="4" NCoef="0" IVar="-1" Cut="0.0000000000000000e+00" cType="1" res="-3.4230470657348633e-02" rms="3.6582684516906738e-01" purity="2.8047525882720947e-01" nType="-99"/>
              <Node pos="r" depth="4" NCoef="0" IVar="-1" Cut="0.0000000000000000e+00" cType="1" res="1.4775358140468597e-03" rms="3.8073459267616272e-01" purity="4.9532186985015869e-01" nType="-99"/>
            </Node>
            <Node pos="r" depth="3" NCoef="0" IVar="14" Cut="1.2184970378875732e+00" cType="1" res="-2.7148038148880005e-02" rms="3.3055660128593445e-01" purity="3.4050944447517395e-01" nType="0">
              <Node pos="l" depth="4" NCoef="0" IVar="-1" Cut="0.0000000000000000e+00" cType="1" res="-4.1645750403404236e-02" rms="3.1661140918731689e-01" purity="2.4983710050582886e-01" nType="-99"/>
              <Node pos="r" depth="4" NCoef="0" IVar="-1" Cut="0.0000000000000000e+00" cType="1" res="-9.4671100378036499e-03" rms="3.3870887756347656e-01" purity="4.0076848864555359e-01" nType="-99"/>
            </Node>
          </Node>
          <Node pos="r" depth="2" NCoef="0" IVar="20" Cut="1.2483096093750000e+05" cType="1" res="3.7187680136412382e-03" rms="3.4984567761421204e-01" purity="5.1771885156631470e-01" nType="0">
            <Node pos="l" depth="3" NCoef="0" IVar="7" Cut="7.4794992187500000e+04" cType="1" res="5.1973829977214336e-03" rms="3.5750880837440491e-01" purity="5.4121208190917969e-01" nType="0">
              <Node pos="l" depth="4" NCoef="0" IVar="-1" Cut="0.0000000000000000e+00" cType="1" res="1.0648922994732857e-02" rms="3.6979749798774719e-01" purity="6.2775135040283203e-01" nType="-99"/>
              <Node pos="r" depth="4" NCoef="0" IVar="-1" Cut="0.0000000000000000e+00" cType="1" res="-1.2507481500506401e-02" rms="3.3202755451202393e-01" purity="3.7768867611885071e-01" nType="-99"/>
            </Node>
            <Node pos="r" depth="3" NCoef="0" IVar="16" Cut="1.5720281600952148e+00" cType="1" res="-2.8746975585818291e-02" rms="4.7660537064075470e-02" purity="1.8819097895175219e-03" nType="0">
              <Node pos="l" depth="4" NCoef="0" IVar="-1" Cut="0.0000000000000000e+00" cType="1" res="-1.0197558254003525e-01" rms="4.9540095031261444e-02" purity="1.7894299235194921e-03" nType="-99"/>
              <Node pos="r" depth="4" NCoef="0" IVar="-1" Cut="0.0000000000000000e+00" cType="1" res="-9.5041550695896149e-02" rms="4.4566903263330460e-02" purity="1.9844695925712585e-03" nType="-99"/>
            </Node>
          </Node>
        </Node>
      </Node>
    </BinaryTree>
    <BinaryTree type="DecisionTree" boostWeight="1.0000000000000000e+00" itree="36">
      <Node pos="s" depth="0" NCoef="0" IVar="2" Cut="1.3531616250000000e+06" cType="1" res="9.2256323114270344e-06" rms="3.5478812456130981e-01" purity="5.0000000000000000e-01" nType="0">
        <Node pos="l" depth="1" NCoef="0" IVar="4" Cut="1.6638054687500000e+05" cType="1" res="7.8944599954411387e-04" rms="3.5678073763847351e-01" purity="5.0851541757583618e-01" nType="0">
          <Node pos="l" depth="2" NCoef="0" IVar="1" Cut="2.7955349609375000e+04" cType="1" res="-3.9785992354154587e-02" rms="4.0386390686035156e-01" purity="3.9448869228363037e-01" nType="0">
            <Node pos="l" depth="3" NCoef="0" IVar="13" Cut="2.2504718303680420e+00" cType="1" res="-8.9094594120979309e-02" rms="3.4950718283653259e-01" purity="1.8422441184520721e-01" nType="0">
              <Node pos="l" depth="4" NCoef="0" IVar="-1" Cut="0.0000000000000000e+00" cType="1" res="-2.5497423484921455e-02" rms="3.0286782979965210e-01" purity="1.2368567287921906e-01" nType="-99"/>
              <Node pos="r" depth="4" NCoef="0" IVar="-1" Cut="0.0000000000000000e+00" cType="1" res="-7.6909676194190979e-02" rms="3.8081669807434082e-01" purity="2.4391804635524750e-01" nType="-99"/>
            </Node>
            <Node pos="r" depth="3" NCoef="0" IVar="1" Cut="6.5700320312500000e+04" cType="1" res="-1.2580305337905884e-02" rms="4.2850756645202637e-01" purity="5.1050060987472534e-01" nType="0">
              <Node pos="l" depth="4" NCoef="0" IVar="-1" Cut="0.0000000000000000e+00" cType="1" res="-1.6642475500702858e-02" rms="4.3229308724403381e-01" purity="4.2233797907829285e-01" nType="-99"/>
              <Node pos="r" depth="4" NCoef="0" IVar="-1" Cut="0.0000000000000000e+00" cType="1" res="1.3281394727528095e-02" rms="4.1829866170883179e-01" purity="6.8634456396102905e-01" nType="-99"/>
            </Node>
          </Node>
          <Node pos="r" depth="2" NCoef="0" IVar="8" Cut="1.0392633593750000e+05" cType="1" res="6.0510118491947651e-03" rms="3.4986746311187744e-01" purity="5.2330166101455688e-01" nType="0">
            <Node pos="l" depth="3" NCoef="0" IVar="21" Cut="1.0703317968750000e+05" cType="1" res="1.0647869668900967e-02" rms="3.6924570798873901e-01" purity="5.9192639589309692e-01" nType="0">
              <Node pos="l" depth="4" NCoef="0" IVar="-1" Cut="0.0000000000000000e+00" cType="1" res="4.2182370088994503e-03" rms="3.7081030011177063e-01" purity="5.7879495620727539e-01" nType="-99"/>
              <Node pos="r" depth="4" NCoef="0" IVar="-1" Cut="0.0000000000000000e+00" cType="1" res="3.3015809953212738e-02" rms="3.5366201400756836e-01" purity="7.0322299003601074e-01" nType="-99"/>
            </Node>
            <Node pos="r" depth="3" NCoef="0" IVar="11" Cut="1.7451826333999634e+00" cType="1" res="-2.7368199080228806e-02" rms="1.4081229269504547e-01" purity="2.4399206042289734e-02" nType="0">
              <Node pos="l" depth="4" NCoef="0" IVar="-1" Cut="0.0000000000000000e+00" cType="1" res="-9.2532105743885040e-02" rms="1.1996947228908539e-01" purity="1.4345359057188034e-02" nType="-99"/>
              <Node pos="r" depth="4" NCoef="0" IVar="-1" Cut="0.0000000000000000e+00" cType="1" res="-4.1668284684419632e-02" rms="1.4866924285888672e-01" purity="2.9333103448152542e-02" nType="-99"/>
            </Node>
          </Node>
        </Node>
        <Node pos="r" depth="1" NCoef="0" IVar="12" Cut="2.5067265033721924e+00" cType="1" res="-3.6718826740980148e-02" rms="2.4031603336334229e-01" purity="9.9146075546741486e-02" nType="0">
          <Node pos="l" depth="2" NCoef="0" IVar="-1" Cut="0.0000000000000000e+00" cType="1" res="-2.7554392814636230e-02" rms="2.5441396236419678e-01" purity="1.0062898695468903e-01" nType="-99"/>
          <Node pos="r" depth="2" NCoef="0" IVar="-1" Cut="0.0000000000000000e+00" cType="1" res="-6.7169956862926483e-02" rms="2.2353224456310272e-01" purity="9.7588136792182922e-02" nType="-99"/>
        </Node>
      </Node>
    </BinaryTree>
    <BinaryTree type="DecisionTree" boostWeight="1.0000000000000000e+00" itree="37">
      <Node pos="s" depth="0" NCoef="0" IVar="19" Cut="1.4166668750000000e+05" cType="1" res="-3.1188475986709818e-05" rms="3.5428217053413391e-01" purity="5.0000000000000000e-01" nType="0">
        <Node pos="l" depth="1" NCoef="0" IVar="19" Cut="3.3179039062500000e+04" cType="1" res="2.0495862700045109e-03" rms="3.5702422261238098e-01" purity="5.4588431119918823e-01" nType="0">
          <Node pos="l" depth="2" NCoef="0" IVar="1" Cut="7.5527273437500000e+04" cType="1" res="-2.0898943766951561e-02" rms="3.5994061827659607e-01" purity="4.7240412235260010e-01" nType="0">
            <Node pos="l" depth="3" NCoef="0" IVar="1" Cut="2.1719515625000000e+04" cType="1" res="-2.9756153002381325e-02" rms="3.6150580644607544e-01" purity="4.0815001726150513e-01" nType="0">
              <Node pos="l" depth="4" NCoef="0" IVar="-1" Cut="0.0000000000000000e+00" cType="1" res="-4.5538414269685745e-02" rms="3.2672470808029175e-01" purity="2.3297728598117828e-01" nType="-99"/>
              <Node pos="r" depth="4" NCoef="0" IVar="-1" Cut="0.0000000000000000e+00" cType="1" res="-1.3401189818978310e-02" rms="3.7126585841178894e-01" purity="4.6330708265304565e-01" nType="-99"/>
            </Node>
            <Node pos="r" depth="3" NCoef="0" IVar="4" Cut="3.9765734375000000e+05" cType="1" res="2.1013361401855946e-03" rms="3.5481294989585876e-01" purity="6.3925814628601074e-01" nType="0">
              <Node pos="l" depth="4" NCoef="0" IVar="-1" Cut="0.0000000000000000e+00" cType="1" res="8.8873561471700668e-03" rms="3.6241102218627930e-01" purity="6.9012135267257690e-01" nType="-99"/>
              <Node pos="r" depth="4" NCoef="0" IVar="-1" Cut="0.0000000000000000e+00" cType="1" res="-4.7945123165845871e-02" rms="3.0688038468360901e-01" purity="3.7946227192878723e-01" nType="-99"/>
            </Node>
          </Node>
          <Node pos="r" depth="2" NCoef="0" IVar="19" Cut="7.4507539062500000e+04" cType="1" res="1.3363937847316265e-02" rms="3.5503202676773071e-01" purity="5.8211237192153931e-01" nType="0">
            <Node pos="l" depth="3" NCoef="0" IVar="8" Cut="1.2460717187500000e+05" cType="1" res="2.7675783261656761e-02" rms="3.3854824304580688e-01" purity="6.9751530885696411e-01" nType="0">
              <Node pos="l" depth="4" NCoef="0" IVar="-1" Cut="0.0000000000000000e+00" cType="1" res="2.1507686004042625e-02" rms="3.4356647729873657e-01" purity="7.2294896841049194e-01" nType="-99"/>
              <Node pos="r" depth="4" NCoef="0" IVar="-1" Cut="0.0000000000000000e+00" cType="1" res="-4.5662600547075272e-02" rms="1.5181529521942139e-01" purity="3.5772819072008133e-02" nType="-99"/>
            </Node>
            <Node pos="r" depth="3" NCoef="0" IVar="16" Cut="9.9703723192214966e-01" cType="1" res="-8.2978289574384689e-03" rms="3.7758797407150269e-01" purity="4.0744358301162720e-01" nType="0">
              <Node pos="l" depth="4" NCoef="0" IVar="-1" Cut="0.0000000000000000e+00" cType="1" res="-3.4334048628807068e-02" rms="3.3898115158081055e-01" purity="5.2406275272369385e-01" nType="-99"/>
              <Node pos="r" depth="4" NCoef="0" IVar="-1" Cut="0.0000000000000000e+00" cType="1" res="-2.5123669765889645e-03" rms="3.8189893960952759e-01" purity="3.9289829134941101e-01" nType="-99"/>
            </Node>
          </Node>
        </Node>
        <Node pos="r" depth="1" NCoef="0" IVar="16" Cut="2.0122904777526855e+00" cType="1" res="-1.1792568489909172e-02" rms="3.3812484145164490e-01" purity="2.4064338207244873e-01" nType="0">
          <Node pos="l" depth="2" NCoef="0" IVar="1" Cut="8.3858835937500000e+04" cType="1" res="-2.9290623962879181e-02" rms="3.1162583827972412e-01" purity="2.0753510296344757e-01" nType="0">
            <Node pos="l" depth="3" NCoef="0" IVar="8" Cut="6.4450003906250000e+04" cType="1" res="-4.5449674129486084e-02" rms="2.7469518780708313e-01" purity="1.3501203060150146e-01" nType="0">
              <Node pos="l" depth="4" NCoef="0" IVar="-1" Cut="0.0000000000000000e+00" cType="1" res="-4.9344219267368317e-02" rms="3.5989323258399963e-01" purity="2.6109024882316589e-01" nType="-99"/>
              <Node pos="r" depth="4" NCoef="0" IVar="-1" Cut="0.0000000000000000e+00" cType="1" res="-3.3919140696525574e-02" rms="1.7733539640903473e-01" purity="3.7424195557832718e-02" nType="-99"/>
            </Node>
            <Node pos="r" depth="3" NCoef="0" IVar="-1" Cut="0.0000000000000000e+00" cType="1" res="-4.7643212601542473e-03" rms="3.5635066032409668e-01" purity="3.1060519814491272e-01" nType="-99"/>
          </Node>
          <Node pos="r" depth="2" NCoef="0" IVar="13" Cut="2.6249394416809082e+00" cType="1" res="-5.0888871774077415e-03" rms="3.4750890731811523e-01" purity="2.5332748889923096e-01" nType="0">
            <Node pos="l" depth="3" NCoef="0" IVar="12" Cut="2.6168961524963379e+00" cType="1" res="-1.5120690688490868e-02" rms="3.2218047976493835e-01" purity="1.8873777985572815e-01" nType="0">
              <Node pos="l" depth="4" NCoef="0" IVar="-1" Cut="0.0000000000000000e+00" cType="1" res="-2.0512437447905540e-02" rms="3.2285881042480469e-01" purity="1.7885215580463409e-01" nType="-99"/>
              <Node pos="r" depth="4" NCoef="0" IVar="-1" Cut="0.0000000000000000e+00" cType="1" res="2.2677704691886902e-03" rms="3.2018631696701050e-01" purity="2.0691302418708801e-01" nType="-99"/>
            </Node>
            <Node pos="r" depth="3" NCoef="0" IVar="12" Cut="3.1578283309936523e+00" cType="1" res="1.1801248416304588e-02" rms="3.8583192229270935e-01" purity="3.6207455396652222e-01" nType="0">
              <Node pos="l" depth="4" NCoef="0" IVar="-1" Cut="0.0000000000000000e+00" cType="1" res="1.7754700034856796e-02" rms="3.9715710282325745e-01" purity="3.9525219798088074e-01" nType="-99"/>
              <Node pos="r" depth="4" NCoef="0" IVar="-1" Cut="0.0000000000000000e+00" cType="1" res="-2.3465031757950783e-02" rms="3.4946659207344055e-01" purity="2.7213099598884583e-01" nType="-99"/>
            </Node>
          </Node>
        </Node>
      </Node>
    </BinaryTree>
    <BinaryTree type="DecisionTree" boostWeight="1.0000000000000000e+00" itree="38">
      <Node pos="s" depth="0" NCoef="0" IVar="16" Cut="5.0433826446533203e-01" cType="1" res="-2.6026407795143314e-05" rms="3.5380572080612183e-01" purity="5.0000000000000000e-01" nType="0">
        <Node pos="l" depth="1" NCoef="0" IVar="19" Cut="1.1686430664062500e+04" cType="1" res="2.0839167758822441e-02" rms="2.9491776227951050e-01" purity="7.5754016637802124e-01" nType="0">
          <Node pos="l" depth="2" NCoef="0" IVar="-1" Cut="0.0000000000000000e+00" cType="1" res="-6.7969295196235180e-03" rms="3.7752112746238708e-01" purity="5.0368708372116089e-01" nType="-99"/>
          <Node pos="r" depth="2" NCoef="0" IVar="-1" Cut="0.0000000000000000e+00" cType="1" res="3.3157791942358017e-02" rms="2.5851082801818848e-01" purity="8.4745806455612183e-01" nType="-99"/>
        </Node>
        <Node pos="r" depth="1" NCoef="0" IVar="11" Cut="2.5967428088188171e-01" cType="1" res="-1.2721011880785227e-03" rms="3.5697668790817261e-01" purity="4.8461961746215820e-01" nType="0">
          <Node pos="l" depth="2" NCoef="0" IVar="-1" Cut="0.0000000000000000e+00" cType="1" res="2.5697745382785797e-02" rms="3.2959827780723572e-01" purity="7.2065317630767822e-01" nType="-99"/>
          <Node pos="r" depth="2" NCoef="0" IVar="0" Cut="1.3333333730697632e+00" cType="1" res="-1.9532318692654371e-03" rms="3.5744106769561768e-01" purity="4.8014107346534729e-01" nType="0">
            <Node pos="l" depth="3" NCoef="0" IVar="1" Cut="9.2285515625000000e+04" cType="1" res="0.0000000000000000e+00" rms="0.0000000000000000e+00" purity="3.6026337742805481e-01" nType="0">
              <Node pos="l" depth="4" NCoef="0" IVar="-1" Cut="0.0000000000000000e+00" cType="1" res="-1.4586803503334522e-02" rms="3.6407378315925598e-01" purity="3.2228258252143860e-01" nType="-99"/>
              <Node pos="r" depth="4" NCoef="0" IVar="-1" Cut="0.0000000000000000e+00" cType="1" res="7.0625566877424717e-03" rms="3.6596131324768066e-01" purity="5.0958847999572754e-01" nType="-99"/>
            </Node>
            <Node pos="r" depth="3" NCoef="0" IVar="0" Cut="5.1428570747375488e+00" cType="1" res="-2.6414860622026026e-04" rms="3.5641375184059143e-01" purity="4.9642831087112427e-01" nType="0">
              <Node pos="l" depth="4" NCoef="0" IVar="-1" Cut="0.0000000000000000e+00" cType="1" res="5.9938556514680386e-03" rms="3.4184715151786804e-01" purity="6.4259046316146851e-01" nType="-99"/>
              <Node pos="r" depth="4" NCoef="0" IVar="-1" Cut="0.0000000000000000e+00" cType="1" res="-4.0312707424163818e-03" rms="3.6612144112586975e-01" purity="3.9451515674591064e-01" nType="-99"/>
            </Node>
          </Node>
        </Node>
      </Node>
    </BinaryTree>
    <BinaryTree type="DecisionTree" boostWeight="1.0000000000000000e+00" itree="39">
      <Node pos="s" depth="0" NCoef="0" IVar="11" Cut="2.6485717296600342e+00" cType="1" res="-1.5777164662722498e-05" rms="3.5373690724372864e-01" purity="5.0000000000000000e-01" nType="0">
        <Node pos="l" depth="1" NCoef="0" IVar="11" Cut="3.9617574214935303e-01" cType="1" res="9.7599456785246730e-04" rms="3.5746085643768311e-01" purity="5.1688575744628906e-01" nType="0">
          <Node pos="l" depth="2" NCoef="0" IVar="0" Cut="2.3333332538604736e+00" cType="1" res="1.8634028732776642e-02" rms="3.2434794306755066e-01" purity="7.3060303926467896e-01" nType="0">
            <Node pos="l" depth="3" NCoef="0" IVar="-1" Cut="0.0000000000000000e+00" cType="1" res="-4.4176038354635239e-03" rms="3.7069636583328247e-01" purity="6.3638859987258911e-01" nType="-99"/>
            <Node pos="r" depth="3" NCoef="0" IVar="0" Cut="6.0952382087707520e+00" cType="1" res="2.7513526380062103e-02" rms="3.0601847171783447e-01" purity="7.6350402832031250e-01" nType="0">
              <Node pos="l" depth="4" NCoef="0" IVar="-1" Cut="0.0000000000000000e+00" cType="1" res="5.0622746348381042e-02" rms="2.3090191185474396e-01" purity="8.9900249242782593e-01" nType="-99"/>
              <Node pos="r" depth="4" NCoef="0" IVar="-1" Cut="0.0000000000000000e+00" cType="1" res="4.0677594952285290e-03" rms="3.7890025973320007e-01" purity="5.9311592578887939e-01" nType="-99"/>
            </Node>
          </Node>
          <Node pos="r" depth="2" NCoef="0" IVar="15" Cut="7.3969864845275879e-01" cType="1" res="-7.3090969817712903e-04" rms="3.6045467853546143e-01" purity="4.9622687697410583e-01" nType="0">
            <Node pos="l" depth="3" NCoef="0" IVar="18" Cut="2.0195673828125000e+04" cType="1" res="1.6809256747364998e-02" rms="3.9168485999107361e-01" purity="5.0747996568679810e-01" nType="0">
              <Node pos="l" depth="4" NCoef="0" IVar="-1" Cut="0.0000000000000000e+00" cType="1" res="-1.4879567315801978e-03" rms="3.7479811906814575e-01" purity="4.9662995338439941e-01" nType="-99"/>
              <Node pos="r" depth="4" NCoef="0" IVar="-1" Cut="0.0000000000000000e+00" cType="1" res="2.2067951038479805e-02" rms="4.0670311450958252e-01" purity="5.1812547445297241e-01" nType="-99"/>
            </Node>
            <Node pos="r" depth="3" NCoef="0" IVar="12" Cut="2.4658818244934082e+00" cType="1" res="-2.2618023212999105e-03" rms="3.5755869746208191e-01" purity="4.9524474143981934e-01" nType="0">
              <Node pos="l" depth="4" NCoef="0" IVar="-1" Cut="0.0000000000000000e+00" cType="1" res="-6.7714406177401543e-03" rms="3.7242704629898071e-01" purity="4.2413127422332764e-01" nType="-99"/>
              <Node pos="r" depth="4" NCoef="0" IVar="-1" Cut="0.0000000000000000e+00" cType="1" res="1.9405232742428780e-03" rms="3.4796863794326782e-01" purity="5.3916531801223755e-01" nType="-99"/>
            </Node>
          </Node>
        </Node>
        <Node pos="r" depth="1" NCoef="0" IVar="14" Cut="2.0864589214324951e+00" cType="1" res="-2.3115472868084908e-02" rms="2.5077319145202637e-01" purity="1.0670797526836395e-01" nType="0">
          <Node pos="l" depth="2" NCoef="0" IVar="8" Cut="1.0591313281250000e+05" cType="1" res="-3.3551011234521866e-02" rms="2.3619295656681061e-01" purity="8.1920646131038666e-02" nType="0">
            <Node pos="l" depth="3" NCoef="0" IVar="-1" Cut="0.0000000000000000e+00" cType="1" res="-5.1347084343433380e-02" rms="2.9690003395080566e-01" purity="1.3500265777111053e-01" nType="-99"/>
            <Node pos="r" depth="3" NCoef="0" IVar="-1" Cut="0.0000000000000000e+00" cType="1" res="-1.9319908693432808e-02" rms="1.4862219989299774e-01" purity="2.9166905209422112e-02" nType="-99"/>
          </Node>
          <Node pos="r" depth="2" NCoef="0" IVar="-1" Cut="0.0000000000000000e+00" cType="1" res="-5.1245291251689196e-04" rms="2.7851432561874390e-01" purity="1.6059137880802155e-01" nType="-99"/>
        </Node>
      </Node>
    </BinaryTree>
    <BinaryTree type="DecisionTree" boostWeight="1.0000000000000000e+00" itree="40">
      <Node pos="s" depth="0" NCoef="0" IVar="14" Cut="1.8004931211471558e+00" cType="1" res="-8.8591950770933181e-06" rms="3.5360985994338989e-01" purity="5.0000000000000000e-01" nType="0">
        <Node pos="l" depth="1" NCoef="0" IVar="17" Cut="5.1944910156250000e+04" cType="1" res="-5.2709463052451611e-03" rms="3.6439120769500732e-01" purity="4.5686691999435425e-01" nType="0">
          <Node pos="l" depth="2" NCoef="0" IVar="15" Cut="1.4382044076919556e+00" cType="1" res="2.5893547572195530e-03" rms="3.7349900603294373e-01" purity="4.9665838479995728e-01" nType="0">
            <Node pos="l" depth="3" NCoef="0" IVar="11" Cut="1.3571074008941650e+00" cType="1" res="1.2932819314301014e-02" rms="3.8579732179641724e-01" purity="5.6057667732238770e-01" nType="0">
              <Node pos="l" depth="4" NCoef="0" IVar="-1" Cut="0.0000000000000000e+00" cType="1" res="1.9281868590041995e-03" rms="3.8005036115646362e-01" purity="6.2221944332122803e-01" nType="-99"/>
              <Node pos="r" depth="4" NCoef="0" IVar="-1" Cut="0.0000000000000000e+00" cType="1" res="2.2050905972719193e-02" rms="3.9774301648139954e-01" purity="4.1912183165550232e-01" nType="-99"/>
            </Node>
            <Node pos="r" depth="3" NCoef="0" IVar="9" Cut="1.0533192187500000e+05" cType="1" res="-9.3465074896812439e-03" rms="3.5841301083564758e-01" purity="4.2289963364601135e-01" nType="0">
              <Node pos="l" depth="4" NCoef="0" IVar="-1" Cut="0.0000000000000000e+00" cType="1" res="-1.1949919164180756e-02" rms="3.7803897261619568e-01" purity="4.3332114815711975e-01" nType="-99"/>
              <Node pos="r" depth="4" NCoef="0" IVar="-1" Cut="0.0000000000000000e+00" cType="1" res="5.3775100968778133e-03" rms="3.2244202494621277e-01" purity="4.0552675724029541e-01" nType="-99"/>
            </Node>
          </Node>
          <Node pos="r" depth="2" NCoef="0" IVar="14" Cut="1.2664473056793213e+00" cType="1" res="-1.8416365608572960e-02" rms="3.4823200106620789e-01" purity="3.9032050967216492e-01" nType="0">
            <Node pos="l" depth="3" NCoef="0" IVar="20" Cut="7.1529187500000000e+04" cType="1" res="-3.1163483858108521e-02" rms="3.4480547904968262e-01" purity="3.1236770749092102e-01" nType="0">
              <Node pos="l" depth="4" NCoef="0" IVar="-1" Cut="0.0000000000000000e+00" cType="1" res="-2.8837254270911217e-02" rms="4.1048356890678406e-01" purity="4.8302277922630310e-01" nType="-99"/>
              <Node pos="r" depth="4" NCoef="0" IVar="-1" Cut="0.0000000000000000e+00" cType="1" res="-1.4589773491024971e-02" rms="2.1890124678611755e-01" purity="7.1358516812324524e-02" nType="-99"/>
            </Node>
            <Node pos="r" depth="3" NCoef="0" IVar="15" Cut="2.2113728523254395e+00" cType="1" res="-1.1819412931799889e-02" rms="3.4980976581573486e-01" purity="4.3066301941871643e-01" nType="0">
              <Node pos="l" depth="4" NCoef="0" IVar="-1" Cut="0.0000000000000000e+00" cType="1" res="-1.2733557261526585e-02" rms="3.5554060339927673e-01" purity="4.5161712169647217e-01" nType="-99"/>
              <Node pos="r" depth="4" NCoef="0" IVar="-1" Cut="0.0000000000000000e+00" cType="1" res="6.1053065583109856e-03" rms="3.2894036173820496e-01" purity="3.5971245169639587e-01" nType="-99"/>
            </Node>
          </Node>
        </Node>
        <Node pos="r" depth="1" NCoef="0" IVar="0" Cut="5.3333334922790527e+00" cType="1" res="4.4540027156472206e-03" rms="3.4413841366767883e-01" purity="5.3658187389373779e-01" nType="0">
          <Node pos="l" depth="2" NCoef="0" IVar="0" Cut="3.0952382087707520e+00" cType="1" res="1.0609053075313568e-02" rms="3.2777801156044006e-01" purity="6.3350027799606323e-01" nType="0">
            <Node pos="l" depth="3" NCoef="0" IVar="1" Cut="7.0384757812500000e+04" cType="1" res="1.0306781623512506e-03" rms="3.5916715860366821e-01" purity="5.0509119033813477e-01" nType="0">
              <Node pos="l" depth="4" NCoef="0" IVar="-1" Cut="0.0000000000000000e+00" cType="1" res="-7.4742021970450878e-03" rms="3.6623790860176086e-01" purity="4.2850342392921448e-01" nType="-99"/>
              <Node pos="r" depth="4" NCoef="0" IVar="-1" Cut="0.0000000000000000e+00" cType="1" res="1.4844914898276329e-02" rms="3.4603926539421082e-01" purity="6.3372349739074707e-01" nType="-99"/>
            </Node>
            <Node pos="r" depth="3" NCoef="0" IVar="1" Cut="9.2063460937500000e+04" cType="1" res="3.0466796830296516e-02" rms="2.4930018186569214e-01" purity="8.9971601963043213e-01" nType="0">
              <Node pos="l" depth="4" NCoef="0" IVar="-1" Cut="0.0000000000000000e+00" cType="1" res="4.7602977603673935e-02" rms="2.3786272108554840e-01" purity="9.1613054275512695e-01" nType="-99"/>
              <Node pos="r" depth="4" NCoef="0" IVar="-1" Cut="0.0000000000000000e+00" cType="1" res="1.0491260327398777e-02" rms="2.7123144268989563e-01" purity="8.6408698558807373e-01" nType="-99"/>
            </Node>
          </Node>
          <Node pos="r" depth="2" NCoef="0" IVar="11" Cut="4.9856403470039368e-01" cType="1" res="-1.4083669520914555e-03" rms="3.5893017053604126e-01" purity="4.4427207112312317e-01" nType="0">
            <Node pos="l" depth="3" NCoef="0" IVar="15" Cut="2.4973750114440918e+00" cType="1" res="1.3377291150391102e-02" rms="3.5029610991477966e-01" purity="6.4053946733474731e-01" nType="0">
              <Node pos="l" depth="4" NCoef="0" IVar="-1" Cut="0.0000000000000000e+00" cType="1" res="5.7440676027908921e-04" rms="3.5742104053497314e-01" purity="6.3803243637084961e-01" nType="-99"/>
              <Node pos="r" depth="4" NCoef="0" IVar="-1" Cut="0.0000000000000000e+00" cType="1" res="1.8368100747466087e-02" rms="3.4317320585250854e-01" purity="6.4285612106323242e-01" nType="-99"/>
            </Node>
            <Node pos="r" depth="3" NCoef="0" IVar="12" Cut="3.2952408790588379e+00" cType="1" res="-4.1950764134526253e-03" rms="3.6046639084815979e-01" purity="4.0728077292442322e-01" nType="0">
              <Node pos="l" depth="4" NCoef="0" IVar="-1" Cut="0.0000000000000000e+00" cType="1" res="-5.2296961657702923e-03" rms="3.6195060610771179e-01" purity="4.0461805462837219e-01" nType="-99"/>
              <Node pos="r" depth="4" NCoef="0" IVar="-1" Cut="0.0000000000000000e+00" cType="1" res="1.3679913245141506e-02" rms="3.4972739219665527e-01" purity="4.2479002475738525e-01" nType="-99"/>
            </Node>
          </Node>
        </Node>
      </Node>
    </BinaryTree>
    <BinaryTree type="DecisionTree" boostWeight="1.0000000000000000e+00" itree="41">
      <Node pos="s" depth="0" NCoef="0" IVar="5" Cut="6.3952118750000000e+05" cType="1" res="7.1371764533978421e-06" rms="3.5335829854011536e-01" purity="5.0000000000000000e-01" nType="0">
        <Node pos="l" depth="1" NCoef="0" IVar="19" Cut="1.0082890625000000e+05" cType="1" res="6.1227817786857486e-04" rms="3.5453769564628601e-01" purity="5.0660079717636108e-01" nType="0">
          <Node pos="l" depth="2" NCoef="0" IVar="19" Cut="3.3127273437500000e+04" cType="1" res="3.6000951658934355e-03" rms="3.5348695516586304e-01" purity="5.7757693529129028e-01" nType="0">
            <Node pos="l" depth="3" NCoef="0" IVar="9" Cut="2.6200375000000000e+05" cType="1" res="-1.6745643690228462e-02" rms="3.5917735099792480e-01" purity="4.7229972481727600e-01" nType="0">
              <Node pos="l" depth="4" NCoef="0" IVar="-1" Cut="0.0000000000000000e+00" cType="1" res="-9.6937771886587143e-03" rms="3.6338403820991516e-01" purity="4.8708140850067139e-01" nType="-99"/>
              <Node pos="r" depth="4" NCoef="0" IVar="-1" Cut="0.0000000000000000e+00" cType="1" res="-7.4479125440120697e-02" rms="2.6234433054924011e-01" purity="1.9155953824520111e-01" nType="-99"/>
            </Node>
            <Node pos="r" depth="3" NCoef="0" IVar="19" Cut="7.1813515625000000e+04" cType="1" res="1.5872349962592125e-02" rms="3.4943756461143494e-01" purity="6.4107865095138550e-01" nType="0">
              <Node pos="l" depth="4" NCoef="0" IVar="-1" Cut="0.0000000000000000e+00" cType="1" res="1.7776848748326302e-02" rms="3.3680391311645508e-01" purity="7.0398336648941040e-01" nType="-99"/>
              <Node pos="r" depth="4" NCoef="0" IVar="-1" Cut="0.0000000000000000e+00" cType="1" res="-9.3990750610828400e-04" rms="3.7689176201820374e-01" purity="4.9330112338066101e-01" nType="-99"/>
            </Node>
          </Node>
          <Node pos="r" depth="2" NCoef="0" IVar="16" Cut="1.7743886709213257e+00" cType="1" res="-8.6903702467679977e-03" rms="3.5762962698936462e-01" purity="2.8561460971832275e-01" nType="0">
            <Node pos="l" depth="3" NCoef="0" IVar="9" Cut="1.3598650000000000e+05" cType="1" res="-2.5626102462410927e-02" rms="3.4670957922935486e-01" purity="2.9519292712211609e-01" nType="0">
              <Node pos="l" depth="4" NCoef="0" IVar="-1" Cut="0.0000000000000000e+00" cType="1" res="-2.8530564159154892e-02" rms="3.7570446729660034e-01" purity="3.1365466117858887e-01" nType="-99"/>
              <Node pos="r" depth="4" NCoef="0" IVar="-1" Cut="0.0000000000000000e+00" cType="1" res="-9.8151294514536858e-03" rms="3.2240369915962219e-01" purity="2.8127878904342651e-01" nType="-99"/>
            </Node>
            <Node pos="r" depth="3" NCoef="0" IVar="13" Cut="2.7440721988677979e+00" cType="1" res="-2.9543589334934950e-03" rms="3.6107331514358521e-01" purity="2.8237050771713257e-01" nType="0">
              <Node pos="l" depth="4" NCoef="0" IVar="-1" Cut="0.0000000000000000e+00" cType="1" res="-9.2718238011002541e-03" rms="3.4266245365142822e-01" purity="2.2931596636772156e-01" nType="-99"/>
              <Node pos="r" depth="4" NCoef="0" IVar="-1" Cut="0.0000000000000000e+00" cType="1" res="9.4010485336184502e-03" rms="3.9504918456077576e-01" purity="3.8953170180320740e-01" nType="-99"/>
            </Node>
          </Node>
        </Node>
        <Node pos="r" depth="1" NCoef="0" IVar="-1" Cut="0.0000000000000000e+00" cType="1" res="-3.7393070757389069e-02" rms="2.7677077054977417e-01" purity="1.2781611084938049e-01" nType="-99"/>
      </Node>
    </BinaryTree>
    <BinaryTree type="DecisionTree" boostWeight="1.0000000000000000e+00" itree="42">
      <Node pos="s" depth="0" NCoef="0" IVar="16" Cut="5.0433826446533203e-01" cType="1" res="7.6134970186103601e-06" rms="3.5309830307960510e-01" purity="5.0000000000000000e-01" nType="0">
        <Node pos="l" depth="1" NCoef="0" IVar="19" Cut="2.3543390625000000e+04" cType="1" res="1.7151510342955589e-02" rms="2.9405498504638672e-01" purity="7.5754016637802124e-01" nType="0">
          <Node pos="l" depth="2" NCoef="0" IVar="-1" Cut="0.0000000000000000e+00" cType="1" res="-5.2689429139718413e-04" rms="3.5985520482063293e-01" purity="5.8128809928894043e-01" nType="-99"/>
          <Node pos="r" depth="2" NCoef="0" IVar="-1" Cut="0.0000000000000000e+00" cType="1" res="3.3189747482538223e-02" rms="2.4355012178421021e-01" purity="8.6742901802062988e-01" nType="-99"/>
        </Node>
        <Node pos="r" depth="1" NCoef="0" IVar="10" Cut="2.3366242187500000e+05" cType="1" res="-1.0162243852391839e-03" rms="3.5628882050514221e-01" purity="4.8461961746215820e-01" nType="0">
          <Node pos="l" depth="2" NCoef="0" IVar="7" Cut="1.2031041406250000e+05" cType="1" res="3.1795111135579646e-04" rms="3.6100473999977112e-01" purity="4.9850815534591675e-01" nType="0">
            <Node pos="l" depth="3" NCoef="0" IVar="7" Cut="7.4477726562500000e+04" cType="1" res="-2.4779129307717085e-03" rms="3.6858642101287842e-01" purity="5.0568109750747681e-01" nType="0">
              <Node pos="l" depth="4" NCoef="0" IVar="-1" Cut="0.0000000000000000e+00" cType="1" res="6.1624124646186829e-03" rms="3.7914648652076721e-01" purity="5.9863907098770142e-01" nType="-99"/>
              <Node pos="r" depth="4" NCoef="0" IVar="-1" Cut="0.0000000000000000e+00" cType="1" res="-2.7586784213781357e-02" rms="3.3661565184593201e-01" purity="2.5712680816650391e-01" nType="-99"/>
            </Node>
            <Node pos="r" depth="3" NCoef="0" IVar="8" Cut="1.2595622656250000e+05" cType="1" res="1.9609618932008743e-02" rms="3.0287027359008789e-01" purity="4.4901403784751892e-01" nType="0">
              <Node pos="l" depth="4" NCoef="0" IVar="-1" Cut="0.0000000000000000e+00" cType="1" res="2.4640833958983421e-02" rms="3.5513025522232056e-01" purity="6.3043969869613647e-01" nType="-99"/>
              <Node pos="r" depth="4" NCoef="0" IVar="-1" Cut="0.0000000000000000e+00" cType="1" res="-7.4674509465694427e-02" rms="7.7858813107013702e-02" purity="6.5154545009136200e-03" nType="-99"/>
            </Node>
          </Node>
          <Node pos="r" depth="2" NCoef="0" IVar="12" Cut="3.5325207710266113e+00" cType="1" res="-1.4728883281350136e-02" rms="3.0326223373413086e-01" purity="3.4187361598014832e-01" nType="0">
            <Node pos="l" depth="3" NCoef="0" IVar="13" Cut="2.8591029644012451e+00" cType="1" res="-9.2972181737422943e-03" rms="3.0480015277862549e-01" purity="3.5454687476158142e-01" nType="0">
              <Node pos="l" depth="4" NCoef="0" IVar="-1" Cut="0.0000000000000000e+00" cType="1" res="-2.8802311047911644e-02" rms="2.7837434411048889e-01" purity="2.4179863929748535e-01" nType="-99"/>
              <Node pos="r" depth="4" NCoef="0" IVar="-1" Cut="0.0000000000000000e+00" cType="1" res="-3.6902391002513468e-04" rms="3.1763657927513123e-01" purity="4.1465929150581360e-01" nType="-99"/>
            </Node>
            <Node pos="r" depth="3" NCoef="0" IVar="-1" Cut="0.0000000000000000e+00" cType="1" res="-4.3252635747194290e-02" rms="2.9219117760658264e-01" purity="2.6832166314125061e-01" nType="-99"/>
          </Node>
        </Node>
      </Node>
    </BinaryTree>
    <BinaryTree type="DecisionTree" boostWeight="1.0000000000000000e+00" itree="43">
      <Node pos="s" depth="0" NCoef="0" IVar="12" Cut="1.2675663232803345e+00" cType="1" res="-3.2742000257712789e-06" rms="3.5279664397239685e-01" purity="5.0000000000000000e-01" nType="0">
        <Node pos="l" depth="1" NCoef="0" IVar="14" Cut="1.6913915872573853e+00" cType="1" res="-1.9767314195632935e-02" rms="3.6429443955421448e-01" purity="2.4588495492935181e-01" nType="0">
          <Node pos="l" depth="2" NCoef="0" IVar="-1" Cut="0.0000000000000000e+00" cType="1" res="-3.4664452075958252e-02" rms="3.5201165080070496e-01" purity="2.5302711129188538e-01" nType="-99"/>
          <Node pos="r" depth="2" NCoef="0" IVar="21" Cut="1.9683205078125000e+04" cType="1" res="-6.2928474508225918e-03" rms="3.6824235320091248e-01" purity="2.4302223324775696e-01" nType="0">
            <Node pos="l" depth="3" NCoef="0" IVar="-1" Cut="0.0000000000000000e+00" cType="1" res="-2.3534737527370453e-02" rms="3.5856267809867859e-01" purity="2.6320147514343262e-01" nType="-99"/>
            <Node pos="r" depth="3" NCoef="0" IVar="12" Cut="1.0158859491348267e+00" cType="1" res="9.9763469770550728e-03" rms="3.7243330478668213e-01" purity="2.3197282850742340e-01" nType="0">
              <Node pos="l" depth="4" NCoef="0" IVar="-1" Cut="0.0000000000000000e+00" cType="1" res="2.2229675203561783e-02" rms="3.8679364323616028e-01" purity="2.3275375366210938e-01" nType="-99"/>
              <Node pos="r" depth="4" NCoef="0" IVar="-1" Cut="0.0000000000000000e+00" cType="1" res="-6.0596843250095844e-03" rms="3.5749295353889465e-01" purity="2.3124186694622040e-01" nType="-99"/>
            </Node>
          </Node>
        </Node>
        <Node pos="r" depth="1" NCoef="0" IVar="5" Cut="6.3952118750000000e+05" cType="1" res="9.3435903545469046e-04" rms="3.5221430659294128e-01" purity="5.1205557584762573e-01" nType="0">
          <Node pos="l" depth="2" NCoef="0" IVar="11" Cut="5.2268707752227783e-01" cType="1" res="1.4757955214008689e-03" rms="3.5326927900314331e-01" purity="5.1775646209716797e-01" nType="0">
            <Node pos="l" depth="3" NCoef="0" IVar="8" Cut="1.3959511718750000e+04" cType="1" res="1.3348344713449478e-02" rms="3.3043563365936279e-01" purity="7.5696468353271484e-01" nType="0">
              <Node pos="l" depth="4" NCoef="0" IVar="-1" Cut="0.0000000000000000e+00" cType="1" res="-2.7366656810045242e-02" rms="3.8127157092094421e-01" purity="5.6982016563415527e-01" nType="-99"/>
              <Node pos="r" depth="4" NCoef="0" IVar="-1" Cut="0.0000000000000000e+00" cType="1" res="1.5991440042853355e-02" rms="3.2364815473556519e-01" purity="7.7783834934234619e-01" nType="-99"/>
            </Node>
            <Node pos="r" depth="3" NCoef="0" IVar="15" Cut="1.0185593366622925e+00" cType="1" res="-7.7134941238909960e-04" rms="3.5738250613212585e-01" purity="4.7248095273971558e-01" nType="0">
              <Node pos="l" depth="4" NCoef="0" IVar="-1" Cut="0.0000000000000000e+00" cType="1" res="6.2399534508585930e-03" rms="3.8424545526504517e-01" purity="4.7801956534385681e-01" nType="-99"/>
              <Node pos="r" depth="4" NCoef="0" IVar="-1" Cut="0.0000000000000000e+00" cType="1" res="-2.0590014755725861e-03" rms="3.5177958011627197e-01" purity="4.7138330340385437e-01" nType="-99"/>
            </Node>
          </Node>
          <Node pos="r" depth="2" NCoef="0" IVar="-1" Cut="0.0000000000000000e+00" cType="1" res="-3.8598738610744476e-02" rms="2.7086549997329712e-01" purity="1.3383787870407104e-01" nType="-99"/>
        </Node>
      </Node>
    </BinaryTree>
    <BinaryTree type="DecisionTree" boostWeight="1.0000000000000000e+00" itree="44">
      <Node pos="s" depth="0" NCoef="0" IVar="14" Cut="2.5702321529388428e+00" cType="1" res="-3.0313328807096696e-06" rms="3.5269090533256531e-01" purity="5.0000000000000000e-01" nType="0">
        <Node pos="l" depth="1" NCoef="0" IVar="11" Cut="2.6589043140411377e+00" cType="1" res="-1.9740802235901356e-03" rms="3.5672590136528015e-01" purity="4.8695713281631470e-01" nType="0">
          <Node pos="l" depth="2" NCoef="0" IVar="11" Cut="2.9166540503501892e-01" cType="1" res="-8.3057233132421970e-04" rms="3.6113733053207397e-01" purity="5.0469499826431274e-01" nType="0">
            <Node pos="l" depth="3" NCoef="0" IVar="-1" Cut="0.0000000000000000e+00" cType="1" res="2.5576174259185791e-02" rms="3.1992471218109131e-01" purity="7.5978279113769531e-01" nType="-99"/>
            <Node pos="r" depth="3" NCoef="0" IVar="19" Cut="2.5873704687500000e+05" cType="1" res="-1.7650533700361848e-03" rms="3.6219346523284912e-01" purity="4.9746435880661011e-01" nType="0">
              <Node pos="l" depth="4" NCoef="0" IVar="-1" Cut="0.0000000000000000e+00" cType="1" res="-4.9560819752514362e-04" rms="3.6451649665832520e-01" purity="5.1174783706665039e-01" nType="-99"/>
              <Node pos="r" depth="4" NCoef="0" IVar="-1" Cut="0.0000000000000000e+00" cType="1" res="-2.4750383570790291e-02" rms="3.0271008610725403e-01" purity="1.6804145276546478e-01" nType="-99"/>
            </Node>
          </Node>
          <Node pos="r" depth="2" NCoef="0" IVar="0" Cut="4.3333334922790527e+00" cType="1" res="-2.7759568765759468e-02" rms="2.3483859002590179e-01" purity="8.6977675557136536e-02" nType="0">
            <Node pos="l" depth="3" NCoef="0" IVar="-1" Cut="0.0000000000000000e+00" cType="1" res="-1.7668111249804497e-02" rms="2.6328462362289429e-01" purity="1.2486229836940765e-01" nType="-99"/>
            <Node pos="r" depth="3" NCoef="0" IVar="-1" Cut="0.0000000000000000e+00" cType="1" res="-5.5742062628269196e-02" rms="2.1258893609046936e-01" purity="6.0958553105592728e-02" nType="-99"/>
          </Node>
        </Node>
        <Node pos="r" depth="1" NCoef="0" IVar="6" Cut="3.1575681250000000e+05" cType="1" res="7.5440388172864914e-03" rms="3.3668777346611023e-01" purity="5.4994070529937744e-01" nType="0">
          <Node pos="l" depth="2" NCoef="0" IVar="1" Cut="8.8811796875000000e+04" cType="1" res="1.1953461915254593e-02" rms="3.4657612442970276e-01" purity="5.8088451623916626e-01" nType="0">
            <Node pos="l" depth="3" NCoef="0" IVar="6" Cut="9.7545507812500000e+04" cType="1" res="1.9661819096654654e-03" rms="3.5300216078758240e-01" purity="5.3128552436828613e-01" nType="0">
              <Node pos="l" depth="4" NCoef="0" IVar="-1" Cut="0.0000000000000000e+00" cType="1" res="-2.7197618037462234e-02" rms="4.0266114473342896e-01" purity="3.8832023739814758e-01" nType="-99"/>
              <Node pos="r" depth="4" NCoef="0" IVar="-1" Cut="0.0000000000000000e+00" cType="1" res="6.9775693118572235e-03" rms="3.4466904401779175e-01" purity="5.5188930034637451e-01" nType="-99"/>
            </Node>
            <Node pos="r" depth="3" NCoef="0" IVar="21" Cut="6.2892230468750000e+04" cType="1" res="4.0602870285511017e-02" rms="3.2574877142906189e-01" purity="7.2316354513168335e-01" nType="0">
              <Node pos="l" depth="4" NCoef="0" IVar="-1" Cut="0.0000000000000000e+00" cType="1" res="3.9514943957328796e-02" rms="3.2952299714088440e-01" purity="8.0469983816146851e-01" nType="-99"/>
              <Node pos="r" depth="4" NCoef="0" IVar="-1" Cut="0.0000000000000000e+00" cType="1" res="7.9898852854967117e-03" rms="3.1378540396690369e-01" purity="5.1570039987564087e-01" nType="-99"/>
            </Node>
          </Node>
          <Node pos="r" depth="2" NCoef="0" IVar="0" Cut="6.3333334922790527e+00" cType="1" res="-2.9019141569733620e-02" rms="2.3629753291606903e-01" purity="2.9335299134254456e-01" nType="0">
            <Node pos="l" depth="3" NCoef="0" IVar="-1" Cut="0.0000000000000000e+00" cType="1" res="-2.1821435540914536e-02" rms="2.4295151233673096e-01" purity="4.0588960051536560e-01" nType="-99"/>
            <Node pos="r" depth="3" NCoef="0" IVar="-1" Cut="0.0000000000000000e+00" cType="1" res="-5.8633785694837570e-02" rms="2.2726835310459137e-01" purity="1.5860770642757416e-01" nType="-99"/>
          </Node>
        </Node>
      </Node>
    </BinaryTree>
    <BinaryTree type="DecisionTree" boostWeight="1.0000000000000000e+00" itree="45">
      <Node pos="s" depth="0" NCoef="0" IVar="13" Cut="1.0970134735107422e+00" cType="1" res="-4.3215895857429132e-06" rms="3.5252442955970764e-01" purity="5.0000000000000000e-01" nType="0">
        <Node pos="l" depth="1" NCoef="0" IVar="10" Cut="5.0939558593750000e+04" cType="1" res="-1.1550291441380978e-02" rms="3.2270702719688416e-01" purity="1.8591614067554474e-01" nType="0">
          <Node pos="l" depth="2" NCoef="0" IVar="2" Cut="5.2229506250000000e+05" cType="1" res="-8.0313710495829582e-03" rms="3.4492892026901245e-01" purity="2.1733593940734863e-01" nType="0">
            <Node pos="l" depth="3" NCoef="0" IVar="18" Cut="1.9053916015625000e+04" cType="1" res="-1.2966462410986423e-02" rms="3.5042417049407959e-01" purity="2.3300467431545258e-01" nType="0">
              <Node pos="l" depth="4" NCoef="0" IVar="-1" Cut="0.0000000000000000e+00" cType="1" res="-2.9634758830070496e-02" rms="3.0915483832359314e-01" purity="1.7219971120357513e-01" nType="-99"/>
              <Node pos="r" depth="4" NCoef="0" IVar="-1" Cut="0.0000000000000000e+00" cType="1" res="-2.8470353572629392e-04" rms="3.7026709318161011e-01" purity="2.6595196127891541e-01" nType="-99"/>
            </Node>
            <Node pos="r" depth="3" NCoef="0" IVar="-1" Cut="0.0000000000000000e+00" cType="1" res="1.0823328047990799e-02" rms="3.2226583361625671e-01" purity="1.5718784928321838e-01" nType="-99"/>
          </Node>
          <Node pos="r" depth="2" NCoef="0" IVar="-1" Cut="0.0000000000000000e+00" cType="1" res="-3.8122441619634628e-02" rms="2.1655966341495514e-01" purity="6.5178193151950836e-02" nType="-99"/>
        </Node>
        <Node pos="r" depth="1" NCoef="0" IVar="20" Cut="1.2483096093750000e+05" cType="1" res="1.1432769242674112e-03" rms="3.5533094406127930e-01" purity="5.3121799230575562e-01" nType="0">
          <Node pos="l" depth="2" NCoef="0" IVar="20" Cut="2.7619548828125000e+04" cType="1" res="2.0176502875983715e-03" rms="3.6305618286132812e-01" purity="5.5482822656631470e-01" nType="0">
            <Node pos="l" depth="3" NCoef="0" IVar="1" Cut="1.0528315625000000e+05" cType="1" res="-1.9993713125586510e-02" rms="3.7492510676383972e-01" purity="6.1804193258285522e-01" nType="0">
              <Node pos="l" depth="4" NCoef="0" IVar="-1" Cut="0.0000000000000000e+00" cType="1" res="-2.0490247756242752e-02" rms="3.7964171171188354e-01" purity="5.7723546028137207e-01" nType="-99"/>
              <Node pos="r" depth="4" NCoef="0" IVar="-1" Cut="0.0000000000000000e+00" cType="1" res="2.3081922903656960e-02" rms="3.4886494278907776e-01" purity="7.9621565341949463e-01" nType="-99"/>
            </Node>
            <Node pos="r" depth="3" NCoef="0" IVar="20" Cut="5.5394062500000000e+04" cType="1" res="9.0872729197144508e-03" rms="3.5887458920478821e-01" purity="5.3452521562576294e-01" nType="0">
              <Node pos="l" depth="4" NCoef="0" IVar="-1" Cut="0.0000000000000000e+00" cType="1" res="1.4022721908986568e-02" rms="3.7125870585441589e-01" purity="6.9823789596557617e-01" nType="-99"/>
              <Node pos="r" depth="4" NCoef="0" IVar="-1" Cut="0.0000000000000000e+00" cType="1" res="-5.6329159997403622e-03" rms="3.4105354547500610e-01" purity="3.1697919964790344e-01" nType="-99"/>
            </Node>
          </Node>
          <Node pos="r" depth="2" NCoef="0" IVar="11" Cut="1.7218559980392456e+00" cType="1" res="-1.8490286543965340e-02" rms="3.5232570022344589e-02" purity="1.0635898215696216e-03" nType="0">
            <Node pos="l" depth="3" NCoef="0" IVar="-1" Cut="0.0000000000000000e+00" cType="1" res="-1.0566347092390060e-01" rms="2.6754319667816162e-02" purity="0.0000000000000000e+00" nType="-99"/>
            <Node pos="r" depth="3" NCoef="0" IVar="1" Cut="5.0557746093750000e+04" cType="1" res="-1.5673387795686722e-02" rms="3.7863161414861679e-02" purity="1.5072899404913187e-03" nType="0">
              <Node pos="l" depth="4" NCoef="0" IVar="-1" Cut="0.0000000000000000e+00" cType="1" res="-8.3509884774684906e-02" rms="5.2645564079284668e-02" purity="3.0986291822046041e-03" nType="-99"/>
              <Node pos="r" depth="4" NCoef="0" IVar="-1" Cut="0.0000000000000000e+00" cType="1" res="-1.0273504257202148e-01" rms="1.2431458570063114e-02" purity="0.0000000000000000e+00" nType="-99"/>
            </Node>
          </Node>
        </Node>
      </Node>
    </BinaryTree>
    <BinaryTree type="DecisionTree" boostWeight="1.0000000000000000e+00" itree="46">
      <Node pos="s" depth="0" NCoef="0" IVar="5" Cut="2.2984054687500000e+05" cType="1" res="-1.1025577805412468e-05" rms="3.5223436355590820e-01" purity="5.0000000000000000e-01" nType="0">
        <Node pos="l" depth="1" NCoef="0" IVar="19" Cut="5.1726859375000000e+04" cType="1" res="1.7246928764507174e-03" rms="3.5594928264617920e-01" purity="5.3397262096405029e-01" nType="0">
          <Node pos="l" depth="2" NCoef="0" IVar="19" Cut="3.9241066406250000e+04" cType="1" res="-3.3166084904223680e-03" rms="3.4737804532051086e-01" purity="5.7043373584747314e-01" nType="0">
            <Node pos="l" depth="3" NCoef="0" IVar="1" Cut="7.5527273437500000e+04" cType="1" res="-9.7886137664318085e-03" rms="3.5505610704421997e-01" purity="5.1761102676391602e-01" nType="0">
              <Node pos="l" depth="4" NCoef="0" IVar="-1" Cut="0.0000000000000000e+00" cType="1" res="-1.2191897258162498e-02" rms="3.5950586199760437e-01" purity="4.4985377788543701e-01" nType="-99"/>
              <Node pos="r" depth="4" NCoef="0" IVar="-1" Cut="0.0000000000000000e+00" cType="1" res="7.2432011365890503e-03" rms="3.4223493933677673e-01" purity="6.9703060388565063e-01" nType="-99"/>
            </Node>
            <Node pos="r" depth="3" NCoef="0" IVar="16" Cut="7.9866492748260498e-01" cType="1" res="1.7012463882565498e-02" rms="3.2122546434402466e-01" purity="7.3635411262512207e-01" nType="0">
              <Node pos="l" depth="4" NCoef="0" IVar="-1" Cut="0.0000000000000000e+00" cType="1" res="3.9035987108945847e-02" rms="2.4374435842037201e-01" purity="8.8874167203903198e-01" nType="-99"/>
              <Node pos="r" depth="4" NCoef="0" IVar="-1" Cut="0.0000000000000000e+00" cType="1" res="4.1622403077781200e-03" rms="3.6358729004859924e-01" purity="6.3434076309204102e-01" nType="-99"/>
            </Node>
          </Node>
          <Node pos="r" depth="2" NCoef="0" IVar="19" Cut="1.0167110156250000e+05" cType="1" res="7.0072049275040627e-03" rms="3.6463978886604309e-01" purity="4.9576696753501892e-01" nType="0">
            <Node pos="l" depth="3" NCoef="0" IVar="3" Cut="9.1628343750000000e+04" cType="1" res="1.6932416707277298e-02" rms="3.6199870705604553e-01" purity="5.9621620178222656e-01" nType="0">
              <Node pos="l" depth="4" NCoef="0" IVar="-1" Cut="0.0000000000000000e+00" cType="1" res="-1.1345296166837215e-02" rms="4.0491288900375366e-01" purity="3.5662224888801575e-01" nType="-99"/>
              <Node pos="r" depth="4" NCoef="0" IVar="-1" Cut="0.0000000000000000e+00" cType="1" res="1.6241747885942459e-02" rms="3.5490897297859192e-01" purity="6.3154792785644531e-01" nType="-99"/>
            </Node>
            <Node pos="r" depth="3" NCoef="0" IVar="13" Cut="2.6960597038269043e+00" cType="1" res="-1.0029183700680733e-02" rms="3.6850640177726746e-01" purity="3.2334828376770020e-01" nType="0">
              <Node pos="l" depth="4" NCoef="0" IVar="-1" Cut="0.0000000000000000e+00" cType="1" res="-1.6367284581065178e-02" rms="3.4861785173416138e-01" purity="2.5386658310890198e-01" nType="-99"/>
              <Node pos="r" depth="4" NCoef="0" IVar="-1" Cut="0.0000000000000000e+00" cType="1" res="3.2935263589024544e-03" rms="3.9246180653572083e-01" purity="4.1415548324584961e-01" nType="-99"/>
            </Node>
          </Node>
        </Node>
        <Node pos="r" depth="1" NCoef="0" IVar="2" Cut="4.5967728125000000e+05" cType="1" res="-7.2448812425136566e-03" rms="3.3621385693550110e-01" purity="3.5841417312622070e-01" nType="0">
          <Node pos="l" depth="2" NCoef="0" IVar="1" Cut="6.2834464843750000e+04" cType="1" res="1.9997248426079750e-02" rms="3.9697635173797607e-01" purity="6.2796384096145630e-01" nType="0">
            <Node pos="l" depth="3" NCoef="0" IVar="-1" Cut="0.0000000000000000e+00" cType="1" res="4.0756136178970337e-02" rms="4.0999934077262878e-01" purity="5.6276333332061768e-01" nType="-99"/>
            <Node pos="r" depth="3" NCoef="0" IVar="-1" Cut="0.0000000000000000e+00" cType="1" res="-5.3454088047146797e-03" rms="3.8599783182144165e-01" purity="6.6831988096237183e-01" nType="-99"/>
          </Node>
          <Node pos="r" depth="2" NCoef="0" IVar="16" Cut="1.2626910209655762e+00" cType="1" res="-1.2606780976057053e-02" rms="3.2263967394828796e-01" purity="3.0536034703254700e-01" nType="0">
            <Node pos="l" depth="3" NCoef="0" IVar="15" Cut="1.3970124721527100e+00" cType="1" res="-3.0386475846171379e-02" rms="3.2749822735786438e-01" purity="4.8500141501426697e-01" nType="0">
              <Node pos="l" depth="4" NCoef="0" IVar="-1" Cut="0.0000000000000000e+00" cType="1" res="-5.5679518729448318e-02" rms="3.2368338108062744e-01" purity="3.1888747215270996e-01" nType="-99"/>
              <Node pos="r" depth="4" NCoef="0" IVar="-1" Cut="0.0000000000000000e+00" cType="1" res="-1.4144283719360828e-02" rms="3.2768207788467407e-01" purity="5.3983616828918457e-01" nType="-99"/>
            </Node>
            <Node pos="r" depth="3" NCoef="0" IVar="6" Cut="1.8982101562500000e+05" cType="1" res="-2.4201467167586088e-03" rms="3.1937709450721741e-01" purity="2.0243743062019348e-01" nType="0">
              <Node pos="l" depth="4" NCoef="0" IVar="-1" Cut="0.0000000000000000e+00" cType="1" res="7.6465723104774952e-03" rms="3.9815789461135864e-01" purity="3.1473723053932190e-01" nType="-99"/>
              <Node pos="r" depth="4" NCoef="0" IVar="-1" Cut="0.0000000000000000e+00" cType="1" res="-1.0284862481057644e-02" rms="2.7518093585968018e-01" purity="1.5051321685314178e-01" nType="-99"/>
            </Node>
          </Node>
        </Node>
      </Node>
    </BinaryTree>
    <BinaryTree type="DecisionTree" boostWeight="1.0000000000000000e+00" itree="47">
      <Node pos="s" depth="0" NCoef="0" IVar="16" Cut="5.0433826446533203e-01" cType="1" res="-2.2330793854052899e-06" rms="3.5195249319076538e-01" purity="5.0000000000000000e-01" nType="0">
        <Node pos="l" depth="1" NCoef="0" IVar="2" Cut="3.8863375000000000e+05" cType="1" res="1.4607219025492668e-02" rms="2.9317110776901245e-01" purity="7.5754016637802124e-01" nType="0">
          <Node pos="l" depth="2" NCoef="0" IVar="-1" Cut="0.0000000000000000e+00" cType="1" res="2.1586546674370766e-02" rms="3.0980935692787170e-01" purity="7.6506656408309937e-01" nType="-99"/>
          <Node pos="r" depth="2" NCoef="0" IVar="-1" Cut="0.0000000000000000e+00" cType="1" res="-4.2628493974916637e-04" rms="2.6672735810279846e-01" purity="7.4671882390975952e-01" nType="-99"/>
        </Node>
        <Node pos="r" depth="1" NCoef="0" IVar="10" Cut="2.3366242187500000e+05" cType="1" res="-8.7471329607069492e-04" rms="3.5513618588447571e-01" purity="4.8461961746215820e-01" nType="0">
          <Node pos="l" depth="2" NCoef="0" IVar="7" Cut="1.2031041406250000e+05" cType="1" res="1.8359195382799953e-04" rms="3.5985308885574341e-01" purity="4.9850815534591675e-01" nType="0">
            <Node pos="l" depth="3" NCoef="0" IVar="7" Cut="7.4477726562500000e+04" cType="1" res="-2.0300808828324080e-03" rms="3.6743772029876709e-01" purity="5.0568109750747681e-01" nType="0">
              <Node pos="l" depth="4" NCoef="0" IVar="-1" Cut="0.0000000000000000e+00" cType="1" res="5.0155315548181534e-03" rms="3.7812662124633789e-01" purity="5.9863907098770142e-01" nType="-99"/>
              <Node pos="r" depth="4" NCoef="0" IVar="-1" Cut="0.0000000000000000e+00" cType="1" res="-2.2760748863220215e-02" rms="3.3581182360649109e-01" purity="2.5712680816650391e-01" nType="-99"/>
            </Node>
            <Node pos="r" depth="3" NCoef="0" IVar="12" Cut="2.4204437732696533e+00" cType="1" res="1.5458097681403160e-02" rms="3.0193477869033813e-01" purity="4.4901403784751892e-01" nType="0">
              <Node pos="l" depth="4" NCoef="0" IVar="-1" Cut="0.0000000000000000e+00" cType="1" res="-2.3771012201905251e-02" rms="3.1968906521797180e-01" purity="2.8398618102073669e-01" nType="-99"/>
              <Node pos="r" depth="4" NCoef="0" IVar="-1" Cut="0.0000000000000000e+00" cType="1" res="2.3551626130938530e-02" rms="2.9766136407852173e-01" purity="4.8141521215438843e-01" nType="-99"/>
            </Node>
          </Node>
          <Node pos="r" depth="2" NCoef="0" IVar="12" Cut="3.2780106067657471e+00" cType="1" res="-1.1751976795494556e-02" rms="3.0220687389373779e-01" purity="3.4187361598014832e-01" nType="0">
            <Node pos="l" depth="3" NCoef="0" IVar="13" Cut="2.8591029644012451e+00" cType="1" res="-5.0536771304905415e-03" rms="3.0409657955169678e-01" purity="3.5331407189369202e-01" nType="0">
              <Node pos="l" depth="4" NCoef="0" IVar="-1" Cut="0.0000000000000000e+00" cType="1" res="-1.9617414101958275e-02" rms="2.8110286593437195e-01" purity="2.5010353326797485e-01" nType="-99"/>
              <Node pos="r" depth="4" NCoef="0" IVar="-1" Cut="0.0000000000000000e+00" cType="1" res="2.0075608044862747e-03" rms="3.1668078899383545e-01" purity="4.1433340311050415e-01" nType="-99"/>
            </Node>
            <Node pos="r" depth="3" NCoef="0" IVar="15" Cut="2.0878965854644775e+00" cType="1" res="-3.1917273998260498e-02" rms="2.9553011059761047e-01" purity="3.0743202567100525e-01" nType="0">
              <Node pos="l" depth="4" NCoef="0" IVar="-1" Cut="0.0000000000000000e+00" cType="1" res="-4.5962996780872345e-02" rms="2.8968551754951477e-01" purity="2.5683510303497314e-01" nType="-99"/>
              <Node pos="r" depth="4" NCoef="0" IVar="-1" Cut="0.0000000000000000e+00" cType="1" res="-1.4273270964622498e-02" rms="3.0073201656341553e-01" purity="3.6132022738456726e-01" nType="-99"/>
            </Node>
          </Node>
        </Node>
      </Node>
    </BinaryTree>
    <BinaryTree type="DecisionTree" boostWeight="1.0000000000000000e+00" itree="48">
      <Node pos="s" depth="0" NCoef="0" IVar="14" Cut="1.8004931211471558e+00" cType="1" res="-4.8593287829135079e-06" rms="3.5172975063323975e-01" purity="5.0000000000000000e-01" nType="0">
        <Node pos="l" depth="1" NCoef="0" IVar="17" Cut="1.0425562500000000e+05" cType="1" res="-3.5546564031392336e-03" rms="3.6257037520408630e-01" purity="4.5686691999435425e-01" nType="0">
          <Node pos="l" depth="2" NCoef="0" IVar="18" Cut="9.4523515625000000e+04" cType="1" res="-8.2083977758884430e-04" rms="3.6959314346313477e-01" purity="4.7788515686988831e-01" nType="0">
            <Node pos="l" depth="3" NCoef="0" IVar="12" Cut="1.2721550464630127e+00" cType="1" res="3.5513811744749546e-03" rms="3.7739872932434082e-01" purity="5.0454223155975342e-01" nType="0">
              <Node pos="l" depth="4" NCoef="0" IVar="-1" Cut="0.0000000000000000e+00" cType="1" res="-2.5001302361488342e-02" rms="3.6302700638771057e-01" purity="2.7336108684539795e-01" nType="-99"/>
              <Node pos="r" depth="4" NCoef="0" IVar="-1" Cut="0.0000000000000000e+00" cType="1" res="3.3824441488832235e-03" rms="3.7780171632766724e-01" purity="5.1257777214050293e-01" nType="-99"/>
            </Node>
            <Node pos="r" depth="3" NCoef="0" IVar="14" Cut="1.3847812414169312e+00" cType="1" res="-1.9358506426215172e-02" rms="3.3384567499160767e-01" purity="3.6486274003982544e-01" nType="0">
              <Node pos="l" depth="4" NCoef="0" IVar="-1" Cut="0.0000000000000000e+00" cType="1" res="-2.9613602906465530e-02" rms="3.1809312105178833e-01" purity="2.8238826990127563e-01" nType="-99"/>
              <Node pos="r" depth="4" NCoef="0" IVar="-1" Cut="0.0000000000000000e+00" cType="1" res="1.4819477219134569e-03" rms="3.5449773073196411e-01" purity="4.8522645235061646e-01" nType="-99"/>
            </Node>
          </Node>
          <Node pos="r" depth="2" NCoef="0" IVar="15" Cut="1.5353196859359741e+00" cType="1" res="-2.6900367811322212e-02" rms="2.9485481977462769e-01" purity="2.7737942337989807e-01" nType="0">
            <Node pos="l" depth="3" NCoef="0" IVar="9" Cut="1.6278443750000000e+05" cType="1" res="-4.3008565902709961e-02" rms="2.9863330721855164e-01" purity="2.6117753982543945e-01" nType="0">
              <Node pos="l" depth="4" NCoef="0" IVar="-1" Cut="0.0000000000000000e+00" cType="1" res="-4.7392413020133972e-02" rms="3.1899812817573547e-01" purity="2.8001534938812256e-01" nType="-99"/>
              <Node pos="r" depth="4" NCoef="0" IVar="-1" Cut="0.0000000000000000e+00" cType="1" res="-3.5337928682565689e-02" rms="2.7924656867980957e-01" purity="2.4482400715351105e-01" nType="-99"/>
            </Node>
            <Node pos="r" depth="3" NCoef="0" IVar="5" Cut="2.7188631250000000e+05" cType="1" res="-1.3109118677675724e-02" rms="2.9087296128273010e-01" purity="2.9125088453292847e-01" nType="0">
              <Node pos="l" depth="4" NCoef="0" IVar="-1" Cut="0.0000000000000000e+00" cType="1" res="-3.3280033618211746e-02" rms="2.8995782136917114e-01" purity="3.3965283632278442e-01" nType="-99"/>
              <Node pos="r" depth="4" NCoef="0" IVar="-1" Cut="0.0000000000000000e+00" cType="1" res="5.7185110636055470e-03" rms="2.9056790471076965e-01" purity="2.4437232315540314e-01" nType="-99"/>
            </Node>
          </Node>
        </Node>
        <Node pos="r" depth="1" NCoef="0" IVar="10" Cut="3.0289012500000000e+05" cType="1" res="3.0057814437896013e-03" rms="3.4223780035972595e-01" purity="5.3658187389373779e-01" nType="0">
          <Node pos="l" depth="2" NCoef="0" IVar="21" Cut="1.2031041406250000e+05" cType="1" res="3.9177522994577885e-03" rms="3.4438726305961609e-01" purity="5.4629456996917725e-01" nType="0">
            <Node pos="l" depth="3" NCoef="0" IVar="21" Cut="7.4475218750000000e+04" cType="1" res="1.8261084333062172e-03" rms="3.5322734713554382e-01" purity="5.5513411760330200e-01" nType="0">
              <Node pos="l" depth="4" NCoef="0" IVar="-1" Cut="0.0000000000000000e+00" cType="1" res="6.4668692648410797e-03" rms="3.6422166228294373e-01" purity="6.2840610742568970e-01" nType="-99"/>
              <Node pos="r" depth="4" NCoef="0" IVar="-1" Cut="0.0000000000000000e+00" cType="1" res="-3.1798522919416428e-02" rms="2.9541856050491333e-01" purity="2.2040574252605438e-01" nType="-99"/>
            </Node>
            <Node pos="r" depth="3" NCoef="0" IVar="8" Cut="1.2874687500000000e+05" cType="1" res="2.0377961918711662e-02" rms="2.6413276791572571e-01" purity="4.7673153877258301e-01" nType="0">
              <Node pos="l" depth="4" NCoef="0" IVar="-1" Cut="0.0000000000000000e+00" cType="1" res="3.2356873154640198e-02" rms="3.1467601656913757e-01" purity="6.8957942724227905e-01" nType="-99"/>
              <Node pos="r" depth="4" NCoef="0" IVar="-1" Cut="0.0000000000000000e+00" cType="1" res="-8.3882309496402740e-02" rms="5.4632261395454407e-02" purity="3.4001937601715326e-03" nType="-99"/>
            </Node>
          </Node>
          <Node pos="r" depth="2" NCoef="0" IVar="13" Cut="3.1279883384704590e+00" cType="1" res="-1.9812265411019325e-02" rms="2.8223773837089539e-01" purity="2.9356479644775391e-01" nType="0">
            <Node pos="l" depth="3" NCoef="0" IVar="-1" Cut="0.0000000000000000e+00" cType="1" res="-1.0523162782192230e-02" rms="2.6992851495742798e-01" purity="3.0335095524787903e-01" nType="-99"/>
            <Node pos="r" depth="3" NCoef="0" IVar="-1" Cut="0.0000000000000000e+00" cType="1" res="-3.0742457136511803e-02" rms="2.9307839274406433e-01" purity="2.8426939249038696e-01" nType="-99"/>
          </Node>
        </Node>
      </Node>
    </BinaryTree>
    <BinaryTree type="DecisionTree" boostWeight="1.0000000000000000e+00" itree="49">
      <Node pos="s" depth="0" NCoef="0" IVar="0" Cut="5.3333334922790527e+00" cType="1" res="-1.1579920283111278e-05" rms="3.5149869322776794e-01" purity="5.0000000000000000e-01" nType="0">
        <Node pos="l" depth="1" NCoef="0" IVar="0" Cut="3.0952382087707520e+00" cType="1" res="3.1356397084891796e-03" rms="3.4009075164794922e-01" purity="5.9258693456649780e-01" nType="0">
          <Node pos="l" depth="2" NCoef="0" IVar="12" Cut="2.5570740699768066e+00" cType="1" res="-3.5005465615540743e-03" rms="3.6518803238868713e-01" purity="4.7118261456489563e-01" nType="0">
            <Node pos="l" depth="3" NCoef="0" IVar="9" Cut="6.0536597656250000e+04" cType="1" res="-1.0372763499617577e-02" rms="3.8407132029533386e-01" purity="4.1498583555221558e-01" nType="0">
              <Node pos="l" depth="4" NCoef="0" IVar="-1" Cut="0.0000000000000000e+00" cType="1" res="3.5571160260587931e-03" rms="4.2240422964096069e-01" purity="4.5832905173301697e-01" nType="-99"/>
              <Node pos="r" depth="4" NCoef="0" IVar="-1" Cut="0.0000000000000000e+00" cType="1" res="-1.3634691014885902e-02" rms="3.6164677143096924e-01" purity="3.9186501502990723e-01" nType="-99"/>
            </Node>
            <Node pos="r" depth="3" NCoef="0" IVar="17" Cut="9.8789843750000000e+04" cType="1" res="1.2945069465786219e-03" rms="3.5133218765258789e-01" purity="5.1039367914199829e-01" nType="0">
              <Node pos="l" depth="4" NCoef="0" IVar="-1" Cut="0.0000000000000000e+00" cType="1" res="-3.1562405638396740e-03" rms="3.6724969744682312e-01" purity="4.9895459413528442e-01" nType="-99"/>
              <Node pos="r" depth="4" NCoef="0" IVar="-1" Cut="0.0000000000000000e+00" cType="1" res="1.1956063099205494e-02" rms="3.1476897001266479e-01" purity="5.3452658653259277e-01" nType="-99"/>
            </Node>
          </Node>
          <Node pos="r" depth="2" NCoef="0" IVar="1" Cut="9.1671062500000000e+04" cType="1" res="1.8250567838549614e-02" rms="2.7389264106750488e-01" purity="8.6910378932952881e-01" nType="0">
            <Node pos="l" depth="3" NCoef="0" IVar="1" Cut="5.2514304687500000e+04" cType="1" res="2.8121598064899445e-02" rms="2.6307162642478943e-01" purity="8.8739573955535889e-01" nType="0">
              <Node pos="l" depth="4" NCoef="0" IVar="-1" Cut="0.0000000000000000e+00" cType="1" res="4.3441090732812881e-02" rms="2.6206883788108826e-01" purity="8.9284950494766235e-01" nType="-99"/>
              <Node pos="r" depth="4" NCoef="0" IVar="-1" Cut="0.0000000000000000e+00" cType="1" res="1.7752759158611298e-02" rms="2.6340880990028381e-01" purity="8.8176637887954712e-01" nType="-99"/>
            </Node>
            <Node pos="r" depth="3" NCoef="0" IVar="11" Cut="1.1744242906570435e+00" cType="1" res="-2.7194472495466471e-03" rms="2.9447287321090698e-01" purity="8.3024430274963379e-01" nType="0">
              <Node pos="l" depth="4" NCoef="0" IVar="-1" Cut="0.0000000000000000e+00" cType="1" res="1.0137806646525860e-02" rms="2.6882815361022949e-01" purity="9.0654003620147705e-01" nType="-99"/>
              <Node pos="r" depth="4" NCoef="0" IVar="-1" Cut="0.0000000000000000e+00" cType="1" res="-2.1669376641511917e-02" rms="3.4047049283981323e-01" purity="6.7236113548278809e-01" nType="-99"/>
            </Node>
          </Node>
        </Node>
        <Node pos="r" depth="1" NCoef="0" IVar="16" Cut="1.2425959110260010e+00" cType="1" res="-2.9979832470417023e-03" rms="3.6196616291999817e-01" purity="4.1214406490325928e-01" nType="0">
          <Node pos="l" depth="2" NCoef="0" IVar="16" Cut="8.3157896995544434e-01" cType="1" res="-1.0381399653851986e-02" rms="3.5422366857528687e-01" purity="6.0005611181259155e-01" nType="0">
            <Node pos="l" depth="3" NCoef="0" IVar="1" Cut="7.5576554687500000e+04" cType="1" res="1.2830747291445732e-03" rms="3.3432853221893311e-01" purity="6.8159836530685425e-01" nType="0">
              <Node pos="l" depth="4" NCoef="0" IVar="-1" Cut="0.0000000000000000e+00" cType="1" res="-1.0061419568955898e-02" rms="3.6067956686019897e-01" purity="6.0995751619338989e-01" nType="-99"/>
              <Node pos="r" depth="4" NCoef="0" IVar="-1" Cut="0.0000000000000000e+00" cType="1" res="2.2219106554985046e-02" rms="2.8718507289886475e-01" purity="7.9276412725448608e-01" nType="-99"/>
            </Node>
            <Node pos="r" depth="3" NCoef="0" IVar="19" Cut="3.3294644531250000e+04" cType="1" res="-2.3959446698427200e-02" rms="3.7560325860977173e-01" purity="5.0513678789138794e-01" nType="0">
              <Node pos="l" depth="4" NCoef="0" IVar="-1" Cut="0.0000000000000000e+00" cType="1" res="-2.8527811169624329e-02" rms="3.9228728413581848e-01" purity="3.7536633014678955e-01" nType="-99"/>
              <Node pos="r" depth="4" NCoef="0" IVar="-1" Cut="0.0000000000000000e+00" cType="1" res="-1.0476605966687202e-02" rms="3.6903074383735657e-01" purity="5.5211699008941650e-01" nType="-99"/>
            </Node>
          </Node>
          <Node pos="r" depth="2" NCoef="0" IVar="1" Cut="1.0835192968750000e+05" cType="1" res="1.9633320625871420e-03" rms="3.6699360609054565e-01" purity="2.8587588667869568e-01" nType="0">
            <Node pos="l" depth="3" NCoef="0" IVar="1" Cut="2.5903076171875000e+04" cType="1" res="-1.2602119240909815e-03" rms="3.6629876494407654e-01" purity="2.7032029628753662e-01" nType="0">
              <Node pos="l" depth="4" NCoef="0" IVar="-1" Cut="0.0000000000000000e+00" cType="1" res="-1.6680425032973289e-02" rms="3.1928095221519470e-01" purity="1.4950436353683472e-01" nType="-99"/>
              <Node pos="r" depth="4" NCoef="0" IVar="-1" Cut="0.0000000000000000e+00" cType="1" res="3.3112354576587677e-03" rms="3.8147151470184326e-01" purity="3.1340974569320679e-01" nType="-99"/>
            </Node>
            <Node pos="r" depth="3" NCoef="0" IVar="6" Cut="2.1140559375000000e+05" cType="1" res="2.0697904750704765e-02" rms="3.7045142054557800e-01" purity="3.7628188729286194e-01" nType="0">
              <Node pos="l" depth="4" NCoef="0" IVar="-1" Cut="0.0000000000000000e+00" cType="1" res="2.2451387718319893e-02" rms="4.2184853553771973e-01" purity="4.8802241683006287e-01" nType="-99"/>
              <Node pos="r" depth="4" NCoef="0" IVar="-1" Cut="0.0000000000000000e+00" cType="1" res="-7.3917265981435776e-03" rms="2.8743776679039001e-01" purity="2.3022875189781189e-01" nType="-99"/>
            </Node>
          </Node>
        </Node>
      </Node>
    </BinaryTree>
    <BinaryTree type="DecisionTree" boostWeight="1.0000000000000000e+00" itree="50">
      <Node pos="s" depth="0" NCoef="0" IVar="14" Cut="2.8268120288848877e+00" cType="1" res="4.0602135413791984e-06" rms="3.5126727819442749e-01" purity="5.0000000000000000e-01" nType="0">
        <Node pos="l" depth="1" NCoef="0" IVar="10" Cut="1.1646107812500000e+05" cType="1" res="-1.0556115303188562e-03" rms="3.5328975319862366e-01" purity="4.9454963207244873e-01" nType="0">
          <Node pos="l" depth="2" NCoef="0" IVar="6" Cut="1.1624848437500000e+05" cType="1" res="-4.2809676378965378e-03" rms="3.6859494447708130e-01" purity="4.6917107701301575e-01" nType="0">
            <Node pos="l" depth="3" NCoef="0" IVar="8" Cut="1.7847021484375000e+04" cType="1" res="-1.6320254653692245e-02" rms="4.0128150582313538e-01" purity="4.4877010583877563e-01" nType="0">
              <Node pos="l" depth="4" NCoef="0" IVar="-1" Cut="0.0000000000000000e+00" cType="1" res="-3.0092960223555565e-02" rms="3.8360780477523804e-01" purity="3.5935932397842407e-01" nType="-99"/>
              <Node pos="r" depth="4" NCoef="0" IVar="-1" Cut="0.0000000000000000e+00" cType="1" res="-5.2855694666504860e-03" rms="4.0447837114334106e-01" purity="4.6737006306648254e-01" nType="-99"/>
            </Node>
            <Node pos="r" depth="3" NCoef="0" IVar="2" Cut="3.2321500000000000e+05" cType="1" res="2.3444523103535175e-03" rms="3.4912756085395813e-01" purity="4.8039805889129639e-01" nType="0">
              <Node pos="l" depth="4" NCoef="0" IVar="-1" Cut="0.0000000000000000e+00" cType="1" res="1.1839366517961025e-02" rms="3.6627250909805298e-01" purity="5.9319382905960083e-01" nType="-99"/>
              <Node pos="r" depth="4" NCoef="0" IVar="-1" Cut="0.0000000000000000e+00" cType="1" res="-7.7258395031094551e-03" rms="3.3424106240272522e-01" purity="3.8959088921546936e-01" nType="-99"/>
            </Node>
          </Node>
          <Node pos="r" depth="2" NCoef="0" IVar="13" Cut="2.1743929386138916e+00" cType="1" res="3.2023743260651827e-03" rms="3.3195769786834717e-01" purity="5.2805352210998535e-01" nType="0">
            <Node pos="l" depth="3" NCoef="0" IVar="9" Cut="1.3157989062500000e+05" cType="1" res="-3.2292354851961136e-02" rms="2.7435636520385742e-01" purity="1.6748045384883881e-01" nType="0">
              <Node pos="l" depth="4" NCoef="0" IVar="-1" Cut="0.0000000000000000e+00" cType="1" res="-4.2847488075494766e-02" rms="3.0883845686912537e-01" purity="2.0876748859882355e-01" nType="-99"/>
              <Node pos="r" depth="4" NCoef="0" IVar="-1" Cut="0.0000000000000000e+00" cType="1" res="-2.4908903986215591e-02" rms="2.3590502142906189e-01" purity="1.2831322848796844e-01" nType="-99"/>
            </Node>
            <Node pos="r" depth="3" NCoef="0" IVar="12" Cut="3.2504143714904785e+00" cType="1" res="7.7418102882802486e-03" rms="3.3834993839263916e-01" purity="5.7416737079620361e-01" nType="0">
              <Node pos="l" depth="4" NCoef="0" IVar="-1" Cut="0.0000000000000000e+00" cType="1" res="1.0128721594810486e-02" rms="3.3917734026908875e-01" purity="5.9625220298767090e-01" nType="-99"/>
              <Node pos="r" depth="4" NCoef="0" IVar="-1" Cut="0.0000000000000000e+00" cType="1" res="-1.4205259270966053e-02" rms="3.3318412303924561e-01" purity="4.6772316098213196e-01" nType="-99"/>
            </Node>
          </Node>
        </Node>
        <Node pos="r" depth="1" NCoef="0" IVar="6" Cut="3.1575681250000000e+05" cType="1" res="8.1121930852532387e-03" rms="3.3527776598930359e-01" purity="5.4170334339141846e-01" nType="0">
          <Node pos="l" depth="2" NCoef="0" IVar="4" Cut="1.8664412500000000e+05" cType="1" res="1.2093183584511280e-02" rms="3.4583309292793274e-01" purity="5.7509607076644897e-01" nType="0">
            <Node pos="l" depth="3" NCoef="0" IVar="-1" Cut="0.0000000000000000e+00" cType="1" res="-2.0866109058260918e-02" rms="3.9637228846549988e-01" purity="4.4107618927955627e-01" nType="-99"/>
            <Node pos="r" depth="3" NCoef="0" IVar="2" Cut="3.5771925000000000e+05" cType="1" res="1.9638141617178917e-02" rms="3.3633971214294434e-01" purity="5.9677350521087646e-01" nType="0">
              <Node pos="l" depth="4" NCoef="0" IVar="-1" Cut="0.0000000000000000e+00" cType="1" res="3.5780854523181915e-02" rms="3.3383816480636597e-01" purity="7.3101258277893066e-01" nType="-99"/>
              <Node pos="r" depth="4" NCoef="0" IVar="-1" Cut="0.0000000000000000e+00" cType="1" res="7.5296396389603615e-03" rms="3.3666294813156128e-01" purity="5.4730951786041260e-01" nType="-99"/>
            </Node>
          </Node>
          <Node pos="r" depth="2" NCoef="0" IVar="-1" Cut="0.0000000000000000e+00" cType="1" res="-3.5594210028648376e-02" rms="2.2766327857971191e-01" purity="2.6594918966293335e-01" nType="-99"/>
        </Node>
      </Node>
    </BinaryTree>
    <BinaryTree type="DecisionTree" boostWeight="1.0000000000000000e+00" itree="51">
      <Node pos="s" depth="0" NCoef="0" IVar="11" Cut="7.3745375871658325e-01" cType="1" res="2.9448256100295112e-06" rms="3.5102504491806030e-01" purity="5.0000000000000000e-01" nType="0">
        <Node pos="l" depth="1" NCoef="0" IVar="8" Cut="2.1785000000000000e+04" cType="1" res="4.3224520049989223e-03" rms="3.3925193548202515e-01" purity="6.6764646768569946e-01" nType="0">
          <Node pos="l" depth="2" NCoef="0" IVar="0" Cut="2.3333332538604736e+00" cType="1" res="-1.2342165224254131e-02" rms="3.7054601311683655e-01" purity="5.7207518815994263e-01" nType="0">
            <Node pos="l" depth="3" NCoef="0" IVar="6" Cut="1.5972646875000000e+05" cType="1" res="-4.7351781278848648e-02" rms="3.9662826061248779e-01" purity="4.8496711254119873e-01" nType="0">
              <Node pos="l" depth="4" NCoef="0" IVar="-1" Cut="0.0000000000000000e+00" cType="1" res="-4.0866386145353317e-02" rms="4.0479454398155212e-01" purity="4.0713569521903992e-01" nType="-99"/>
              <Node pos="r" depth="4" NCoef="0" IVar="-1" Cut="0.0000000000000000e+00" cType="1" res="-8.9689418673515320e-03" rms="3.8315695524215698e-01" purity="5.8690476417541504e-01" nType="-99"/>
            </Node>
            <Node pos="r" depth="3" NCoef="0" IVar="0" Cut="6.0952382087707520e+00" cType="1" res="-1.0574760381132364e-03" rms="3.6101552844047546e-01" purity="6.0015285015106201e-01" nType="0">
              <Node pos="l" depth="4" NCoef="0" IVar="-1" Cut="0.0000000000000000e+00" cType="1" res="2.0721130073070526e-02" rms="3.1141310930252075e-01" purity="7.7046817541122437e-01" nType="-99"/>
              <Node pos="r" depth="4" NCoef="0" IVar="-1" Cut="0.0000000000000000e+00" cType="1" res="-1.4668511226773262e-02" rms="4.0052738785743713e-01" purity="4.4048798084259033e-01" nType="-99"/>
            </Node>
          </Node>
          <Node pos="r" depth="2" NCoef="0" IVar="6" Cut="3.5523150000000000e+05" cType="1" res="1.3677845709025860e-02" rms="3.1996643543243408e-01" purity="7.2129946947097778e-01" nType="0">
            <Node pos="l" depth="3" NCoef="0" IVar="8" Cut="3.5249425781250000e+04" cType="1" res="1.8517663702368736e-02" rms="3.2328850030899048e-01" purity="7.7220720052719116e-01" nType="0">
              <Node pos="l" depth="4" NCoef="0" IVar="-1" Cut="0.0000000000000000e+00" cType="1" res="8.5855033248662949e-03" rms="3.3020162582397461e-01" purity="7.7052944898605347e-01" nType="-99"/>
              <Node pos="r" depth="4" NCoef="0" IVar="-1" Cut="0.0000000000000000e+00" cType="1" res="2.6615684852004051e-02" rms="3.1224817037582397e-01" purity="7.7472126483917236e-01" nType="-99"/>
            </Node>
            <Node pos="r" depth="3" NCoef="0" IVar="0" Cut="6.3333334922790527e+00" cType="1" res="-1.6074115410447121e-02" rms="2.9700660705566406e-01" purity="4.0835300087928772e-01" nType="0">
              <Node pos="l" depth="4" NCoef="0" IVar="-1" Cut="0.0000000000000000e+00" cType="1" res="-1.9939802587032318e-03" rms="3.1171602010726929e-01" purity="5.4954367876052856e-01" nType="-99"/>
              <Node pos="r" depth="4" NCoef="0" IVar="-1" Cut="0.0000000000000000e+00" cType="1" res="-3.4712649881839752e-02" rms="2.7551719546318054e-01" purity="2.2348374128341675e-01" nType="-99"/>
            </Node>
          </Node>
        </Node>
        <Node pos="r" depth="1" NCoef="0" IVar="15" Cut="1.0185593366622925e+00" cType="1" res="-1.9736180547624826e-03" rms="3.5626512765884399e-01" purity="4.2328667640686035e-01" nType="0">
          <Node pos="l" depth="2" NCoef="0" IVar="18" Cut="3.2362738281250000e+04" cType="1" res="1.0351099073886871e-02" rms="3.8177949190139771e-01" purity="4.4419983029365540e-01" nType="0">
            <Node pos="l" depth="3" NCoef="0" IVar="10" Cut="7.1089500000000000e+04" cType="1" res="-5.6065339595079422e-03" rms="3.8161042332649231e-01" purity="4.4254148006439209e-01" nType="0">
              <Node pos="l" depth="4" NCoef="0" IVar="-1" Cut="0.0000000000000000e+00" cType="1" res="-1.6721459105610847e-02" rms="3.7554341554641724e-01" purity="3.6850458383560181e-01" nType="-99"/>
              <Node pos="r" depth="4" NCoef="0" IVar="-1" Cut="0.0000000000000000e+00" cType="1" res="4.3643517419695854e-03" rms="3.8452258706092834e-01" purity="4.8493510484695435e-01" nType="-99"/>
            </Node>
            <Node pos="r" depth="3" NCoef="0" IVar="17" Cut="7.0198531250000000e+04" cType="1" res="3.2974161207675934e-02" rms="3.8087493181228638e-01" purity="4.4655090570449829e-01" nType="0">
              <Node pos="l" depth="4" NCoef="0" IVar="-1" Cut="0.0000000000000000e+00" cType="1" res="3.5806939005851746e-02" rms="4.0779501199722290e-01" purity="5.8108180761337280e-01" nType="-99"/>
              <Node pos="r" depth="4" NCoef="0" IVar="-1" Cut="0.0000000000000000e+00" cType="1" res="-4.3496233411133289e-04" rms="3.4053343534469604e-01" purity="2.7479767799377441e-01" nType="-99"/>
            </Node>
          </Node>
          <Node pos="r" depth="2" NCoef="0" IVar="12" Cut="2.6815416812896729e+00" cType="1" res="-4.5051793567836285e-03" rms="3.5074105858802795e-01" purity="4.1899099946022034e-01" nType="0">
            <Node pos="l" depth="3" NCoef="0" IVar="21" Cut="5.9080535156250000e+04" cType="1" res="-9.5062796026468277e-03" rms="3.6395627260208130e-01" purity="4.1277152299880981e-01" nType="0">
              <Node pos="l" depth="4" NCoef="0" IVar="-1" Cut="0.0000000000000000e+00" cType="1" res="-3.2646700856275856e-04" rms="3.9152085781097412e-01" purity="5.4958856105804443e-01" nType="-99"/>
              <Node pos="r" depth="4" NCoef="0" IVar="-1" Cut="0.0000000000000000e+00" cType="1" res="-1.8675900995731354e-02" rms="3.2335439324378967e-01" purity="2.3106570541858673e-01" nType="-99"/>
            </Node>
            <Node pos="r" depth="3" NCoef="0" IVar="14" Cut="2.0570728778839111e+00" cType="1" res="3.2550924515817314e-05" rms="3.3823990821838379e-01" purity="4.2463418841362000e-01" nType="0">
              <Node pos="l" depth="4" NCoef="0" IVar="-1" Cut="0.0000000000000000e+00" cType="1" res="-5.8528562076389790e-03" rms="3.3813101053237915e-01" purity="3.4962049126625061e-01" nType="-99"/>
              <Node pos="r" depth="4" NCoef="0" IVar="-1" Cut="0.0000000000000000e+00" cType="1" res="7.7988831326365471e-03" rms="3.3814147114753723e-01" purity="5.2614676952362061e-01" nType="-99"/>
            </Node>
          </Node>
        </Node>
      </Node>
    </BinaryTree>
    <BinaryTree type="DecisionTree" boostWeight="1.0000000000000000e+00" itree="52">
      <Node pos="s" depth="0" NCoef="0" IVar="11" Cut="2.5967428088188171e-01" cType="1" res="5.7822230701276567e-06" rms="3.5077720880508423e-01" purity="5.0000000000000000e-01" nType="0">
        <Node pos="l" depth="1" NCoef="0" IVar="-1" Cut="0.0000000000000000e+00" cType="1" res="1.7905615270137787e-02" rms="3.1425315141677856e-01" purity="7.4361503124237061e-01" nType="-99"/>
        <Node pos="r" depth="1" NCoef="0" IVar="9" Cut="4.2009631250000000e+05" cType="1" res="-4.2243479401804507e-04" rms="3.5145872831344604e-01" purity="4.9510651826858521e-01" nType="0">
          <Node pos="l" depth="2" NCoef="0" IVar="20" Cut="2.4499019531250000e+04" cType="1" res="-5.1732047722907737e-05" rms="3.5350185632705688e-01" purity="5.0163745880126953e-01" nType="0">
            <Node pos="l" depth="3" NCoef="0" IVar="1" Cut="5.2741027343750000e+04" cType="1" res="-2.1357236430048943e-02" rms="3.7972080707550049e-01" purity="5.3460466861724854e-01" nType="0">
              <Node pos="l" depth="4" NCoef="0" IVar="-1" Cut="0.0000000000000000e+00" cType="1" res="-2.6434769853949547e-02" rms="3.7733066082000732e-01" purity="3.5822477936744690e-01" nType="-99"/>
              <Node pos="r" depth="4" NCoef="0" IVar="-1" Cut="0.0000000000000000e+00" cType="1" res="-1.6759060090407729e-03" rms="3.8102099299430847e-01" purity="7.0155984163284302e-01" nType="-99"/>
            </Node>
            <Node pos="r" depth="3" NCoef="0" IVar="20" Cut="9.9746562500000000e+04" cType="1" res="4.5052384957671165e-03" rms="3.4746780991554260e-01" purity="4.9458619952201843e-01" nType="0">
              <Node pos="l" depth="4" NCoef="0" IVar="-1" Cut="0.0000000000000000e+00" cType="1" res="5.5040013976395130e-03" rms="3.6943635344505310e-01" purity="5.6362569332122803e-01" nType="-99"/>
              <Node pos="r" depth="4" NCoef="0" IVar="-1" Cut="0.0000000000000000e+00" cType="1" res="-7.2276830673217773e-02" rms="9.8299004137516022e-02" purity="1.0606748983263969e-02" nType="-99"/>
            </Node>
          </Node>
          <Node pos="r" depth="2" NCoef="0" IVar="-1" Cut="0.0000000000000000e+00" cType="1" res="-4.2872056365013123e-02" rms="1.9163528084754944e-01" purity="1.0380404442548752e-01" nType="-99"/>
        </Node>
      </Node>
    </BinaryTree>
    <BinaryTree type="DecisionTree" boostWeight="1.0000000000000000e+00" itree="53">
      <Node pos="s" depth="0" NCoef="0" IVar="11" Cut="4.9856403470039368e-01" cType="1" res="-2.1587380615528673e-05" rms="3.5060328245162964e-01" purity="5.0000000000000000e-01" nType="0">
        <Node pos="l" depth="1" NCoef="0" IVar="20" Cut="1.4967666992187500e+04" cType="1" res="7.3280925862491131e-03" rms="3.3032092452049255e-01" purity="7.0127981901168823e-01" nType="0">
          <Node pos="l" depth="2" NCoef="0" IVar="7" Cut="2.1227035156250000e+04" cType="1" res="-1.4412515796720982e-02" rms="3.7577936053276062e-01" purity="5.1973229646682739e-01" nType="0">
            <Node pos="l" depth="3" NCoef="0" IVar="-1" Cut="0.0000000000000000e+00" cType="1" res="-2.5276176631450653e-02" rms="3.5217976570129395e-01" purity="5.4640781879425049e-01" nType="-99"/>
            <Node pos="r" depth="3" NCoef="0" IVar="-1" Cut="0.0000000000000000e+00" cType="1" res="6.2660658732056618e-03" rms="3.9904460310935974e-01" purity="4.8994162678718567e-01" nType="-99"/>
          </Node>
          <Node pos="r" depth="2" NCoef="0" IVar="11" Cut="4.1248291730880737e-01" cType="1" res="1.1556922458112240e-02" rms="3.2055979967117310e-01" purity="7.3659318685531616e-01" nType="0">
            <Node pos="l" depth="3" NCoef="0" IVar="0" Cut="2.3333332538604736e+00" cType="1" res="1.9619153812527657e-02" rms="3.1279414892196655e-01" purity="7.5698810815811157e-01" nType="0">
              <Node pos="l" depth="4" NCoef="0" IVar="-1" Cut="0.0000000000000000e+00" cType="1" res="2.7998865116387606e-03" rms="3.5765197873115540e-01" purity="6.7071545124053955e-01" nType="-99"/>
              <Node pos="r" depth="4" NCoef="0" IVar="-1" Cut="0.0000000000000000e+00" cType="1" res="2.4104177951812744e-02" rms="2.9441797733306885e-01" purity="7.8864496946334839e-01" nType="-99"/>
            </Node>
            <Node pos="r" depth="3" NCoef="0" IVar="19" Cut="7.6958031250000000e+04" cType="1" res="-1.2593921273946762e-03" rms="3.3212897181510925e-01" purity="7.0417183637619019e-01" nType="0">
              <Node pos="l" depth="4" NCoef="0" IVar="-1" Cut="0.0000000000000000e+00" cType="1" res="9.9589154124259949e-03" rms="3.0383080244064331e-01" purity="8.1763130426406860e-01" nType="-99"/>
              <Node pos="r" depth="4" NCoef="0" IVar="-1" Cut="0.0000000000000000e+00" cType="1" res="-1.5440989285707474e-02" rms="3.7877494096755981e-01" purity="4.9041262269020081e-01" nType="-99"/>
            </Node>
          </Node>
        </Node>
        <Node pos="r" depth="1" NCoef="0" IVar="15" Cut="7.6479506492614746e-01" cType="1" res="-1.3346100458875299e-03" rms="3.5408836603164673e-01" purity="4.6404129266738892e-01" nType="0">
          <Node pos="l" depth="2" NCoef="0" IVar="18" Cut="2.0231599609375000e+04" cType="1" res="8.7215360254049301e-03" rms="3.8308024406433105e-01" purity="4.7951260209083557e-01" nType="0">
            <Node pos="l" depth="3" NCoef="0" IVar="5" Cut="7.3137351562500000e+04" cType="1" res="-1.0087067261338234e-02" rms="3.6597084999084473e-01" purity="4.6047538518905640e-01" nType="0">
              <Node pos="l" depth="4" NCoef="0" IVar="-1" Cut="0.0000000000000000e+00" cType="1" res="1.7017245991155505e-03" rms="3.6961898207664490e-01" purity="4.8422417044639587e-01" nType="-99"/>
              <Node pos="r" depth="4" NCoef="0" IVar="-1" Cut="0.0000000000000000e+00" cType="1" res="-2.5043250992894173e-02" rms="3.5721740126609802e-01" purity="4.1289144754409790e-01" nType="-99"/>
            </Node>
            <Node pos="r" depth="3" NCoef="0" IVar="9" Cut="1.3467907812500000e+05" cType="1" res="2.6568083092570305e-02" rms="3.9781475067138672e-01" purity="4.9757602810859680e-01" nType="0">
              <Node pos="l" depth="4" NCoef="0" IVar="-1" Cut="0.0000000000000000e+00" cType="1" res="2.8049010783433914e-02" rms="4.1871687769889832e-01" purity="5.7973092794418335e-01" nType="-99"/>
              <Node pos="r" depth="4" NCoef="0" IVar="-1" Cut="0.0000000000000000e+00" cType="1" res="-1.8024627119302750e-02" rms="3.4076407551765442e-01" purity="3.1007564067840576e-01" nType="-99"/>
            </Node>
          </Node>
          <Node pos="r" depth="2" NCoef="0" IVar="0" Cut="1.3333333730697632e+00" cType="1" res="-2.3080487735569477e-03" rms="3.5113960504531860e-01" purity="4.6254366636276245e-01" nType="0">
            <Node pos="l" depth="3" NCoef="0" IVar="11" Cut="1.4844816923141479e+00" cType="1" res="0.0000000000000000e+00" rms="0.0000000000000000e+00" purity="3.3952760696411133e-01" nType="0">
              <Node pos="l" depth="4" NCoef="0" IVar="-1" Cut="0.0000000000000000e+00" cType="1" res="-1.3594487681984901e-02" rms="3.7840819358825684e-01" purity="4.3591606616973877e-01" nType="-99"/>
              <Node pos="r" depth="4" NCoef="0" IVar="-1" Cut="0.0000000000000000e+00" cType="1" res="-1.9819349981844425e-03" rms="3.0547755956649780e-01" purity="1.8361319601535797e-01" nType="-99"/>
            </Node>
            <Node pos="r" depth="3" NCoef="0" IVar="0" Cut="5.1428570747375488e+00" cType="1" res="-7.9916883260011673e-04" rms="3.5093533992767334e-01" purity="4.7915422916412354e-01" nType="0">
              <Node pos="l" depth="4" NCoef="0" IVar="-1" Cut="0.0000000000000000e+00" cType="1" res="3.7035509012639523e-03" rms="3.3959892392158508e-01" purity="6.2801820039749146e-01" nType="-99"/>
              <Node pos="r" depth="4" NCoef="0" IVar="-1" Cut="0.0000000000000000e+00" cType="1" res="-3.2762188930064440e-03" rms="3.5847395658493042e-01" purity="3.7681141495704651e-01" nType="-99"/>
            </Node>
          </Node>
        </Node>
      </Node>
    </BinaryTree>
    <BinaryTree type="DecisionTree" boostWeight="1.0000000000000000e+00" itree="54">
      <Node pos="s" depth="0" NCoef="0" IVar="11" Cut="9.7634357213973999e-01" cType="1" res="-1.4149084563541692e-05" rms="3.5048750042915344e-01" purity="5.0000000000000000e-01" nType="0">
        <Node pos="l" depth="1" NCoef="0" IVar="8" Cut="2.4576246093750000e+04" cType="1" res="3.0074953101575375e-03" rms="3.4798234701156616e-01" purity="6.4255952835083008e-01" nType="0">
          <Node pos="l" depth="2" NCoef="0" IVar="11" Cut="6.1228877305984497e-01" cType="1" res="-1.0608515702188015e-02" rms="3.7144482135772705e-01" purity="5.7377564907073975e-01" nType="0">
            <Node pos="l" depth="3" NCoef="0" IVar="20" Cut="1.6076932617187500e+04" cType="1" res="-7.4835622217506170e-04" rms="3.6153689026832581e-01" purity="6.2707138061523438e-01" nType="0">
              <Node pos="l" depth="4" NCoef="0" IVar="-1" Cut="0.0000000000000000e+00" cType="1" res="-1.4710211195051670e-02" rms="3.7196996808052063e-01" purity="5.0204861164093018e-01" nType="-99"/>
              <Node pos="r" depth="4" NCoef="0" IVar="-1" Cut="0.0000000000000000e+00" cType="1" res="8.7820068001747131e-03" rms="3.5470801591873169e-01" purity="6.9981855154037476e-01" nType="-99"/>
            </Node>
            <Node pos="r" depth="3" NCoef="0" IVar="12" Cut="2.5024187564849854e+00" cType="1" res="-3.3530872315168381e-02" rms="3.9255940914154053e-01" purity="4.4987660646438599e-01" nType="0">
              <Node pos="l" depth="4" NCoef="0" IVar="-1" Cut="0.0000000000000000e+00" cType="1" res="-6.6751912236213684e-03" rms="3.9347061514854431e-01" purity="3.8610392808914185e-01" nType="-99"/>
              <Node pos="r" depth="4" NCoef="0" IVar="-1" Cut="0.0000000000000000e+00" cType="1" res="-3.8457237184047699e-02" rms="3.8929563760757446e-01" purity="5.3471302986145020e-01" nType="-99"/>
            </Node>
          </Node>
          <Node pos="r" depth="2" NCoef="0" IVar="9" Cut="3.1610087500000000e+05" cType="1" res="1.0813470929861069e-02" rms="3.3353790640830994e-01" purity="6.8199282884597778e-01" nType="0">
            <Node pos="l" depth="3" NCoef="0" IVar="2" Cut="3.2376184375000000e+05" cType="1" res="1.3155682943761349e-02" rms="3.3477339148521423e-01" purity="6.9977962970733643e-01" nType="0">
              <Node pos="l" depth="4" NCoef="0" IVar="-1" Cut="0.0000000000000000e+00" cType="1" res="2.1174069494009018e-02" rms="3.3058294653892517e-01" purity="8.1403213739395142e-01" nType="-99"/>
              <Node pos="r" depth="4" NCoef="0" IVar="-1" Cut="0.0000000000000000e+00" cType="1" res="6.5946104004979134e-03" rms="3.3623942732810974e-01" purity="6.5558111667633057e-01" nType="-99"/>
            </Node>
            <Node pos="r" depth="3" NCoef="0" IVar="-1" Cut="0.0000000000000000e+00" cType="1" res="-2.7908658608794212e-02" rms="3.0792963504791260e-01" purity="3.6722841858863831e-01" nType="-99"/>
          </Node>
        </Node>
        <Node pos="r" depth="1" NCoef="0" IVar="15" Cut="1.0185593366622925e+00" cType="1" res="-2.5633238255977631e-03" rms="3.5256698727607727e-01" purity="3.7973135709762573e-01" nType="0">
          <Node pos="l" depth="2" NCoef="0" IVar="12" Cut="2.5720629692077637e+00" cType="1" res="7.6754507608711720e-03" rms="3.7900713086128235e-01" purity="4.0993648767471313e-01" nType="0">
            <Node pos="l" depth="3" NCoef="0" IVar="18" Cut="1.6253166992187500e+04" cType="1" res="2.7993241325020790e-02" rms="3.9409634470939636e-01" purity="4.8544335365295410e-01" nType="0">
              <Node pos="l" depth="4" NCoef="0" IVar="-1" Cut="0.0000000000000000e+00" cType="1" res="-6.1929854564368725e-03" rms="3.8344979286193848e-01" purity="4.0849953889846802e-01" nType="-99"/>
              <Node pos="r" depth="4" NCoef="0" IVar="-1" Cut="0.0000000000000000e+00" cType="1" res="2.9165135696530342e-02" rms="3.9800888299942017e-01" purity="5.2429026365280151e-01" nType="-99"/>
            </Node>
            <Node pos="r" depth="3" NCoef="0" IVar="14" Cut="9.3394052982330322e-01" cType="1" res="-7.5822090730071068e-03" rms="3.6652880907058716e-01" purity="3.5323449969291687e-01" nType="0">
              <Node pos="l" depth="4" NCoef="0" IVar="-1" Cut="0.0000000000000000e+00" cType="1" res="1.0902506299316883e-02" rms="3.9722856879234314e-01" purity="4.4766992330551147e-01" nType="-99"/>
              <Node pos="r" depth="4" NCoef="0" IVar="-1" Cut="0.0000000000000000e+00" cType="1" res="-1.0546618141233921e-02" rms="3.5807383060455322e-01" purity="3.2931426167488098e-01" nType="-99"/>
            </Node>
          </Node>
          <Node pos="r" depth="2" NCoef="0" IVar="12" Cut="2.5985202789306641e+00" cType="1" res="-4.7593079507350922e-03" rms="3.4659424424171448e-01" purity="3.7325307726860046e-01" nType="0">
            <Node pos="l" depth="3" NCoef="0" IVar="13" Cut="2.5799541473388672e+00" cType="1" res="-1.1986569501459599e-02" rms="3.6058416962623596e-01" purity="3.8548013567924500e-01" nType="0">
              <Node pos="l" depth="4" NCoef="0" IVar="-1" Cut="0.0000000000000000e+00" cType="1" res="-1.6817001625895500e-02" rms="3.4629499912261963e-01" purity="2.7363872528076172e-01" nType="-99"/>
              <Node pos="r" depth="4" NCoef="0" IVar="-1" Cut="0.0000000000000000e+00" cType="1" res="-8.4223522571846843e-04" rms="3.7536588311195374e-01" purity="5.0836378335952759e-01" nType="-99"/>
            </Node>
            <Node pos="r" depth="3" NCoef="0" IVar="14" Cut="2.8268120288848877e+00" cType="1" res="2.3674099065829068e-04" rms="3.3649280667304993e-01" purity="3.6480078101158142e-01" nType="0">
              <Node pos="l" depth="4" NCoef="0" IVar="-1" Cut="0.0000000000000000e+00" cType="1" res="-1.7982426797971129e-03" rms="3.3721107244491577e-01" purity="3.5009130835533142e-01" nType="-99"/>
              <Node pos="r" depth="4" NCoef="0" IVar="-1" Cut="0.0000000000000000e+00" cType="1" res="1.5712529420852661e-02" rms="3.3019572496414185e-01" purity="4.7997727990150452e-01" nType="-99"/>
            </Node>
          </Node>
        </Node>
      </Node>
    </BinaryTree>
    <BinaryTree type="DecisionTree" boostWeight="1.0000000000000000e+00" itree="55">
      <Node pos="s" depth="0" NCoef="0" IVar="15" Cut="2.2873806953430176e+00" cType="1" res="-7.4312129072495736e-06" rms="3.5026717185974121e-01" purity="5.0000000000000000e-01" nType="0">
        <Node pos="l" depth="1" NCoef="0" IVar="12" Cut="1.0277870893478394e+00" cType="1" res="-1.9002095796167850e-03" rms="3.6094170808792114e-01" purity="4.8790642619132996e-01" nType="0">
          <Node pos="l" depth="2" NCoef="0" IVar="-1" Cut="0.0000000000000000e+00" cType="1" res="-2.2662578150629997e-02" rms="3.4872272610664368e-01" purity="2.2547701001167297e-01" nType="-99"/>
          <Node pos="r" depth="2" NCoef="0" IVar="2" Cut="1.3531616250000000e+06" cType="1" res="-1.2987774098291993e-03" rms="3.6115252971649170e-01" purity="4.9308028817176819e-01" nType="0">
            <Node pos="l" depth="3" NCoef="0" IVar="4" Cut="1.6638054687500000e+05" cType="1" res="-7.5798592297360301e-04" rms="3.6303964257240295e-01" purity="5.0010508298873901e-01" nType="0">
              <Node pos="l" depth="4" NCoef="0" IVar="-1" Cut="0.0000000000000000e+00" cType="1" res="-1.1216312646865845e-02" rms="4.0301924943923950e-01" purity="4.0449184179306030e-01" nType="-99"/>
              <Node pos="r" depth="4" NCoef="0" IVar="-1" Cut="0.0000000000000000e+00" cType="1" res="1.4126010937616229e-03" rms="3.5680043697357178e-01" purity="5.1395261287689209e-01" nType="-99"/>
            </Node>
            <Node pos="r" depth="3" NCoef="0" IVar="-1" Cut="0.0000000000000000e+00" cType="1" res="-5.2154339849948883e-02" rms="2.1631635725498199e-01" purity="6.8734653294086456e-02" nType="-99"/>
          </Node>
        </Node>
        <Node pos="r" depth="1" NCoef="0" IVar="8" Cut="7.3930757812500000e+04" cType="1" res="3.6275994498282671e-03" rms="3.2876604795455933e-01" purity="5.2322542667388916e-01" nType="0">
          <Node pos="l" depth="2" NCoef="0" IVar="6" Cut="1.2885178125000000e+05" cType="1" res="8.7465140968561172e-03" rms="3.5076764225959778e-01" purity="6.4394164085388184e-01" nType="0">
            <Node pos="l" depth="3" NCoef="0" IVar="4" Cut="1.3741196875000000e+05" cType="1" res="-8.0934781581163406e-03" rms="3.8956332206726074e-01" purity="5.0463384389877319e-01" nType="0">
              <Node pos="l" depth="4" NCoef="0" IVar="-1" Cut="0.0000000000000000e+00" cType="1" res="-3.4823022782802582e-02" rms="3.7448197603225708e-01" purity="2.9263231158256531e-01" nType="-99"/>
              <Node pos="r" depth="4" NCoef="0" IVar="-1" Cut="0.0000000000000000e+00" cType="1" res="4.8762161168269813e-04" rms="3.9157506823539734e-01" purity="5.4300802946090698e-01" nType="-99"/>
            </Node>
            <Node pos="r" depth="3" NCoef="0" IVar="20" Cut="6.7487601562500000e+04" cType="1" res="1.6247082501649857e-02" rms="3.3175694942474365e-01" purity="7.0598977804183960e-01" nType="0">
              <Node pos="l" depth="4" NCoef="0" IVar="-1" Cut="0.0000000000000000e+00" cType="1" res="1.5441035851836205e-02" rms="3.3002749085426331e-01" purity="7.2551125288009644e-01" nType="-99"/>
              <Node pos="r" depth="4" NCoef="0" IVar="-1" Cut="0.0000000000000000e+00" cType="1" res="-1.8044766038656235e-02" rms="3.5488653182983398e-01" purity="4.0334600210189819e-01" nType="-99"/>
            </Node>
          </Node>
          <Node pos="r" depth="2" NCoef="0" IVar="16" Cut="1.2621743679046631e+00" cType="1" res="-1.4529619365930557e-02" rms="2.3373638093471527e-01" purity="9.5034524798393250e-02" nType="0">
            <Node pos="l" depth="3" NCoef="0" IVar="21" Cut="8.5580859375000000e+04" cType="1" res="-3.6760438233613968e-02" rms="2.8588122129440308e-01" purity="1.7590443789958954e-01" nType="0">
              <Node pos="l" depth="4" NCoef="0" IVar="-1" Cut="0.0000000000000000e+00" cType="1" res="-3.3697374165058136e-02" rms="3.6209562420845032e-01" purity="2.9789111018180847e-01" nType="-99"/>
              <Node pos="r" depth="4" NCoef="0" IVar="-1" Cut="0.0000000000000000e+00" cType="1" res="-3.5423487424850464e-02" rms="1.9467329978942871e-01" purity="6.8817421793937683e-02" nType="-99"/>
            </Node>
            <Node pos="r" depth="3" NCoef="0" IVar="0" Cut="4.3333334922790527e+00" cType="1" res="-5.0503830425441265e-03" rms="2.0682993531227112e-01" purity="6.0551542788743973e-02" nType="0">
              <Node pos="l" depth="4" NCoef="0" IVar="-1" Cut="0.0000000000000000e+00" cType="1" res="-2.9620928689837456e-02" rms="2.0351909101009369e-01" purity="6.1219517141580582e-02" nType="-99"/>
              <Node pos="r" depth="4" NCoef="0" IVar="-1" Cut="0.0000000000000000e+00" cType="1" res="2.9809167608618736e-03" rms="2.0854467153549194e-01" purity="6.0148198157548904e-02" nType="-99"/>
            </Node>
          </Node>
        </Node>
      </Node>
    </BinaryTree>
    <BinaryTree type="DecisionTree" boostWeight="1.0000000000000000e+00" itree="56">
      <Node pos="s" depth="0" NCoef="0" IVar="5" Cut="2.2984054687500000e+05" cType="1" res="-1.0060451131721493e-05" rms="3.5014238953590393e-01" purity="5.0000000000000000e-01" nType="0">
        <Node pos="l" depth="1" NCoef="0" IVar="19" Cut="1.0416675781250000e+05" cType="1" res="1.2564406497403979e-03" rms="3.5390388965606689e-01" purity="5.3397262096405029e-01" nType="0">
          <Node pos="l" depth="2" NCoef="0" IVar="19" Cut="3.9240570312500000e+04" cType="1" res="3.2300646416842937e-03" rms="3.5114216804504395e-01" purity="5.7797574996948242e-01" nType="0">
            <Node pos="l" depth="3" NCoef="0" IVar="1" Cut="7.5527273437500000e+04" cType="1" res="-7.2588878683745861e-03" rms="3.5283553600311279e-01" purity="5.1761102676391602e-01" nType="0">
              <Node pos="l" depth="4" NCoef="0" IVar="-1" Cut="0.0000000000000000e+00" cType="1" res="-8.8161919265985489e-03" rms="3.5716447234153748e-01" purity="4.4985377788543701e-01" nType="-99"/>
              <Node pos="r" depth="4" NCoef="0" IVar="-1" Cut="0.0000000000000000e+00" cType="1" res="4.1445908136665821e-03" rms="3.4078702330589294e-01" purity="6.9703060388565063e-01" nType="-99"/>
            </Node>
            <Node pos="r" depth="3" NCoef="0" IVar="19" Cut="7.3248968750000000e+04" cType="1" res="1.2481287121772766e-02" rms="3.4938058257102966e-01" purity="6.3121730089187622e-01" nType="0">
              <Node pos="l" depth="4" NCoef="0" IVar="-1" Cut="0.0000000000000000e+00" cType="1" res="1.5372919850051403e-02" rms="3.3662882447242737e-01" purity="6.9638758897781372e-01" nType="-99"/>
              <Node pos="r" depth="4" NCoef="0" IVar="-1" Cut="0.0000000000000000e+00" cType="1" res="-1.5858651604503393e-03" rms="3.7511757016181946e-01" purity="4.8991686105728149e-01" nType="-99"/>
            </Node>
          </Node>
          <Node pos="r" depth="2" NCoef="0" IVar="0" Cut="6.3333334922790527e+00" cType="1" res="-8.2555944100022316e-03" rms="3.6677387356758118e-01" purity="3.2189613580703735e-01" nType="0">
            <Node pos="l" depth="3" NCoef="0" IVar="14" Cut="2.2327148914337158e+00" cType="1" res="-1.6727892681956291e-02" rms="3.7019205093383789e-01" purity="3.7999972701072693e-01" nType="0">
              <Node pos="l" depth="4" NCoef="0" IVar="-1" Cut="0.0000000000000000e+00" cType="1" res="-6.2045156955718994e-03" rms="3.7755188345909119e-01" purity="3.9200431108474731e-01" nType="-99"/>
              <Node pos="r" depth="4" NCoef="0" IVar="-1" Cut="0.0000000000000000e+00" cType="1" res="-2.7266975492238998e-02" rms="3.4854233264923096e-01" purity="3.4742924571037292e-01" nType="-99"/>
            </Node>
            <Node pos="r" depth="3" NCoef="0" IVar="1" Cut="4.0700203125000000e+04" cType="1" res="3.0208928510546684e-03" rms="3.6186671257019043e-01" purity="2.4456119537353516e-01" nType="0">
              <Node pos="l" depth="4" NCoef="0" IVar="-1" Cut="0.0000000000000000e+00" cType="1" res="-1.1796305887401104e-02" rms="3.1650054454803467e-01" purity="1.3964468240737915e-01" nType="-99"/>
              <Node pos="r" depth="4" NCoef="0" IVar="-1" Cut="0.0000000000000000e+00" cType="1" res="8.9818937703967094e-03" rms="3.8990586996078491e-01" purity="3.1743350625038147e-01" nType="-99"/>
            </Node>
          </Node>
        </Node>
        <Node pos="r" depth="1" NCoef="0" IVar="2" Cut="4.5967728125000000e+05" cType="1" res="-5.2883853204548359e-03" rms="3.3395817875862122e-01" purity="3.5841417312622070e-01" nType="0">
          <Node pos="l" depth="2" NCoef="0" IVar="1" Cut="6.2834464843750000e+04" cType="1" res="1.5592730604112148e-02" rms="3.9493286609649658e-01" purity="6.2796384096145630e-01" nType="0">
            <Node pos="l" depth="3" NCoef="0" IVar="-1" Cut="0.0000000000000000e+00" cType="1" res="3.4687291830778122e-02" rms="4.0881684422492981e-01" purity="5.6276333332061768e-01" nType="-99"/>
            <Node pos="r" depth="3" NCoef="0" IVar="-1" Cut="0.0000000000000000e+00" cType="1" res="-5.6949453428387642e-03" rms="3.8408601284027100e-01" purity="6.6831988096237183e-01" nType="-99"/>
          </Node>
          <Node pos="r" depth="2" NCoef="0" IVar="16" Cut="1.2626910209655762e+00" cType="1" res="-9.3982862308621407e-03" rms="3.2043367624282837e-01" purity="3.0536034703254700e-01" nType="0">
            <Node pos="l" depth="3" NCoef="0" IVar="15" Cut="1.3970124721527100e+00" cType="1" res="-2.2953061386942863e-02" rms="3.2472825050354004e-01" purity="4.8500141501426697e-01" nType="0">
              <Node pos="l" depth="4" NCoef="0" IVar="-1" Cut="0.0000000000000000e+00" cType="1" res="-4.2889572679996490e-02" rms="3.2092866301536560e-01" purity="3.1888747215270996e-01" nType="-99"/>
              <Node pos="r" depth="4" NCoef="0" IVar="-1" Cut="0.0000000000000000e+00" cType="1" res="-1.1364820413291454e-02" rms="3.2539752125740051e-01" purity="5.3983616828918457e-01" nType="-99"/>
            </Node>
            <Node pos="r" depth="3" NCoef="0" IVar="6" Cut="3.3094903125000000e+05" cType="1" res="-1.6322624869644642e-03" rms="3.1768649816513062e-01" purity="2.0243743062019348e-01" nType="0">
              <Node pos="l" depth="4" NCoef="0" IVar="-1" Cut="0.0000000000000000e+00" cType="1" res="2.0206740591675043e-03" rms="3.4894356131553650e-01" purity="2.4542327225208282e-01" nType="-99"/>
              <Node pos="r" depth="4" NCoef="0" IVar="-1" Cut="0.0000000000000000e+00" cType="1" res="-2.6133682578802109e-02" rms="1.9715534150600433e-01" purity="7.4840575456619263e-02" nType="-99"/>
            </Node>
          </Node>
        </Node>
      </Node>
    </BinaryTree>
    <BinaryTree type="DecisionTree" boostWeight="1.0000000000000000e+00" itree="57">
      <Node pos="s" depth="0" NCoef="0" IVar="16" Cut="5.0433826446533203e-01" cType="1" res="-6.5029635152313858e-06" rms="3.4996983408927917e-01" purity="5.0000000000000000e-01" nType="0">
        <Node pos="l" depth="1" NCoef="0" IVar="19" Cut="2.3543390625000000e+04" cType="1" res="1.1291593313217163e-02" rms="2.9137367010116577e-01" purity="7.5754016637802124e-01" nType="0">
          <Node pos="l" depth="2" NCoef="0" IVar="-1" Cut="0.0000000000000000e+00" cType="1" res="-1.7364188097417355e-03" rms="3.5649469494819641e-01" purity="5.8128809928894043e-01" nType="-99"/>
          <Node pos="r" depth="2" NCoef="0" IVar="-1" Cut="0.0000000000000000e+00" cType="1" res="2.5973292067646980e-02" rms="2.4166849255561829e-01" purity="8.6742901802062988e-01" nType="-99"/>
        </Node>
        <Node pos="r" depth="1" NCoef="0" IVar="0" Cut="7.3333334922790527e+00" cType="1" res="-6.8122817901894450e-04" rms="3.5315024852752686e-01" purity="4.8461961746215820e-01" nType="0">
          <Node pos="l" depth="2" NCoef="0" IVar="0" Cut="3.2857143878936768e+00" cType="1" res="7.5306033249944448e-04" rms="3.5081142187118530e-01" purity="5.2906262874603271e-01" nType="0">
            <Node pos="l" depth="3" NCoef="0" IVar="2" Cut="3.4358431250000000e+05" cType="1" res="-3.3509365748614073e-03" rms="3.6719509959220886e-01" purity="4.5478078722953796e-01" nType="0">
              <Node pos="l" depth="4" NCoef="0" IVar="-1" Cut="0.0000000000000000e+00" cType="1" res="1.2500953162088990e-03" rms="3.9233565330505371e-01" purity="5.2655780315399170e-01" nType="-99"/>
              <Node pos="r" depth="4" NCoef="0" IVar="-1" Cut="0.0000000000000000e+00" cType="1" res="-5.8340053074061871e-03" rms="3.4692409634590149e-01" purity="4.0051078796386719e-01" nType="-99"/>
            </Node>
            <Node pos="r" depth="3" NCoef="0" IVar="0" Cut="5.1428570747375488e+00" cType="1" res="3.9290906861424446e-03" rms="3.3755275607109070e-01" purity="5.8654832839965820e-01" nType="0">
              <Node pos="l" depth="4" NCoef="0" IVar="-1" Cut="0.0000000000000000e+00" cType="1" res="1.4435556717216969e-02" rms="2.7922293543815613e-01" purity="8.6299723386764526e-01" nType="-99"/>
              <Node pos="r" depth="4" NCoef="0" IVar="-1" Cut="0.0000000000000000e+00" cType="1" res="-2.3595390666741878e-04" rms="3.6307269334793091e-01" purity="4.4873565435409546e-01" nType="-99"/>
            </Node>
          </Node>
          <Node pos="r" depth="2" NCoef="0" IVar="9" Cut="2.5895751562500000e+05" cType="1" res="0.0000000000000000e+00" rms="0.0000000000000000e+00" purity="3.3178526163101196e-01" nType="0">
            <Node pos="l" depth="3" NCoef="0" IVar="3" Cut="8.5360757812500000e+04" cType="1" res="0.0000000000000000e+00" rms="0.0000000000000000e+00" purity="3.4873798489570618e-01" nType="0">
              <Node pos="l" depth="4" NCoef="0" IVar="-1" Cut="0.0000000000000000e+00" cType="1" res="-1.3727470301091671e-02" rms="3.7545448541641235e-01" purity="2.5008782744407654e-01" nType="-99"/>
              <Node pos="r" depth="4" NCoef="0" IVar="-1" Cut="0.0000000000000000e+00" cType="1" res="6.3079135725274682e-04" rms="3.6840793490409851e-01" purity="3.7058410048484802e-01" nType="-99"/>
            </Node>
            <Node pos="r" depth="3" NCoef="0" IVar="-1" Cut="0.0000000000000000e+00" cType="1" res="-5.2915092557668686e-02" rms="2.3135940730571747e-01" purity="1.3089534640312195e-01" nType="-99"/>
          </Node>
        </Node>
      </Node>
    </BinaryTree>
    <BinaryTree type="DecisionTree" boostWeight="1.0000000000000000e+00" itree="58">
      <Node pos="s" depth="0" NCoef="0" IVar="11" Cut="4.9856403470039368e-01" cType="1" res="-2.5328654373879544e-06" rms="3.4990593791007996e-01" purity="5.0000000000000000e-01" nType="0">
        <Node pos="l" depth="1" NCoef="0" IVar="14" Cut="1.0026510953903198e+00" cType="1" res="5.3705717436969280e-03" rms="3.2944798469543457e-01" purity="7.0127981901168823e-01" nType="0">
          <Node pos="l" depth="2" NCoef="0" IVar="-1" Cut="0.0000000000000000e+00" cType="1" res="-1.1121938005089760e-02" rms="3.5343664884567261e-01" purity="6.5242499113082886e-01" nType="-99"/>
          <Node pos="r" depth="2" NCoef="0" IVar="11" Cut="4.3030020594596863e-01" cType="1" res="8.4030404686927795e-03" rms="3.2565268874168396e-01" purity="7.0848131179809570e-01" nType="0">
            <Node pos="l" depth="3" NCoef="0" IVar="0" Cut="6.3333334922790527e+00" cType="1" res="1.3508350588381290e-02" rms="3.2172203063964844e-01" purity="7.2710031270980835e-01" nType="0">
              <Node pos="l" depth="4" NCoef="0" IVar="-1" Cut="0.0000000000000000e+00" cType="1" res="1.9044183194637299e-02" rms="2.9255330562591553e-01" purity="7.9554897546768188e-01" nType="-99"/>
              <Node pos="r" depth="4" NCoef="0" IVar="-1" Cut="0.0000000000000000e+00" cType="1" res="1.0204900754615664e-03" rms="3.7213179469108582e-01" purity="5.9264838695526123e-01" nType="-99"/>
            </Node>
            <Node pos="r" depth="3" NCoef="0" IVar="16" Cut="1.5614464282989502e+00" cType="1" res="-3.8057535421103239e-03" rms="3.3454963564872742e-01" purity="6.6395592689514160e-01" nType="0">
              <Node pos="l" depth="4" NCoef="0" IVar="-1" Cut="0.0000000000000000e+00" cType="1" res="3.8776220753788948e-03" rms="3.1303197145462036e-01" purity="7.9813355207443237e-01" nType="-99"/>
              <Node pos="r" depth="4" NCoef="0" IVar="-1" Cut="0.0000000000000000e+00" cType="1" res="-1.1783044785261154e-02" rms="3.7030032277107239e-01" purity="4.1824111342430115e-01" nType="-99"/>
            </Node>
          </Node>
        </Node>
        <Node pos="r" depth="1" NCoef="0" IVar="16" Cut="1.2551904916763306e+00" cType="1" res="-9.6243969164788723e-04" rms="3.5342749953269958e-01" purity="4.6404129266738892e-01" nType="0">
          <Node pos="l" depth="2" NCoef="0" IVar="16" Cut="8.4376591444015503e-01" cType="1" res="-4.6388171613216400e-03" rms="3.3718881011009216e-01" purity="6.3766449689865112e-01" nType="0">
            <Node pos="l" depth="3" NCoef="0" IVar="2" Cut="4.5416365625000000e+05" cType="1" res="4.3041356839239597e-03" rms="3.1741878390312195e-01" purity="7.0863032341003418e-01" nType="0">
              <Node pos="l" depth="4" NCoef="0" IVar="-1" Cut="0.0000000000000000e+00" cType="1" res="1.0619772598147392e-02" rms="3.1906920671463013e-01" purity="7.5652986764907837e-01" nType="-99"/>
              <Node pos="r" depth="4" NCoef="0" IVar="-1" Cut="0.0000000000000000e+00" cType="1" res="-1.7784766852855682e-02" rms="3.1128767132759094e-01" purity="5.6594270467758179e-01" nType="-99"/>
            </Node>
            <Node pos="r" depth="3" NCoef="0" IVar="11" Cut="1.5281010866165161e+00" cType="1" res="-1.5232871286571026e-02" rms="3.5891538858413696e-01" purity="5.5359649658203125e-01" nType="0">
              <Node pos="l" depth="4" NCoef="0" IVar="-1" Cut="0.0000000000000000e+00" cType="1" res="-1.4860909432172775e-02" rms="3.6339807510375977e-01" purity="6.4921462535858154e-01" nType="-99"/>
              <Node pos="r" depth="4" NCoef="0" IVar="-1" Cut="0.0000000000000000e+00" cType="1" res="-1.6391376266255975e-03" rms="3.4814968705177307e-01" purity="3.3609548211097717e-01" nType="-99"/>
            </Node>
          </Node>
          <Node pos="r" depth="2" NCoef="0" IVar="15" Cut="1.5260878801345825e+00" cType="1" res="1.7182758310809731e-03" rms="3.6478957533836365e-01" purity="3.3743998408317566e-01" nType="0">
            <Node pos="l" depth="3" NCoef="0" IVar="17" Cut="7.7035945312500000e+04" cType="1" res="8.4243090823292732e-03" rms="3.8505077362060547e-01" purity="3.9051038026809692e-01" nType="0">
              <Node pos="l" depth="4" NCoef="0" IVar="-1" Cut="0.0000000000000000e+00" cType="1" res="9.7780944779515266e-03" rms="4.0196177363395691e-01" purity="4.4032424688339233e-01" nType="-99"/>
              <Node pos="r" depth="4" NCoef="0" IVar="-1" Cut="0.0000000000000000e+00" cType="1" res="-1.3070551678538322e-02" rms="3.2576990127563477e-01" purity="2.3545229434967041e-01" nType="-99"/>
            </Node>
            <Node pos="r" depth="3" NCoef="0" IVar="2" Cut="6.9542718750000000e+05" cType="1" res="-2.2832669783383608e-03" rms="3.5208380222320557e-01" purity="3.0577245354652405e-01" nType="0">
              <Node pos="l" depth="4" NCoef="0" IVar="-1" Cut="0.0000000000000000e+00" cType="1" res="-4.0280018001794815e-03" rms="3.6693787574768066e-01" purity="3.3726105093955994e-01" nType="-99"/>
              <Node pos="r" depth="4" NCoef="0" IVar="-1" Cut="0.0000000000000000e+00" cType="1" res="1.4736899174749851e-02" rms="2.8097891807556152e-01" purity="1.7382454872131348e-01" nType="-99"/>
            </Node>
          </Node>
        </Node>
      </Node>
    </BinaryTree>
    <BinaryTree type="DecisionTree" boostWeight="1.0000000000000000e+00" itree="59">
      <Node pos="s" depth="0" NCoef="0" IVar="19" Cut="2.8405653125000000e+05" cType="1" res="2.1222053874225821e-06" rms="3.4977716207504272e-01" purity="5.0000000000000000e-01" nType="0">
        <Node pos="l" depth="1" NCoef="0" IVar="19" Cut="2.6397480468750000e+04" cType="1" res="4.6767058665864170e-04" rms="3.5165324807167053e-01" purity="5.1193803548812866e-01" nType="0">
          <Node pos="l" depth="2" NCoef="0" IVar="5" Cut="1.1241366406250000e+05" cType="1" res="-1.0660314932465553e-02" rms="3.6121922731399536e-01" purity="4.2144262790679932e-01" nType="0">
            <Node pos="l" depth="3" NCoef="0" IVar="12" Cut="1.5684295892715454e+00" cType="1" res="-2.8677706141024828e-03" rms="3.6764597892761230e-01" purity="4.3342679738998413e-01" nType="0">
              <Node pos="l" depth="4" NCoef="0" IVar="-1" Cut="0.0000000000000000e+00" cType="1" res="2.1805929020047188e-02" rms="3.9134159684181213e-01" purity="3.9402070641517639e-01" nType="-99"/>
              <Node pos="r" depth="4" NCoef="0" IVar="-1" Cut="0.0000000000000000e+00" cType="1" res="-3.8011816795915365e-03" rms="3.6585187911987305e-01" purity="4.3608629703521729e-01" nType="-99"/>
            </Node>
            <Node pos="r" depth="3" NCoef="0" IVar="12" Cut="1.9921081066131592e+00" cType="1" res="-4.4901482760906219e-02" rms="3.2932817935943604e-01" purity="3.6878305673599243e-01" nType="0">
              <Node pos="l" depth="4" NCoef="0" IVar="-1" Cut="0.0000000000000000e+00" cType="1" res="-6.1599303036928177e-02" rms="3.1043502688407898e-01" purity="1.9681939482688904e-01" nType="-99"/>
              <Node pos="r" depth="4" NCoef="0" IVar="-1" Cut="0.0000000000000000e+00" cType="1" res="-2.2406941279768944e-02" rms="3.3611643314361572e-01" purity="4.4614923000335693e-01" nType="-99"/>
            </Node>
          </Node>
          <Node pos="r" depth="2" NCoef="0" IVar="19" Cut="7.5472960937500000e+04" cType="1" res="4.0853517130017281e-03" rms="3.4841027855873108e-01" purity="5.4135787487030029e-01" nType="0">
            <Node pos="l" depth="3" NCoef="0" IVar="13" Cut="2.1101357936859131e+00" cType="1" res="1.1138054542243481e-02" rms="3.3409968018531799e-01" purity="7.0126634836196899e-01" nType="0">
              <Node pos="l" depth="4" NCoef="0" IVar="-1" Cut="0.0000000000000000e+00" cType="1" res="1.7191682010889053e-02" rms="3.7632456421852112e-01" purity="4.6401366591453552e-01" nType="-99"/>
              <Node pos="r" depth="4" NCoef="0" IVar="-1" Cut="0.0000000000000000e+00" cType="1" res="5.8299312368035316e-03" rms="3.1980243325233459e-01" purity="7.7452635765075684e-01" nType="-99"/>
            </Node>
            <Node pos="r" depth="3" NCoef="0" IVar="16" Cut="1.2603838443756104e+00" cType="1" res="-4.1515282355248928e-03" rms="3.6424010992050171e-01" purity="3.5460022091865540e-01" nType="0">
              <Node pos="l" depth="4" NCoef="0" IVar="-1" Cut="0.0000000000000000e+00" cType="1" res="-1.9116312265396118e-02" rms="3.3820939064025879e-01" purity="4.6642830967903137e-01" nType="-99"/>
              <Node pos="r" depth="4" NCoef="0" IVar="-1" Cut="0.0000000000000000e+00" cType="1" res="-2.1783172269351780e-04" rms="3.6900794506072998e-01" purity="3.3266711235046387e-01" nType="-99"/>
            </Node>
          </Node>
        </Node>
        <Node pos="r" depth="1" NCoef="0" IVar="18" Cut="1.4800792187500000e+05" cType="1" res="-1.2909900397062302e-02" rms="2.9270008206367493e-01" purity="1.6889743506908417e-01" nType="0">
          <Node pos="l" depth="2" NCoef="0" IVar="-1" Cut="0.0000000000000000e+00" cType="1" res="-2.8869645670056343e-02" rms="3.2131698727607727e-01" purity="1.9731363654136658e-01" nType="-99"/>
          <Node pos="r" depth="2" NCoef="0" IVar="-1" Cut="0.0000000000000000e+00" cType="1" res="4.9550198018550873e-03" rms="2.6610147953033447e-01" purity="1.4588020741939545e-01" nType="-99"/>
        </Node>
      </Node>
    </BinaryTree>
    <BinaryTree type="DecisionTree" boostWeight="1.0000000000000000e+00" itree="60">
      <Node pos="s" depth="0" NCoef="0" IVar="15" Cut="2.2873806953430176e+00" cType="1" res="-1.4678900015496765e-06" rms="3.4960326552391052e-01" purity="5.0000000000000000e-01" nType="0">
        <Node pos="l" depth="1" NCoef="0" IVar="18" Cut="6.2517085937500000e+04" cType="1" res="-1.6097548650577664e-03" rms="3.6031281948089600e-01" purity="4.8790642619132996e-01" nType="0">
          <Node pos="l" depth="2" NCoef="0" IVar="9" Cut="2.6200375000000000e+05" cType="1" res="1.5937130665406585e-03" rms="3.7008672952651978e-01" purity="5.0363898277282715e-01" nType="0">
            <Node pos="l" depth="3" NCoef="0" IVar="3" Cut="8.3660742187500000e+04" cType="1" res="3.7595494650304317e-03" rms="3.7512782216072083e-01" purity="5.1835757493972778e-01" nType="0">
              <Node pos="l" depth="4" NCoef="0" IVar="-1" Cut="0.0000000000000000e+00" cType="1" res="-1.3167524710297585e-02" rms="3.8650199770927429e-01" purity="3.5866954922676086e-01" nType="-99"/>
              <Node pos="r" depth="4" NCoef="0" IVar="-1" Cut="0.0000000000000000e+00" cType="1" res="6.4360601827502251e-03" rms="3.7249386310577393e-01" purity="5.5153429508209229e-01" nType="-99"/>
            </Node>
            <Node pos="r" depth="3" NCoef="0" IVar="0" Cut="5.3333334922790527e+00" cType="1" res="-3.4644499421119690e-02" rms="2.6965987682342529e-01" purity="2.5737103819847107e-01" nType="0">
              <Node pos="l" depth="4" NCoef="0" IVar="-1" Cut="0.0000000000000000e+00" cType="1" res="-2.4551330134272575e-02" rms="2.9860764741897583e-01" purity="3.4881535172462463e-01" nType="-99"/>
              <Node pos="r" depth="4" NCoef="0" IVar="-1" Cut="0.0000000000000000e+00" cType="1" res="-5.8057501912117004e-02" rms="2.4131374061107635e-01" purity="1.7825335264205933e-01" nType="-99"/>
            </Node>
          </Node>
          <Node pos="r" depth="2" NCoef="0" IVar="13" Cut="3.4125449657440186e+00" cType="1" res="-6.1764349229633808e-03" rms="3.4585121273994446e-01" purity="4.6547895669937134e-01" nType="0">
            <Node pos="l" depth="3" NCoef="0" IVar="13" Cut="2.6002480983734131e+00" cType="1" res="-4.3454375118017197e-03" rms="3.4600713849067688e-01" purity="4.7140792012214661e-01" nType="0">
              <Node pos="l" depth="4" NCoef="0" IVar="-1" Cut="0.0000000000000000e+00" cType="1" res="-1.0067935101687908e-02" rms="3.4198555350303650e-01" purity="3.5698914527893066e-01" nType="-99"/>
              <Node pos="r" depth="4" NCoef="0" IVar="-1" Cut="0.0000000000000000e+00" cType="1" res="3.5442006774246693e-03" rms="3.5016915202140808e-01" purity="5.9754842519760132e-01" nType="-99"/>
            </Node>
            <Node pos="r" depth="3" NCoef="0" IVar="-1" Cut="0.0000000000000000e+00" cType="1" res="-2.8766410425305367e-02" rms="3.4182050824165344e-01" purity="3.6701107025146484e-01" nType="-99"/>
          </Node>
        </Node>
        <Node pos="r" depth="1" NCoef="0" IVar="8" Cut="7.3930757812500000e+04" cType="1" res="3.0872046481817961e-03" rms="3.2803478837013245e-01" purity="5.2322542667388916e-01" nType="0">
          <Node pos="l" depth="2" NCoef="0" IVar="1" Cut="1.0244955468750000e+05" cType="1" res="7.1699521504342556e-03" rms="3.5004234313964844e-01" purity="6.4394164085388184e-01" nType="0">
            <Node pos="l" depth="3" NCoef="0" IVar="19" Cut="8.9329687500000000e+04" cType="1" res="2.2540660575032234e-03" rms="3.5379287600517273e-01" purity="6.1294132471084595e-01" nType="0">
              <Node pos="l" depth="4" NCoef="0" IVar="-1" Cut="0.0000000000000000e+00" cType="1" res="7.7556823380291462e-03" rms="3.4625786542892456e-01" purity="7.0571970939636230e-01" nType="-99"/>
              <Node pos="r" depth="4" NCoef="0" IVar="-1" Cut="0.0000000000000000e+00" cType="1" res="-1.5441879630088806e-02" rms="3.7665727734565735e-01" purity="3.0357968807220459e-01" nType="-99"/>
            </Node>
            <Node pos="r" depth="3" NCoef="0" IVar="0" Cut="5.3333334922790527e+00" cType="1" res="2.6606509461998940e-02" rms="3.3409455418586731e-01" purity="7.6651197671890259e-01" nType="0">
              <Node pos="l" depth="4" NCoef="0" IVar="-1" Cut="0.0000000000000000e+00" cType="1" res="9.5759807154536247e-03" rms="3.1147056818008423e-01" purity="8.1574696302413940e-01" nType="-99"/>
              <Node pos="r" depth="4" NCoef="0" IVar="-1" Cut="0.0000000000000000e+00" cType="1" res="3.1002292409539223e-02" rms="3.5783809423446655e-01" purity="7.0889627933502197e-01" nType="-99"/>
            </Node>
          </Node>
          <Node pos="r" depth="2" NCoef="0" IVar="16" Cut="1.2621743679046631e+00" cType="1" res="-1.1394644156098366e-02" rms="2.3324973881244659e-01" purity="9.5034524798393250e-02" nType="0">
            <Node pos="l" depth="3" NCoef="0" IVar="21" Cut="8.5580859375000000e+04" cType="1" res="-2.8456579893827438e-02" rms="2.8528204560279846e-01" purity="1.7590443789958954e-01" nType="0">
              <Node pos="l" depth="4" NCoef="0" IVar="-1" Cut="0.0000000000000000e+00" cType="1" res="-2.6880590245127678e-02" rms="3.6149436235427856e-01" purity="2.9789111018180847e-01" nType="-99"/>
              <Node pos="r" depth="4" NCoef="0" IVar="-1" Cut="0.0000000000000000e+00" cType="1" res="-2.8590636327862740e-02" rms="1.9446475803852081e-01" purity="6.8817421793937683e-02" nType="-99"/>
            </Node>
            <Node pos="r" depth="3" NCoef="0" IVar="21" Cut="7.7189218750000000e+04" cType="1" res="-4.1194218210875988e-03" rms="2.0669764280319214e-01" purity="6.0551542788743973e-02" nType="0">
              <Node pos="l" depth="4" NCoef="0" IVar="-1" Cut="0.0000000000000000e+00" cType="1" res="1.0110970586538315e-02" rms="3.2142141461372375e-01" purity="1.6707618534564972e-01" nType="-99"/>
              <Node pos="r" depth="4" NCoef="0" IVar="-1" Cut="0.0000000000000000e+00" cType="1" res="-2.8645178303122520e-02" rms="1.5057948231697083e-01" purity="2.5449767708778381e-02" nType="-99"/>
            </Node>
          </Node>
        </Node>
      </Node>
    </BinaryTree>
    <BinaryTree type="DecisionTree" boostWeight="1.0000000000000000e+00" itree="61">
      <Node pos="s" depth="0" NCoef="0" IVar="11" Cut="7.3745375871658325e-01" cType="1" res="-4.1237385630665813e-06" rms="3.4943854808807373e-01" purity="5.0000000000000000e-01" nType="0">
        <Node pos="l" depth="1" NCoef="0" IVar="0" Cut="2.3333332538604736e+00" cType="1" res="3.2988027669489384e-03" rms="3.3733388781547546e-01" purity="6.6764646768569946e-01" nType="0">
          <Node pos="l" depth="2" NCoef="0" IVar="8" Cut="2.8694128906250000e+04" cType="1" res="-1.2124167755246162e-02" rms="3.7307021021842957e-01" purity="5.9382122755050659e-01" nType="0">
            <Node pos="l" depth="3" NCoef="0" IVar="20" Cut="1.5863582031250000e+04" cType="1" res="-2.7398787438869476e-02" rms="3.9048561453819275e-01" purity="5.5343180894851685e-01" nType="0">
              <Node pos="l" depth="4" NCoef="0" IVar="-1" Cut="0.0000000000000000e+00" cType="1" res="-3.4154545515775681e-02" rms="3.9352950453758240e-01" purity="3.6228564381599426e-01" nType="-99"/>
              <Node pos="r" depth="4" NCoef="0" IVar="-1" Cut="0.0000000000000000e+00" cType="1" res="-1.1067656800150871e-02" rms="3.8890165090560913e-01" purity="6.1826759576797485e-01" nType="-99"/>
            </Node>
            <Node pos="r" depth="3" NCoef="0" IVar="20" Cut="4.5801925781250000e+04" cType="1" res="7.0369509048759937e-03" rms="3.4905648231506348e-01" purity="6.4448744058609009e-01" nType="0">
              <Node pos="l" depth="4" NCoef="0" IVar="-1" Cut="0.0000000000000000e+00" cType="1" res="1.3939534313976765e-02" rms="3.5743674635887146e-01" purity="7.4403327703475952e-01" nType="-99"/>
              <Node pos="r" depth="4" NCoef="0" IVar="-1" Cut="0.0000000000000000e+00" cType="1" res="-1.2779646553099155e-02" rms="3.3168378472328186e-01" purity="4.5808741450309753e-01" nType="-99"/>
            </Node>
          </Node>
          <Node pos="r" depth="2" NCoef="0" IVar="0" Cut="6.0952382087707520e+00" cType="1" res="8.3588035777211189e-03" rms="3.2459422945976257e-01" purity="6.9186717271804810e-01" nType="0">
            <Node pos="l" depth="3" NCoef="0" IVar="13" Cut="2.3110127449035645e+00" cType="1" res="2.1812450140714645e-02" rms="2.7416288852691650e-01" purity="8.3882755041122437e-01" nType="0">
              <Node pos="l" depth="4" NCoef="0" IVar="-1" Cut="0.0000000000000000e+00" cType="1" res="2.5144476443529129e-02" rms="3.5066393017768860e-01" purity="6.3620269298553467e-01" nType="-99"/>
              <Node pos="r" depth="4" NCoef="0" IVar="-1" Cut="0.0000000000000000e+00" cType="1" res="2.2485943511128426e-02" rms="2.4093893170356750e-01" purity="9.1095638275146484e-01" nType="-99"/>
            </Node>
            <Node pos="r" depth="3" NCoef="0" IVar="7" Cut="2.3760214843750000e+04" cType="1" res="-5.8119422756135464e-03" rms="3.6983180046081543e-01" purity="5.3707373142242432e-01" nType="0">
              <Node pos="l" depth="4" NCoef="0" IVar="-1" Cut="0.0000000000000000e+00" cType="1" res="-1.4697558246552944e-02" rms="3.9323526620864868e-01" purity="4.8431447148323059e-01" nType="-99"/>
              <Node pos="r" depth="4" NCoef="0" IVar="-1" Cut="0.0000000000000000e+00" cType="1" res="3.2925815321505070e-04" rms="3.6152273416519165e-01" purity="5.5456060171127319e-01" nType="-99"/>
            </Node>
          </Node>
        </Node>
        <Node pos="r" depth="1" NCoef="0" IVar="14" Cut="2.8268120288848877e+00" cType="1" res="-1.5155096771195531e-03" rms="3.5482960939407349e-01" purity="4.2328667640686035e-01" nType="0">
          <Node pos="l" depth="2" NCoef="0" IVar="16" Cut="1.2159874439239502e+00" cType="1" res="-2.6151044294238091e-03" rms="3.5621106624603271e-01" purity="4.1783323884010315e-01" nType="0">
            <Node pos="l" depth="3" NCoef="0" IVar="19" Cut="3.3294644531250000e+04" cType="1" res="-7.1390187367796898e-03" rms="3.4709128737449646e-01" purity="5.9025812149047852e-01" nType="0">
              <Node pos="l" depth="4" NCoef="0" IVar="-1" Cut="0.0000000000000000e+00" cType="1" res="-1.3592009432613850e-02" rms="3.6550295352935791e-01" purity="5.0922185182571411e-01" nType="-99"/>
              <Node pos="r" depth="4" NCoef="0" IVar="-1" Cut="0.0000000000000000e+00" cType="1" res="3.0716671608388424e-04" rms="3.3522549271583557e-01" purity="6.3933944702148438e-01" nType="-99"/>
            </Node>
            <Node pos="r" depth="3" NCoef="0" IVar="15" Cut="1.5260878801345825e+00" cType="1" res="1.4080964319873601e-04" rms="3.6162629723548889e-01" purity="3.1279408931732178e-01" nType="0">
              <Node pos="l" depth="4" NCoef="0" IVar="-1" Cut="0.0000000000000000e+00" cType="1" res="5.8318800292909145e-03" rms="3.8449919223785400e-01" purity="3.7340116500854492e-01" nType="-99"/>
              <Node pos="r" depth="4" NCoef="0" IVar="-1" Cut="0.0000000000000000e+00" cType="1" res="-4.6585109084844589e-03" rms="3.4461030364036560e-01" purity="2.7042147517204285e-01" nType="-99"/>
            </Node>
          </Node>
          <Node pos="r" depth="2" NCoef="0" IVar="12" Cut="1.9567028284072876e+00" cType="1" res="7.8995069488883018e-03" rms="3.4262871742248535e-01" purity="4.6998003125190735e-01" nType="0">
            <Node pos="l" depth="3" NCoef="0" IVar="-1" Cut="0.0000000000000000e+00" cType="1" res="-1.3549608178436756e-02" rms="3.6057806015014648e-01" purity="2.7329543232917786e-01" nType="-99"/>
            <Node pos="r" depth="3" NCoef="0" IVar="9" Cut="1.0613112500000000e+05" cType="1" res="1.3062915764749050e-02" rms="3.3875420689582825e-01" purity="5.0858640670776367e-01" nType="0">
              <Node pos="l" depth="4" NCoef="0" IVar="-1" Cut="0.0000000000000000e+00" cType="1" res="-1.2911828234791756e-03" rms="3.7127360701560974e-01" purity="5.5381768941879272e-01" nType="-99"/>
              <Node pos="r" depth="4" NCoef="0" IVar="-1" Cut="0.0000000000000000e+00" cType="1" res="2.2009486332535744e-02" rms="3.1417986750602722e-01" purity="4.7766101360321045e-01" nType="-99"/>
            </Node>
          </Node>
        </Node>
      </Node>
    </BinaryTree>
    <BinaryTree type="DecisionTree" boostWeight="1.0000000000000000e+00" itree="62">
      <Node pos="s" depth="0" NCoef="0" IVar="13" Cut="1.9197735786437988e+00" cType="1" res="1.5361765690613538e-06" rms="3.4929794073104858e-01" purity="5.0000000000000000e-01" nType="0">
        <Node pos="l" depth="1" NCoef="0" IVar="10" Cut="9.5069726562500000e+04" cType="1" res="3.9904252626001835e-03" rms="3.3718705177307129e-01" purity="2.5426813960075378e-01" nType="0">
          <Node pos="l" depth="2" NCoef="0" IVar="13" Cut="1.1884096860885620e+00" cType="1" res="1.0030163452029228e-02" rms="3.5215911269187927e-01" purity="2.8058010339736938e-01" nType="0">
            <Node pos="l" depth="3" NCoef="0" IVar="10" Cut="5.3996703125000000e+04" cType="1" res="-1.5025534667074680e-03" rms="3.2900783419609070e-01" purity="2.0029160380363464e-01" nType="0">
              <Node pos="l" depth="4" NCoef="0" IVar="-1" Cut="0.0000000000000000e+00" cType="1" res="1.9438187591731548e-03" rms="3.4461766481399536e-01" purity="2.2495806217193604e-01" nType="-99"/>
              <Node pos="r" depth="4" NCoef="0" IVar="-1" Cut="0.0000000000000000e+00" cType="1" res="-3.2227791845798492e-02" rms="2.3296315968036652e-01" purity="7.4786178767681122e-02" nType="-99"/>
            </Node>
            <Node pos="r" depth="3" NCoef="0" IVar="3" Cut="7.0078789062500000e+04" cType="1" res="2.0279467105865479e-02" rms="3.7122461199760437e-01" purity="3.5193368792533875e-01" nType="0">
              <Node pos="l" depth="4" NCoef="0" IVar="-1" Cut="0.0000000000000000e+00" cType="1" res="3.2162196934223175e-02" rms="4.2120033502578735e-01" purity="4.4005861878395081e-01" nType="-99"/>
              <Node pos="r" depth="4" NCoef="0" IVar="-1" Cut="0.0000000000000000e+00" cType="1" res="9.9867964163422585e-03" rms="3.6049252748489380e-01" purity="3.3507037162780762e-01" nType="-99"/>
            </Node>
          </Node>
          <Node pos="r" depth="2" NCoef="0" IVar="2" Cut="7.2515187500000000e+05" cType="1" res="-2.3339236155152321e-02" rms="2.5706270337104797e-01" purity="1.3520719110965729e-01" nType="0">
            <Node pos="l" depth="3" NCoef="0" IVar="21" Cut="9.2028687500000000e+04" cType="1" res="-3.4893270581960678e-02" rms="2.8728744387626648e-01" purity="1.7413777112960815e-01" nType="0">
              <Node pos="l" depth="4" NCoef="0" IVar="-1" Cut="0.0000000000000000e+00" cType="1" res="-3.5999983549118042e-02" rms="3.3656039834022522e-01" purity="2.4729922413825989e-01" nType="-99"/>
              <Node pos="r" depth="4" NCoef="0" IVar="-1" Cut="0.0000000000000000e+00" cType="1" res="-2.9757728800177574e-02" rms="1.7355647683143616e-01" purity="5.1361981779336929e-02" nType="-99"/>
            </Node>
            <Node pos="r" depth="3" NCoef="0" IVar="-1" Cut="0.0000000000000000e+00" cType="1" res="-1.2981198728084564e-02" rms="2.0766574144363403e-01" purity="8.1912860274314880e-02" nType="-99"/>
          </Node>
        </Node>
        <Node pos="r" depth="1" NCoef="0" IVar="13" Cut="2.6511194705963135e+00" cType="1" res="-1.3784696348011494e-03" rms="3.5338073968887329e-01" purity="5.8501398563385010e-01" nType="0">
          <Node pos="l" depth="2" NCoef="0" IVar="12" Cut="2.4626677036285400e+00" cType="1" res="-6.6266441717743874e-03" rms="3.6014384031295776e-01" purity="5.2051687240600586e-01" nType="0">
            <Node pos="l" depth="3" NCoef="0" IVar="9" Cut="6.3179011718750000e+04" cType="1" res="-1.9201653078198433e-02" rms="3.7511962652206421e-01" purity="5.0805872678756714e-01" nType="0">
              <Node pos="l" depth="4" NCoef="0" IVar="-1" Cut="0.0000000000000000e+00" cType="1" res="2.8684565331786871e-03" rms="4.1099521517753601e-01" purity="5.7746148109436035e-01" nType="-99"/>
              <Node pos="r" depth="4" NCoef="0" IVar="-1" Cut="0.0000000000000000e+00" cType="1" res="-2.3178452625870705e-02" rms="3.5520872473716736e-01" purity="4.7335475683212280e-01" nType="-99"/>
            </Node>
            <Node pos="r" depth="3" NCoef="0" IVar="4" Cut="2.2890837500000000e+05" cType="1" res="2.9801999335177243e-04" rms="3.5143285989761353e-01" purity="5.2737718820571899e-01" nType="0">
              <Node pos="l" depth="4" NCoef="0" IVar="-1" Cut="0.0000000000000000e+00" cType="1" res="-1.0220186784863472e-02" rms="3.8190674781799316e-01" purity="5.0431716442108154e-01" nType="-99"/>
              <Node pos="r" depth="4" NCoef="0" IVar="-1" Cut="0.0000000000000000e+00" cType="1" res="6.6016828641295433e-03" rms="3.3613827824592590e-01" purity="5.3804016113281250e-01" nType="-99"/>
            </Node>
          </Node>
          <Node pos="r" depth="2" NCoef="0" IVar="5" Cut="4.3468087500000000e+05" cType="1" res="1.7842038068920374e-03" rms="3.4920379519462585e-01" purity="6.2388145923614502e-01" nType="0">
            <Node pos="l" depth="3" NCoef="0" IVar="10" Cut="1.3571482812500000e+05" cType="1" res="2.8599894139915705e-03" rms="3.5041818022727966e-01" purity="6.3444203138351440e-01" nType="0">
              <Node pos="l" depth="4" NCoef="0" IVar="-1" Cut="0.0000000000000000e+00" cType="1" res="-2.5493791326880455e-03" rms="3.6746647953987122e-01" purity="6.7496770620346069e-01" nType="-99"/>
              <Node pos="r" depth="4" NCoef="0" IVar="-1" Cut="0.0000000000000000e+00" cType="1" res="7.6335603371262550e-03" rms="3.3292150497436523e-01" purity="5.9511727094650269e-01" nType="-99"/>
            </Node>
            <Node pos="r" depth="3" NCoef="0" IVar="-1" Cut="0.0000000000000000e+00" cType="1" res="-2.9364539310336113e-02" rms="3.0597385764122009e-01" purity="2.8692826628684998e-01" nType="-99"/>
          </Node>
        </Node>
      </Node>
    </BinaryTree>
    <BinaryTree type="DecisionTree" boostWeight="1.0000000000000000e+00" itree="63">
      <Node pos="s" depth="0" NCoef="0" IVar="16" Cut="5.0433826446533203e-01" cType="1" res="-2.3163581772678299e-06" rms="3.4912067651748657e-01" purity="5.0000000000000000e-01" nType="0">
        <Node pos="l" depth="1" NCoef="0" IVar="15" Cut="1.7189817428588867e+00" cType="1" res="9.4782095402479172e-03" rms="2.9070404171943665e-01" purity="7.5754016637802124e-01" nType="0">
          <Node pos="l" depth="2" NCoef="0" IVar="-1" Cut="0.0000000000000000e+00" cType="1" res="-5.3910352289676666e-03" rms="3.1576249003410339e-01" purity="6.4779525995254517e-01" nType="-99"/>
          <Node pos="r" depth="2" NCoef="0" IVar="-1" Cut="0.0000000000000000e+00" cType="1" res="1.7462836578488350e-02" rms="2.7829676866531372e-01" purity="8.0740296840667725e-01" nType="-99"/>
        </Node>
        <Node pos="r" depth="1" NCoef="0" IVar="13" Cut="2.1940269470214844e+00" cType="1" res="-5.6849577231332660e-04" rms="3.5229486227035522e-01" purity="4.8461961746215820e-01" nType="0">
          <Node pos="l" depth="2" NCoef="0" IVar="6" Cut="2.1104887500000000e+05" cType="1" res="2.7798227965831757e-03" rms="3.4415844082832336e-01" purity="2.9270580410957336e-01" nType="0">
            <Node pos="l" depth="3" NCoef="0" IVar="11" Cut="1.0762475728988647e+00" cType="1" res="8.0239875242114067e-03" rms="3.7150979042053223e-01" purity="3.4575256705284119e-01" nType="0">
              <Node pos="l" depth="4" NCoef="0" IVar="-1" Cut="0.0000000000000000e+00" cType="1" res="1.1902407743036747e-02" rms="3.9630120992660522e-01" purity="4.4604116678237915e-01" nType="-99"/>
              <Node pos="r" depth="4" NCoef="0" IVar="-1" Cut="0.0000000000000000e+00" cType="1" res="3.1947519164532423e-04" rms="3.5372766852378845e-01" purity="2.7856686711311340e-01" nType="-99"/>
            </Node>
            <Node pos="r" depth="3" NCoef="0" IVar="12" Cut="2.3747737407684326e+00" cType="1" res="-1.2958811596035957e-02" rms="2.4365630745887756e-01" purity="1.3350339233875275e-01" nType="0">
              <Node pos="l" depth="4" NCoef="0" IVar="-1" Cut="0.0000000000000000e+00" cType="1" res="-2.9359359294176102e-02" rms="2.5571036338806152e-01" purity="1.3961845636367798e-01" nType="-99"/>
              <Node pos="r" depth="4" NCoef="0" IVar="-1" Cut="0.0000000000000000e+00" cType="1" res="-8.0736156087368727e-04" rms="2.2935873270034790e-01" purity="1.2694098055362701e-01" nType="-99"/>
            </Node>
          </Node>
          <Node pos="r" depth="2" NCoef="0" IVar="13" Cut="2.3638174533843994e+00" cType="1" res="-2.3593271616846323e-03" rms="3.5655748844146729e-01" purity="5.8726376295089722e-01" nType="0">
            <Node pos="l" depth="3" NCoef="0" IVar="0" Cut="3.3333332538604736e+00" cType="1" res="-1.4294593594968319e-02" rms="3.6561030149459839e-01" purity="4.9839788675308228e-01" nType="0">
              <Node pos="l" depth="4" NCoef="0" IVar="-1" Cut="0.0000000000000000e+00" cType="1" res="-2.3713022470474243e-02" rms="3.7365540862083435e-01" purity="4.6202260255813599e-01" nType="-99"/>
              <Node pos="r" depth="4" NCoef="0" IVar="-1" Cut="0.0000000000000000e+00" cType="1" res="-2.6548230089247227e-03" rms="3.6095777153968811e-01" purity="5.1698744297027588e-01" nType="-99"/>
            </Node>
            <Node pos="r" depth="3" NCoef="0" IVar="5" Cut="4.3468087500000000e+05" cType="1" res="-1.0547518031671643e-03" rms="3.5552972555160522e-01" purity="5.9697717428207397e-01" nType="0">
              <Node pos="l" depth="4" NCoef="0" IVar="-1" Cut="0.0000000000000000e+00" cType="1" res="-3.2214578823186457e-04" rms="3.5678577423095703e-01" purity="6.0820794105529785e-01" nType="-99"/>
              <Node pos="r" depth="4" NCoef="0" IVar="-1" Cut="0.0000000000000000e+00" cType="1" res="-1.7233161255717278e-02" rms="3.1535267829895020e-01" purity="2.6303985714912415e-01" nType="-99"/>
            </Node>
          </Node>
        </Node>
      </Node>
    </BinaryTree>
    <BinaryTree type="DecisionTree" boostWeight="1.0000000000000000e+00" itree="64">
      <Node pos="s" depth="0" NCoef="0" IVar="11" Cut="2.5967428088188171e-01" cType="1" res="-3.7269633139658254e-06" rms="3.4905242919921875e-01" purity="5.0000000000000000e-01" nType="0">
        <Node pos="l" depth="1" NCoef="0" IVar="-1" Cut="0.0000000000000000e+00" cType="1" res="1.4167710207402706e-02" rms="3.1239193677902222e-01" purity="7.4361503124237061e-01" nType="-99"/>
        <Node pos="r" depth="1" NCoef="0" IVar="11" Cut="2.0798094272613525e+00" cType="1" res="-3.2725837081670761e-04" rms="3.4974184632301331e-01" purity="4.9510651826858521e-01" nType="0">
          <Node pos="l" depth="2" NCoef="0" IVar="8" Cut="1.2449911718750000e+05" cType="1" res="4.7343966434709728e-04" rms="3.5833507776260376e-01" purity="5.4528659582138062e-01" nType="0">
            <Node pos="l" depth="3" NCoef="0" IVar="8" Cut="2.7555275390625000e+04" cType="1" res="1.0536928893998265e-03" rms="3.6413216590881348e-01" purity="5.6351166963577271e-01" nType="0">
              <Node pos="l" depth="4" NCoef="0" IVar="-1" Cut="0.0000000000000000e+00" cType="1" res="-1.0836026631295681e-02" rms="3.7362203001976013e-01" purity="5.6658232212066650e-01" nType="-99"/>
              <Node pos="r" depth="4" NCoef="0" IVar="-1" Cut="0.0000000000000000e+00" cType="1" res="5.1904316060245037e-03" rms="3.6053243279457092e-01" purity="5.6242924928665161e-01" nType="-99"/>
            </Node>
            <Node pos="r" depth="3" NCoef="0" IVar="19" Cut="1.2901658593750000e+05" cType="1" res="-1.6745287925004959e-02" rms="6.1765670776367188e-02" purity="4.4647385366261005e-03" nType="0">
              <Node pos="l" depth="4" NCoef="0" IVar="-1" Cut="0.0000000000000000e+00" cType="1" res="-8.9587546885013580e-02" rms="7.0189140737056732e-02" purity="6.1464537866413593e-03" nType="-99"/>
              <Node pos="r" depth="4" NCoef="0" IVar="-1" Cut="0.0000000000000000e+00" cType="1" res="-8.1690408289432526e-02" rms="4.4311232864856720e-02" purity="1.8854170339182019e-03" nType="-99"/>
            </Node>
          </Node>
          <Node pos="r" depth="2" NCoef="0" IVar="14" Cut="2.1821584701538086e+00" cType="1" res="-5.5574090220034122e-03" rms="2.8730261325836182e-01" purity="1.6733103990554810e-01" nType="0">
            <Node pos="l" depth="3" NCoef="0" IVar="15" Cut="1.5643769502639771e+00" cType="1" res="-1.0476712137460709e-02" rms="2.8130310773849487e-01" purity="1.5050937235355377e-01" nType="0">
              <Node pos="l" depth="4" NCoef="0" IVar="-1" Cut="0.0000000000000000e+00" cType="1" res="3.7991147837601602e-04" rms="3.1121823191642761e-01" purity="1.9409511983394623e-01" nType="-99"/>
              <Node pos="r" depth="4" NCoef="0" IVar="-1" Cut="0.0000000000000000e+00" cType="1" res="-2.1761819720268250e-02" rms="2.6020094752311707e-01" purity="1.2271394580602646e-01" nType="-99"/>
            </Node>
            <Node pos="r" depth="3" NCoef="0" IVar="16" Cut="1.7529460191726685e+00" cType="1" res="7.8584644943475723e-03" rms="3.0265524983406067e-01" purity="2.1320691704750061e-01" nType="0">
              <Node pos="l" depth="4" NCoef="0" IVar="-1" Cut="0.0000000000000000e+00" cType="1" res="1.8438922241330147e-02" rms="3.1653988361358643e-01" purity="2.5650531053543091e-01" nType="-99"/>
              <Node pos="r" depth="4" NCoef="0" IVar="-1" Cut="0.0000000000000000e+00" cType="1" res="-1.3939625583589077e-02" rms="2.7436271309852600e-01" purity="1.3384708762168884e-01" nType="-99"/>
            </Node>
          </Node>
        </Node>
      </Node>
    </BinaryTree>
    <BinaryTree type="DecisionTree" boostWeight="1.0000000000000000e+00" itree="65">
      <Node pos="s" depth="0" NCoef="0" IVar="11" Cut="4.9856403470039368e-01" cType="1" res="-1.0651736374711618e-05" rms="3.4895306825637817e-01" purity="5.0000000000000000e-01" nType="0">
        <Node pos="l" depth="1" NCoef="0" IVar="12" Cut="1.2208739519119263e+00" cType="1" res="5.8587780222296715e-03" rms="3.2837629318237305e-01" purity="7.0127981901168823e-01" nType="0">
          <Node pos="l" depth="2" NCoef="0" IVar="-1" Cut="0.0000000000000000e+00" cType="1" res="-1.3157309964299202e-02" rms="3.5209551453590393e-01" purity="2.2277849912643433e-01" nType="-99"/>
          <Node pos="r" depth="2" NCoef="0" IVar="13" Cut="3.1362216472625732e+00" cType="1" res="8.2033202052116394e-03" rms="3.2586681842803955e-01" purity="7.4812591075897217e-01" nType="0">
            <Node pos="l" depth="3" NCoef="0" IVar="15" Cut="1.1938191652297974e+00" cType="1" res="1.2309599667787552e-02" rms="3.2602623105049133e-01" purity="7.4581480026245117e-01" nType="0">
              <Node pos="l" depth="4" NCoef="0" IVar="-1" Cut="0.0000000000000000e+00" cType="1" res="-2.8722914867103100e-03" rms="3.5613393783569336e-01" purity="6.8770706653594971e-01" nType="-99"/>
              <Node pos="r" depth="4" NCoef="0" IVar="-1" Cut="0.0000000000000000e+00" cType="1" res="1.3830374926328659e-02" rms="3.1895941495895386e-01" purity="7.5851297378540039e-01" nType="-99"/>
            </Node>
            <Node pos="r" depth="3" NCoef="0" IVar="-1" Cut="0.0000000000000000e+00" cType="1" res="-9.4206500798463821e-03" rms="3.2446646690368652e-01" purity="7.5874233245849609e-01" nType="-99"/>
          </Node>
        </Node>
        <Node pos="r" depth="1" NCoef="0" IVar="16" Cut="1.2551904916763306e+00" cType="1" res="-1.0592271573841572e-03" rms="3.5249239206314087e-01" purity="4.6404129266738892e-01" nType="0">
          <Node pos="l" depth="2" NCoef="0" IVar="16" Cut="6.6744285821914673e-01" cType="1" res="-4.0739774703979492e-03" rms="3.3625093102455139e-01" purity="6.3766449689865112e-01" nType="0">
            <Node pos="l" depth="3" NCoef="0" IVar="4" Cut="2.1325243750000000e+05" cType="1" res="8.0776773393154144e-03" rms="3.0837970972061157e-01" purity="7.2887283563613892e-01" nType="0">
              <Node pos="l" depth="4" NCoef="0" IVar="-1" Cut="0.0000000000000000e+00" cType="1" res="-8.5687367245554924e-03" rms="3.7826985120773315e-01" purity="6.0030376911163330e-01" nType="-99"/>
              <Node pos="r" depth="4" NCoef="0" IVar="-1" Cut="0.0000000000000000e+00" cType="1" res="1.3947528786957264e-02" rms="2.8772598505020142e-01" purity="7.6149111986160278e-01" nType="-99"/>
            </Node>
            <Node pos="r" depth="3" NCoef="0" IVar="19" Cut="3.3294644531250000e+04" cType="1" res="-9.8881833255290985e-03" rms="3.4864985942840576e-01" purity="5.9402388334274292e-01" nType="0">
              <Node pos="l" depth="4" NCoef="0" IVar="-1" Cut="0.0000000000000000e+00" cType="1" res="-1.4521077275276184e-02" rms="3.7021389603614807e-01" purity="4.8107087612152100e-01" nType="-99"/>
              <Node pos="r" depth="4" NCoef="0" IVar="-1" Cut="0.0000000000000000e+00" cType="1" res="-4.2568934150040150e-03" rms="3.3949872851371765e-01" purity="6.3937163352966309e-01" nType="-99"/>
            </Node>
          </Node>
          <Node pos="r" depth="2" NCoef="0" IVar="9" Cut="2.6528184375000000e+05" cType="1" res="1.1390475556254387e-03" rms="3.6386275291442871e-01" purity="3.3743998408317566e-01" nType="0">
            <Node pos="l" depth="3" NCoef="0" IVar="20" Cut="1.8848380859375000e+04" cType="1" res="2.3189990315586329e-03" rms="3.7183162569999695e-01" purity="3.5496753454208374e-01" nType="0">
              <Node pos="l" depth="4" NCoef="0" IVar="-1" Cut="0.0000000000000000e+00" cType="1" res="-1.6826510429382324e-02" rms="3.7636417150497437e-01" purity="3.0078697204589844e-01" nType="-99"/>
              <Node pos="r" depth="4" NCoef="0" IVar="-1" Cut="0.0000000000000000e+00" cType="1" res="3.1259767711162567e-03" rms="3.7141650915145874e-01" purity="3.5882633924484253e-01" nType="-99"/>
            </Node>
            <Node pos="r" depth="3" NCoef="0" IVar="4" Cut="4.5188006250000000e+05" cType="1" res="-1.5348998829722404e-02" rms="2.2401538491249084e-01" purity="9.2518731951713562e-02" nType="0">
              <Node pos="l" depth="4" NCoef="0" IVar="-1" Cut="0.0000000000000000e+00" cType="1" res="-4.0553063154220581e-02" rms="2.4854786694049835e-01" purity="1.3127909600734711e-01" nType="-99"/>
              <Node pos="r" depth="4" NCoef="0" IVar="-1" Cut="0.0000000000000000e+00" cType="1" res="-1.3395437039434910e-02" rms="2.0600450038909912e-01" purity="6.7410327494144440e-02" nType="-99"/>
            </Node>
          </Node>
        </Node>
      </Node>
    </BinaryTree>
    <BinaryTree type="DecisionTree" boostWeight="1.0000000000000000e+00" itree="66">
      <Node pos="s" depth="0" NCoef="0" IVar="11" Cut="7.3745375871658325e-01" cType="1" res="-7.1984886744758114e-06" rms="3.4885686635971069e-01" purity="5.0000000000000000e-01" nType="0">
        <Node pos="l" depth="1" NCoef="0" IVar="0" Cut="2.3333332538604736e+00" cType="1" res="3.3098091371357441e-03" rms="3.3660328388214111e-01" purity="6.6764646768569946e-01" nType="0">
          <Node pos="l" depth="2" NCoef="0" IVar="7" Cut="2.8694136718750000e+04" cType="1" res="-8.8635198771953583e-03" rms="3.7195014953613281e-01" purity="5.9382122755050659e-01" nType="0">
            <Node pos="l" depth="3" NCoef="0" IVar="16" Cut="1.6128185987472534e+00" cType="1" res="-2.5534562766551971e-02" rms="3.8370507955551147e-01" purity="5.9157615900039673e-01" nType="0">
              <Node pos="l" depth="4" NCoef="0" IVar="-1" Cut="0.0000000000000000e+00" cType="1" res="-7.3308367282152176e-03" rms="3.5544404387474060e-01" purity="7.3848861455917358e-01" nType="-99"/>
              <Node pos="r" depth="4" NCoef="0" IVar="-1" Cut="0.0000000000000000e+00" cType="1" res="-2.6495857164263725e-02" rms="4.2252016067504883e-01" purity="3.6487546563148499e-01" nType="-99"/>
            </Node>
            <Node pos="r" depth="3" NCoef="0" IVar="16" Cut="2.1229069232940674e+00" cType="1" res="1.1927556479349732e-03" rms="3.6430746316909790e-01" purity="5.9517556428909302e-01" nType="0">
              <Node pos="l" depth="4" NCoef="0" IVar="-1" Cut="0.0000000000000000e+00" cType="1" res="-3.5522892139852047e-03" rms="3.5594320297241211e-01" purity="6.5465813875198364e-01" nType="-99"/>
              <Node pos="r" depth="4" NCoef="0" IVar="-1" Cut="0.0000000000000000e+00" cType="1" res="1.5868060290813446e-02" rms="3.9382240176200867e-01" purity="3.6790317296981812e-01" nType="-99"/>
            </Node>
          </Node>
          <Node pos="r" depth="2" NCoef="0" IVar="0" Cut="5.1428570747375488e+00" cType="1" res="7.3036607354879379e-03" rms="3.2406842708587646e-01" purity="6.9186717271804810e-01" nType="0">
            <Node pos="l" depth="3" NCoef="0" IVar="13" Cut="2.1443932056427002e+00" cType="1" res="2.2083988413214684e-02" rms="2.4690146744251251e-01" purity="8.8853460550308228e-01" nType="0">
              <Node pos="l" depth="4" NCoef="0" IVar="-1" Cut="0.0000000000000000e+00" cType="1" res="2.7746394276618958e-02" rms="3.4605672955513000e-01" purity="6.9068574905395508e-01" nType="-99"/>
              <Node pos="r" depth="4" NCoef="0" IVar="-1" Cut="0.0000000000000000e+00" cType="1" res="2.8484428301453590e-02" rms="2.1818782389163971e-01" purity="9.3315583467483521e-01" nType="-99"/>
            </Node>
            <Node pos="r" depth="3" NCoef="0" IVar="8" Cut="1.7657324218750000e+04" cType="1" res="-1.0981454979628325e-03" rms="3.6037659645080566e-01" purity="5.8007258176803589e-01" nType="0">
              <Node pos="l" depth="4" NCoef="0" IVar="-1" Cut="0.0000000000000000e+00" cType="1" res="-1.2908318080008030e-02" rms="3.9070269465446472e-01" purity="4.0403699874877930e-01" nType="-99"/>
              <Node pos="r" depth="4" NCoef="0" IVar="-1" Cut="0.0000000000000000e+00" cType="1" res="3.5446730908006430e-03" rms="3.5073068737983704e-01" purity="6.3194346427917480e-01" nType="-99"/>
            </Node>
          </Node>
        </Node>
        <Node pos="r" depth="1" NCoef="0" IVar="13" Cut="1.9196077585220337e+00" cType="1" res="-1.5250276774168015e-03" rms="3.5431233048439026e-01" purity="4.2328667640686035e-01" nType="0">
          <Node pos="l" depth="2" NCoef="0" IVar="13" Cut="1.7367609739303589e+00" cType="1" res="2.6266067288815975e-03" rms="3.2700964808464050e-01" purity="2.3326423764228821e-01" nType="0">
            <Node pos="l" depth="3" NCoef="0" IVar="10" Cut="8.1141640625000000e+04" cType="1" res="-2.2854602430015802e-03" rms="3.1878787279129028e-01" purity="2.0926946401596069e-01" nType="0">
              <Node pos="l" depth="4" NCoef="0" IVar="-1" Cut="0.0000000000000000e+00" cType="1" res="3.4422574099153280e-03" rms="3.3974102139472961e-01" purity="2.4195149540901184e-01" nType="-99"/>
              <Node pos="r" depth="4" NCoef="0" IVar="-1" Cut="0.0000000000000000e+00" cType="1" res="-4.5603845268487930e-02" rms="2.1231427788734436e-01" purity="7.7313192188739777e-02" nType="-99"/>
            </Node>
            <Node pos="r" depth="3" NCoef="0" IVar="12" Cut="2.5551011562347412e+00" cType="1" res="2.4139333516359329e-02" rms="3.6002868413925171e-01" purity="3.3835098147392273e-01" nType="0">
              <Node pos="l" depth="4" NCoef="0" IVar="-1" Cut="0.0000000000000000e+00" cType="1" res="2.9984867200255394e-02" rms="3.9056509733200073e-01" purity="3.7565788626670837e-01" nType="-99"/>
              <Node pos="r" depth="4" NCoef="0" IVar="-1" Cut="0.0000000000000000e+00" cType="1" res="1.0168947279453278e-02" rms="3.3991453051567078e-01" purity="3.1601175665855408e-01" nType="-99"/>
            </Node>
          </Node>
          <Node pos="r" depth="2" NCoef="0" IVar="13" Cut="2.6508877277374268e+00" cType="1" res="-3.1709664035588503e-03" rms="3.6455798149108887e-01" purity="4.9862214922904968e-01" nType="0">
            <Node pos="l" depth="3" NCoef="0" IVar="12" Cut="2.6764709949493408e+00" cType="1" res="-8.4621235728263855e-03" rms="3.6315318942070007e-01" purity="4.4543132185935974e-01" nType="0">
              <Node pos="l" depth="4" NCoef="0" IVar="-1" Cut="0.0000000000000000e+00" cType="1" res="-1.3303397223353386e-02" rms="3.7136712670326233e-01" purity="4.2640373110771179e-01" nType="-99"/>
              <Node pos="r" depth="4" NCoef="0" IVar="-1" Cut="0.0000000000000000e+00" cType="1" res="-4.1563398553989828e-04" rms="3.5696026682853699e-01" purity="4.5902237296104431e-01" nType="-99"/>
            </Node>
            <Node pos="r" depth="3" NCoef="0" IVar="12" Cut="2.4036755561828613e+00" cType="1" res="3.4628453431650996e-04" rms="3.6544644832611084e-01" purity="5.3398025035858154e-01" nType="0">
              <Node pos="l" depth="4" NCoef="0" IVar="-1" Cut="0.0000000000000000e+00" cType="1" res="5.7752472348511219e-03" rms="3.8331416249275208e-01" purity="5.4981422424316406e-01" nType="-99"/>
              <Node pos="r" depth="4" NCoef="0" IVar="-1" Cut="0.0000000000000000e+00" cType="1" res="-2.5482175406068563e-03" rms="3.5716816782951355e-01" purity="5.2695465087890625e-01" nType="-99"/>
            </Node>
          </Node>
        </Node>
      </Node>
    </BinaryTree>
    <BinaryTree type="DecisionTree" boostWeight="1.0000000000000000e+00" itree="67">
      <Node pos="s" depth="0" NCoef="0" IVar="10" Cut="2.3366242187500000e+05" cType="1" res="-5.1634679039125331e-06" rms="3.4871312975883484e-01" purity="5.0000000000000000e-01" nType="0">
        <Node pos="l" depth="1" NCoef="0" IVar="21" Cut="1.2031041406250000e+05" cType="1" res="6.2249286565929651e-04" rms="3.5338252782821655e-01" purity="5.1314169168472290e-01" nType="0">
          <Node pos="l" depth="2" NCoef="0" IVar="7" Cut="7.2562945312500000e+04" cType="1" res="-5.7665392523631454e-04" rms="3.6180421710014343e-01" purity="5.2245455980300903e-01" nType="0">
            <Node pos="l" depth="3" NCoef="0" IVar="21" Cut="3.1098298828125000e+04" cType="1" res="6.4751207828521729e-03" rms="3.6944913864135742e-01" purity="6.1999136209487915e-01" nType="0">
              <Node pos="l" depth="4" NCoef="0" IVar="-1" Cut="0.0000000000000000e+00" cType="1" res="-4.0221372619271278e-03" rms="3.4323564171791077e-01" purity="6.7023772001266479e-01" nType="-99"/>
              <Node pos="r" depth="4" NCoef="0" IVar="-1" Cut="0.0000000000000000e+00" cType="1" res="1.1127084493637085e-02" rms="3.9494004845619202e-01" purity="5.6681442260742188e-01" nType="-99"/>
            </Node>
            <Node pos="r" depth="3" NCoef="0" IVar="7" Cut="1.0942062500000000e+05" cType="1" res="-1.6201462596654892e-02" rms="3.4374591708183289e-01" purity="3.0633965134620667e-01" nType="0">
              <Node pos="l" depth="4" NCoef="0" IVar="-1" Cut="0.0000000000000000e+00" cType="1" res="-2.0914567634463310e-02" rms="3.4330683946609497e-01" purity="2.5032660365104675e-01" nType="-99"/>
              <Node pos="r" depth="4" NCoef="0" IVar="-1" Cut="0.0000000000000000e+00" cType="1" res="7.2259572334587574e-03" rms="3.4364035725593567e-01" purity="4.5736008882522583e-01" nType="-99"/>
            </Node>
          </Node>
          <Node pos="r" depth="2" NCoef="0" IVar="8" Cut="1.2595622656250000e+05" cType="1" res="1.0925185866653919e-02" rms="2.7020797133445740e-01" purity="4.3312844634056091e-01" nType="0">
            <Node pos="l" depth="3" NCoef="0" IVar="12" Cut="3.0879321098327637e+00" cType="1" res="2.0078295841813087e-02" rms="3.2905635237693787e-01" purity="6.5688121318817139e-01" nType="0">
              <Node pos="l" depth="4" NCoef="0" IVar="-1" Cut="0.0000000000000000e+00" cType="1" res="8.1545086577534676e-03" rms="3.3141005039215088e-01" purity="6.3803237676620483e-01" nType="-99"/>
              <Node pos="r" depth="4" NCoef="0" IVar="-1" Cut="0.0000000000000000e+00" cType="1" res="3.7642903625965118e-02" rms="3.2298985123634338e-01" purity="6.9553083181381226e-01" nType="-99"/>
            </Node>
            <Node pos="r" depth="3" NCoef="0" IVar="11" Cut="2.2907805442810059e+00" cType="1" res="-6.5601612441241741e-03" rms="7.1957193315029144e-02" purity="5.6895045563578606e-03" nType="0">
              <Node pos="l" depth="4" NCoef="0" IVar="-1" Cut="0.0000000000000000e+00" cType="1" res="-1.0360671579837799e-01" rms="1.6664799302816391e-02" purity="0.0000000000000000e+00" nType="-99"/>
              <Node pos="r" depth="4" NCoef="0" IVar="-1" Cut="0.0000000000000000e+00" cType="1" res="-6.0342494398355484e-03" rms="1.0020320117473602e-01" purity="1.1415164917707443e-02" nType="-99"/>
            </Node>
          </Node>
        </Node>
        <Node pos="r" depth="1" NCoef="0" IVar="6" Cut="2.2795381250000000e+05" cType="1" res="-6.4051123335957527e-03" rms="2.9686310887336731e-01" purity="3.6599943041801453e-01" nType="0">
          <Node pos="l" depth="2" NCoef="0" IVar="-1" Cut="0.0000000000000000e+00" cType="1" res="-2.2265661507844925e-02" rms="3.3938050270080566e-01" purity="3.4324699640274048e-01" nType="-99"/>
          <Node pos="r" depth="2" NCoef="0" IVar="10" Cut="3.3970209375000000e+05" cType="1" res="-1.7271115211769938e-03" rms="2.8659397363662720e-01" purity="3.7093564867973328e-01" nType="0">
            <Node pos="l" depth="3" NCoef="0" IVar="20" Cut="9.5437148437500000e+04" cType="1" res="5.6252055801451206e-03" rms="2.9999208450317383e-01" purity="4.4844922423362732e-01" nType="0">
              <Node pos="l" depth="4" NCoef="0" IVar="-1" Cut="0.0000000000000000e+00" cType="1" res="9.3005141243338585e-03" rms="3.4616613388061523e-01" purity="6.1117130517959595e-01" nType="-99"/>
              <Node pos="r" depth="4" NCoef="0" IVar="-1" Cut="0.0000000000000000e+00" cType="1" res="-5.4100826382637024e-02" rms="9.7033053636550903e-02" purity="1.0975027456879616e-02" nType="-99"/>
            </Node>
            <Node pos="r" depth="3" NCoef="0" IVar="19" Cut="1.2900694531250000e+05" cType="1" res="-1.6069117933511734e-02" rms="2.5786486268043518e-01" purity="2.1973150968551636e-01" nType="0">
              <Node pos="l" depth="4" NCoef="0" IVar="-1" Cut="0.0000000000000000e+00" cType="1" res="-3.5535350441932678e-02" rms="2.7370640635490417e-01" purity="3.1155011057853699e-01" nType="-99"/>
              <Node pos="r" depth="4" NCoef="0" IVar="-1" Cut="0.0000000000000000e+00" cType="1" res="-3.0208353418856859e-03" rms="2.4119617044925690e-01" purity="1.3347452878952026e-01" nType="-99"/>
            </Node>
          </Node>
        </Node>
      </Node>
    </BinaryTree>
    <BinaryTree type="DecisionTree" boostWeight="1.0000000000000000e+00" itree="68">
      <Node pos="s" depth="0" NCoef="0" IVar="11" Cut="4.9856403470039368e-01" cType="1" res="-1.1028810149582569e-05" rms="3.4847912192344666e-01" purity="5.0000000000000000e-01" nType="0">
        <Node pos="l" depth="1" NCoef="0" IVar="8" Cut="4.5630714843750000e+04" cType="1" res="4.7193174250423908e-03" rms="3.2791319489479065e-01" purity="7.0127981901168823e-01" nType="0">
          <Node pos="l" depth="2" NCoef="0" IVar="20" Cut="1.4480849609375000e+04" cType="1" res="6.8327714689075947e-03" rms="3.3116638660430908e-01" purity="7.1947109699249268e-01" nType="0">
            <Node pos="l" depth="3" NCoef="0" IVar="8" Cut="1.3006026367187500e+04" cType="1" res="-1.3410386629402637e-02" rms="3.7088677287101746e-01" purity="5.1159751415252686e-01" nType="0">
              <Node pos="l" depth="4" NCoef="0" IVar="-1" Cut="0.0000000000000000e+00" cType="1" res="-1.7712004482746124e-02" rms="3.6012935638427734e-01" purity="5.2395433187484741e-01" nType="-99"/>
              <Node pos="r" depth="4" NCoef="0" IVar="-1" Cut="0.0000000000000000e+00" cType="1" res="6.6679858718998730e-05" rms="3.8170728087425232e-01" purity="4.9824881553649902e-01" nType="-99"/>
            </Node>
            <Node pos="r" depth="3" NCoef="0" IVar="11" Cut="3.6944535374641418e-01" cType="1" res="1.0493268258869648e-02" rms="3.2332831621170044e-01" purity="7.5706017017364502e-01" nType="0">
              <Node pos="l" depth="4" NCoef="0" IVar="-1" Cut="0.0000000000000000e+00" cType="1" res="1.6587318852543831e-02" rms="3.0943268537521362e-01" purity="7.7745646238327026e-01" nType="-99"/>
              <Node pos="r" depth="4" NCoef="0" IVar="-1" Cut="0.0000000000000000e+00" cType="1" res="3.3857009839266539e-03" rms="3.3443060517311096e-01" purity="7.3990786075592041e-01" nType="-99"/>
            </Node>
          </Node>
          <Node pos="r" depth="2" NCoef="0" IVar="-1" Cut="0.0000000000000000e+00" cType="1" res="-2.4221964180469513e-02" rms="2.8166696429252625e-01" purity="4.6877735853195190e-01" nType="-99"/>
        </Node>
        <Node pos="r" depth="1" NCoef="0" IVar="11" Cut="2.6599495410919189e+00" cType="1" res="-8.5610663518309593e-04" rms="3.5202008485794067e-01" purity="4.6404129266738892e-01" nType="0">
          <Node pos="l" depth="2" NCoef="0" IVar="11" Cut="6.0148966312408447e-01" cType="1" res="-3.7479543243534863e-04" rms="3.5647308826446533e-01" purity="4.8183014988899231e-01" nType="0">
            <Node pos="l" depth="3" NCoef="0" IVar="4" Cut="4.5326521875000000e+05" cType="1" res="7.9378755763173103e-03" rms="3.3508589863777161e-01" purity="6.5297544002532959e-01" nType="0">
              <Node pos="l" depth="4" NCoef="0" IVar="-1" Cut="0.0000000000000000e+00" cType="1" res="1.0937832295894623e-02" rms="3.3804392814636230e-01" purity="7.1259957551956177e-01" nType="-99"/>
              <Node pos="r" depth="4" NCoef="0" IVar="-1" Cut="0.0000000000000000e+00" cType="1" res="-1.0487302206456661e-02" rms="3.2429260015487671e-01" purity="4.5607295632362366e-01" nType="-99"/>
            </Node>
            <Node pos="r" depth="3" NCoef="0" IVar="11" Cut="1.5816975831985474e+00" cType="1" res="-1.1847516288980842e-03" rms="3.5847845673561096e-01" purity="4.6515440940856934e-01" nType="0">
              <Node pos="l" depth="4" NCoef="0" IVar="-1" Cut="0.0000000000000000e+00" cType="1" res="-2.2236567456275225e-03" rms="3.6762452125549316e-01" purity="5.4512244462966919e-01" nType="-99"/>
              <Node pos="r" depth="4" NCoef="0" IVar="-1" Cut="0.0000000000000000e+00" cType="1" res="2.6067604776471853e-03" rms="3.3737856149673462e-01" purity="2.8867724537849426e-01" nType="-99"/>
            </Node>
          </Node>
          <Node pos="r" depth="2" NCoef="0" IVar="15" Cut="2.0533847808837891e+00" cType="1" res="-1.0624438524246216e-02" rms="2.4451561272144318e-01" purity="1.0301169753074646e-01" nType="0">
            <Node pos="l" depth="3" NCoef="0" IVar="2" Cut="3.6376234375000000e+05" cType="1" res="-1.9627587869763374e-02" rms="2.4326074123382568e-01" purity="1.0100457072257996e-01" nType="0">
              <Node pos="l" depth="4" NCoef="0" IVar="-1" Cut="0.0000000000000000e+00" cType="1" res="-3.3464342355728149e-02" rms="2.8697913885116577e-01" purity="1.4707478880882263e-01" nType="-99"/>
              <Node pos="r" depth="4" NCoef="0" IVar="-1" Cut="0.0000000000000000e+00" cType="1" res="-1.8095869570970535e-02" rms="1.9294217228889465e-01" purity="5.7954199612140656e-02" nType="-99"/>
            </Node>
            <Node pos="r" depth="3" NCoef="0" IVar="-1" Cut="0.0000000000000000e+00" cType="1" res="5.2224122919142246e-03" rms="2.4578577280044556e-01" purity="1.0608265548944473e-01" nType="-99"/>
          </Node>
        </Node>
      </Node>
    </BinaryTree>
    <BinaryTree type="DecisionTree" boostWeight="1.0000000000000000e+00" itree="69">
      <Node pos="s" depth="0" NCoef="0" IVar="0" Cut="5.3333334922790527e+00" cType="1" res="-8.4663470261148177e-06" rms="3.4843456745147705e-01" purity="5.0000000000000000e-01" nType="0">
        <Node pos="l" depth="1" NCoef="0" IVar="0" Cut="3.0952382087707520e+00" cType="1" res="1.9030309049412608e-03" rms="3.3712014555931091e-01" purity="5.9258693456649780e-01" nType="0">
          <Node pos="l" depth="2" NCoef="0" IVar="10" Cut="1.9651206250000000e+05" cType="1" res="-1.5149145619943738e-03" rms="3.6184900999069214e-01" purity="4.7118261456489563e-01" nType="0">
            <Node pos="l" depth="3" NCoef="0" IVar="6" Cut="1.2512946875000000e+05" cType="1" res="2.0349363330751657e-04" rms="3.6961713433265686e-01" purity="4.8340648412704468e-01" nType="0">
              <Node pos="l" depth="4" NCoef="0" IVar="-1" Cut="0.0000000000000000e+00" cType="1" res="-7.2313486598432064e-03" rms="4.1656094789505005e-01" purity="4.4511017203330994e-01" nType="-99"/>
              <Node pos="r" depth="4" NCoef="0" IVar="-1" Cut="0.0000000000000000e+00" cType="1" res="4.3055051937699318e-03" rms="3.4856927394866943e-01" purity="4.9899047613143921e-01" nType="-99"/>
            </Node>
            <Node pos="r" depth="3" NCoef="0" IVar="13" Cut="3.1514070034027100e+00" cType="1" res="-1.1243345215916634e-02" rms="3.1409427523612976e-01" purity="4.0197977423667908e-01" nType="0">
              <Node pos="l" depth="4" NCoef="0" IVar="-1" Cut="0.0000000000000000e+00" cType="1" res="-1.0634250938892365e-03" rms="3.0694848299026489e-01" purity="4.1564390063285828e-01" nType="-99"/>
              <Node pos="r" depth="4" NCoef="0" IVar="-1" Cut="0.0000000000000000e+00" cType="1" res="-2.6052137836813927e-02" rms="3.2649600505828857e-01" purity="3.7575441598892212e-01" nType="-99"/>
            </Node>
          </Node>
          <Node pos="r" depth="2" NCoef="0" IVar="19" Cut="6.7988914062500000e+04" cType="1" res="9.6879247575998306e-03" rms="2.7238604426383972e-01" purity="8.6910378932952881e-01" nType="0">
            <Node pos="l" depth="3" NCoef="0" IVar="1" Cut="7.9912539062500000e+04" cType="1" res="1.8666198477149010e-02" rms="2.3252275586128235e-01" purity="9.1804051399230957e-01" nType="0">
              <Node pos="l" depth="4" NCoef="0" IVar="-1" Cut="0.0000000000000000e+00" cType="1" res="3.9002489298582077e-02" rms="2.2678987681865692e-01" purity="9.2700135707855225e-01" nType="-99"/>
              <Node pos="r" depth="4" NCoef="0" IVar="-1" Cut="0.0000000000000000e+00" cType="1" res="6.5499348565936089e-03" rms="2.4132698774337769e-01" purity="9.0269643068313599e-01" nType="-99"/>
            </Node>
            <Node pos="r" depth="3" NCoef="0" IVar="11" Cut="1.1811480522155762e+00" cType="1" res="-8.1309778615832329e-03" rms="3.3713907003402710e-01" purity="7.7198052406311035e-01" nType="0">
              <Node pos="l" depth="4" NCoef="0" IVar="-1" Cut="0.0000000000000000e+00" cType="1" res="8.1961126998066902e-03" rms="3.0403837561607361e-01" purity="8.7830591201782227e-01" nType="-99"/>
              <Node pos="r" depth="4" NCoef="0" IVar="-1" Cut="0.0000000000000000e+00" cType="1" res="-2.6239279657602310e-02" rms="3.8550963997840881e-01" purity="5.9106570482254028e-01" nType="-99"/>
            </Node>
          </Node>
        </Node>
        <Node pos="r" depth="1" NCoef="0" IVar="16" Cut="1.2425959110260010e+00" cType="1" res="-1.8222901271656156e-03" rms="3.5883173346519470e-01" purity="4.1214406490325928e-01" nType="0">
          <Node pos="l" depth="2" NCoef="0" IVar="16" Cut="6.5542960166931152e-01" cType="1" res="-7.4725057929754257e-03" rms="3.5074350237846375e-01" purity="6.0005611181259155e-01" nType="0">
            <Node pos="l" depth="3" NCoef="0" IVar="9" Cut="1.0172753906250000e+05" cType="1" res="4.0726182051002979e-03" rms="3.2260993123054504e-01" purity="7.0576655864715576e-01" nType="0">
              <Node pos="l" depth="4" NCoef="0" IVar="-1" Cut="0.0000000000000000e+00" cType="1" res="-9.8051959648728371e-03" rms="3.6566486954689026e-01" purity="6.4884674549102783e-01" nType="-99"/>
              <Node pos="r" depth="4" NCoef="0" IVar="-1" Cut="0.0000000000000000e+00" cType="1" res="1.5718119218945503e-02" rms="2.9234293103218079e-01" purity="7.4091452360153198e-01" nType="-99"/>
            </Node>
            <Node pos="r" depth="3" NCoef="0" IVar="11" Cut="1.6293706893920898e+00" cType="1" res="-1.2739990837872028e-02" rms="3.6273354291915894e-01" purity="5.5182540416717529e-01" nType="0">
              <Node pos="l" depth="4" NCoef="0" IVar="-1" Cut="0.0000000000000000e+00" cType="1" res="-1.2510710395872593e-02" rms="3.6883005499839783e-01" purity="6.3154411315917969e-01" nType="-99"/>
              <Node pos="r" depth="4" NCoef="0" IVar="-1" Cut="0.0000000000000000e+00" cType="1" res="4.9406634643673897e-03" rms="3.4002691507339478e-01" purity="2.7493217587471008e-01" nType="-99"/>
            </Node>
          </Node>
          <Node pos="r" depth="2" NCoef="0" IVar="10" Cut="1.1646107812500000e+05" cType="1" res="1.9743938464671373e-03" rms="3.6411651968955994e-01" purity="2.8587588667869568e-01" nType="0">
            <Node pos="l" depth="3" NCoef="0" IVar="3" Cut="9.9039820312500000e+04" cType="1" res="-2.3177922703325748e-03" rms="3.7242916226387024e-01" purity="2.7884632349014282e-01" nType="0">
              <Node pos="l" depth="4" NCoef="0" IVar="-1" Cut="0.0000000000000000e+00" cType="1" res="-1.1617810465395451e-02" rms="3.7997102737426758e-01" purity="2.4896930158138275e-01" nType="-99"/>
              <Node pos="r" depth="4" NCoef="0" IVar="-1" Cut="0.0000000000000000e+00" cType="1" res="2.9178760014474392e-03" rms="3.6915880441665649e-01" purity="2.9086962342262268e-01" nType="-99"/>
            </Node>
            <Node pos="r" depth="3" NCoef="0" IVar="3" Cut="3.2328309375000000e+05" cType="1" res="8.4670092910528183e-03" rms="3.5106885433197021e-01" purity="2.9650917649269104e-01" nType="0">
              <Node pos="l" depth="4" NCoef="0" IVar="-1" Cut="0.0000000000000000e+00" cType="1" res="9.6079939976334572e-03" rms="3.8156631588935852e-01" purity="3.6175867915153503e-01" nType="-99"/>
              <Node pos="r" depth="4" NCoef="0" IVar="-1" Cut="0.0000000000000000e+00" cType="1" res="-1.1822433210909367e-02" rms="2.5075677037239075e-01" purity="1.2132801115512848e-01" nType="-99"/>
            </Node>
          </Node>
        </Node>
      </Node>
    </BinaryTree>
    <BinaryTree type="DecisionTree" boostWeight="1.0000000000000000e+00" itree="70">
      <Node pos="s" depth="0" NCoef="0" IVar="13" Cut="1.9197735786437988e+00" cType="1" res="3.8586949813179672e-06" rms="3.4828183054924011e-01" purity="5.0000000000000000e-01" nType="0">
        <Node pos="l" depth="1" NCoef="0" IVar="10" Cut="9.5069726562500000e+04" cType="1" res="3.1604529358446598e-03" rms="3.3608132600784302e-01" purity="2.5426813960075378e-01" nType="0">
          <Node pos="l" depth="2" NCoef="0" IVar="1" Cut="5.1266890625000000e+04" cType="1" res="7.7149760909378529e-03" rms="3.5120221972465515e-01" purity="2.8058010339736938e-01" nType="0">
            <Node pos="l" depth="3" NCoef="0" IVar="1" Cut="1.9613335937500000e+04" cType="1" res="1.5320137143135071e-02" rms="3.2031786441802979e-01" purity="1.7594498395919800e-01" nType="0">
              <Node pos="l" depth="4" NCoef="0" IVar="-1" Cut="0.0000000000000000e+00" cType="1" res="-1.5726706013083458e-02" rms="2.5266844034194946e-01" purity="9.8245814442634583e-02" nType="-99"/>
              <Node pos="r" depth="4" NCoef="0" IVar="-1" Cut="0.0000000000000000e+00" cType="1" res="2.4585466831922531e-02" rms="3.4551823139190674e-01" purity="2.1056813001632690e-01" nType="-99"/>
            </Node>
            <Node pos="r" depth="3" NCoef="0" IVar="15" Cut="9.1921103000640869e-01" cType="1" res="-7.6859781984239817e-04" rms="3.8254594802856445e-01" purity="3.9730080962181091e-01" nType="0">
              <Node pos="l" depth="4" NCoef="0" IVar="-1" Cut="0.0000000000000000e+00" cType="1" res="1.8555162474513054e-02" rms="4.0604403614997864e-01" purity="4.7681829333305359e-01" nType="-99"/>
              <Node pos="r" depth="4" NCoef="0" IVar="-1" Cut="0.0000000000000000e+00" cType="1" res="-3.6426095757633448e-03" rms="3.7856087088584900e-01" purity="3.8505613803863525e-01" nType="-99"/>
            </Node>
          </Node>
          <Node pos="r" depth="2" NCoef="0" IVar="2" Cut="7.2515187500000000e+05" cType="1" res="-1.7448646947741508e-02" rms="2.5574797391891479e-01" purity="1.3520719110965729e-01" nType="0">
            <Node pos="l" depth="3" NCoef="0" IVar="7" Cut="9.2028687500000000e+04" cType="1" res="-2.6827501133084297e-02" rms="2.8597941994667053e-01" purity="1.7413777112960815e-01" nType="0">
              <Node pos="l" depth="4" NCoef="0" IVar="-1" Cut="0.0000000000000000e+00" cType="1" res="-2.9813818633556366e-02" rms="3.3985748887062073e-01" purity="2.5372603535652161e-01" nType="-99"/>
              <Node pos="r" depth="4" NCoef="0" IVar="-1" Cut="0.0000000000000000e+00" cType="1" res="-2.1481817588210106e-02" rms="1.9352711737155914e-01" purity="7.0602744817733765e-02" nType="-99"/>
            </Node>
            <Node pos="r" depth="3" NCoef="0" IVar="-1" Cut="0.0000000000000000e+00" cType="1" res="-8.3130970597267151e-03" rms="2.0664477348327637e-01" purity="8.1912860274314880e-02" nType="-99"/>
          </Node>
        </Node>
        <Node pos="r" depth="1" NCoef="0" IVar="13" Cut="2.6511194705963135e+00" cType="1" res="-1.0882044443860650e-03" rms="3.5239782929420471e-01" purity="5.8501398563385010e-01" nType="0">
          <Node pos="l" depth="2" NCoef="0" IVar="2" Cut="3.7553634375000000e+05" cType="1" res="-4.4496860355138779e-03" rms="3.5908845067024231e-01" purity="5.2051687240600586e-01" nType="0">
            <Node pos="l" depth="3" NCoef="0" IVar="4" Cut="1.3619648437500000e+05" cType="1" res="2.0949272438883781e-03" rms="3.7219014763832092e-01" purity="6.0240405797958374e-01" nType="0">
              <Node pos="l" depth="4" NCoef="0" IVar="-1" Cut="0.0000000000000000e+00" cType="1" res="-3.5165298730134964e-02" rms="3.8505634665489197e-01" purity="3.0224314332008362e-01" nType="-99"/>
              <Node pos="r" depth="4" NCoef="0" IVar="-1" Cut="0.0000000000000000e+00" cType="1" res="5.3906957618892193e-03" rms="3.7047204375267029e-01" purity="6.2945520877838135e-01" nType="-99"/>
            </Node>
            <Node pos="r" depth="3" NCoef="0" IVar="16" Cut="1.9957497119903564e+00" cType="1" res="-1.2245044112205505e-02" rms="3.4266701340675354e-01" purity="4.2298027873039246e-01" nType="0">
              <Node pos="l" depth="4" NCoef="0" IVar="-1" Cut="0.0000000000000000e+00" cType="1" res="-1.7989359796047211e-02" rms="3.3309417963027954e-01" purity="4.7931444644927979e-01" nType="-99"/>
              <Node pos="r" depth="4" NCoef="0" IVar="-1" Cut="0.0000000000000000e+00" cType="1" res="5.0425087101757526e-03" rms="3.6114856600761414e-01" purity="3.0511230230331421e-01" nType="-99"/>
            </Node>
          </Node>
          <Node pos="r" depth="2" NCoef="0" IVar="5" Cut="4.3468087500000000e+05" cType="1" res="9.3750335508957505e-04" rms="3.4828817844390869e-01" purity="6.2388145923614502e-01" nType="0">
            <Node pos="l" depth="3" NCoef="0" IVar="10" Cut="1.3571482812500000e+05" cType="1" res="1.7125211888924241e-03" rms="3.4954097867012024e-01" purity="6.3444203138351440e-01" nType="0">
              <Node pos="l" depth="4" NCoef="0" IVar="-1" Cut="0.0000000000000000e+00" cType="1" res="-2.3470087908208370e-03" rms="3.6669999361038208e-01" purity="6.7496770620346069e-01" nType="-99"/>
              <Node pos="r" depth="4" NCoef="0" IVar="-1" Cut="0.0000000000000000e+00" cType="1" res="5.5865701287984848e-03" rms="3.3197131752967834e-01" purity="5.9511727094650269e-01" nType="-99"/>
            </Node>
            <Node pos="r" depth="3" NCoef="0" IVar="-1" Cut="0.0000000000000000e+00" cType="1" res="-2.1960344165563583e-02" rms="3.0459776520729065e-01" purity="2.8692826628684998e-01" nType="-99"/>
          </Node>
        </Node>
      </Node>
    </BinaryTree>
    <BinaryTree type="DecisionTree" boostWeight="1.0000000000000000e+00" itree="71">
      <Node pos="s" depth="0" NCoef="0" IVar="15" Cut="2.2873806953430176e+00" cType="1" res="-3.8559219319722615e-06" rms="3.4811988472938538e-01" purity="5.0000000000000000e-01" nType="0">
        <Node pos="l" depth="1" NCoef="0" IVar="15" Cut="6.5603792667388916e-01" cType="1" res="-1.4016202185302973e-03" rms="3.5878038406372070e-01" purity="4.8790642619132996e-01" nType="0">
          <Node pos="l" depth="2" NCoef="0" IVar="18" Cut="2.1404416015625000e+04" cType="1" res="8.1380354240536690e-03" rms="3.7812238931655884e-01" purity="5.0256425142288208e-01" nType="0">
            <Node pos="l" depth="3" NCoef="0" IVar="11" Cut="1.1513594388961792e+00" cType="1" res="-7.4037881568074226e-03" rms="3.6214634776115417e-01" purity="4.9271425604820251e-01" nType="0">
              <Node pos="l" depth="4" NCoef="0" IVar="-1" Cut="0.0000000000000000e+00" cType="1" res="4.7252406366169453e-03" rms="3.5633853077888489e-01" purity="6.4350277185440063e-01" nType="-99"/>
              <Node pos="r" depth="4" NCoef="0" IVar="-1" Cut="0.0000000000000000e+00" cType="1" res="-1.5377182513475418e-02" rms="3.6752322316169739e-01" purity="3.3610206842422485e-01" nType="-99"/>
            </Node>
            <Node pos="r" depth="3" NCoef="0" IVar="1" Cut="5.9294402343750000e+04" cType="1" res="2.8114851564168930e-02" rms="3.9682281017303467e-01" purity="5.1522517204284668e-01" nType="0">
              <Node pos="l" depth="4" NCoef="0" IVar="-1" Cut="0.0000000000000000e+00" cType="1" res="3.1872399151325226e-02" rms="4.0506938099861145e-01" purity="4.5137992501258850e-01" nType="-99"/>
              <Node pos="r" depth="4" NCoef="0" IVar="-1" Cut="0.0000000000000000e+00" cType="1" res="7.8266467899084091e-03" rms="3.8924300670623779e-01" purity="5.6666249036788940e-01" nType="-99"/>
            </Node>
          </Node>
          <Node pos="r" depth="2" NCoef="0" IVar="11" Cut="5.1819592714309692e-01" cType="1" res="-2.3291721008718014e-03" rms="3.5683020949363708e-01" purity="4.8648121953010559e-01" nType="0">
            <Node pos="l" depth="3" NCoef="0" IVar="14" Cut="1.0539391040802002e+00" cType="1" res="5.6456602178514004e-03" rms="3.4194034337997437e-01" purity="6.8689882755279541e-01" nType="0">
              <Node pos="l" depth="4" NCoef="0" IVar="-1" Cut="0.0000000000000000e+00" cType="1" res="-1.1225543916225433e-02" rms="3.4642398357391357e-01" purity="6.4134240150451660e-01" nType="-99"/>
              <Node pos="r" depth="4" NCoef="0" IVar="-1" Cut="0.0000000000000000e+00" cType="1" res="7.9812612384557724e-03" rms="3.4084042906761169e-01" purity="6.9638067483901978e-01" nType="-99"/>
            </Node>
            <Node pos="r" depth="3" NCoef="0" IVar="14" Cut="1.8409607410430908e+00" cType="1" res="-3.7447076756507158e-03" rms="3.5939022898674011e-01" purity="4.5090699195861816e-01" nType="0">
              <Node pos="l" depth="4" NCoef="0" IVar="-1" Cut="0.0000000000000000e+00" cType="1" res="-5.2503147162497044e-03" rms="3.6414584517478943e-01" purity="4.3589222431182861e-01" nType="-99"/>
              <Node pos="r" depth="4" NCoef="0" IVar="-1" Cut="0.0000000000000000e+00" cType="1" res="8.6850498337298632e-04" rms="3.5250666737556458e-01" purity="4.7211214900016785e-01" nType="-99"/>
            </Node>
          </Node>
        </Node>
        <Node pos="r" depth="1" NCoef="0" IVar="1" Cut="1.0838316406250000e+05" cType="1" res="2.6805133093148470e-03" rms="3.2665574550628662e-01" purity="5.2322542667388916e-01" nType="0">
          <Node pos="l" depth="2" NCoef="0" IVar="1" Cut="3.1088521484375000e+04" cType="1" res="3.2660047872923315e-04" rms="3.2943537831306458e-01" purity="5.0093138217926025e-01" nType="0">
            <Node pos="l" depth="3" NCoef="0" IVar="13" Cut="1.8888511657714844e+00" cType="1" res="-1.5516459941864014e-02" rms="3.2647490501403809e-01" purity="3.3661058545112610e-01" nType="0">
              <Node pos="l" depth="4" NCoef="0" IVar="-1" Cut="0.0000000000000000e+00" cType="1" res="1.5059262514114380e-02" rms="2.8334486484527588e-01" purity="1.2199646979570389e-01" nType="-99"/>
              <Node pos="r" depth="4" NCoef="0" IVar="-1" Cut="0.0000000000000000e+00" cType="1" res="-2.2883327677845955e-02" rms="3.4636482596397400e-01" purity="4.5074677467346191e-01" nType="-99"/>
            </Node>
            <Node pos="r" depth="3" NCoef="0" IVar="19" Cut="9.1135187500000000e+04" cType="1" res="6.9267954677343369e-03" rms="3.3043682575225830e-01" purity="5.6938719749450684e-01" nType="0">
              <Node pos="l" depth="4" NCoef="0" IVar="-1" Cut="0.0000000000000000e+00" cType="1" res="1.2084843590855598e-02" rms="3.3013978600502014e-01" purity="6.8807804584503174e-01" nType="-99"/>
              <Node pos="r" depth="4" NCoef="0" IVar="-1" Cut="0.0000000000000000e+00" cType="1" res="-1.1649063788354397e-02" rms="3.3037424087524414e-01" purity="2.4224722385406494e-01" nType="-99"/>
            </Node>
          </Node>
          <Node pos="r" depth="2" NCoef="0" IVar="20" Cut="6.9112617187500000e+04" cType="1" res="1.3923196122050285e-02" rms="3.1279519200325012e-01" purity="6.2970530986785889e-01" nType="0">
            <Node pos="l" depth="3" NCoef="0" IVar="0" Cut="6.3333334922790527e+00" cType="1" res="2.2725721821188927e-02" rms="3.3276256918907166e-01" purity="7.6108705997467041e-01" nType="0">
              <Node pos="l" depth="4" NCoef="0" IVar="-1" Cut="0.0000000000000000e+00" cType="1" res="1.0561290197074413e-02" rms="3.1556120514869690e-01" purity="7.9985737800598145e-01" nType="-99"/>
              <Node pos="r" depth="4" NCoef="0" IVar="-1" Cut="0.0000000000000000e+00" cType="1" res="3.0085843056440353e-02" rms="3.6397984623908997e-01" purity="6.8288397789001465e-01" nType="-99"/>
            </Node>
            <Node pos="r" depth="3" NCoef="0" IVar="-1" Cut="0.0000000000000000e+00" cType="1" res="-4.0025480091571808e-02" rms="2.0695774257183075e-01" purity="8.5829161107540131e-02" nType="-99"/>
          </Node>
        </Node>
      </Node>
    </BinaryTree>
    <BinaryTree type="DecisionTree" boostWeight="1.0000000000000000e+00" itree="72">
      <Node pos="s" depth="0" NCoef="0" IVar="0" Cut="5.3333334922790527e+00" cType="1" res="-2.8121287414251128e-06" rms="3.4798082709312439e-01" purity="5.0000000000000000e-01" nType="0">
        <Node pos="l" depth="1" NCoef="0" IVar="1" Cut="1.6699770312500000e+05" cType="1" res="1.6569462604820728e-03" rms="3.3669281005859375e-01" purity="5.9258693456649780e-01" nType="0">
          <Node pos="l" depth="2" NCoef="0" IVar="1" Cut="1.6034181640625000e+04" cType="1" res="2.7380250394344330e-03" rms="3.3652803301811218e-01" purity="5.9387266635894775e-01" nType="0">
            <Node pos="l" depth="3" NCoef="0" IVar="4" Cut="2.0783268750000000e+05" cType="1" res="-2.2112956270575523e-02" rms="3.2123050093650818e-01" purity="3.3645567297935486e-01" nType="0">
              <Node pos="l" depth="4" NCoef="0" IVar="-1" Cut="0.0000000000000000e+00" cType="1" res="-4.5571681112051010e-02" rms="3.3120375871658325e-01" purity="2.2603866457939148e-01" nType="-99"/>
              <Node pos="r" depth="4" NCoef="0" IVar="-1" Cut="0.0000000000000000e+00" cType="1" res="-1.6187104629352689e-03" rms="3.1412973999977112e-01" purity="3.9213481545448303e-01" nType="-99"/>
            </Node>
            <Node pos="r" depth="3" NCoef="0" IVar="2" Cut="3.3204281250000000e+05" cType="1" res="4.8783901147544384e-03" rms="3.3772766590118408e-01" purity="6.1604350805282593e-01" nType="0">
              <Node pos="l" depth="4" NCoef="0" IVar="-1" Cut="0.0000000000000000e+00" cType="1" res="7.5253178365528584e-03" rms="3.5232180356979370e-01" purity="6.9075196981430054e-01" nType="-99"/>
              <Node pos="r" depth="4" NCoef="0" IVar="-1" Cut="0.0000000000000000e+00" cType="1" res="9.2937547015026212e-04" rms="3.2612529397010803e-01" purity="5.5915826559066772e-01" nType="-99"/>
            </Node>
          </Node>
          <Node pos="r" depth="2" NCoef="0" IVar="15" Cut="1.6838260889053345e+00" cType="1" res="-1.6785394400358200e-02" rms="3.3896079659461975e-01" purity="5.7065254449844360e-01" nType="0">
            <Node pos="l" depth="3" NCoef="0" IVar="-1" Cut="0.0000000000000000e+00" cType="1" res="-2.8300600126385689e-02" rms="3.4702512621879578e-01" purity="5.1271820068359375e-01" nType="-99"/>
            <Node pos="r" depth="3" NCoef="0" IVar="-1" Cut="0.0000000000000000e+00" cType="1" res="-4.9832463264465332e-03" rms="3.3316022157669067e-01" purity="6.0806500911712646e-01" nType="-99"/>
          </Node>
        </Node>
        <Node pos="r" depth="1" NCoef="0" IVar="16" Cut="1.2425959110260010e+00" cType="1" res="-1.5777603257447481e-03" rms="3.5835632681846619e-01" purity="4.1214406490325928e-01" nType="0">
          <Node pos="l" depth="2" NCoef="0" IVar="19" Cut="6.6888648437500000e+04" cType="1" res="-6.1060381121933460e-03" rms="3.5012727975845337e-01" purity="6.0005611181259155e-01" nType="0">
            <Node pos="l" depth="3" NCoef="0" IVar="19" Cut="4.4491863281250000e+04" cType="1" res="-2.7776034548878670e-03" rms="3.5312193632125854e-01" purity="6.3060468435287476e-01" nType="0">
              <Node pos="l" depth="4" NCoef="0" IVar="-1" Cut="0.0000000000000000e+00" cType="1" res="-1.1099859140813351e-02" rms="3.6142605543136597e-01" purity="5.7669025659561157e-01" nType="-99"/>
              <Node pos="r" depth="4" NCoef="0" IVar="-1" Cut="0.0000000000000000e+00" cType="1" res="1.6445038840174675e-02" rms="3.3555799722671509e-01" purity="7.3278898000717163e-01" nType="-99"/>
            </Node>
            <Node pos="r" depth="3" NCoef="0" IVar="1" Cut="7.0646218750000000e+04" cType="1" res="-2.1261170506477356e-02" rms="3.3573785424232483e-01" purity="4.6096125245094299e-01" nType="0">
              <Node pos="l" depth="4" NCoef="0" IVar="-1" Cut="0.0000000000000000e+00" cType="1" res="-3.8242220878601074e-02" rms="3.4120079874992371e-01" purity="3.8068354129791260e-01" nType="-99"/>
              <Node pos="r" depth="4" NCoef="0" IVar="-1" Cut="0.0000000000000000e+00" cType="1" res="6.9335359148681164e-03" rms="3.2705998420715332e-01" purity="5.4821616411209106e-01" nType="-99"/>
            </Node>
          </Node>
          <Node pos="r" depth="2" NCoef="0" IVar="13" Cut="1.3715339899063110e+00" cType="1" res="1.4650332741439342e-03" rms="3.6374965310096741e-01" purity="2.8587588667869568e-01" nType="0">
            <Node pos="l" depth="3" NCoef="0" IVar="11" Cut="1.2445045709609985e+00" cType="1" res="-7.0251347497105598e-03" rms="2.9659676551818848e-01" purity="1.3279742002487183e-01" nType="0">
              <Node pos="l" depth="4" NCoef="0" IVar="-1" Cut="0.0000000000000000e+00" cType="1" res="9.8091014660894871e-04" rms="3.3864247798919678e-01" purity="1.8092338740825653e-01" nType="-99"/>
              <Node pos="r" depth="4" NCoef="0" IVar="-1" Cut="0.0000000000000000e+00" cType="1" res="-2.0324125885963440e-02" rms="2.4872143566608429e-01" purity="8.5987754166126251e-02" nType="-99"/>
            </Node>
            <Node pos="r" depth="3" NCoef="0" IVar="0" Cut="6.0952382087707520e+00" cType="1" res="3.5726889036595821e-03" rms="3.7854954600334167e-01" purity="3.2387709617614746e-01" nType="0">
              <Node pos="l" depth="4" NCoef="0" IVar="-1" Cut="0.0000000000000000e+00" cType="1" res="-4.3578883633017540e-03" rms="3.8924154639244080e-01" purity="3.9979693293571472e-01" nType="-99"/>
              <Node pos="r" depth="4" NCoef="0" IVar="-1" Cut="0.0000000000000000e+00" cType="1" res="4.4906218536198139e-03" rms="3.7537413835525513e-01" purity="3.0210989713668823e-01" nType="-99"/>
            </Node>
          </Node>
        </Node>
      </Node>
    </BinaryTree>
    <BinaryTree type="DecisionTree" boostWeight="1.0000000000000000e+00" itree="73">
      <Node pos="s" depth="0" NCoef="0" IVar="12" Cut="1.2675663232803345e+00" cType="1" res="-2.2449496555054793e-06" rms="3.4784349799156189e-01" purity="5.0000000000000000e-01" nType="0">
        <Node pos="l" depth="1" NCoef="0" IVar="1" Cut="5.1487003906250000e+04" cType="1" res="-7.4100056663155556e-03" rms="3.5899394750595093e-01" purity="2.4588495492935181e-01" nType="0">
          <Node pos="l" depth="2" NCoef="0" IVar="17" Cut="8.0613039062500000e+04" cType="1" res="1.0891607962548733e-02" rms="3.2921242713928223e-01" purity="1.6166773438453674e-01" nType="0">
            <Node pos="l" depth="3" NCoef="0" IVar="-1" Cut="0.0000000000000000e+00" cType="1" res="-1.0486999526619911e-02" rms="3.0992597341537476e-01" purity="1.4567032456398010e-01" nType="-99"/>
            <Node pos="r" depth="3" NCoef="0" IVar="-1" Cut="0.0000000000000000e+00" cType="1" res="3.7447094917297363e-02" rms="3.4879076480865479e-01" purity="1.8062193691730499e-01" nType="-99"/>
          </Node>
          <Node pos="r" depth="2" NCoef="0" IVar="9" Cut="4.1235789062500000e+04" cType="1" res="-2.5400221347808838e-02" rms="3.8518938422203064e-01" purity="3.2866922020912170e-01" nType="0">
            <Node pos="l" depth="3" NCoef="0" IVar="-1" Cut="0.0000000000000000e+00" cType="1" res="-6.4848652109503746e-03" rms="4.2980238795280457e-01" purity="4.4993951916694641e-01" nType="-99"/>
            <Node pos="r" depth="3" NCoef="0" IVar="-1" Cut="0.0000000000000000e+00" cType="1" res="-3.1257551163434982e-02" rms="3.2917073369026184e-01" purity="1.9635944068431854e-01" nType="-99"/>
          </Node>
        </Node>
        <Node pos="r" depth="1" NCoef="0" IVar="13" Cut="2.1940269470214844e+00" cType="1" res="3.4918941673822701e-04" rms="3.4730169177055359e-01" purity="5.1205557584762573e-01" nType="0">
          <Node pos="l" depth="2" NCoef="0" IVar="11" Cut="1.0048601627349854e+00" cType="1" res="3.5835201852023602e-03" rms="3.4007847309112549e-01" purity="3.0667281150817871e-01" nType="0">
            <Node pos="l" depth="3" NCoef="0" IVar="10" Cut="1.1484100781250000e+05" cType="1" res="1.5712982043623924e-02" rms="3.7568110227584839e-01" purity="4.6030539274215698e-01" nType="0">
              <Node pos="l" depth="4" NCoef="0" IVar="-1" Cut="0.0000000000000000e+00" cType="1" res="1.4462566003203392e-02" rms="3.8276582956314087e-01" purity="4.9346643686294556e-01" nType="-99"/>
              <Node pos="r" depth="4" NCoef="0" IVar="-1" Cut="0.0000000000000000e+00" cType="1" res="-6.8644862622022629e-03" rms="3.4741243720054626e-01" purity="3.3880499005317688e-01" nType="-99"/>
            </Node>
            <Node pos="r" depth="3" NCoef="0" IVar="10" Cut="9.4662156250000000e+04" cType="1" res="-1.6977125778794289e-03" rms="3.2321202754974365e-01" purity="2.3978035151958466e-01" nType="0">
              <Node pos="l" depth="4" NCoef="0" IVar="-1" Cut="0.0000000000000000e+00" cType="1" res="2.4589265231043100e-03" rms="3.4169313311576843e-01" purity="2.6966980099678040e-01" nType="-99"/>
              <Node pos="r" depth="4" NCoef="0" IVar="-1" Cut="0.0000000000000000e+00" cType="1" res="-2.3647727444767952e-02" rms="2.5203910470008850e-01" purity="1.4095923304557800e-01" nType="-99"/>
            </Node>
          </Node>
          <Node pos="r" depth="2" NCoef="0" IVar="16" Cut="5.1392787694931030e-01" cType="1" res="-1.0958425700664520e-03" rms="3.5047110915184021e-01" purity="6.0381633043289185e-01" nType="0">
            <Node pos="l" depth="3" NCoef="0" IVar="0" Cut="5.3333334922790527e+00" cType="1" res="1.0877388529479504e-02" rms="2.7798837423324585e-01" purity="8.2607442140579224e-01" nType="0">
              <Node pos="l" depth="4" NCoef="0" IVar="-1" Cut="0.0000000000000000e+00" cType="1" res="2.4823339655995369e-02" rms="2.4879767000675201e-01" purity="8.7011617422103882e-01" nType="-99"/>
              <Node pos="r" depth="4" NCoef="0" IVar="-1" Cut="0.0000000000000000e+00" cType="1" res="6.7284499527886510e-04" rms="3.1015765666961670e-01" purity="7.7134895324707031e-01" nType="-99"/>
            </Node>
            <Node pos="r" depth="3" NCoef="0" IVar="11" Cut="1.5840502977371216e+00" cType="1" res="-2.0712204277515411e-03" rms="3.5570806264877319e-01" purity="5.8571040630340576e-01" nType="0">
              <Node pos="l" depth="4" NCoef="0" IVar="-1" Cut="0.0000000000000000e+00" cType="1" res="-2.7075868565589190e-03" rms="3.5755306482315063e-01" purity="6.5597999095916748e-01" nType="-99"/>
              <Node pos="r" depth="4" NCoef="0" IVar="-1" Cut="0.0000000000000000e+00" cType="1" res="2.9666349291801453e-03" rms="3.4882763028144836e-01" purity="3.2916781306266785e-01" nType="-99"/>
            </Node>
          </Node>
        </Node>
      </Node>
    </BinaryTree>
    <BinaryTree type="DecisionTree" boostWeight="1.0000000000000000e+00" itree="74">
      <Node pos="s" depth="0" NCoef="0" IVar="2" Cut="6.9643325000000000e+05" cType="1" res="-4.3669192564266268e-06" rms="3.4776714444160461e-01" purity="5.0000000000000000e-01" nType="0">
        <Node pos="l" depth="1" NCoef="0" IVar="4" Cut="1.3216500000000000e+05" cType="1" res="-6.5625557908788323e-04" rms="3.5559168457984924e-01" purity="5.3972923755645752e-01" nType="0">
          <Node pos="l" depth="2" NCoef="0" IVar="19" Cut="8.7703037109375000e+03" cType="1" res="-3.4499194473028183e-02" rms="3.8486564159393311e-01" purity="2.8961876034736633e-01" nType="0">
            <Node pos="l" depth="3" NCoef="0" IVar="12" Cut="2.5817756652832031e+00" cType="1" res="-4.3587153777480125e-03" rms="3.7890732288360596e-01" purity="2.6224651932716370e-01" nType="0">
              <Node pos="l" depth="4" NCoef="0" IVar="-1" Cut="0.0000000000000000e+00" cType="1" res="2.2337319329380989e-02" rms="4.0204226970672607e-01" purity="3.1257098913192749e-01" nType="-99"/>
              <Node pos="r" depth="4" NCoef="0" IVar="-1" Cut="0.0000000000000000e+00" cType="1" res="-2.8002845123410225e-02" rms="3.5251215100288391e-01" purity="2.1582332253456116e-01" nType="-99"/>
            </Node>
            <Node pos="r" depth="3" NCoef="0" IVar="-1" Cut="0.0000000000000000e+00" cType="1" res="-4.1155908256769180e-02" rms="3.8897061347961426e-01" purity="3.2471284270286560e-01" nType="-99"/>
          </Node>
          <Node pos="r" depth="2" NCoef="0" IVar="2" Cut="3.0155853125000000e+05" cType="1" res="1.0316037805750966e-03" rms="3.5398364067077637e-01" purity="5.5220299959182739e-01" nType="0">
            <Node pos="l" depth="3" NCoef="0" IVar="7" Cut="7.0333046875000000e+04" cType="1" res="1.1714035645127296e-02" rms="3.7184679508209229e-01" purity="6.0076344013214111e-01" nType="0">
              <Node pos="l" depth="4" NCoef="0" IVar="-1" Cut="0.0000000000000000e+00" cType="1" res="1.5425854362547398e-02" rms="3.6640623211860657e-01" purity="6.8063175678253174e-01" nType="-99"/>
              <Node pos="r" depth="4" NCoef="0" IVar="-1" Cut="0.0000000000000000e+00" cType="1" res="-7.1559920907020569e-03" rms="3.8176295161247253e-01" purity="4.3746316432952881e-01" nType="-99"/>
            </Node>
            <Node pos="r" depth="3" NCoef="0" IVar="19" Cut="2.7237384765625000e+04" cType="1" res="-5.4345680400729179e-03" rms="3.4255704283714294e-01" purity="5.2280896902084351e-01" nType="0">
              <Node pos="l" depth="4" NCoef="0" IVar="-1" Cut="0.0000000000000000e+00" cType="1" res="-1.8781894817948341e-02" rms="3.3778816461563110e-01" purity="4.0227442979812622e-01" nType="-99"/>
              <Node pos="r" depth="4" NCoef="0" IVar="-1" Cut="0.0000000000000000e+00" cType="1" res="-1.1189635843038559e-03" rms="3.4349659085273743e-01" purity="5.5007368326187134e-01" nType="-99"/>
            </Node>
          </Node>
        </Node>
        <Node pos="r" depth="1" NCoef="0" IVar="16" Cut="1.7549607753753662e+00" cType="1" res="4.0147085674107075e-03" rms="2.9494553804397583e-01" purity="2.5505840778350830e-01" nType="0">
          <Node pos="l" depth="2" NCoef="0" IVar="0" Cut="6.3333334922790527e+00" cType="1" res="-6.6138957627117634e-03" rms="2.9211750626564026e-01" purity="3.1509149074554443e-01" nType="0">
            <Node pos="l" depth="3" NCoef="0" IVar="0" Cut="2.1904761791229248e+00" cType="1" res="5.0889328122138977e-03" rms="3.0416601896286011e-01" purity="4.0485069155693054e-01" nType="0">
              <Node pos="l" depth="4" NCoef="0" IVar="-1" Cut="0.0000000000000000e+00" cType="1" res="-1.4047831296920776e-02" rms="2.9955917596817017e-01" purity="2.6723259687423706e-01" nType="-99"/>
              <Node pos="r" depth="4" NCoef="0" IVar="-1" Cut="0.0000000000000000e+00" cType="1" res="2.3015627637505531e-02" rms="3.0728536844253540e-01" purity="5.3173422813415527e-01" nType="-99"/>
            </Node>
            <Node pos="r" depth="3" NCoef="0" IVar="15" Cut="2.1095480918884277e+00" cType="1" res="-2.1847715601325035e-02" rms="2.7490052580833435e-01" purity="1.9825002551078796e-01" nType="0">
              <Node pos="l" depth="4" NCoef="0" IVar="-1" Cut="0.0000000000000000e+00" cType="1" res="-4.6297851949930191e-02" rms="2.3933166265487671e-01" purity="1.0095387697219849e-01" nType="-99"/>
              <Node pos="r" depth="4" NCoef="0" IVar="-1" Cut="0.0000000000000000e+00" cType="1" res="-7.9386318102478981e-03" rms="3.0427289009094238e-01" purity="2.9076671600341797e-01" nType="-99"/>
            </Node>
          </Node>
          <Node pos="r" depth="2" NCoef="0" IVar="4" Cut="3.8922025000000000e+05" cType="1" res="1.3706979341804981e-02" rms="2.9716980457305908e-01" purity="2.0031397044658661e-01" nType="0">
            <Node pos="l" depth="3" NCoef="0" IVar="-1" Cut="0.0000000000000000e+00" cType="1" res="4.4628091156482697e-02" rms="3.6311677098274231e-01" purity="3.9162236452102661e-01" nType="-99"/>
            <Node pos="r" depth="3" NCoef="0" IVar="6" Cut="3.8455706250000000e+05" cType="1" res="5.6900181807577610e-03" rms="2.8347623348236084e-01" purity="1.6729977726936340e-01" nType="0">
              <Node pos="l" depth="4" NCoef="0" IVar="-1" Cut="0.0000000000000000e+00" cType="1" res="1.3513237237930298e-02" rms="3.1573480367660522e-01" purity="2.0896959304809570e-01" nType="-99"/>
              <Node pos="r" depth="4" NCoef="0" IVar="-1" Cut="0.0000000000000000e+00" cType="1" res="-3.2619398087263107e-02" rms="1.7802052199840546e-01" purity="6.3575707376003265e-02" nType="-99"/>
            </Node>
          </Node>
        </Node>
      </Node>
    </BinaryTree>
    <BinaryTree type="DecisionTree" boostWeight="1.0000000000000000e+00" itree="75">
      <Node pos="s" depth="0" NCoef="0" IVar="12" Cut="2.0714859962463379e+00" cType="1" res="-7.4344666245451663e-06" rms="3.4750711917877197e-01" purity="5.0000000000000000e-01" nType="0">
        <Node pos="l" depth="1" NCoef="0" IVar="9" Cut="5.7430476562500000e+04" cType="1" res="-3.5784218925982714e-03" rms="3.6952075362205505e-01" purity="3.7926226854324341e-01" nType="0">
          <Node pos="l" depth="2" NCoef="0" IVar="9" Cut="2.3588468750000000e+04" cType="1" res="1.4328155666589737e-02" rms="4.0133208036422729e-01" purity="4.4844803214073181e-01" nType="0">
            <Node pos="l" depth="3" NCoef="0" IVar="-1" Cut="0.0000000000000000e+00" cType="1" res="-2.3758705705404282e-02" rms="3.6188650131225586e-01" purity="2.5605145096778870e-01" nType="-99"/>
            <Node pos="r" depth="3" NCoef="0" IVar="2" Cut="3.0775662500000000e+05" cType="1" res="2.1392241120338440e-02" rms="4.0593746304512024e-01" purity="4.7485026717185974e-01" nType="0">
              <Node pos="l" depth="4" NCoef="0" IVar="-1" Cut="0.0000000000000000e+00" cType="1" res="2.0301392301917076e-02" rms="4.0804326534271240e-01" purity="5.3100126981735229e-01" nType="-99"/>
              <Node pos="r" depth="4" NCoef="0" IVar="-1" Cut="0.0000000000000000e+00" cType="1" res="3.3311552833765745e-03" rms="4.0280351042747498e-01" purity="4.0689679980278015e-01" nType="-99"/>
            </Node>
          </Node>
          <Node pos="r" depth="2" NCoef="0" IVar="9" Cut="1.0577927343750000e+05" cType="1" res="-1.9584713503718376e-02" rms="3.3776208758354187e-01" purity="3.1741863489151001e-01" nType="0">
            <Node pos="l" depth="3" NCoef="0" IVar="9" Cut="7.8153140625000000e+04" cType="1" res="-9.5541868358850479e-03" rms="3.6104649305343628e-01" purity="3.9073786139488220e-01" nType="0">
              <Node pos="l" depth="4" NCoef="0" IVar="-1" Cut="0.0000000000000000e+00" cType="1" res="7.0418692193925381e-03" rms="3.7761762738227844e-01" purity="4.2619332671165466e-01" nType="-99"/>
              <Node pos="r" depth="4" NCoef="0" IVar="-1" Cut="0.0000000000000000e+00" cType="1" res="-3.6882460117340088e-02" rms="3.2578036189079285e-01" purity="3.2641923427581787e-01" nType="-99"/>
            </Node>
            <Node pos="r" depth="3" NCoef="0" IVar="5" Cut="3.1520690625000000e+05" cType="1" res="-3.8260612636804581e-02" rms="2.8853318095207214e-01" purity="1.8090517818927765e-01" nType="0">
              <Node pos="l" depth="4" NCoef="0" IVar="-1" Cut="0.0000000000000000e+00" cType="1" res="-5.1409691572189331e-02" rms="3.2272174954414368e-01" purity="2.3463453352451324e-01" nType="-99"/>
              <Node pos="r" depth="4" NCoef="0" IVar="-1" Cut="0.0000000000000000e+00" cType="1" res="-1.2000506743788719e-02" rms="2.3187513649463654e-01" purity="1.0917712748050690e-01" nType="-99"/>
            </Node>
          </Node>
        </Node>
        <Node pos="r" depth="1" NCoef="0" IVar="0" Cut="7.3333334922790527e+00" cType="1" res="8.8988838251680136e-04" rms="3.4174680709838867e-01" purity="5.3033912181854248e-01" nType="0">
          <Node pos="l" depth="2" NCoef="0" IVar="14" Cut="1.4860069751739502e+00" cType="1" res="2.2372568491846323e-03" rms="3.3771306276321411e-01" purity="5.7404398918151855e-01" nType="0">
            <Node pos="l" depth="3" NCoef="0" IVar="6" Cut="1.8905056250000000e+05" cType="1" res="-3.0143600888550282e-03" rms="3.5363414883613586e-01" purity="4.9693676829338074e-01" nType="0">
              <Node pos="l" depth="4" NCoef="0" IVar="-1" Cut="0.0000000000000000e+00" cType="1" res="-6.4732762984931469e-03" rms="3.7968987226486206e-01" purity="5.1418501138687134e-01" nType="-99"/>
              <Node pos="r" depth="4" NCoef="0" IVar="-1" Cut="0.0000000000000000e+00" cType="1" res="7.0255785249173641e-03" rms="3.0901727080345154e-01" purity="4.7040086984634399e-01" nType="-99"/>
            </Node>
            <Node pos="r" depth="3" NCoef="0" IVar="15" Cut="2.2959828376770020e+00" cType="1" res="4.9681807868182659e-03" rms="3.2909646630287170e-01" purity="6.1414092779159546e-01" nType="0">
              <Node pos="l" depth="4" NCoef="0" IVar="-1" Cut="0.0000000000000000e+00" cType="1" res="1.6717085381969810e-03" rms="3.4233242273330688e-01" purity="5.6779134273529053e-01" nType="-99"/>
              <Node pos="r" depth="4" NCoef="0" IVar="-1" Cut="0.0000000000000000e+00" cType="1" res="8.0243078991770744e-03" rms="3.1155401468276978e-01" purity="6.7263114452362061e-01" nType="-99"/>
            </Node>
          </Node>
          <Node pos="r" depth="2" NCoef="0" IVar="4" Cut="2.4259206250000000e+05" cType="1" res="0.0000000000000000e+00" rms="0.0000000000000000e+00" purity="3.6939665675163269e-01" nType="0">
            <Node pos="l" depth="3" NCoef="0" IVar="3" Cut="1.0966107812500000e+05" cType="1" res="0.0000000000000000e+00" rms="0.0000000000000000e+00" purity="3.4150981903076172e-01" nType="0">
              <Node pos="l" depth="4" NCoef="0" IVar="-1" Cut="0.0000000000000000e+00" cType="1" res="-3.5138290375471115e-02" rms="3.5288661718368530e-01" purity="2.4235105514526367e-01" nType="-99"/>
              <Node pos="r" depth="4" NCoef="0" IVar="-1" Cut="0.0000000000000000e+00" cType="1" res="4.9523072084411979e-04" rms="3.9938923716545105e-01" purity="3.8047426939010620e-01" nType="-99"/>
            </Node>
            <Node pos="r" depth="3" NCoef="0" IVar="2" Cut="3.8599500000000000e+05" cType="1" res="0.0000000000000000e+00" rms="0.0000000000000000e+00" purity="3.8585680723190308e-01" nType="0">
              <Node pos="l" depth="4" NCoef="0" IVar="-1" Cut="0.0000000000000000e+00" cType="1" res="1.5634499490261078e-02" rms="3.7020930647850037e-01" purity="5.7580846548080444e-01" nType="-99"/>
              <Node pos="r" depth="4" NCoef="0" IVar="-1" Cut="0.0000000000000000e+00" cType="1" res="-6.1910692602396011e-03" rms="3.1981515884399414e-01" purity="3.0379441380500793e-01" nType="-99"/>
            </Node>
          </Node>
        </Node>
      </Node>
    </BinaryTree>
    <BinaryTree type="DecisionTree" boostWeight="1.0000000000000000e+00" itree="76">
      <Node pos="s" depth="0" NCoef="0" IVar="12" Cut="1.5355396270751953e+00" cType="1" res="-1.0748228305601515e-05" rms="3.4730878472328186e-01" purity="5.0000000000000000e-01" nType="0">
        <Node pos="l" depth="1" NCoef="0" IVar="9" Cut="8.4243257812500000e+04" cType="1" res="-5.5553810670971870e-03" rms="3.6493021249771118e-01" purity="2.8858745098114014e-01" nType="0">
          <Node pos="l" depth="2" NCoef="0" IVar="4" Cut="2.6453221875000000e+05" cType="1" res="1.3573927571997046e-03" rms="3.8711941242218018e-01" purity="3.3027023077011108e-01" nType="0">
            <Node pos="l" depth="3" NCoef="0" IVar="5" Cut="8.4616203125000000e+04" cType="1" res="1.9209260120987892e-02" rms="3.9573922753334045e-01" purity="4.1241270303726196e-01" nType="0">
              <Node pos="l" depth="4" NCoef="0" IVar="-1" Cut="0.0000000000000000e+00" cType="1" res="2.9725719243288040e-02" rms="4.0082213282585144e-01" purity="4.6589991450309753e-01" nType="-99"/>
              <Node pos="r" depth="4" NCoef="0" IVar="-1" Cut="0.0000000000000000e+00" cType="1" res="-7.8916046768426895e-03" rms="3.8758671283721924e-01" purity="3.5396513342857361e-01" nType="-99"/>
            </Node>
            <Node pos="r" depth="3" NCoef="0" IVar="17" Cut="6.8053914062500000e+04" cType="1" res="-1.2068866752088070e-02" rms="3.7995564937591553e-01" purity="2.6849147677421570e-01" nType="0">
              <Node pos="l" depth="4" NCoef="0" IVar="-1" Cut="0.0000000000000000e+00" cType="1" res="-3.6382064223289490e-02" rms="3.5808783769607544e-01" purity="2.4983294308185577e-01" nType="-99"/>
              <Node pos="r" depth="4" NCoef="0" IVar="-1" Cut="0.0000000000000000e+00" cType="1" res="6.0291578993201256e-03" rms="3.8846606016159058e-01" purity="2.7756446599960327e-01" nType="-99"/>
            </Node>
          </Node>
          <Node pos="r" depth="2" NCoef="0" IVar="-1" Cut="0.0000000000000000e+00" cType="1" res="-5.9535358101129532e-02" rms="2.1095266938209534e-01" purity="7.0970796048641205e-02" nType="-99"/>
        </Node>
        <Node pos="r" depth="1" NCoef="0" IVar="13" Cut="1.9197735786437988e+00" cType="1" res="4.6837935224175453e-04" rms="3.4573972225189209e-01" purity="5.1826882362365723e-01" nType="0">
          <Node pos="l" depth="2" NCoef="0" IVar="19" Cut="9.2315937500000000e+04" cType="1" res="4.3297843076288700e-03" rms="3.2665684819221497e-01" purity="2.5500163435935974e-01" nType="0">
            <Node pos="l" depth="3" NCoef="0" IVar="11" Cut="7.7955305576324463e-01" cType="1" res="1.0615618899464607e-02" rms="3.4783959388732910e-01" purity="3.1561663746833801e-01" nType="0">
              <Node pos="l" depth="4" NCoef="0" IVar="-1" Cut="0.0000000000000000e+00" cType="1" res="2.8992353007197380e-02" rms="3.9176782965660095e-01" purity="5.5938923358917236e-01" nType="-99"/>
              <Node pos="r" depth="4" NCoef="0" IVar="-1" Cut="0.0000000000000000e+00" cType="1" res="4.6609155833721161e-03" rms="3.4109649062156677e-01" purity="2.8227302432060242e-01" nType="-99"/>
            </Node>
            <Node pos="r" depth="3" NCoef="0" IVar="13" Cut="1.7369582653045654e+00" cType="1" res="-8.0590536817908287e-03" rms="2.7984559535980225e-01" purity="1.3553468883037567e-01" nType="0">
              <Node pos="l" depth="4" NCoef="0" IVar="-1" Cut="0.0000000000000000e+00" cType="1" res="-1.6985544934868813e-02" rms="2.6279035210609436e-01" purity="1.1241113394498825e-01" nType="-99"/>
              <Node pos="r" depth="4" NCoef="0" IVar="-1" Cut="0.0000000000000000e+00" cType="1" res="1.0603643953800201e-02" rms="3.3486703038215637e-01" purity="2.2132512927055359e-01" nType="-99"/>
            </Node>
          </Node>
          <Node pos="r" depth="2" NCoef="0" IVar="15" Cut="3.3024377822875977e+00" cType="1" res="-5.4721027845516801e-04" rms="3.5057920217514038e-01" purity="5.8751076459884644e-01" nType="0">
            <Node pos="l" depth="3" NCoef="0" IVar="11" Cut="6.9075554609298706e-01" cType="1" res="-2.2341468138620257e-04" rms="3.5055229067802429e-01" purity="5.8932346105575562e-01" nType="0">
              <Node pos="l" depth="4" NCoef="0" IVar="-1" Cut="0.0000000000000000e+00" cType="1" res="2.6727330405265093e-03" rms="3.2376393675804138e-01" purity="7.6358729600906372e-01" nType="-99"/>
              <Node pos="r" depth="4" NCoef="0" IVar="-1" Cut="0.0000000000000000e+00" cType="1" res="-1.2671679724007845e-03" rms="3.6211335659027100e-01" purity="5.0976908206939697e-01" nType="-99"/>
            </Node>
            <Node pos="r" depth="3" NCoef="0" IVar="-1" Cut="0.0000000000000000e+00" cType="1" res="-1.4121741056442261e-02" rms="3.5159200429916382e-01" purity="4.8867151141166687e-01" nType="-99"/>
          </Node>
        </Node>
      </Node>
    </BinaryTree>
    <BinaryTree type="DecisionTree" boostWeight="1.0000000000000000e+00" itree="77">
      <Node pos="s" depth="0" NCoef="0" IVar="10" Cut="1.1646107812500000e+05" cType="1" res="-1.4362422916747164e-05" rms="3.4720781445503235e-01" purity="5.0000000000000000e-01" nType="0">
        <Node pos="l" depth="1" NCoef="0" IVar="3" Cut="1.0511728125000000e+05" cType="1" res="-1.4080918626859784e-03" rms="3.6276677250862122e-01" purity="4.7444492578506470e-01" nType="0">
          <Node pos="l" depth="2" NCoef="0" IVar="7" Cut="4.6392878906250000e+04" cType="1" res="-1.0550053790211678e-02" rms="3.8787871599197388e-01" purity="3.9059522747993469e-01" nType="0">
            <Node pos="l" depth="3" NCoef="0" IVar="13" Cut="2.5073122978210449e+00" cType="1" res="7.2360108606517315e-03" rms="4.0285706520080566e-01" purity="4.5878651738166809e-01" nType="0">
              <Node pos="l" depth="4" NCoef="0" IVar="-1" Cut="0.0000000000000000e+00" cType="1" res="1.0617556050419807e-02" rms="4.0562239289283752e-01" purity="4.3695071339607239e-01" nType="-99"/>
              <Node pos="r" depth="4" NCoef="0" IVar="-1" Cut="0.0000000000000000e+00" cType="1" res="-2.3415800184011459e-02" rms="3.8639134168624878e-01" purity="5.5818134546279907e-01" nType="-99"/>
            </Node>
            <Node pos="r" depth="3" NCoef="0" IVar="3" Cut="8.2001820312500000e+04" cType="1" res="-4.2241647839546204e-02" rms="3.5746070742607117e-01" purity="2.6909044384956360e-01" nType="0">
              <Node pos="l" depth="4" NCoef="0" IVar="-1" Cut="0.0000000000000000e+00" cType="1" res="-4.2304124683141708e-02" rms="3.3303278684616089e-01" purity="1.9986006617546082e-01" nType="-99"/>
              <Node pos="r" depth="4" NCoef="0" IVar="-1" Cut="0.0000000000000000e+00" cType="1" res="9.1658774763345718e-03" rms="4.1480964422225952e-01" purity="4.6941155195236206e-01" nType="-99"/>
            </Node>
          </Node>
          <Node pos="r" depth="2" NCoef="0" IVar="12" Cut="2.0886809825897217e+00" cType="1" res="1.9189177546650171e-03" rms="3.5312625765800476e-01" purity="5.0496011972427368e-01" nType="0">
            <Node pos="l" depth="3" NCoef="0" IVar="9" Cut="7.1383968750000000e+04" cType="1" res="-1.5351602807641029e-02" rms="3.5056176781654358e-01" purity="3.8537600636482239e-01" nType="0">
              <Node pos="l" depth="4" NCoef="0" IVar="-1" Cut="0.0000000000000000e+00" cType="1" res="7.6751257292926311e-03" rms="3.8845145702362061e-01" purity="5.5258303880691528e-01" nType="-99"/>
              <Node pos="r" depth="4" NCoef="0" IVar="-1" Cut="0.0000000000000000e+00" cType="1" res="-2.7911432087421417e-02" rms="3.2361513376235962e-01" purity="2.8142422437667847e-01" nType="-99"/>
            </Node>
            <Node pos="r" depth="3" NCoef="0" IVar="9" Cut="1.0715867968750000e+05" cType="1" res="5.4015810601413250e-03" rms="3.5353896021842957e-01" purity="5.2907460927963257e-01" nType="0">
              <Node pos="l" depth="4" NCoef="0" IVar="-1" Cut="0.0000000000000000e+00" cType="1" res="-3.1268510501831770e-03" rms="3.7390831112861633e-01" purity="5.4167884588241577e-01" nType="-99"/>
              <Node pos="r" depth="4" NCoef="0" IVar="-1" Cut="0.0000000000000000e+00" cType="1" res="1.2953645549714565e-02" rms="3.3268004655838013e-01" purity="5.1705157756805420e-01" nType="-99"/>
            </Node>
          </Node>
        </Node>
        <Node pos="r" depth="1" NCoef="0" IVar="13" Cut="2.1595029830932617e+00" cType="1" res="1.8250390421599150e-03" rms="3.2552811503410339e-01" purity="5.3372681140899658e-01" nType="0">
          <Node pos="l" depth="2" NCoef="0" IVar="9" Cut="1.2875259375000000e+05" cType="1" res="-1.4630910009145737e-02" rms="2.6809298992156982e-01" purity="1.6430543363094330e-01" nType="0">
            <Node pos="l" depth="3" NCoef="0" IVar="18" Cut="1.4725250000000000e+05" cType="1" res="-2.7631068602204323e-02" rms="3.0304703116416931e-01" purity="2.0283165574073792e-01" nType="0">
              <Node pos="l" depth="4" NCoef="0" IVar="-1" Cut="0.0000000000000000e+00" cType="1" res="-3.6841057240962982e-02" rms="3.1478303670883179e-01" purity="2.3520822823047638e-01" nType="-99"/>
              <Node pos="r" depth="4" NCoef="0" IVar="-1" Cut="0.0000000000000000e+00" cType="1" res="-1.4415065757930279e-02" rms="2.9075965285301208e-01" purity="1.7215071618556976e-01" nType="-99"/>
            </Node>
            <Node pos="r" depth="3" NCoef="0" IVar="13" Cut="1.9116457700729370e+00" cType="1" res="-2.9422773513942957e-03" rms="2.3159374296665192e-01" purity="1.2966597080230713e-01" nType="0">
              <Node pos="l" depth="4" NCoef="0" IVar="-1" Cut="0.0000000000000000e+00" cType="1" res="-2.3695988580584526e-02" rms="1.7920683324337006e-01" purity="6.1652734875679016e-02" nType="-99"/>
              <Node pos="r" depth="4" NCoef="0" IVar="-1" Cut="0.0000000000000000e+00" cType="1" res="7.2447131387889385e-03" rms="2.8638765215873718e-01" purity="2.1978269517421722e-01" nType="-99"/>
            </Node>
          </Node>
          <Node pos="r" depth="2" NCoef="0" IVar="13" Cut="3.1880290508270264e+00" cType="1" res="3.8300757296383381e-03" rms="3.3179166913032532e-01" purity="5.7873815298080444e-01" nType="0">
            <Node pos="l" depth="3" NCoef="0" IVar="13" Cut="2.9920778274536133e+00" cType="1" res="7.2309463284909725e-03" rms="3.2747808098793030e-01" purity="6.0054302215576172e-01" nType="0">
              <Node pos="l" depth="4" NCoef="0" IVar="-1" Cut="0.0000000000000000e+00" cType="1" res="2.5545239914208651e-03" rms="3.2627737522125244e-01" purity="5.7580530643463135e-01" nType="-99"/>
              <Node pos="r" depth="4" NCoef="0" IVar="-1" Cut="0.0000000000000000e+00" cType="1" res="1.5734707936644554e-02" rms="3.3033472299575806e-01" purity="6.6517931222915649e-01" nType="-99"/>
            </Node>
            <Node pos="r" depth="3" NCoef="0" IVar="12" Cut="2.4265737533569336e+00" cType="1" res="-5.9304968453943729e-03" rms="3.4368461370468140e-01" purity="5.1615756750106812e-01" nType="0">
              <Node pos="l" depth="4" NCoef="0" IVar="-1" Cut="0.0000000000000000e+00" cType="1" res="2.3279327899217606e-02" rms="3.8133597373962402e-01" purity="4.6848806738853455e-01" nType="-99"/>
              <Node pos="r" depth="4" NCoef="0" IVar="-1" Cut="0.0000000000000000e+00" cType="1" res="-9.7358711063861847e-03" rms="3.3723580837249756e-01" purity="5.2335846424102783e-01" nType="-99"/>
            </Node>
          </Node>
        </Node>
      </Node>
    </BinaryTree>
    <BinaryTree type="DecisionTree" boostWeight="1.0000000000000000e+00" itree="78">
      <Node pos="s" depth="0" NCoef="0" IVar="2" Cut="6.9643325000000000e+05" cType="1" res="-1.8729544535744935e-05" rms="3.4694895148277283e-01" purity="5.0000000000000000e-01" nType="0">
        <Node pos="l" depth="1" NCoef="0" IVar="8" Cut="3.1002259765625000e+04" cType="1" res="-6.6625408362597227e-04" rms="3.5477346181869507e-01" purity="5.3972923755645752e-01" nType="0">
          <Node pos="l" depth="2" NCoef="0" IVar="1" Cut="8.1849000000000000e+04" cType="1" res="-1.0120193473994732e-02" rms="3.6557635664939880e-01" purity="6.1481595039367676e-01" nType="0">
            <Node pos="l" depth="3" NCoef="0" IVar="1" Cut="2.3527242187500000e+04" cType="1" res="-1.8910991027951241e-02" rms="3.7456375360488892e-01" purity="5.3689378499984741e-01" nType="0">
              <Node pos="l" depth="4" NCoef="0" IVar="-1" Cut="0.0000000000000000e+00" cType="1" res="-3.8002297282218933e-02" rms="3.5476535558700562e-01" purity="3.0114996433258057e-01" nType="-99"/>
              <Node pos="r" depth="4" NCoef="0" IVar="-1" Cut="0.0000000000000000e+00" cType="1" res="-5.7769245468080044e-03" rms="3.7978520989418030e-01" purity="6.0858696699142456e-01" nType="-99"/>
            </Node>
            <Node pos="r" depth="3" NCoef="0" IVar="2" Cut="2.9736912500000000e+05" cType="1" res="1.0897442698478699e-02" rms="3.4222167730331421e-01" purity="8.0111777782440186e-01" nType="0">
              <Node pos="l" depth="4" NCoef="0" IVar="-1" Cut="0.0000000000000000e+00" cType="1" res="2.4312291294336319e-02" rms="3.3495381474494934e-01" purity="8.4180295467376709e-01" nType="-99"/>
              <Node pos="r" depth="4" NCoef="0" IVar="-1" Cut="0.0000000000000000e+00" cType="1" res="-3.4904498606920242e-03" rms="3.4659427404403687e-01" purity="7.7161884307861328e-01" nType="-99"/>
            </Node>
          </Node>
          <Node pos="r" depth="2" NCoef="0" IVar="1" Cut="1.8874814062500000e+05" cType="1" res="3.5197355318814516e-03" rms="3.4980204701423645e-01" purity="5.0648242235183716e-01" nType="0">
            <Node pos="l" depth="3" NCoef="0" IVar="7" Cut="5.8017410156250000e+04" cType="1" res="4.8730759881436825e-03" rms="3.4993392229080200e-01" purity="5.0709086656570435e-01" nType="0">
              <Node pos="l" depth="4" NCoef="0" IVar="-1" Cut="0.0000000000000000e+00" cType="1" res="1.0607025586068630e-02" rms="3.5162219405174255e-01" purity="7.2707283496856689e-01" nType="-99"/>
              <Node pos="r" depth="4" NCoef="0" IVar="-1" Cut="0.0000000000000000e+00" cType="1" res="-1.2936714338138700e-03" rms="3.4858754277229309e-01" purity="3.5137632489204407e-01" nType="-99"/>
            </Node>
            <Node pos="r" depth="3" NCoef="0" IVar="-1" Cut="0.0000000000000000e+00" cType="1" res="-4.7374855726957321e-02" rms="3.3813568949699402e-01" purity="4.7891077399253845e-01" nType="-99"/>
          </Node>
        </Node>
        <Node pos="r" depth="1" NCoef="0" IVar="5" Cut="2.2984262500000000e+05" cType="1" res="3.9734402671456337e-03" rms="2.9411530494689941e-01" purity="2.5505840778350830e-01" nType="0">
          <Node pos="l" depth="2" NCoef="0" IVar="3" Cut="4.5259596875000000e+05" cType="1" res="1.6766099259257317e-02" rms="3.0548110604286194e-01" purity="3.2897764444351196e-01" nType="0">
            <Node pos="l" depth="3" NCoef="0" IVar="4" Cut="3.8771259375000000e+05" cType="1" res="3.0396630987524986e-02" rms="3.4169027209281921e-01" purity="4.4022673368453979e-01" nType="0">
              <Node pos="l" depth="4" NCoef="0" IVar="-1" Cut="0.0000000000000000e+00" cType="1" res="3.9867851883172989e-02" rms="3.7560623884201050e-01" purity="4.9883782863616943e-01" nType="-99"/>
              <Node pos="r" depth="4" NCoef="0" IVar="-1" Cut="0.0000000000000000e+00" cType="1" res="4.6252086758613586e-03" rms="3.0134502053260803e-01" purity="3.8085535168647766e-01" nType="-99"/>
            </Node>
            <Node pos="r" depth="3" NCoef="0" IVar="-1" Cut="0.0000000000000000e+00" cType="1" res="-1.2274754233658314e-02" rms="2.2674319148063660e-01" purity="1.3427622616291046e-01" nType="-99"/>
          </Node>
          <Node pos="r" depth="2" NCoef="0" IVar="15" Cut="1.4845653772354126e+00" cType="1" res="-1.8208452966064215e-03" rms="2.8863367438316345e-01" purity="2.2157754004001617e-01" nType="0">
            <Node pos="l" depth="3" NCoef="0" IVar="13" Cut="2.4694144725799561e+00" cType="1" res="-2.2402301430702209e-02" rms="2.7205365896224976e-01" purity="1.4414797723293304e-01" nType="0">
              <Node pos="l" depth="4" NCoef="0" IVar="-1" Cut="0.0000000000000000e+00" cType="1" res="-1.1527610011398792e-02" rms="2.5390893220901489e-01" purity="1.1016663908958435e-01" nType="-99"/>
              <Node pos="r" depth="4" NCoef="0" IVar="-1" Cut="0.0000000000000000e+00" cType="1" res="-3.7161126732826233e-02" rms="2.9077389836311340e-01" purity="1.8334308266639709e-01" nType="-99"/>
            </Node>
            <Node pos="r" depth="3" NCoef="0" IVar="1" Cut="1.0885596875000000e+05" cType="1" res="5.2127945236861706e-03" rms="2.9375517368316650e-01" purity="2.4803879857063293e-01" nType="0">
              <Node pos="l" depth="4" NCoef="0" IVar="-1" Cut="0.0000000000000000e+00" cType="1" res="-7.5038699433207512e-03" rms="2.7411302924156189e-01" purity="1.9814367592334747e-01" nType="-99"/>
              <Node pos="r" depth="4" NCoef="0" IVar="-1" Cut="0.0000000000000000e+00" cType="1" res="2.4681750684976578e-02" rms="3.2703822851181030e-01" purity="3.4368073940277100e-01" nType="-99"/>
            </Node>
          </Node>
        </Node>
      </Node>
    </BinaryTree>
    <BinaryTree type="DecisionTree" boostWeight="1.0000000000000000e+00" itree="79">
      <Node pos="s" depth="0" NCoef="0" IVar="11" Cut="2.5967428088188171e-01" cType="1" res="-1.5358573364210315e-05" rms="3.4668973088264465e-01" purity="5.0000000000000000e-01" nType="0">
        <Node pos="l" depth="1" NCoef="0" IVar="-1" Cut="0.0000000000000000e+00" cType="1" res="1.0767782106995583e-02" rms="3.1124830245971680e-01" purity="7.4361503124237061e-01" nType="-99"/>
        <Node pos="r" depth="1" NCoef="0" IVar="12" Cut="1.6034501791000366e+00" cType="1" res="-2.5252866907976568e-04" rms="3.4736049175262451e-01" purity="4.9510651826858521e-01" nType="0">
          <Node pos="l" depth="2" NCoef="0" IVar="3" Cut="1.2215497656250000e+05" cType="1" res="-5.0853360444307327e-03" rms="3.6477455496788025e-01" purity="3.0260288715362549e-01" nType="0">
            <Node pos="l" depth="3" NCoef="0" IVar="14" Cut="1.2192434072494507e+00" cType="1" res="4.4562821276485920e-03" rms="3.9338585734367371e-01" purity="3.5341683030128479e-01" nType="0">
              <Node pos="l" depth="4" NCoef="0" IVar="-1" Cut="0.0000000000000000e+00" cType="1" res="-2.2933257743716240e-02" rms="3.8272273540496826e-01" purity="3.2155257463455200e-01" nType="-99"/>
              <Node pos="r" depth="4" NCoef="0" IVar="-1" Cut="0.0000000000000000e+00" cType="1" res="7.8539848327636719e-03" rms="3.9498445391654968e-01" purity="3.5973569750785828e-01" nType="-99"/>
            </Node>
            <Node pos="r" depth="3" NCoef="0" IVar="10" Cut="1.0847285937500000e+05" cType="1" res="-2.6935812085866928e-02" rms="2.8757539391517639e-01" purity="1.8623806536197662e-01" nType="0">
              <Node pos="l" depth="4" NCoef="0" IVar="-1" Cut="0.0000000000000000e+00" cType="1" res="-5.4448526352643967e-02" rms="2.4651974439620972e-01" purity="1.1423953622579575e-01" nType="-99"/>
              <Node pos="r" depth="4" NCoef="0" IVar="-1" Cut="0.0000000000000000e+00" cType="1" res="-1.3538730330765247e-02" rms="3.1365996599197388e-01" purity="2.3894585669040680e-01" nType="-99"/>
            </Node>
          </Node>
          <Node pos="r" depth="2" NCoef="0" IVar="13" Cut="2.1938374042510986e+00" cType="1" res="2.2725490271113813e-04" rms="3.4558013081550598e-01" purity="5.1421761512756348e-01" nType="0">
            <Node pos="l" depth="3" NCoef="0" IVar="11" Cut="1.3973374366760254e+00" cType="1" res="3.7762480787932873e-03" rms="3.3540925383567810e-01" purity="3.0431395769119263e-01" nType="0">
              <Node pos="l" depth="4" NCoef="0" IVar="-1" Cut="0.0000000000000000e+00" cType="1" res="9.1470722109079361e-03" rms="3.7444382905960083e-01" purity="4.5495045185089111e-01" nType="-99"/>
              <Node pos="r" depth="4" NCoef="0" IVar="-1" Cut="0.0000000000000000e+00" cType="1" res="-2.7525078039616346e-03" rms="3.0536767840385437e-01" purity="2.0022885501384735e-01" nType="-99"/>
            </Node>
            <Node pos="r" depth="3" NCoef="0" IVar="16" Cut="5.1392787694931030e-01" cType="1" res="-1.2239313218742609e-03" rms="3.4964340925216675e-01" purity="6.0004734992980957e-01" nType="0">
              <Node pos="l" depth="4" NCoef="0" IVar="-1" Cut="0.0000000000000000e+00" cType="1" res="9.4980914145708084e-03" rms="2.7889165282249451e-01" purity="8.2146596908569336e-01" nType="-99"/>
              <Node pos="r" depth="4" NCoef="0" IVar="-1" Cut="0.0000000000000000e+00" cType="1" res="-1.5037823468446732e-03" rms="3.5470494627952576e-01" purity="5.8225727081298828e-01" nType="-99"/>
            </Node>
          </Node>
        </Node>
      </Node>
    </BinaryTree>
    <BinaryTree type="DecisionTree" boostWeight="1.0000000000000000e+00" itree="80">
      <Node pos="s" depth="0" NCoef="0" IVar="20" Cut="1.2483096093750000e+05" cType="1" res="-1.4733459465787746e-05" rms="3.4664204716682434e-01" purity="5.0000000000000000e-01" nType="0">
        <Node pos="l" depth="1" NCoef="0" IVar="1" Cut="2.5042070312500000e+05" cType="1" res="3.1094811856746674e-04" rms="3.5456648468971252e-01" purity="5.2360641956329346e-01" nType="0">
          <Node pos="l" depth="2" NCoef="0" IVar="1" Cut="2.3972818359375000e+04" cType="1" res="9.6509233117103577e-04" rms="3.5475042462348938e-01" purity="5.2578294277191162e-01" nType="0">
            <Node pos="l" depth="3" NCoef="0" IVar="16" Cut="1.5057002305984497e+00" cType="1" res="-1.8194837495684624e-02" rms="3.3813712000846863e-01" purity="3.0142232775688171e-01" nType="0">
              <Node pos="l" depth="4" NCoef="0" IVar="-1" Cut="0.0000000000000000e+00" cType="1" res="-2.6517631486058235e-02" rms="3.5602733492851257e-01" purity="4.3038460612297058e-01" nType="-99"/>
              <Node pos="r" depth="4" NCoef="0" IVar="-1" Cut="0.0000000000000000e+00" cType="1" res="-1.9288206240162253e-03" rms="3.2024484872817993e-01" purity="1.8473725020885468e-01" nType="-99"/>
            </Node>
            <Node pos="r" depth="3" NCoef="0" IVar="20" Cut="1.6183060546875000e+04" cType="1" res="4.7518922947347164e-03" rms="3.5782125592231750e-01" purity="5.7012587785720825e-01" nType="0">
              <Node pos="l" depth="4" NCoef="0" IVar="-1" Cut="0.0000000000000000e+00" cType="1" res="-1.2832772918045521e-02" rms="3.7909850478172302e-01" purity="5.1704120635986328e-01" nType="-99"/>
              <Node pos="r" depth="4" NCoef="0" IVar="-1" Cut="0.0000000000000000e+00" cType="1" res="4.7201919369399548e-03" rms="3.5642257332801819e-01" purity="5.7337254285812378e-01" nType="-99"/>
            </Node>
          </Node>
          <Node pos="r" depth="2" NCoef="0" IVar="-1" Cut="0.0000000000000000e+00" cType="1" res="-4.3493948876857758e-02" rms="3.3461037278175354e-01" purity="3.4359228610992432e-01" nType="-99"/>
        </Node>
        <Node pos="r" depth="1" NCoef="0" IVar="10" Cut="1.0637302343750000e+05" cType="1" res="-6.8689933978021145e-03" rms="5.6267246603965759e-02" purity="3.1826689373701811e-03" nType="0">
          <Node pos="l" depth="2" NCoef="0" IVar="-1" Cut="0.0000000000000000e+00" cType="1" res="-1.3292693533003330e-02" rms="1.0121691226959229e-01" purity="1.0672980919480324e-02" nType="-99"/>
          <Node pos="r" depth="2" NCoef="0" IVar="19" Cut="1.2901658593750000e+05" cType="1" res="-9.1153308749198914e-03" rms="1.1884443461894989e-02" purity="0.0000000000000000e+00" nType="0">
            <Node pos="l" depth="3" NCoef="0" IVar="-1" Cut="0.0000000000000000e+00" cType="1" res="-1.0299123078584671e-01" rms="1.4197347685694695e-02" purity="0.0000000000000000e+00" nType="-99"/>
            <Node pos="r" depth="3" NCoef="0" IVar="-1" Cut="0.0000000000000000e+00" cType="1" res="-1.0116311162710190e-01" rms="5.7481890544295311e-03" purity="0.0000000000000000e+00" nType="-99"/>
          </Node>
        </Node>
      </Node>
    </BinaryTree>
    <BinaryTree type="DecisionTree" boostWeight="1.0000000000000000e+00" itree="81">
      <Node pos="s" depth="0" NCoef="0" IVar="11" Cut="4.9856403470039368e-01" cType="1" res="-1.7428399587515742e-05" rms="3.4650865197181702e-01" purity="5.0000000000000000e-01" nType="0">
        <Node pos="l" depth="1" NCoef="0" IVar="11" Cut="4.7580194473266602e-01" cType="1" res="3.9443555288016796e-03" rms="3.2624733448028564e-01" purity="7.0127981901168823e-01" nType="0">
          <Node pos="l" depth="2" NCoef="0" IVar="11" Cut="3.2412815093994141e-01" cType="1" res="6.0495147481560707e-03" rms="3.2545396685600281e-01" purity="7.0802140235900879e-01" nType="0">
            <Node pos="l" depth="3" NCoef="0" IVar="0" Cut="6.3333334922790527e+00" cType="1" res="1.3873192481696606e-02" rms="3.1116044521331787e-01" purity="7.4750673770904541e-01" nType="0">
              <Node pos="l" depth="4" NCoef="0" IVar="-1" Cut="0.0000000000000000e+00" cType="1" res="2.2788858041167259e-02" rms="2.7672341465950012e-01" purity="8.1941771507263184e-01" nType="-99"/>
              <Node pos="r" depth="4" NCoef="0" IVar="-1" Cut="0.0000000000000000e+00" cType="1" res="-2.4483739398419857e-03" rms="3.7644681334495544e-01" purity="5.8649718761444092e-01" nType="-99"/>
            </Node>
            <Node pos="r" depth="3" NCoef="0" IVar="8" Cut="2.5511330078125000e+04" cType="1" res="2.3130304180085659e-03" rms="3.3199831843376160e-01" purity="6.8916380405426025e-01" nType="0">
              <Node pos="l" depth="4" NCoef="0" IVar="-1" Cut="0.0000000000000000e+00" cType="1" res="-3.5981060937047005e-03" rms="3.6135751008987427e-01" purity="6.3234031200408936e-01" nType="-99"/>
              <Node pos="r" depth="4" NCoef="0" IVar="-1" Cut="0.0000000000000000e+00" cType="1" res="1.2120964936912060e-02" rms="2.9042842984199524e-01" purity="7.6097482442855835e-01" nType="-99"/>
            </Node>
          </Node>
          <Node pos="r" depth="2" NCoef="0" IVar="-1" Cut="0.0000000000000000e+00" cType="1" res="-1.3872406445443630e-02" rms="3.3316624164581299e-01" purity="6.3577204942703247e-01" nType="-99"/>
        </Node>
        <Node pos="r" depth="1" NCoef="0" IVar="13" Cut="3.0165264606475830e+00" cType="1" res="-7.2520237881690264e-04" rms="3.5000017285346985e-01" purity="4.6404129266738892e-01" nType="0">
          <Node pos="l" depth="2" NCoef="0" IVar="15" Cut="2.4574902057647705e+00" cType="1" res="-1.7372467555105686e-03" rms="3.4775766730308533e-01" purity="4.3235042691230774e-01" nType="0">
            <Node pos="l" depth="3" NCoef="0" IVar="14" Cut="6.8919312953948975e-01" cType="1" res="-3.5657887347042561e-03" rms="3.5375627875328064e-01" purity="4.3258371949195862e-01" nType="0">
              <Node pos="l" depth="4" NCoef="0" IVar="-1" Cut="0.0000000000000000e+00" cType="1" res="5.1289824768900871e-03" rms="3.6931961774826050e-01" purity="4.2400461435317993e-01" nType="-99"/>
              <Node pos="r" depth="4" NCoef="0" IVar="-1" Cut="0.0000000000000000e+00" cType="1" res="-3.4953483846038580e-03" rms="3.5223561525344849e-01" purity="4.3339338898658752e-01" nType="-99"/>
            </Node>
            <Node pos="r" depth="3" NCoef="0" IVar="8" Cut="7.0199851562500000e+04" cType="1" res="3.5878189373761415e-03" rms="3.2960948348045349e-01" purity="4.3167099356651306e-01" nType="0">
              <Node pos="l" depth="4" NCoef="0" IVar="-1" Cut="0.0000000000000000e+00" cType="1" res="6.7397765815258026e-03" rms="3.6370301246643066e-01" purity="5.7949703931808472e-01" nType="-99"/>
              <Node pos="r" depth="4" NCoef="0" IVar="-1" Cut="0.0000000000000000e+00" cType="1" res="-1.5117423608899117e-02" rms="2.3735941946506500e-01" purity="1.0609302669763565e-01" nType="-99"/>
            </Node>
          </Node>
          <Node pos="r" depth="2" NCoef="0" IVar="3" Cut="2.2645621875000000e+05" cType="1" res="2.5432053953409195e-03" rms="3.5712662339210510e-01" purity="5.6638741493225098e-01" nType="0">
            <Node pos="l" depth="3" NCoef="0" IVar="10" Cut="8.4133195312500000e+04" cType="1" res="8.9788865298032761e-03" rms="3.8176813721656799e-01" purity="6.6712886095046997e-01" nType="0">
              <Node pos="l" depth="4" NCoef="0" IVar="-1" Cut="0.0000000000000000e+00" cType="1" res="-2.0490476861596107e-02" rms="3.8505423069000244e-01" purity="5.9218078851699829e-01" nType="-99"/>
              <Node pos="r" depth="4" NCoef="0" IVar="-1" Cut="0.0000000000000000e+00" cType="1" res="1.2792933732271194e-02" rms="3.8030210137367249e-01" purity="6.8534743785858154e-01" nType="-99"/>
            </Node>
            <Node pos="r" depth="3" NCoef="0" IVar="13" Cut="3.1471290588378906e+00" cType="1" res="-6.4657605253160000e-03" rms="3.1923753023147583e-01" purity="4.2536479234695435e-01" nType="0">
              <Node pos="l" depth="4" NCoef="0" IVar="-1" Cut="0.0000000000000000e+00" cType="1" res="1.5436283312737942e-02" rms="3.2877659797668457e-01" purity="5.1081991195678711e-01" nType="-99"/>
              <Node pos="r" depth="4" NCoef="0" IVar="-1" Cut="0.0000000000000000e+00" cType="1" res="-1.4213674701750278e-02" rms="3.1505525112152100e-01" purity="3.9266315102577209e-01" nType="-99"/>
            </Node>
          </Node>
        </Node>
      </Node>
    </BinaryTree>
    <BinaryTree type="DecisionTree" boostWeight="1.0000000000000000e+00" itree="82">
      <Node pos="s" depth="0" NCoef="0" IVar="12" Cut="2.8754057884216309e+00" cType="1" res="-1.1579400961636566e-05" rms="3.4642133116722107e-01" purity="5.0000000000000000e-01" nType="0">
        <Node pos="l" depth="1" NCoef="0" IVar="7" Cut="8.6349187500000000e+04" cType="1" res="-1.2792574707418680e-03" rms="3.5725337266921997e-01" purity="4.8231020569801331e-01" nType="0">
          <Node pos="l" depth="2" NCoef="0" IVar="7" Cut="7.7321437500000000e+04" cType="1" res="1.6021194169297814e-03" rms="3.7356063723564148e-01" purity="5.2859789133071899e-01" nType="0">
            <Node pos="l" depth="3" NCoef="0" IVar="7" Cut="3.3137464843750000e+04" cType="1" res="5.1648295484483242e-03" rms="3.7610554695129395e-01" purity="5.6250464916229248e-01" nType="0">
              <Node pos="l" depth="4" NCoef="0" IVar="-1" Cut="0.0000000000000000e+00" cType="1" res="-5.5928751826286316e-03" rms="3.4378564357757568e-01" purity="6.7384225130081177e-01" nType="-99"/>
              <Node pos="r" depth="4" NCoef="0" IVar="-1" Cut="0.0000000000000000e+00" cType="1" res="8.3703221753239632e-03" rms="3.9683628082275391e-01" purity="4.8499518632888794e-01" nType="-99"/>
            </Node>
            <Node pos="r" depth="3" NCoef="0" IVar="7" Cut="7.9162546875000000e+04" cType="1" res="-3.2899677753448486e-02" rms="3.4606158733367920e-01" purity="2.0024004578590393e-01" nType="0">
              <Node pos="l" depth="4" NCoef="0" IVar="-1" Cut="0.0000000000000000e+00" cType="1" res="-1.0119834914803505e-03" rms="3.7787398695945740e-01" purity="2.4990496039390564e-01" nType="-99"/>
              <Node pos="r" depth="4" NCoef="0" IVar="-1" Cut="0.0000000000000000e+00" cType="1" res="-4.8228446394205093e-02" rms="3.1850624084472656e-01" purity="1.6351857781410217e-01" nType="-99"/>
            </Node>
          </Node>
          <Node pos="r" depth="2" NCoef="0" IVar="9" Cut="1.1266356250000000e+05" cType="1" res="-1.0918281041085720e-02" rms="2.9604324698448181e-01" purity="3.2746475934982300e-01" nType="0">
            <Node pos="l" depth="3" NCoef="0" IVar="9" Cut="1.0831967187500000e+05" cType="1" res="-2.7435597032308578e-02" rms="3.2065299153327942e-01" purity="2.8598320484161377e-01" nType="0">
              <Node pos="l" depth="4" NCoef="0" IVar="-1" Cut="0.0000000000000000e+00" cType="1" res="-3.4428671002388000e-02" rms="3.1131285429000854e-01" purity="2.4530500173568726e-01" nType="-99"/>
              <Node pos="r" depth="4" NCoef="0" IVar="-1" Cut="0.0000000000000000e+00" cType="1" res="4.6074623242020607e-03" rms="3.4476912021636963e-01" purity="4.0684890747070312e-01" nType="-99"/>
            </Node>
            <Node pos="r" depth="3" NCoef="0" IVar="12" Cut="2.0223999023437500e+00" cType="1" res="-2.5001675821840763e-03" rms="2.8230622410774231e-01" purity="3.4860605001449585e-01" nType="0">
              <Node pos="l" depth="4" NCoef="0" IVar="-1" Cut="0.0000000000000000e+00" cType="1" res="-3.0851015821099281e-02" rms="2.4636495113372803e-01" purity="1.0769286006689072e-01" nType="-99"/>
              <Node pos="r" depth="4" NCoef="0" IVar="-1" Cut="0.0000000000000000e+00" cType="1" res="9.4738829648122191e-04" rms="2.8808489441871643e-01" purity="3.9132300019264221e-01" nType="-99"/>
            </Node>
          </Node>
        </Node>
        <Node pos="r" depth="1" NCoef="0" IVar="5" Cut="4.5350371875000000e+05" cType="1" res="1.9620952662080526e-03" rms="3.2883754372596741e-01" purity="5.2754163742065430e-01" nType="0">
          <Node pos="l" depth="2" NCoef="0" IVar="5" Cut="8.6214039062500000e+04" cType="1" res="2.7134513948112726e-03" rms="3.3036729693412781e-01" purity="5.3665655851364136e-01" nType="0">
            <Node pos="l" depth="3" NCoef="0" IVar="16" Cut="2.4283013343811035e+00" cType="1" res="-2.2178930230438709e-03" rms="3.3653163909912109e-01" purity="5.0224530696868896e-01" nType="0">
              <Node pos="l" depth="4" NCoef="0" IVar="-1" Cut="0.0000000000000000e+00" cType="1" res="1.6973976744338870e-03" rms="3.3756411075592041e-01" purity="5.3843420743942261e-01" nType="-99"/>
              <Node pos="r" depth="4" NCoef="0" IVar="-1" Cut="0.0000000000000000e+00" cType="1" res="-2.4233387783169746e-02" rms="3.2863917946815491e-01" purity="2.7356103062629700e-01" nType="-99"/>
            </Node>
            <Node pos="r" depth="3" NCoef="0" IVar="19" Cut="7.4802687500000000e+04" cType="1" res="6.8146777339279652e-03" rms="3.2509464025497437e-01" purity="5.6527519226074219e-01" nType="0">
              <Node pos="l" depth="4" NCoef="0" IVar="-1" Cut="0.0000000000000000e+00" cType="1" res="1.2617988511919975e-02" rms="3.0394443869590759e-01" purity="7.1898192167282104e-01" nType="-99"/>
              <Node pos="r" depth="4" NCoef="0" IVar="-1" Cut="0.0000000000000000e+00" cType="1" res="-7.8604166628792882e-04" rms="3.5052070021629333e-01" purity="3.6557170748710632e-01" nType="-99"/>
            </Node>
          </Node>
          <Node pos="r" depth="2" NCoef="0" IVar="-1" Cut="0.0000000000000000e+00" cType="1" res="-2.7975723147392273e-02" rms="2.6759755611419678e-01" purity="2.0400014519691467e-01" nType="-99"/>
        </Node>
      </Node>
    </BinaryTree>
    <BinaryTree type="DecisionTree" boostWeight="1.0000000000000000e+00" itree="83">
      <Node pos="s" depth="0" NCoef="0" IVar="11" Cut="9.7634357213973999e-01" cType="1" res="-1.5658280972274952e-05" rms="3.4623143076896667e-01" purity="5.0000000000000000e-01" nType="0">
        <Node pos="l" depth="1" NCoef="0" IVar="1" Cut="2.1659482812500000e+05" cType="1" res="1.6455284785479307e-03" rms="3.4363207221031189e-01" purity="6.4255952835083008e-01" nType="0">
          <Node pos="l" depth="2" NCoef="0" IVar="20" Cut="3.7545140625000000e+04" cType="1" res="2.5000276509672403e-03" rms="3.4363251924514771e-01" purity="6.4726328849792480e-01" nType="0">
            <Node pos="l" depth="3" NCoef="0" IVar="11" Cut="6.1231732368469238e-01" cType="1" res="-2.9898586217314005e-03" rms="3.5396751761436462e-01" purity="6.5163922309875488e-01" nType="0">
              <Node pos="l" depth="4" NCoef="0" IVar="-1" Cut="0.0000000000000000e+00" cType="1" res="3.8651188369840384e-03" rms="3.3687403798103333e-01" purity="6.9463932514190674e-01" nType="-99"/>
              <Node pos="r" depth="4" NCoef="0" IVar="-1" Cut="0.0000000000000000e+00" cType="1" res="-1.0459994897246361e-02" rms="3.7922737002372742e-01" purity="5.8330261707305908e-01" nType="-99"/>
            </Node>
            <Node pos="r" depth="3" NCoef="0" IVar="8" Cut="5.5813039062500000e+04" cType="1" res="1.3470670208334923e-02" rms="3.2170689105987549e-01" purity="6.3851881027221680e-01" nType="0">
              <Node pos="l" depth="4" NCoef="0" IVar="-1" Cut="0.0000000000000000e+00" cType="1" res="1.8326457589864731e-02" rms="3.2609972357749939e-01" purity="7.8810489177703857e-01" nType="-99"/>
              <Node pos="r" depth="4" NCoef="0" IVar="-1" Cut="0.0000000000000000e+00" cType="1" res="3.1010966631583869e-04" rms="3.1371223926544189e-01" purity="3.8597458600997925e-01" nType="-99"/>
            </Node>
          </Node>
          <Node pos="r" depth="2" NCoef="0" IVar="-1" Cut="0.0000000000000000e+00" cType="1" res="-2.3339638486504555e-02" rms="3.4227046370506287e-01" purity="4.7768720984458923e-01" nType="-99"/>
        </Node>
        <Node pos="r" depth="1" NCoef="0" IVar="0" Cut="2.3333332538604736e+00" cType="1" res="-1.4170989161357284e-03" rms="3.4840312600135803e-01" purity="3.7973135709762573e-01" nType="0">
          <Node pos="l" depth="2" NCoef="0" IVar="7" Cut="6.9309710937500000e+04" cType="1" res="4.9840547144412994e-03" rms="3.4696078300476074e-01" purity="3.4109202027320862e-01" nType="0">
            <Node pos="l" depth="3" NCoef="0" IVar="20" Cut="3.4185859375000000e+04" cType="1" res="1.5595126897096634e-02" rms="4.0801113843917847e-01" purity="5.6567502021789551e-01" nType="0">
              <Node pos="l" depth="4" NCoef="0" IVar="-1" Cut="0.0000000000000000e+00" cType="1" res="-1.5765987336635590e-02" rms="4.1550397872924805e-01" purity="4.7852703928947449e-01" nType="-99"/>
              <Node pos="r" depth="4" NCoef="0" IVar="-1" Cut="0.0000000000000000e+00" cType="1" res="1.6492137685418129e-02" rms="4.0478941798210144e-01" purity="5.9219384193420410e-01" nType="-99"/>
            </Node>
            <Node pos="r" depth="3" NCoef="0" IVar="15" Cut="9.4361120462417603e-01" cType="1" res="-3.2342746853828430e-03" rms="2.9073888063430786e-01" purity="1.6715130209922791e-01" nType="0">
              <Node pos="l" depth="4" NCoef="0" IVar="-1" Cut="0.0000000000000000e+00" cType="1" res="2.8713116422295570e-02" rms="3.4107294678688049e-01" purity="2.3487237095832825e-01" nType="-99"/>
              <Node pos="r" depth="4" NCoef="0" IVar="-1" Cut="0.0000000000000000e+00" cType="1" res="-1.0875346139073372e-02" rms="2.8026914596557617e-01" purity="1.5497335791587830e-01" nType="-99"/>
            </Node>
          </Node>
          <Node pos="r" depth="2" NCoef="0" IVar="0" Cut="6.0952382087707520e+00" cType="1" res="-3.4944938961416483e-03" rms="3.4884470701217651e-01" purity="3.9227116107940674e-01" nType="0">
            <Node pos="l" depth="3" NCoef="0" IVar="12" Cut="3.4217219352722168e+00" cType="1" res="-1.0088497772812843e-02" rms="3.5364994406700134e-01" purity="5.0841379165649414e-01" nType="0">
              <Node pos="l" depth="4" NCoef="0" IVar="-1" Cut="0.0000000000000000e+00" cType="1" res="-1.0190357454121113e-02" rms="3.5439935326576233e-01" purity="5.0539308786392212e-01" nType="-99"/>
              <Node pos="r" depth="4" NCoef="0" IVar="-1" Cut="0.0000000000000000e+00" cType="1" res="2.1852383390069008e-02" rms="3.4251943230628967e-01" purity="5.4451566934585571e-01" nType="-99"/>
            </Node>
            <Node pos="r" depth="3" NCoef="0" IVar="14" Cut="1.5439133644104004e+00" cType="1" res="2.2316263057291508e-03" rms="3.4451520442962646e-01" purity="2.9141491651535034e-01" nType="0">
              <Node pos="l" depth="4" NCoef="0" IVar="-1" Cut="0.0000000000000000e+00" cType="1" res="7.9295663163065910e-03" rms="3.5012790560722351e-01" purity="2.7880892157554626e-01" nType="-99"/>
              <Node pos="r" depth="4" NCoef="0" IVar="-1" Cut="0.0000000000000000e+00" cType="1" res="-2.3217790294438601e-03" rms="3.4065195918083191e-01" purity="2.9975751042366028e-01" nType="-99"/>
            </Node>
          </Node>
        </Node>
      </Node>
    </BinaryTree>
    <BinaryTree type="DecisionTree" boostWeight="1.0000000000000000e+00" itree="84">
      <Node pos="s" depth="0" NCoef="0" IVar="13" Cut="5.4850673675537109e-01" cType="1" res="-9.6324583864770830e-06" rms="3.4608426690101624e-01" purity="5.0000000000000000e-01" nType="0">
        <Node pos="l" depth="1" NCoef="0" IVar="12" Cut="1.5903397798538208e+00" cType="1" res="-9.7932349890470505e-03" rms="3.2189127802848816e-01" purity="1.6937981545925140e-01" nType="0">
          <Node pos="l" depth="2" NCoef="0" IVar="-1" Cut="0.0000000000000000e+00" cType="1" res="-2.5151332840323448e-02" rms="3.4139156341552734e-01" purity="1.7174468934535980e-01" nType="-99"/>
          <Node pos="r" depth="2" NCoef="0" IVar="-1" Cut="0.0000000000000000e+00" cType="1" res="1.2507186271250248e-02" rms="3.0072692036628723e-01" purity="1.6713199019432068e-01" nType="-99"/>
        </Node>
        <Node pos="r" depth="1" NCoef="0" IVar="13" Cut="2.0373277664184570e+00" cType="1" res="1.9716045062523335e-04" rms="3.4657442569732666e-01" purity="5.0698822736740112e-01" nType="0">
          <Node pos="l" depth="2" NCoef="0" IVar="10" Cut="5.8026570312500000e+04" cType="1" res="2.7932017110288143e-03" rms="3.3861857652664185e-01" purity="2.8066939115524292e-01" nType="0">
            <Node pos="l" depth="3" NCoef="0" IVar="16" Cut="9.2506742477416992e-01" cType="1" res="8.4436973556876183e-03" rms="3.6386525630950928e-01" purity="3.1100666522979736e-01" nType="0">
              <Node pos="l" depth="4" NCoef="0" IVar="-1" Cut="0.0000000000000000e+00" cType="1" res="2.0704956725239754e-02" rms="3.7881565093994141e-01" purity="4.6261408925056458e-01" nType="-99"/>
              <Node pos="r" depth="4" NCoef="0" IVar="-1" Cut="0.0000000000000000e+00" cType="1" res="2.9762615449726582e-03" rms="3.6070460081100464e-01" purity="2.8136584162712097e-01" nType="-99"/>
            </Node>
            <Node pos="r" depth="3" NCoef="0" IVar="13" Cut="1.4702411890029907e+00" cType="1" res="-2.5037704035639763e-03" rms="3.1301563978195190e-01" purity="2.5223022699356079e-01" nType="0">
              <Node pos="l" depth="4" NCoef="0" IVar="-1" Cut="0.0000000000000000e+00" cType="1" res="-2.6489721611142159e-02" rms="2.3766955733299255e-01" purity="9.0555757284164429e-02" nType="-99"/>
              <Node pos="r" depth="4" NCoef="0" IVar="-1" Cut="0.0000000000000000e+00" cType="1" res="3.2356325536966324e-03" rms="3.4001713991165161e-01" purity="3.2146504521369934e-01" nType="-99"/>
            </Node>
          </Node>
          <Node pos="r" depth="2" NCoef="0" IVar="15" Cut="3.3024377822875977e+00" cType="1" res="-7.8753172419965267e-04" rms="3.4953972697257996e-01" purity="5.9283214807510376e-01" nType="0">
            <Node pos="l" depth="3" NCoef="0" IVar="11" Cut="6.9075554609298706e-01" cType="1" res="-4.6472877147607505e-04" rms="3.4955215454101562e-01" purity="5.9463620185852051e-01" nType="0">
              <Node pos="l" depth="4" NCoef="0" IVar="-1" Cut="0.0000000000000000e+00" cType="1" res="2.3276312276721001e-03" rms="3.2147750258445740e-01" purity="7.6808786392211914e-01" nType="-99"/>
              <Node pos="r" depth="4" NCoef="0" IVar="-1" Cut="0.0000000000000000e+00" cType="1" res="-1.3781272573396564e-03" rms="3.6164796352386475e-01" purity="5.1537352800369263e-01" nType="-99"/>
            </Node>
            <Node pos="r" depth="3" NCoef="0" IVar="-1" Cut="0.0000000000000000e+00" cType="1" res="-1.4365016482770443e-02" rms="3.4841084480285645e-01" purity="4.9457919597625732e-01" nType="-99"/>
          </Node>
        </Node>
      </Node>
    </BinaryTree>
    <BinaryTree type="DecisionTree" boostWeight="1.0000000000000000e+00" itree="85">
      <Node pos="s" depth="0" NCoef="0" IVar="2" Cut="6.9643325000000000e+05" cType="1" res="-1.0254750122840051e-05" rms="3.4603792428970337e-01" purity="5.0000000000000000e-01" nType="0">
        <Node pos="l" depth="1" NCoef="0" IVar="9" Cut="2.6538759375000000e+05" cType="1" res="-6.0727633535861969e-04" rms="3.5389670729637146e-01" purity="5.3972923755645752e-01" nType="0">
          <Node pos="l" depth="2" NCoef="0" IVar="6" Cut="1.2115983593750000e+05" cType="1" res="3.4006929490715265e-04" rms="3.5609623789787292e-01" purity="5.4545760154724121e-01" nType="0">
            <Node pos="l" depth="3" NCoef="0" IVar="1" Cut="4.1022667968750000e+04" cType="1" res="-8.0746654421091080e-03" rms="3.9499923586845398e-01" purity="4.7015893459320068e-01" nType="0">
              <Node pos="l" depth="4" NCoef="0" IVar="-1" Cut="0.0000000000000000e+00" cType="1" res="-1.3988007791340351e-02" rms="3.6964836716651917e-01" purity="2.6962387561798096e-01" nType="-99"/>
              <Node pos="r" depth="4" NCoef="0" IVar="-1" Cut="0.0000000000000000e+00" cType="1" res="5.7692098198458552e-04" rms="4.1251516342163086e-01" purity="6.1849498748779297e-01" nType="-99"/>
            </Node>
            <Node pos="r" depth="3" NCoef="0" IVar="2" Cut="3.3722109375000000e+05" cType="1" res="3.6846916191279888e-03" rms="3.3933922648429871e-01" purity="5.7538670301437378e-01" nType="0">
              <Node pos="l" depth="4" NCoef="0" IVar="-1" Cut="0.0000000000000000e+00" cType="1" res="1.0252124629914761e-02" rms="3.4783452749252319e-01" purity="6.4986717700958252e-01" nType="-99"/>
              <Node pos="r" depth="4" NCoef="0" IVar="-1" Cut="0.0000000000000000e+00" cType="1" res="-2.8100977651774883e-03" rms="3.3285471796989441e-01" purity="5.2122616767883301e-01" nType="-99"/>
            </Node>
          </Node>
          <Node pos="r" depth="2" NCoef="0" IVar="6" Cut="2.9810025000000000e+05" cType="1" res="-2.8064297512173653e-02" rms="2.8142762184143066e-01" purity="3.7370261549949646e-01" nType="0">
            <Node pos="l" depth="3" NCoef="0" IVar="-1" Cut="0.0000000000000000e+00" cType="1" res="-6.0692995786666870e-02" rms="2.6919019222259521e-01" purity="2.8099960088729858e-01" nType="-99"/>
            <Node pos="r" depth="3" NCoef="0" IVar="-1" Cut="0.0000000000000000e+00" cType="1" res="-1.3321043923497200e-02" rms="2.8842803835868835e-01" purity="4.3791082501411438e-01" nType="-99"/>
          </Node>
        </Node>
        <Node pos="r" depth="1" NCoef="0" IVar="16" Cut="1.7549607753753662e+00" cType="1" res="3.6705501843243837e-03" rms="2.9293942451477051e-01" purity="2.5505840778350830e-01" nType="0">
          <Node pos="l" depth="2" NCoef="0" IVar="0" Cut="6.3333334922790527e+00" cType="1" res="-5.1517593674361706e-03" rms="2.9058074951171875e-01" purity="3.1509149074554443e-01" nType="0">
            <Node pos="l" depth="3" NCoef="0" IVar="0" Cut="3.1428570747375488e+00" cType="1" res="4.0569705888628960e-03" rms="3.0270379781723022e-01" purity="4.0485069155693054e-01" nType="0">
              <Node pos="l" depth="4" NCoef="0" IVar="-1" Cut="0.0000000000000000e+00" cType="1" res="-8.3522554486989975e-03" rms="3.0115899443626404e-01" purity="2.9803371429443359e-01" nType="-99"/>
              <Node pos="r" depth="4" NCoef="0" IVar="-1" Cut="0.0000000000000000e+00" cType="1" res="2.5659749284386635e-02" rms="3.0414888262748718e-01" purity="5.8009642362594604e-01" nType="-99"/>
            </Node>
            <Node pos="r" depth="3" NCoef="0" IVar="12" Cut="2.5059547424316406e+00" cType="1" res="-1.7138959839940071e-02" rms="2.7353355288505554e-01" purity="1.9825002551078796e-01" nType="0">
              <Node pos="l" depth="4" NCoef="0" IVar="-1" Cut="0.0000000000000000e+00" cType="1" res="-1.0116449557244778e-03" rms="2.6753893494606018e-01" purity="1.7674820125102997e-01" nType="-99"/>
              <Node pos="r" depth="4" NCoef="0" IVar="-1" Cut="0.0000000000000000e+00" cType="1" res="-3.0565256252884865e-02" rms="2.7671208977699280e-01" purity="2.1161404252052307e-01" nType="-99"/>
            </Node>
          </Node>
          <Node pos="r" depth="2" NCoef="0" IVar="16" Cut="3.0692181587219238e+00" cType="1" res="1.1715652421116829e-02" rms="2.9484382271766663e-01" purity="2.0031397044658661e-01" nType="0">
            <Node pos="l" depth="3" NCoef="0" IVar="6" Cut="3.8088071875000000e+05" cType="1" res="1.6785308718681335e-02" rms="2.9483172297477722e-01" purity="2.0154097676277161e-01" nType="0">
              <Node pos="l" depth="4" NCoef="0" IVar="-1" Cut="0.0000000000000000e+00" cType="1" res="2.4155767634510994e-02" rms="3.2624661922454834e-01" purity="2.4863632023334503e-01" nType="-99"/>
              <Node pos="r" depth="4" NCoef="0" IVar="-1" Cut="0.0000000000000000e+00" cType="1" res="-1.8313912674784660e-02" rms="1.7919932305812836e-01" purity="7.1190528571605682e-02" nType="-99"/>
            </Node>
            <Node pos="r" depth="3" NCoef="0" IVar="-1" Cut="0.0000000000000000e+00" cType="1" res="-1.7900688573718071e-02" rms="2.9320564866065979e-01" purity="1.9323225319385529e-01" nType="-99"/>
          </Node>
        </Node>
      </Node>
    </BinaryTree>
    <BinaryTree type="DecisionTree" boostWeight="1.0000000000000000e+00" itree="86">
      <Node pos="s" depth="0" NCoef="0" IVar="18" Cut="4.4458743750000000e+05" cType="1" res="-1.0603895134408958e-05" rms="3.4589245915412903e-01" purity="5.0000000000000000e-01" nType="0">
        <Node pos="l" depth="1" NCoef="0" IVar="18" Cut="4.1737097656250000e+04" cType="1" res="1.2660732318181545e-04" rms="3.4688061475753784e-01" purity="5.0383251905441284e-01" nType="0">
          <Node pos="l" depth="2" NCoef="0" IVar="5" Cut="1.1241366406250000e+05" cType="1" res="-5.4310066625475883e-03" rms="3.5422563552856445e-01" purity="4.8730143904685974e-01" nType="0">
            <Node pos="l" depth="3" NCoef="0" IVar="18" Cut="1.3638544921875000e+03" cType="1" res="-1.7096035662689246e-05" rms="3.5582476854324341e-01" purity="5.0498563051223755e-01" nType="0">
              <Node pos="l" depth="4" NCoef="0" IVar="-1" Cut="0.0000000000000000e+00" cType="1" res="4.0791677311062813e-03" rms="3.4859028458595276e-01" purity="5.1092827320098877e-01" nType="-99"/>
              <Node pos="r" depth="4" NCoef="0" IVar="-1" Cut="0.0000000000000000e+00" cType="1" res="-1.8028534948825836e-02" rms="3.9166834950447083e-01" purity="4.7258943319320679e-01" nType="-99"/>
            </Node>
            <Node pos="r" depth="3" NCoef="0" IVar="18" Cut="1.1450176757812500e+04" cType="1" res="-2.5438046082854271e-02" rms="3.4752139449119568e-01" purity="4.2194962501525879e-01" nType="0">
              <Node pos="l" depth="4" NCoef="0" IVar="-1" Cut="0.0000000000000000e+00" cType="1" res="-4.1680835187435150e-02" rms="3.0573472380638123e-01" purity="3.5740607976913452e-01" nType="-99"/>
              <Node pos="r" depth="4" NCoef="0" IVar="-1" Cut="0.0000000000000000e+00" cType="1" res="4.7865118831396103e-03" rms="4.0302318334579468e-01" purity="5.2464312314987183e-01" nType="-99"/>
            </Node>
          </Node>
          <Node pos="r" depth="2" NCoef="0" IVar="18" Cut="6.0919203125000000e+04" cType="1" res="3.2153700012713671e-03" rms="3.4269145131111145e-01" purity="5.1302009820938110e-01" nType="0">
            <Node pos="l" depth="3" NCoef="0" IVar="8" Cut="3.3760339843750000e+04" cType="1" res="1.2103445827960968e-02" rms="3.8606882095336914e-01" purity="5.2781873941421509e-01" nType="0">
              <Node pos="l" depth="4" NCoef="0" IVar="-1" Cut="0.0000000000000000e+00" cType="1" res="-1.2139204191043973e-03" rms="3.9667260646820068e-01" purity="5.7653868198394775e-01" nType="-99"/>
              <Node pos="r" depth="4" NCoef="0" IVar="-1" Cut="0.0000000000000000e+00" cType="1" res="1.5021611936390400e-02" rms="3.7887030839920044e-01" purity="4.9670106172561646e-01" nType="-99"/>
            </Node>
            <Node pos="r" depth="3" NCoef="0" IVar="14" Cut="1.3028581142425537e+00" cType="1" res="1.5471512451767921e-03" rms="3.3389601111412048e-01" purity="5.1024252176284790e-01" nType="0">
              <Node pos="l" depth="4" NCoef="0" IVar="-1" Cut="0.0000000000000000e+00" cType="1" res="-9.4280466437339783e-03" rms="3.3932468295097351e-01" purity="3.4121537208557129e-01" nType="-99"/>
              <Node pos="r" depth="4" NCoef="0" IVar="-1" Cut="0.0000000000000000e+00" cType="1" res="3.5731147509068251e-03" rms="3.3268651366233826e-01" purity="5.4564172029495239e-01" nType="-99"/>
            </Node>
          </Node>
        </Node>
        <Node pos="r" depth="1" NCoef="0" IVar="-1" Cut="0.0000000000000000e+00" cType="1" res="-1.9754208624362946e-02" rms="2.3621663451194763e-01" purity="1.4349031448364258e-01" nType="-99"/>
      </Node>
    </BinaryTree>
    <BinaryTree type="DecisionTree" boostWeight="1.0000000000000000e+00" itree="87">
      <Node pos="s" depth="0" NCoef="0" IVar="16" Cut="1.2465226650238037e+00" cType="1" res="-9.1165329649811611e-06" rms="3.4575396776199341e-01" purity="5.0000000000000000e-01" nType="0">
        <Node pos="l" depth="1" NCoef="0" IVar="16" Cut="1.0698118209838867e+00" cType="1" res="-1.5342807164415717e-03" rms="3.2263600826263428e-01" purity="6.7921566963195801e-01" nType="0">
          <Node pos="l" depth="2" NCoef="0" IVar="19" Cut="2.5008005859375000e+04" cType="1" res="9.7999244462698698e-04" rms="3.1411862373352051e-01" purity="7.0826661586761475e-01" nType="0">
            <Node pos="l" depth="3" NCoef="0" IVar="14" Cut="1.2718493938446045e+00" cType="1" res="-9.5612695440649986e-03" rms="3.5784259438514709e-01" purity="5.3217500448226929e-01" nType="0">
              <Node pos="l" depth="4" NCoef="0" IVar="-1" Cut="0.0000000000000000e+00" cType="1" res="-2.6119884103536606e-02" rms="3.5751315951347351e-01" purity="4.2228597402572632e-01" nType="-99"/>
              <Node pos="r" depth="4" NCoef="0" IVar="-1" Cut="0.0000000000000000e+00" cType="1" res="-3.3807065337896347e-03" rms="3.5768169164657593e-01" purity="5.5234688520431519e-01" nType="-99"/>
            </Node>
            <Node pos="r" depth="3" NCoef="0" IVar="12" Cut="1.7958778142929077e+00" cType="1" res="4.1539175435900688e-03" rms="2.9963403940200806e-01" purity="7.6128703355789185e-01" nType="0">
              <Node pos="l" depth="4" NCoef="0" IVar="-1" Cut="0.0000000000000000e+00" cType="1" res="-1.8225146457552910e-02" rms="3.7578129768371582e-01" purity="5.4182684421539307e-01" nType="-99"/>
              <Node pos="r" depth="4" NCoef="0" IVar="-1" Cut="0.0000000000000000e+00" cType="1" res="5.9658079408109188e-03" rms="2.9504165053367615e-01" purity="7.7272635698318481e-01" nType="-99"/>
            </Node>
          </Node>
          <Node pos="r" depth="2" NCoef="0" IVar="1" Cut="8.3672085937500000e+04" cType="1" res="-1.2909268029034138e-02" rms="3.5843089222908020e-01" purity="5.4778414964675903e-01" nType="0">
            <Node pos="l" depth="3" NCoef="0" IVar="1" Cut="3.2022654296875000e+04" cType="1" res="-1.9908981397747993e-02" rms="3.6336892843246460e-01" purity="5.0957453250885010e-01" nType="0">
              <Node pos="l" depth="4" NCoef="0" IVar="-1" Cut="0.0000000000000000e+00" cType="1" res="-3.3502507954835892e-02" rms="3.5904425382614136e-01" purity="3.5543784499168396e-01" nType="-99"/>
              <Node pos="r" depth="4" NCoef="0" IVar="-1" Cut="0.0000000000000000e+00" cType="1" res="-5.3096823394298553e-03" rms="3.6484503746032715e-01" purity="5.8626770973205566e-01" nType="-99"/>
            </Node>
            <Node pos="r" depth="3" NCoef="0" IVar="-1" Cut="0.0000000000000000e+00" cType="1" res="4.1552409529685974e-03" rms="3.4461715817451477e-01" purity="6.4699089527130127e-01" nType="-99"/>
          </Node>
        </Node>
        <Node pos="r" depth="1" NCoef="0" IVar="1" Cut="2.1656515625000000e+05" cType="1" res="1.1745573719963431e-03" rms="3.6267712712287903e-01" purity="3.6091145873069763e-01" nType="0">
          <Node pos="l" depth="2" NCoef="0" IVar="5" Cut="4.3468087500000000e+05" cType="1" res="1.8370382022112608e-03" rms="3.6333727836608887e-01" purity="3.6372244358062744e-01" nType="0">
            <Node pos="l" depth="3" NCoef="0" IVar="5" Cut="6.4017179687500000e+04" cType="1" res="8.8349037105217576e-04" rms="3.6693421006202698e-01" purity="3.7500360608100891e-01" nType="0">
              <Node pos="l" depth="4" NCoef="0" IVar="-1" Cut="0.0000000000000000e+00" cType="1" res="7.0616356097161770e-03" rms="3.6914625763893127e-01" purity="4.1024178266525269e-01" nType="-99"/>
              <Node pos="r" depth="4" NCoef="0" IVar="-1" Cut="0.0000000000000000e+00" cType="1" res="-2.2132315207272768e-03" rms="3.6591014266014099e-01" purity="3.5988229513168335e-01" nType="-99"/>
            </Node>
            <Node pos="r" depth="3" NCoef="0" IVar="2" Cut="1.1806803750000000e+06" cType="1" res="1.9438704475760460e-02" rms="2.8844398260116577e-01" purity="1.5548218786716461e-01" nType="0">
              <Node pos="l" depth="4" NCoef="0" IVar="-1" Cut="0.0000000000000000e+00" cType="1" res="3.4251525998115540e-02" rms="3.3217611908912659e-01" purity="2.1089525520801544e-01" nType="-99"/>
              <Node pos="r" depth="4" NCoef="0" IVar="-1" Cut="0.0000000000000000e+00" cType="1" res="2.5397846475243568e-03" rms="2.2326034307479858e-01" purity="8.8603220880031586e-02" nType="-99"/>
            </Node>
          </Node>
          <Node pos="r" depth="2" NCoef="0" IVar="-1" Cut="0.0000000000000000e+00" cType="1" res="-2.3277323693037033e-02" rms="3.3298644423484802e-01" purity="2.4430613219738007e-01" nType="-99"/>
        </Node>
      </Node>
    </BinaryTree>
    <BinaryTree type="DecisionTree" boostWeight="1.0000000000000000e+00" itree="88">
      <Node pos="s" depth="0" NCoef="0" IVar="11" Cut="9.7634357213973999e-01" cType="1" res="-8.5189349192660302e-06" rms="3.4565871953964233e-01" purity="5.0000000000000000e-01" nType="0">
        <Node pos="l" depth="1" NCoef="0" IVar="0" Cut="2.3333332538604736e+00" cType="1" res="1.4452447649091482e-03" rms="3.4306645393371582e-01" purity="6.4255952835083008e-01" nType="0">
          <Node pos="l" depth="2" NCoef="0" IVar="7" Cut="3.1485371093750000e+04" cType="1" res="-7.2188484482467175e-03" rms="3.7267100811004639e-01" purity="5.7689917087554932e-01" nType="0">
            <Node pos="l" depth="3" NCoef="0" IVar="16" Cut="2.0517940521240234e+00" cType="1" res="-2.4103591218590736e-02" rms="3.8232228159904480e-01" purity="5.9614503383636475e-01" nType="0">
              <Node pos="l" depth="4" NCoef="0" IVar="-1" Cut="0.0000000000000000e+00" cType="1" res="-8.7570846080780029e-03" rms="3.6888569593429565e-01" purity="6.8807947635650635e-01" nType="-99"/>
              <Node pos="r" depth="4" NCoef="0" IVar="-1" Cut="0.0000000000000000e+00" cType="1" res="-3.1565651297569275e-02" rms="4.1609507799148560e-01" purity="3.3706182241439819e-01" nType="-99"/>
            </Node>
            <Node pos="r" depth="3" NCoef="0" IVar="16" Cut="1.5057002305984497e+00" cType="1" res="1.9355387194082141e-03" rms="3.6700779199600220e-01" purity="5.6646472215652466e-01" nType="0">
              <Node pos="l" depth="4" NCoef="0" IVar="-1" Cut="0.0000000000000000e+00" cType="1" res="-4.5235827565193176e-03" rms="3.5068690776824951e-01" purity="6.9556599855422974e-01" nType="-99"/>
              <Node pos="r" depth="4" NCoef="0" IVar="-1" Cut="0.0000000000000000e+00" cType="1" res="8.2327369600534439e-03" rms="3.8859260082244873e-01" purity="3.8456073403358459e-01" nType="-99"/>
            </Node>
          </Node>
          <Node pos="r" depth="2" NCoef="0" IVar="0" Cut="5.1428570747375488e+00" cType="1" res="4.2853001505136490e-03" rms="3.3274048566818237e-01" purity="6.6408264636993408e-01" nType="0">
            <Node pos="l" depth="3" NCoef="0" IVar="1" Cut="5.1324226562500000e+04" cType="1" res="1.3246761634945869e-02" rms="2.6285216212272644e-01" purity="8.6940675973892212e-01" nType="0">
              <Node pos="l" depth="4" NCoef="0" IVar="-1" Cut="0.0000000000000000e+00" cType="1" res="2.6892734691500664e-02" rms="2.6373460888862610e-01" purity="8.2754337787628174e-01" nType="-99"/>
              <Node pos="r" depth="4" NCoef="0" IVar="-1" Cut="0.0000000000000000e+00" cType="1" res="1.0007246397435665e-02" rms="2.6218613982200623e-01" purity="8.9224582910537720e-01" nType="-99"/>
            </Node>
            <Node pos="r" depth="3" NCoef="0" IVar="16" Cut="1.6900784969329834e+00" cType="1" res="-6.3002447132021189e-04" rms="3.6534798145294189e-01" purity="5.5146318674087524e-01" nType="0">
              <Node pos="l" depth="4" NCoef="0" IVar="-1" Cut="0.0000000000000000e+00" cType="1" res="-4.6449913643300533e-03" rms="3.4929028153419495e-01" purity="6.7190116643905640e-01" nType="-99"/>
              <Node pos="r" depth="4" NCoef="0" IVar="-1" Cut="0.0000000000000000e+00" cType="1" res="5.5065900087356567e-03" rms="3.9116814732551575e-01" purity="3.4504434466362000e-01" nType="-99"/>
            </Node>
          </Node>
        </Node>
        <Node pos="r" depth="1" NCoef="0" IVar="14" Cut="2.8268120288848877e+00" cType="1" res="-1.2349694734439254e-03" rms="3.4782591462135315e-01" purity="3.7973135709762573e-01" nType="0">
          <Node pos="l" depth="2" NCoef="0" IVar="14" Cut="1.0796113014221191e+00" cType="1" res="-2.2663404233753681e-03" rms="3.4907677769660950e-01" purity="3.7402659654617310e-01" nType="0">
            <Node pos="l" depth="3" NCoef="0" IVar="18" Cut="8.4500156250000000e+04" cType="1" res="4.7392616979777813e-03" rms="3.5754680633544922e-01" purity="3.5249334573745728e-01" nType="0">
              <Node pos="l" depth="4" NCoef="0" IVar="-1" Cut="0.0000000000000000e+00" cType="1" res="7.7415215782821178e-03" rms="3.7966001033782959e-01" purity="4.0393167734146118e-01" nType="-99"/>
              <Node pos="r" depth="4" NCoef="0" IVar="-1" Cut="0.0000000000000000e+00" cType="1" res="-1.3127966783940792e-02" rms="2.8818815946578979e-01" purity="2.1243321895599365e-01" nType="-99"/>
            </Node>
            <Node pos="r" depth="3" NCoef="0" IVar="13" Cut="3.0165264606475830e+00" cType="1" res="-4.3511735275387764e-03" rms="3.4648880362510681e-01" purity="3.8043481111526489e-01" nType="0">
              <Node pos="l" depth="4" NCoef="0" IVar="-1" Cut="0.0000000000000000e+00" cType="1" res="-5.8475430123507977e-03" rms="3.4012284874916077e-01" purity="3.5307803750038147e-01" nType="-99"/>
              <Node pos="r" depth="4" NCoef="0" IVar="-1" Cut="0.0000000000000000e+00" cType="1" res="3.9633810520172119e-03" rms="3.6725279688835144e-01" purity="4.7396892309188843e-01" nType="-99"/>
            </Node>
          </Node>
          <Node pos="r" depth="2" NCoef="0" IVar="6" Cut="1.8223901562500000e+05" cType="1" res="8.1184478476643562e-03" rms="3.3612516522407532e-01" purity="4.3146750330924988e-01" nType="0">
            <Node pos="l" depth="3" NCoef="0" IVar="19" Cut="3.4108730468750000e+04" cType="1" res="1.6492238268256187e-02" rms="3.7161165475845337e-01" purity="5.3027403354644775e-01" nType="0">
              <Node pos="l" depth="4" NCoef="0" IVar="-1" Cut="0.0000000000000000e+00" cType="1" res="-4.4934717006981373e-03" rms="3.6361104249954224e-01" purity="4.8356419801712036e-01" nType="-99"/>
              <Node pos="r" depth="4" NCoef="0" IVar="-1" Cut="0.0000000000000000e+00" cType="1" res="1.9147764891386032e-02" rms="3.7508898973464966e-01" purity="5.5408930778503418e-01" nType="-99"/>
            </Node>
            <Node pos="r" depth="3" NCoef="0" IVar="-1" Cut="0.0000000000000000e+00" cType="1" res="-1.2609527446329594e-02" rms="2.4673286080360413e-01" purity="2.2822123765945435e-01" nType="-99"/>
          </Node>
        </Node>
      </Node>
    </BinaryTree>
    <BinaryTree type="DecisionTree" boostWeight="1.0000000000000000e+00" itree="89">
      <Node pos="s" depth="0" NCoef="0" IVar="14" Cut="3.0833916664123535e+00" cType="1" res="-4.9719524213287514e-06" rms="3.4556862711906433e-01" purity="5.0000000000000000e-01" nType="0">
        <Node pos="l" depth="1" NCoef="0" IVar="11" Cut="2.6485717296600342e+00" cType="1" res="3.1951174605637789e-04" rms="3.4598737955093384e-01" purity="5.0073307752609253e-01" nType="0">
          <Node pos="l" depth="2" NCoef="0" IVar="11" Cut="2.7104532718658447e-01" cType="1" res="6.8118586204946041e-04" rms="3.4972065687179565e-01" purity="5.1769804954528809e-01" nType="0">
            <Node pos="l" depth="3" NCoef="0" IVar="-1" Cut="0.0000000000000000e+00" cType="1" res="1.4433974400162697e-02" rms="3.0748626589775085e-01" purity="7.5746244192123413e-01" nType="-99"/>
            <Node pos="r" depth="3" NCoef="0" IVar="13" Cut="2.1944680213928223e+00" cType="1" res="3.1609658617526293e-04" rms="3.5068833827972412e-01" purity="5.1179558038711548e-01" nType="0">
              <Node pos="l" depth="4" NCoef="0" IVar="-1" Cut="0.0000000000000000e+00" cType="1" res="2.2809628862887621e-03" rms="3.4812331199645996e-01" purity="3.1722086668014526e-01" nType="-99"/>
              <Node pos="r" depth="4" NCoef="0" IVar="-1" Cut="0.0000000000000000e+00" cType="1" res="-7.2804110823199153e-04" rms="3.5193750262260437e-01" purity="6.0759645700454712e-01" nType="-99"/>
            </Node>
          </Node>
          <Node pos="r" depth="2" NCoef="0" IVar="15" Cut="2.0533847808837891e+00" cType="1" res="-8.2142371684312820e-03" rms="2.4155321717262268e-01" purity="1.0044220089912415e-01" nType="0">
            <Node pos="l" depth="3" NCoef="0" IVar="2" Cut="3.6376234375000000e+05" cType="1" res="-1.5720382332801819e-02" rms="2.4067135155200958e-01" purity="9.9372625350952148e-02" nType="0">
              <Node pos="l" depth="4" NCoef="0" IVar="-1" Cut="0.0000000000000000e+00" cType="1" res="-2.6848571375012398e-02" rms="2.8664866089820862e-01" purity="1.4355856180191040e-01" nType="-99"/>
              <Node pos="r" depth="4" NCoef="0" IVar="-1" Cut="0.0000000000000000e+00" cType="1" res="-1.6804488375782967e-02" rms="1.8408486247062683e-01" purity="5.5855747312307358e-02" nType="-99"/>
            </Node>
            <Node pos="r" depth="3" NCoef="0" IVar="-1" Cut="0.0000000000000000e+00" cType="1" res="5.6442166678607464e-03" rms="2.4244579672813416e-01" purity="1.0207575559616089e-01" nType="-99"/>
          </Node>
        </Node>
        <Node pos="r" depth="1" NCoef="0" IVar="12" Cut="3.1000766754150391e+00" cType="1" res="-6.8066804669797421e-03" rms="3.3659932017326355e-01" purity="4.8463428020477295e-01" nType="0">
          <Node pos="l" depth="2" NCoef="0" IVar="1" Cut="3.8810726562500000e+04" cType="1" res="-1.9478499889373779e-02" rms="3.4244617819786072e-01" purity="4.2985513806343079e-01" nType="0">
            <Node pos="l" depth="3" NCoef="0" IVar="-1" Cut="0.0000000000000000e+00" cType="1" res="-3.7378177046775818e-02" rms="3.1840878725051880e-01" purity="2.7451756596565247e-01" nType="-99"/>
            <Node pos="r" depth="3" NCoef="0" IVar="-1" Cut="0.0000000000000000e+00" cType="1" res="-5.7554189115762711e-03" rms="3.5325285792350769e-01" purity="5.0775188207626343e-01" nType="-99"/>
          </Node>
          <Node pos="r" depth="2" NCoef="0" IVar="-1" Cut="0.0000000000000000e+00" cType="1" res="1.9273305311799049e-02" rms="3.2204678654670715e-01" purity="6.0197055339813232e-01" nType="-99"/>
        </Node>
      </Node>
    </BinaryTree>
    <BinaryTree type="DecisionTree" boostWeight="1.0000000000000000e+00" itree="90">
      <Node pos="s" depth="0" NCoef="0" IVar="0" Cut="3.3333332538604736e+00" cType="1" res="-5.0886073950096034e-06" rms="3.4553340077400208e-01" purity="5.0000000000000000e-01" nType="0">
        <Node pos="l" depth="1" NCoef="0" IVar="20" Cut="6.1857671875000000e+04" cType="1" res="-1.7534606158733368e-03" rms="3.5884296894073486e-01" purity="4.7118261456489563e-01" nType="0">
          <Node pos="l" depth="2" NCoef="0" IVar="8" Cut="2.9189488281250000e+04" cType="1" res="-5.1203090697526932e-03" rms="3.8505733013153076e-01" purity="6.0037565231323242e-01" nType="0">
            <Node pos="l" depth="3" NCoef="0" IVar="11" Cut="6.4733922481536865e-01" cType="1" res="-1.8181076273322105e-02" rms="3.8351747393608093e-01" purity="5.5704092979431152e-01" nType="0">
              <Node pos="l" depth="4" NCoef="0" IVar="-1" Cut="0.0000000000000000e+00" cType="1" res="-3.6397457588464022e-03" rms="3.7328821420669556e-01" purity="6.1607122421264648e-01" nType="-99"/>
              <Node pos="r" depth="4" NCoef="0" IVar="-1" Cut="0.0000000000000000e+00" cType="1" res="-2.3532809689640999e-02" rms="3.9917296171188354e-01" purity="4.5788681507110596e-01" nType="-99"/>
            </Node>
            <Node pos="r" depth="3" NCoef="0" IVar="0" Cut="2.0476191043853760e+00" cType="1" res="2.3389996495097876e-03" rms="3.8573569059371948e-01" purity="6.2512511014938354e-01" nType="0">
              <Node pos="l" depth="4" NCoef="0" IVar="-1" Cut="0.0000000000000000e+00" cType="1" res="4.6775867231190205e-03" rms="3.8746213912963867e-01" purity="6.1810034513473511e-01" nType="-99"/>
              <Node pos="r" depth="4" NCoef="0" IVar="-1" Cut="0.0000000000000000e+00" cType="1" res="-6.2674893997609615e-03" rms="3.8135471940040588e-01" purity="6.4175575971603394e-01" nType="-99"/>
            </Node>
          </Node>
          <Node pos="r" depth="2" NCoef="0" IVar="15" Cut="9.5790112018585205e-01" cType="1" res="5.6343283504247665e-03" rms="2.9308453202247620e-01" purity="1.8769772350788116e-01" nType="0">
            <Node pos="l" depth="3" NCoef="0" IVar="-1" Cut="0.0000000000000000e+00" cType="1" res="2.9823796823620796e-02" rms="3.3850130438804626e-01" purity="2.2366598248481750e-01" nType="-99"/>
            <Node pos="r" depth="3" NCoef="0" IVar="12" Cut="2.0289466381072998e+00" cType="1" res="1.3995979679748416e-03" rms="2.8453901410102844e-01" purity="1.8166480958461761e-01" nType="0">
              <Node pos="l" depth="4" NCoef="0" IVar="-1" Cut="0.0000000000000000e+00" cType="1" res="-4.0227167308330536e-02" rms="2.1912591159343719e-01" purity="8.3810336887836456e-02" nType="-99"/>
              <Node pos="r" depth="4" NCoef="0" IVar="-1" Cut="0.0000000000000000e+00" cType="1" res="5.8877579867839813e-03" rms="2.9206788539886475e-01" purity="1.9492848217487335e-01" nType="-99"/>
            </Node>
          </Node>
        </Node>
        <Node pos="r" depth="1" NCoef="0" IVar="0" Cut="5.1428570747375488e+00" cType="1" res="8.8894995860755444e-04" rms="3.3852186799049377e-01" purity="5.1473593711853027e-01" nType="0">
          <Node pos="l" depth="2" NCoef="0" IVar="1" Cut="4.5988226562500000e+04" cType="1" res="5.7185320183634758e-03" rms="2.7098754048347473e-01" purity="8.6910378932952881e-01" nType="0">
            <Node pos="l" depth="3" NCoef="0" IVar="-1" Cut="0.0000000000000000e+00" cType="1" res="2.8075793758034706e-02" rms="2.6207780838012695e-01" purity="8.9175623655319214e-01" nType="-99"/>
            <Node pos="r" depth="3" NCoef="0" IVar="11" Cut="1.3954341411590576e+00" cType="1" res="-9.9376088473945856e-04" rms="2.7405199408531189e-01" purity="8.6036568880081177e-01" nType="0">
              <Node pos="l" depth="4" NCoef="0" IVar="-1" Cut="0.0000000000000000e+00" cType="1" res="7.0170997641980648e-03" rms="2.4952746927738190e-01" purity="9.1898167133331299e-01" nType="-99"/>
              <Node pos="r" depth="4" NCoef="0" IVar="-1" Cut="0.0000000000000000e+00" cType="1" res="-1.5863696113228798e-02" rms="3.3652189373970032e-01" purity="6.8461668491363525e-01" nType="-99"/>
            </Node>
          </Node>
          <Node pos="r" depth="2" NCoef="0" IVar="12" Cut="3.4113523960113525e+00" cType="1" res="-5.0924578681588173e-04" rms="3.5567578673362732e-01" purity="4.1214406490325928e-01" nType="0">
            <Node pos="l" depth="3" NCoef="0" IVar="1" Cut="1.0835192968750000e+05" cType="1" res="-1.3625208521261811e-03" rms="3.5710600018501282e-01" purity="4.1604068875312805e-01" nType="0">
              <Node pos="l" depth="4" NCoef="0" IVar="-1" Cut="0.0000000000000000e+00" cType="1" res="-2.7376855723559856e-03" rms="3.6002388596534729e-01" purity="3.9515444636344910e-01" nType="-99"/>
              <Node pos="r" depth="4" NCoef="0" IVar="-1" Cut="0.0000000000000000e+00" cType="1" res="8.5374061018228531e-03" rms="3.4104430675506592e-01" purity="5.2614414691925049e-01" nType="-99"/>
            </Node>
            <Node pos="r" depth="3" NCoef="0" IVar="15" Cut="1.8850090503692627e+00" cType="1" res="8.6861131712794304e-03" rms="3.3974522352218628e-01" purity="3.7015232443809509e-01" nType="0">
              <Node pos="l" depth="4" NCoef="0" IVar="-1" Cut="0.0000000000000000e+00" cType="1" res="-9.0349074453115463e-03" rms="3.2747423648834229e-01" purity="3.1319439411163330e-01" nType="-99"/>
              <Node pos="r" depth="4" NCoef="0" IVar="-1" Cut="0.0000000000000000e+00" cType="1" res="2.2370185703039169e-02" rms="3.4952807426452637e-01" purity="4.2159447073936462e-01" nType="-99"/>
            </Node>
          </Node>
        </Node>
      </Node>
    </BinaryTree>
    <BinaryTree type="DecisionTree" boostWeight="1.0000000000000000e+00" itree="91">
      <Node pos="s" depth="0" NCoef="0" IVar="13" Cut="2.1940269470214844e+00" cType="1" res="-1.8336287439524313e-06" rms="3.4541094303131104e-01" purity="5.0000000000000000e-01" nType="0">
        <Node pos="l" depth="1" NCoef="0" IVar="10" Cut="1.6188821875000000e+05" cType="1" res="1.7934843199327588e-03" rms="3.4009212255477905e-01" purity="2.9838448762893677e-01" nType="0">
          <Node pos="l" depth="2" NCoef="0" IVar="1" Cut="5.2683695312500000e+04" cType="1" res="3.0083996243774891e-03" rms="3.4577950835227966e-01" purity="3.1016421318054199e-01" nType="0">
            <Node pos="l" depth="3" NCoef="0" IVar="1" Cut="2.0154771484375000e+04" cType="1" res="9.8875844851136208e-03" rms="3.2185193896293640e-01" purity="2.0298503339290619e-01" nType="0">
              <Node pos="l" depth="4" NCoef="0" IVar="-1" Cut="0.0000000000000000e+00" cType="1" res="-7.8499354422092438e-03" rms="2.6238033175468445e-01" purity="1.2153019011020660e-01" nType="-99"/>
              <Node pos="r" depth="4" NCoef="0" IVar="-1" Cut="0.0000000000000000e+00" cType="1" res="1.4459406025707722e-02" rms="3.4365746378898621e-01" purity="2.3737524449825287e-01" nType="-99"/>
            </Node>
            <Node pos="r" depth="3" NCoef="0" IVar="2" Cut="6.2976800000000000e+05" cType="1" res="-4.3446151539683342e-03" rms="3.6950498819351196e-01" purity="4.2472574114799500e-01" nType="0">
              <Node pos="l" depth="4" NCoef="0" IVar="-1" Cut="0.0000000000000000e+00" cType="1" res="-6.0361018404364586e-03" rms="3.8250148296356201e-01" purity="4.8254224658012390e-01" nType="-99"/>
              <Node pos="r" depth="4" NCoef="0" IVar="-1" Cut="0.0000000000000000e+00" cType="1" res="1.5143467113375664e-02" rms="3.1490033864974976e-01" purity="2.0645120739936829e-01" nType="-99"/>
            </Node>
          </Node>
          <Node pos="r" depth="2" NCoef="0" IVar="-1" Cut="0.0000000000000000e+00" cType="1" res="-2.9659563675522804e-02" rms="2.2819302976131439e-01" purity="1.0759537667036057e-01" nType="-99"/>
        </Node>
        <Node pos="r" depth="1" NCoef="0" IVar="11" Cut="1.5840502977371216e+00" cType="1" res="-9.2466105706989765e-04" rms="3.4810972213745117e-01" purity="6.0363417863845825e-01" nType="0">
          <Node pos="l" depth="2" NCoef="0" IVar="14" Cut="3.2021741867065430e+00" cType="1" res="-2.2216329816728830e-03" rms="3.4829598665237427e-01" purity="6.7336577177047729e-01" nType="0">
            <Node pos="l" depth="3" NCoef="0" IVar="7" Cut="1.8259121875000000e+05" cType="1" res="-1.5718663344159722e-03" rms="3.4841343760490417e-01" purity="6.7499947547912598e-01" nType="0">
              <Node pos="l" depth="4" NCoef="0" IVar="-1" Cut="0.0000000000000000e+00" cType="1" res="-1.7842166125774384e-03" rms="3.4988385438919067e-01" purity="6.7361295223236084e-01" nType="-99"/>
              <Node pos="r" depth="4" NCoef="0" IVar="-1" Cut="0.0000000000000000e+00" cType="1" res="1.6968144103884697e-02" rms="3.1032207608222961e-01" purity="7.0843219757080078e-01" nType="-99"/>
            </Node>
            <Node pos="r" depth="3" NCoef="0" IVar="-1" Cut="0.0000000000000000e+00" cType="1" res="-2.3181855678558350e-02" rms="3.4256136417388916e-01" purity="6.0807424783706665e-01" nType="-99"/>
          </Node>
          <Node pos="r" depth="2" NCoef="0" IVar="12" Cut="2.3810763359069824e+00" cType="1" res="4.0450221858918667e-03" rms="3.4735023975372314e-01" purity="3.3643960952758789e-01" nType="0">
            <Node pos="l" depth="3" NCoef="0" IVar="4" Cut="2.0326171875000000e+05" cType="1" res="1.9416131079196930e-02" rms="3.7369534373283386e-01" purity="4.3318864703178406e-01" nType="0">
              <Node pos="l" depth="4" NCoef="0" IVar="-1" Cut="0.0000000000000000e+00" cType="1" res="-3.9540529251098633e-03" rms="4.0484124422073364e-01" purity="5.1247227191925049e-01" nType="-99"/>
              <Node pos="r" depth="4" NCoef="0" IVar="-1" Cut="0.0000000000000000e+00" cType="1" res="2.3869721218943596e-02" rms="3.5949870944023132e-01" purity="4.0048182010650635e-01" nType="-99"/>
            </Node>
            <Node pos="r" depth="3" NCoef="0" IVar="19" Cut="7.7087945312500000e+04" cType="1" res="-1.5576865989714861e-03" rms="3.3706188201904297e-01" purity="3.0117496848106384e-01" nType="0">
              <Node pos="l" depth="4" NCoef="0" IVar="-1" Cut="0.0000000000000000e+00" cType="1" res="5.9381187893450260e-03" rms="3.5208407044410706e-01" purity="3.7204712629318237e-01" nType="-99"/>
              <Node pos="r" depth="4" NCoef="0" IVar="-1" Cut="0.0000000000000000e+00" cType="1" res="-1.7802117392420769e-02" rms="3.0893152952194214e-01" purity="1.7951638996601105e-01" nType="-99"/>
            </Node>
          </Node>
        </Node>
      </Node>
    </BinaryTree>
    <BinaryTree type="DecisionTree" boostWeight="1.0000000000000000e+00" itree="92">
      <Node pos="s" depth="0" NCoef="0" IVar="11" Cut="9.7634357213973999e-01" cType="1" res="-4.9252962526225019e-06" rms="3.4530690312385559e-01" purity="5.0000000000000000e-01" nType="0">
        <Node pos="l" depth="1" NCoef="0" IVar="14" Cut="3.2106113433837891e+00" cType="1" res="1.3525000540539622e-03" rms="3.4269401431083679e-01" purity="6.4255952835083008e-01" nType="0">
          <Node pos="l" depth="2" NCoef="0" IVar="1" Cut="2.1659482812500000e+05" cType="1" res="1.9868183881044388e-03" rms="3.4251302480697632e-01" purity="6.4539206027984619e-01" nType="0">
            <Node pos="l" depth="3" NCoef="0" IVar="1" Cut="2.0783023437500000e+04" cType="1" res="2.6906658895313740e-03" rms="3.4255659580230713e-01" purity="6.5017879009246826e-01" nType="0">
              <Node pos="l" depth="4" NCoef="0" IVar="-1" Cut="0.0000000000000000e+00" cType="1" res="-1.1127748526632786e-02" rms="3.5360726714134216e-01" purity="4.1272389888763428e-01" nType="-99"/>
              <Node pos="r" depth="4" NCoef="0" IVar="-1" Cut="0.0000000000000000e+00" cType="1" res="3.9448719471693039e-03" rms="3.4106752276420593e-01" purity="6.8031322956085205e-01" nType="-99"/>
            </Node>
            <Node pos="r" depth="3" NCoef="0" IVar="-1" Cut="0.0000000000000000e+00" cType="1" res="-1.9101388752460480e-02" rms="3.4003752470016479e-01" purity="4.7629550099372864e-01" nType="-99"/>
          </Node>
          <Node pos="r" depth="2" NCoef="0" IVar="-1" Cut="0.0000000000000000e+00" cType="1" res="-1.9851336255669594e-02" rms="3.4904441237449646e-01" purity="5.2639126777648926e-01" nType="-99"/>
        </Node>
        <Node pos="r" depth="1" NCoef="0" IVar="0" Cut="6.3333334922790527e+00" cType="1" res="-1.1501011904329062e-03" rms="3.4749183058738708e-01" purity="3.7973135709762573e-01" nType="0">
          <Node pos="l" depth="2" NCoef="0" IVar="0" Cut="2.1904761791229248e+00" cType="1" res="-3.3878467511385679e-03" rms="3.4999775886535645e-01" purity="4.3961760401725769e-01" nType="0">
            <Node pos="l" depth="3" NCoef="0" IVar="0" Cut="1.0476191043853760e+00" cType="1" res="3.3632139675319195e-03" rms="3.4584832191467285e-01" purity="3.4109202027320862e-01" nType="0">
              <Node pos="l" depth="4" NCoef="0" IVar="-1" Cut="0.0000000000000000e+00" cType="1" res="-4.3343845754861832e-03" rms="3.3466759324073792e-01" purity="2.6597473025321960e-01" nType="-99"/>
              <Node pos="r" depth="4" NCoef="0" IVar="-1" Cut="0.0000000000000000e+00" cType="1" res="8.7406365200877190e-03" rms="3.5642856359481812e-01" purity="4.1586443781852722e-01" nType="-99"/>
            </Node>
            <Node pos="r" depth="3" NCoef="0" IVar="12" Cut="3.4217219352722168e+00" cType="1" res="-8.1018237397074699e-03" rms="3.5278958082199097e-01" purity="5.0841379165649414e-01" nType="0">
              <Node pos="l" depth="4" NCoef="0" IVar="-1" Cut="0.0000000000000000e+00" cType="1" res="-8.1674521788954735e-03" rms="3.5367366671562195e-01" purity="5.0539308786392212e-01" nType="-99"/>
              <Node pos="r" depth="4" NCoef="0" IVar="-1" Cut="0.0000000000000000e+00" cType="1" res="1.7342766746878624e-02" rms="3.4076070785522461e-01" purity="5.4451566934585571e-01" nType="-99"/>
            </Node>
          </Node>
          <Node pos="r" depth="2" NCoef="0" IVar="15" Cut="1.0017197132110596e+00" cType="1" res="2.1499865688383579e-03" rms="3.4373638033866882e-01" purity="2.9141491651535034e-01" nType="0">
            <Node pos="l" depth="3" NCoef="0" IVar="12" Cut="2.3492362499237061e+00" cType="1" res="1.5713429078459740e-02" rms="3.7091773748397827e-01" purity="3.4635615348815918e-01" nType="0">
              <Node pos="l" depth="4" NCoef="0" IVar="-1" Cut="0.0000000000000000e+00" cType="1" res="2.5828726589679718e-02" rms="3.9195701479911804e-01" purity="4.4732019305229187e-01" nType="-99"/>
              <Node pos="r" depth="4" NCoef="0" IVar="-1" Cut="0.0000000000000000e+00" cType="1" res="3.3892418723553419e-03" rms="3.6117348074913025e-01" purity="3.0412703752517700e-01" nType="-99"/>
            </Node>
            <Node pos="r" depth="3" NCoef="0" IVar="0" Cut="7.0476188659667969e+00" cType="1" res="-6.9385219831019640e-04" rms="3.3769091963768005e-01" purity="2.7989542484283447e-01" nType="0">
              <Node pos="l" depth="4" NCoef="0" IVar="-1" Cut="0.0000000000000000e+00" cType="1" res="4.4836681336164474e-03" rms="3.4187200665473938e-01" purity="3.3488345146179199e-01" nType="-99"/>
              <Node pos="r" depth="4" NCoef="0" IVar="-1" Cut="0.0000000000000000e+00" cType="1" res="-4.4640456326305866e-03" rms="3.3467718958854675e-01" purity="2.4164356291294098e-01" nType="-99"/>
            </Node>
          </Node>
        </Node>
      </Node>
    </BinaryTree>
    <BinaryTree type="DecisionTree" boostWeight="1.0000000000000000e+00" itree="93">
      <Node pos="s" depth="0" NCoef="0" IVar="20" Cut="1.2483096093750000e+05" cType="1" res="-3.5583750559453620e-06" rms="3.4522965550422668e-01" purity="5.0000000000000000e-01" nType="0">
        <Node pos="l" depth="1" NCoef="0" IVar="20" Cut="1.6183060546875000e+04" cType="1" res="2.4916019174270332e-04" rms="3.5312560200691223e-01" purity="5.2360641956329346e-01" nType="0">
          <Node pos="l" depth="2" NCoef="0" IVar="1" Cut="5.2824820312500000e+04" cType="1" res="-1.7077673226594925e-02" rms="3.6562341451644897e-01" purity="4.5098045468330383e-01" nType="0">
            <Node pos="l" depth="3" NCoef="0" IVar="13" Cut="2.2430019378662109e+00" cType="1" res="-3.2456818968057632e-02" rms="3.4471172094345093e-01" purity="2.7551734447479248e-01" nType="0">
              <Node pos="l" depth="4" NCoef="0" IVar="-1" Cut="0.0000000000000000e+00" cType="1" res="-1.0473047150298953e-03" rms="3.2558915019035339e-01" purity="1.6514304280281067e-01" nType="-99"/>
              <Node pos="r" depth="4" NCoef="0" IVar="-1" Cut="0.0000000000000000e+00" cType="1" res="-3.9833992719650269e-02" rms="3.5958552360534668e-01" purity="3.8165163993835449e-01" nType="-99"/>
            </Node>
            <Node pos="r" depth="3" NCoef="0" IVar="15" Cut="1.8151204586029053e+00" cType="1" res="-3.6629990790970623e-04" rms="3.8637453317642212e-01" purity="6.4164310693740845e-01" nType="0">
              <Node pos="l" depth="4" NCoef="0" IVar="-1" Cut="0.0000000000000000e+00" cType="1" res="-8.7441839277744293e-03" rms="4.0591087937355042e-01" purity="6.1002469062805176e-01" nType="-99"/>
              <Node pos="r" depth="4" NCoef="0" IVar="-1" Cut="0.0000000000000000e+00" cType="1" res="8.0888215452432632e-03" rms="3.6806467175483704e-01" purity="6.6916072368621826e-01" nType="-99"/>
            </Node>
          </Node>
          <Node pos="r" depth="2" NCoef="0" IVar="20" Cut="9.8961515625000000e+04" cType="1" res="1.3743913732469082e-03" rms="3.5226917266845703e-01" purity="5.2832281589508057e-01" nType="0">
            <Node pos="l" depth="3" NCoef="0" IVar="1" Cut="2.3698948437500000e+05" cType="1" res="2.6821475476026535e-03" rms="3.6435785889625549e-01" purity="5.6836903095245361e-01" nType="0">
              <Node pos="l" depth="4" NCoef="0" IVar="-1" Cut="0.0000000000000000e+00" cType="1" res="2.3907478898763657e-03" rms="3.6441972851753235e-01" purity="5.7049447298049927e-01" nType="-99"/>
              <Node pos="r" depth="4" NCoef="0" IVar="-1" Cut="0.0000000000000000e+00" cType="1" res="-3.0950428918004036e-02" rms="3.5688191652297974e-01" purity="4.1161438822746277e-01" nType="-99"/>
            </Node>
            <Node pos="r" depth="3" NCoef="0" IVar="16" Cut="1.0117294788360596e+00" cType="1" res="-1.5370413661003113e-02" rms="1.1343482136726379e-01" purity="1.5561803244054317e-02" nType="0">
              <Node pos="l" depth="4" NCoef="0" IVar="-1" Cut="0.0000000000000000e+00" cType="1" res="-7.1247339248657227e-02" rms="1.3775850832462311e-01" purity="2.6681175455451012e-02" nType="-99"/>
              <Node pos="r" depth="4" NCoef="0" IVar="-1" Cut="0.0000000000000000e+00" cType="1" res="-4.8836354166269302e-02" rms="1.0583560168743134e-01" purity="1.2740973383188248e-02" nType="-99"/>
            </Node>
          </Node>
        </Node>
        <Node pos="r" depth="1" NCoef="0" IVar="2" Cut="8.6214987500000000e+05" cType="1" res="-5.3222463466227055e-03" rms="5.5704493075609207e-02" purity="3.1826689373701811e-03" nType="0">
          <Node pos="l" depth="2" NCoef="0" IVar="7" Cut="1.7552035937500000e+05" cType="1" res="-7.4065425433218479e-03" rms="5.0996575504541397e-02" purity="2.6484238915145397e-03" nType="0">
            <Node pos="l" depth="3" NCoef="0" IVar="-1" Cut="0.0000000000000000e+00" cType="1" res="-9.4115704298019409e-02" rms="3.1512141227722168e-02" purity="1.0804805206134915e-03" nType="-99"/>
            <Node pos="r" depth="3" NCoef="0" IVar="-1" Cut="0.0000000000000000e+00" cType="1" res="-2.4860419332981110e-02" rms="7.1352638304233551e-02" purity="5.1297992467880249e-03" nType="-99"/>
          </Node>
          <Node pos="r" depth="2" NCoef="0" IVar="-1" Cut="0.0000000000000000e+00" cType="1" res="-1.4954367652535439e-02" rms="6.4603656530380249e-02" purity="4.3536340817809105e-03" nType="-99"/>
        </Node>
      </Node>
    </BinaryTree>
    <BinaryTree type="DecisionTree" boostWeight="1.0000000000000000e+00" itree="94">
      <Node pos="s" depth="0" NCoef="0" IVar="12" Cut="2.8754057884216309e+00" cType="1" res="-1.6764475731179118e-05" rms="3.4514880180358887e-01" purity="5.0000000000000000e-01" nType="0">
        <Node pos="l" depth="1" NCoef="0" IVar="9" Cut="9.8558781250000000e+04" cType="1" res="-9.4796100165694952e-04" rms="3.5592800378799438e-01" purity="4.8231020569801331e-01" nType="0">
          <Node pos="l" depth="2" NCoef="0" IVar="21" Cut="7.3720734375000000e+04" cType="1" res="3.5377857275307178e-03" rms="3.8089880347251892e-01" purity="5.0125759840011597e-01" nType="0">
            <Node pos="l" depth="3" NCoef="0" IVar="7" Cut="2.6955646484375000e+04" cType="1" res="6.8749063648283482e-03" rms="3.8453122973442078e-01" purity="5.3192412853240967e-01" nType="0">
              <Node pos="l" depth="4" NCoef="0" IVar="-1" Cut="0.0000000000000000e+00" cType="1" res="-5.9565436094999313e-03" rms="3.4061759710311890e-01" purity="6.5611475706100464e-01" nType="-99"/>
              <Node pos="r" depth="4" NCoef="0" IVar="-1" Cut="0.0000000000000000e+00" cType="1" res="7.9731997102499008e-03" rms="4.0241834521293640e-01" purity="4.7650924324989319e-01" nType="-99"/>
            </Node>
            <Node pos="r" depth="3" NCoef="0" IVar="8" Cut="6.3493695312500000e+04" cType="1" res="-2.6490908116102219e-02" rms="3.4505513310432434e-01" purity="2.2530835866928101e-01" nType="0">
              <Node pos="l" depth="4" NCoef="0" IVar="-1" Cut="0.0000000000000000e+00" cType="1" res="-4.7142051160335541e-02" rms="4.0909975767135620e-01" purity="4.0565189719200134e-01" nType="-99"/>
              <Node pos="r" depth="4" NCoef="0" IVar="-1" Cut="0.0000000000000000e+00" cType="1" res="-6.4258021302521229e-04" rms="3.0703482031822205e-01" purity="1.4055790007114410e-01" nType="-99"/>
            </Node>
          </Node>
          <Node pos="r" depth="2" NCoef="0" IVar="12" Cut="2.1442599296569824e+00" cType="1" res="-6.8133976310491562e-03" rms="3.2025900483131409e-01" purity="4.5753508806228638e-01" nType="0">
            <Node pos="l" depth="3" NCoef="0" IVar="2" Cut="7.2418437500000000e+05" cType="1" res="-3.0675636604428291e-02" rms="2.9493203759193420e-01" purity="2.1123534440994263e-01" nType="0">
              <Node pos="l" depth="4" NCoef="0" IVar="-1" Cut="0.0000000000000000e+00" cType="1" res="-3.9878509938716888e-02" rms="3.3022359013557434e-01" purity="2.7749988436698914e-01" nType="-99"/>
              <Node pos="r" depth="4" NCoef="0" IVar="-1" Cut="0.0000000000000000e+00" cType="1" res="-5.2036149427294731e-03" rms="2.2703410685062408e-01" purity="1.0851723700761795e-01" nType="-99"/>
            </Node>
            <Node pos="r" depth="3" NCoef="0" IVar="6" Cut="1.6091465625000000e+05" cType="1" res="-7.0278393104672432e-04" rms="3.2614818215370178e-01" purity="5.2060729265213013e-01" nType="0">
              <Node pos="l" depth="4" NCoef="0" IVar="-1" Cut="0.0000000000000000e+00" cType="1" res="-1.1614577844738960e-02" rms="3.8598397374153137e-01" purity="5.1235383749008179e-01" nType="-99"/>
              <Node pos="r" depth="4" NCoef="0" IVar="-1" Cut="0.0000000000000000e+00" cType="1" res="3.5666234325617552e-03" rms="3.0878004431724548e-01" purity="5.2272576093673706e-01" nType="-99"/>
            </Node>
          </Node>
        </Node>
        <Node pos="r" depth="1" NCoef="0" IVar="5" Cut="4.5350371875000000e+05" cType="1" res="1.4330350095406175e-03" rms="3.2765606045722961e-01" purity="5.2754163742065430e-01" nType="0">
          <Node pos="l" depth="2" NCoef="0" IVar="5" Cut="8.6214039062500000e+04" cType="1" res="2.0551595371216536e-03" rms="3.2919797301292419e-01" purity="5.3665655851364136e-01" nType="0">
            <Node pos="l" depth="3" NCoef="0" IVar="16" Cut="2.4283013343811035e+00" cType="1" res="-2.8067098464816809e-03" rms="3.3526855707168579e-01" purity="5.0224530696868896e-01" nType="0">
              <Node pos="l" depth="4" NCoef="0" IVar="-1" Cut="0.0000000000000000e+00" cType="1" res="5.5100896861404181e-04" rms="3.3630317449569702e-01" purity="5.3843420743942261e-01" nType="-99"/>
              <Node pos="r" depth="4" NCoef="0" IVar="-1" Cut="0.0000000000000000e+00" cType="1" res="-2.0754588767886162e-02" rms="3.2780599594116211e-01" purity="2.7356103062629700e-01" nType="-99"/>
            </Node>
            <Node pos="r" depth="3" NCoef="0" IVar="10" Cut="1.1677993750000000e+05" cType="1" res="6.0986061580479145e-03" rms="3.2400715351104736e-01" purity="5.6527519226074219e-01" nType="0">
              <Node pos="l" depth="4" NCoef="0" IVar="-1" Cut="0.0000000000000000e+00" cType="1" res="9.8907342180609703e-03" rms="3.3660563826560974e-01" purity="5.6733626127243042e-01" nType="-99"/>
              <Node pos="r" depth="4" NCoef="0" IVar="-1" Cut="0.0000000000000000e+00" cType="1" res="1.1340397177264094e-03" rms="3.1240943074226379e-01" purity="5.6346023082733154e-01" nType="-99"/>
            </Node>
          </Node>
          <Node pos="r" depth="2" NCoef="0" IVar="-1" Cut="0.0000000000000000e+00" cType="1" res="-2.3726169019937515e-02" rms="2.6628226041793823e-01" purity="2.0400014519691467e-01" nType="-99"/>
        </Node>
      </Node>
    </BinaryTree>
    <BinaryTree type="DecisionTree" boostWeight="1.0000000000000000e+00" itree="95">
      <Node pos="s" depth="0" NCoef="0" IVar="16" Cut="2.4834966659545898e+00" cType="1" res="-1.5678837371524423e-05" rms="3.4498235583305359e-01" purity="5.0000000000000000e-01" nType="0">
        <Node pos="l" depth="1" NCoef="0" IVar="19" Cut="9.0827445312500000e+04" cType="1" res="-6.0238747391849756e-04" rms="3.4322503209114075e-01" purity="5.3322315216064453e-01" nType="0">
          <Node pos="l" depth="2" NCoef="0" IVar="19" Cut="3.8518507812500000e+04" cType="1" res="1.4987350441515446e-03" rms="3.4222152829170227e-01" purity="6.0382491350173950e-01" nType="0">
            <Node pos="l" depth="3" NCoef="0" IVar="2" Cut="3.3400731250000000e+05" cType="1" res="-6.1525590717792511e-03" rms="3.4510517120361328e-01" purity="5.2891355752944946e-01" nType="0">
              <Node pos="l" depth="4" NCoef="0" IVar="-1" Cut="0.0000000000000000e+00" cType="1" res="-1.2969878735020757e-03" rms="3.6298245191574097e-01" purity="5.5131018161773682e-01" nType="-99"/>
              <Node pos="r" depth="4" NCoef="0" IVar="-1" Cut="0.0000000000000000e+00" cType="1" res="-1.3274741359055042e-02" rms="3.1105822324752808e-01" purity="4.8954981565475464e-01" nType="-99"/>
            </Node>
            <Node pos="r" depth="3" NCoef="0" IVar="11" Cut="1.4731675386428833e+00" cType="1" res="7.5577613897621632e-03" rms="3.3979839086532593e-01" purity="6.6314691305160522e-01" nType="0">
              <Node pos="l" depth="4" NCoef="0" IVar="-1" Cut="0.0000000000000000e+00" cType="1" res="4.0710167959332466e-03" rms="3.3311447501182556e-01" purity="7.5261569023132324e-01" nType="-99"/>
              <Node pos="r" depth="4" NCoef="0" IVar="-1" Cut="0.0000000000000000e+00" cType="1" res="1.1459227651357651e-02" rms="3.5816028714179993e-01" purity="4.0656921267509460e-01" nType="-99"/>
            </Node>
          </Node>
          <Node pos="r" depth="2" NCoef="0" IVar="10" Cut="1.1677993750000000e+05" cType="1" res="-7.5794938020408154e-03" rms="3.4644514322280884e-01" purity="2.9877898097038269e-01" nType="0">
            <Node pos="l" depth="3" NCoef="0" IVar="5" Cut="3.8970931250000000e+05" cType="1" res="-1.8787156790494919e-02" rms="3.5603711009025574e-01" purity="2.6921281218528748e-01" nType="0">
              <Node pos="l" depth="4" NCoef="0" IVar="-1" Cut="0.0000000000000000e+00" cType="1" res="-1.8029993399977684e-02" rms="3.6329826712608337e-01" purity="2.8989011049270630e-01" nType="-99"/>
              <Node pos="r" depth="4" NCoef="0" IVar="-1" Cut="0.0000000000000000e+00" cType="1" res="8.6383996531367302e-03" rms="3.2058176398277283e-01" purity="1.7789149284362793e-01" nType="-99"/>
            </Node>
            <Node pos="r" depth="3" NCoef="0" IVar="16" Cut="1.7896506786346436e+00" cType="1" res="9.6043490339070559e-04" rms="3.3870533108711243e-01" purity="3.2130759954452515e-01" nType="0">
              <Node pos="l" depth="4" NCoef="0" IVar="-1" Cut="0.0000000000000000e+00" cType="1" res="-8.2096727564930916e-03" rms="3.2968676090240479e-01" purity="3.2530704140663147e-01" nType="-99"/>
              <Node pos="r" depth="4" NCoef="0" IVar="-1" Cut="0.0000000000000000e+00" cType="1" res="9.9665019661188126e-03" rms="3.4785923361778259e-01" purity="3.1697550415992737e-01" nType="-99"/>
            </Node>
          </Node>
        </Node>
        <Node pos="r" depth="1" NCoef="0" IVar="5" Cut="1.7009104687500000e+05" cType="1" res="3.5742707550525665e-03" rms="3.5552483797073364e-01" purity="2.9671430587768555e-01" nType="0">
          <Node pos="l" depth="2" NCoef="0" IVar="12" Cut="2.1476359367370605e+00" cType="1" res="-1.6155125340446830e-03" rms="3.6346092820167542e-01" purity="3.2958176732063293e-01" nType="0">
            <Node pos="l" depth="3" NCoef="0" IVar="14" Cut="2.0739545822143555e+00" cType="1" res="2.1069739013910294e-02" rms="3.9312618970870972e-01" purity="3.5750201344490051e-01" nType="0">
              <Node pos="l" depth="4" NCoef="0" IVar="-1" Cut="0.0000000000000000e+00" cType="1" res="2.7455033734440804e-02" rms="4.1132742166519165e-01" purity="4.3156570196151733e-01" nType="-99"/>
              <Node pos="r" depth="4" NCoef="0" IVar="-1" Cut="0.0000000000000000e+00" cType="1" res="2.8224161360412836e-03" rms="3.7767896056175232e-01" purity="3.0057331919670105e-01" nType="-99"/>
            </Node>
            <Node pos="r" depth="3" NCoef="0" IVar="8" Cut="7.0432929687500000e+04" cType="1" res="-9.7275292500853539e-03" rms="3.5189220309257507e-01" purity="3.1959775090217590e-01" nType="0">
              <Node pos="l" depth="4" NCoef="0" IVar="-1" Cut="0.0000000000000000e+00" cType="1" res="-8.9049180969595909e-03" rms="3.9899641275405884e-01" purity="4.4444972276687622e-01" nType="-99"/>
              <Node pos="r" depth="4" NCoef="0" IVar="-1" Cut="0.0000000000000000e+00" cType="1" res="2.5246704462915659e-03" rms="2.2952669858932495e-01" purity="6.9103121757507324e-02" nType="-99"/>
            </Node>
          </Node>
          <Node pos="r" depth="2" NCoef="0" IVar="12" Cut="2.7635099887847900e+00" cType="1" res="1.2525551021099091e-02" rms="3.4121811389923096e-01" purity="2.4002489447593689e-01" nType="0">
            <Node pos="l" depth="3" NCoef="0" IVar="9" Cut="6.9044210937500000e+04" cType="1" res="3.1869602389633656e-03" rms="3.3791625499725342e-01" purity="2.1843299269676208e-01" nType="0">
              <Node pos="l" depth="4" NCoef="0" IVar="-1" Cut="0.0000000000000000e+00" cType="1" res="1.7739100381731987e-02" rms="4.0897825360298157e-01" purity="3.2095110416412354e-01" nType="-99"/>
              <Node pos="r" depth="4" NCoef="0" IVar="-1" Cut="0.0000000000000000e+00" cType="1" res="-9.8776016384363174e-03" rms="2.9477527737617493e-01" purity="1.6660264134407043e-01" nType="-99"/>
            </Node>
            <Node pos="r" depth="3" NCoef="0" IVar="-1" Cut="0.0000000000000000e+00" cType="1" res="2.9637292027473450e-02" rms="3.4766528010368347e-01" purity="2.8901925683021545e-01" nType="-99"/>
          </Node>
        </Node>
      </Node>
    </BinaryTree>
    <BinaryTree type="DecisionTree" boostWeight="1.0000000000000000e+00" itree="96">
      <Node pos="s" depth="0" NCoef="0" IVar="11" Cut="9.7634357213973999e-01" cType="1" res="-1.4546224520017859e-05" rms="3.4486374258995056e-01" purity="5.0000000000000000e-01" nType="0">
        <Node pos="l" depth="1" NCoef="0" IVar="21" Cut="1.2201020312500000e+05" cType="1" res="1.6028620302677155e-03" rms="3.4227249026298523e-01" purity="6.4255952835083008e-01" nType="0">
          <Node pos="l" depth="2" NCoef="0" IVar="21" Cut="5.8098925781250000e+03" cType="1" res="3.8602374843321741e-04" rms="3.4729465842247009e-01" purity="6.2716054916381836e-01" nType="0">
            <Node pos="l" depth="3" NCoef="0" IVar="11" Cut="6.3010698556900024e-01" cType="1" res="1.2992794625461102e-02" rms="2.1280346810817719e-01" purity="9.4567221403121948e-01" nType="0">
              <Node pos="l" depth="4" NCoef="0" IVar="-1" Cut="0.0000000000000000e+00" cType="1" res="3.2107669860124588e-02" rms="1.8503446877002716e-01" purity="9.5947456359863281e-01" nType="-99"/>
              <Node pos="r" depth="4" NCoef="0" IVar="-1" Cut="0.0000000000000000e+00" cType="1" res="1.7122957855463028e-02" rms="2.4306903779506683e-01" purity="9.2842513322830200e-01" nType="-99"/>
            </Node>
            <Node pos="r" depth="3" NCoef="0" IVar="21" Cut="1.7238496093750000e+04" cType="1" res="-2.6583306025713682e-03" rms="3.7250050902366638e-01" purity="5.5024462938308716e-01" nType="0">
              <Node pos="l" depth="4" NCoef="0" IVar="-1" Cut="0.0000000000000000e+00" cType="1" res="-1.6180183738470078e-02" rms="3.8423857092857361e-01" purity="3.4886592626571655e-01" nType="-99"/>
              <Node pos="r" depth="4" NCoef="0" IVar="-1" Cut="0.0000000000000000e+00" cType="1" res="7.5104500865563750e-04" rms="3.7041765451431274e-01" purity="5.8308029174804688e-01" nType="-99"/>
            </Node>
          </Node>
          <Node pos="r" depth="2" NCoef="0" IVar="11" Cut="6.7487651109695435e-01" cType="1" res="1.3831813819706440e-02" rms="2.8667485713958740e-01" purity="7.9731506109237671e-01" nType="0">
            <Node pos="l" depth="3" NCoef="0" IVar="-1" Cut="0.0000000000000000e+00" cType="1" res="2.6376577094197273e-02" rms="2.5788456201553345e-01" purity="8.7488311529159546e-01" nType="-99"/>
            <Node pos="r" depth="3" NCoef="0" IVar="-1" Cut="0.0000000000000000e+00" cType="1" res="1.4640895642514806e-05" rms="3.3591553568840027e-01" purity="6.4421576261520386e-01" nType="-99"/>
          </Node>
        </Node>
        <Node pos="r" depth="1" NCoef="0" IVar="14" Cut="2.8268120288848877e+00" cType="1" res="-1.3790536904707551e-03" rms="3.4702891111373901e-01" purity="3.7973135709762573e-01" nType="0">
          <Node pos="l" depth="2" NCoef="0" IVar="18" Cut="8.4268539062500000e+04" cType="1" res="-2.3182700388133526e-03" rms="3.4832617640495300e-01" purity="3.7402659654617310e-01" nType="0">
            <Node pos="l" depth="3" NCoef="0" IVar="18" Cut="2.7652818359375000e+04" cType="1" res="1.5260597865562886e-04" rms="3.6506044864654541e-01" purity="4.0571540594100952e-01" nType="0">
              <Node pos="l" depth="4" NCoef="0" IVar="-1" Cut="0.0000000000000000e+00" cType="1" res="-6.0397600755095482e-03" rms="3.5036596655845642e-01" purity="3.5973331332206726e-01" nType="-99"/>
              <Node pos="r" depth="4" NCoef="0" IVar="-1" Cut="0.0000000000000000e+00" cType="1" res="5.7731424458324909e-03" rms="3.7939149141311646e-01" purity="4.5296689867973328e-01" nType="-99"/>
            </Node>
            <Node pos="r" depth="3" NCoef="0" IVar="15" Cut="2.0467846393585205e+00" cType="1" res="-6.9156084209680557e-03" rms="3.1478032469749451e-01" purity="3.1506603956222534e-01" nType="0">
              <Node pos="l" depth="4" NCoef="0" IVar="-1" Cut="0.0000000000000000e+00" cType="1" res="-1.8997740000486374e-02" rms="3.0975523591041565e-01" purity="2.5756075978279114e-01" nType="-99"/>
              <Node pos="r" depth="4" NCoef="0" IVar="-1" Cut="0.0000000000000000e+00" cType="1" res="2.2901040210854262e-04" rms="3.1733679771423340e-01" purity="3.4729370474815369e-01" nType="-99"/>
            </Node>
          </Node>
          <Node pos="r" depth="2" NCoef="0" IVar="16" Cut="1.7608851194381714e+00" cType="1" res="7.1386219933629036e-03" rms="3.3491453528404236e-01" purity="4.3146750330924988e-01" nType="0">
            <Node pos="l" depth="3" NCoef="0" IVar="6" Cut="1.7892329687500000e+05" cType="1" res="1.5183842740952969e-02" rms="3.3520749211311340e-01" purity="5.2987551689147949e-01" nType="0">
              <Node pos="l" depth="4" NCoef="0" IVar="-1" Cut="0.0000000000000000e+00" cType="1" res="1.8671566620469093e-02" rms="3.6571282148361206e-01" purity="6.3072544336318970e-01" nType="-99"/>
              <Node pos="r" depth="4" NCoef="0" IVar="-1" Cut="0.0000000000000000e+00" cType="1" res="-9.3744983896613121e-03" rms="2.5953209400177002e-01" purity="3.2125216722488403e-01" nType="-99"/>
            </Node>
            <Node pos="r" depth="3" NCoef="0" IVar="-1" Cut="0.0000000000000000e+00" cType="1" res="-6.8755089305341244e-03" rms="3.3382707834243774e-01" purity="2.4496212601661682e-01" nType="-99"/>
          </Node>
        </Node>
      </Node>
    </BinaryTree>
    <BinaryTree type="DecisionTree" boostWeight="1.0000000000000000e+00" itree="97">
      <Node pos="s" depth="0" NCoef="0" IVar="11" Cut="4.9856403470039368e-01" cType="1" res="-7.0142345975909848e-06" rms="3.4477758407592773e-01" purity="5.0000000000000000e-01" nType="0">
        <Node pos="l" depth="1" NCoef="0" IVar="8" Cut="4.5630714843750000e+04" cType="1" res="3.0660072807222605e-03" rms="3.2471036911010742e-01" purity="7.0127981901168823e-01" nType="0">
          <Node pos="l" depth="2" NCoef="0" IVar="8" Cut="2.2268267578125000e+04" cType="1" res="4.6864226460456848e-03" rms="3.2805764675140381e-01" purity="7.1947109699249268e-01" nType="0">
            <Node pos="l" depth="3" NCoef="0" IVar="20" Cut="1.3087927734375000e+04" cType="1" res="-3.6571675445884466e-04" rms="3.5169887542724609e-01" purity="6.3771766424179077e-01" nType="0">
              <Node pos="l" depth="4" NCoef="0" IVar="-1" Cut="0.0000000000000000e+00" cType="1" res="-1.5447003766894341e-02" rms="3.4979629516601562e-01" purity="5.1431930065155029e-01" nType="-99"/>
              <Node pos="r" depth="4" NCoef="0" IVar="-1" Cut="0.0000000000000000e+00" cType="1" res="2.8507227543741465e-03" rms="3.5191380977630615e-01" purity="6.6122663021087646e-01" nType="-99"/>
            </Node>
            <Node pos="r" depth="3" NCoef="0" IVar="18" Cut="8.5186140625000000e+04" cType="1" res="1.0249551385641098e-02" rms="2.9977840185165405e-01" purity="8.0949330329895020e-01" nType="0">
              <Node pos="l" depth="4" NCoef="0" IVar="-1" Cut="0.0000000000000000e+00" cType="1" res="1.3126917183399200e-03" rms="2.9875054955482483e-01" purity="8.1862825155258179e-01" nType="-99"/>
              <Node pos="r" depth="4" NCoef="0" IVar="-1" Cut="0.0000000000000000e+00" cType="1" res="1.6558244824409485e-02" rms="3.0029419064521790e-01" purity="8.0364090204238892e-01" nType="-99"/>
            </Node>
          </Node>
          <Node pos="r" depth="2" NCoef="0" IVar="-1" Cut="0.0000000000000000e+00" cType="1" res="-2.0385116338729858e-02" rms="2.7757522463798523e-01" purity="4.6877735853195190e-01" nType="-99"/>
        </Node>
        <Node pos="r" depth="1" NCoef="0" IVar="16" Cut="1.2551904916763306e+00" cType="1" res="-5.5601052008569241e-04" rms="3.4823802113533020e-01" purity="4.6404129266738892e-01" nType="0">
          <Node pos="l" depth="2" NCoef="0" IVar="16" Cut="6.0866850614547729e-01" cType="1" res="-2.4392770137637854e-03" rms="3.3195871114730835e-01" purity="6.3766449689865112e-01" nType="0">
            <Node pos="l" depth="3" NCoef="0" IVar="4" Cut="2.1325243750000000e+05" cType="1" res="7.6222936622798443e-03" rms="3.0325403809547424e-01" purity="7.3065388202667236e-01" nType="0">
              <Node pos="l" depth="4" NCoef="0" IVar="-1" Cut="0.0000000000000000e+00" cType="1" res="-6.2031326815485954e-03" rms="3.6957192420959473e-01" purity="5.9638118743896484e-01" nType="-99"/>
              <Node pos="r" depth="4" NCoef="0" IVar="-1" Cut="0.0000000000000000e+00" cType="1" res="1.3271072879433632e-02" rms="2.8364479541778564e-01" purity="7.6502341032028198e-01" nType="-99"/>
            </Node>
            <Node pos="r" depth="3" NCoef="0" IVar="11" Cut="1.4780683517456055e+00" cType="1" res="-5.7582440786063671e-03" rms="3.4083250164985657e-01" purity="6.0699039697647095e-01" nType="0">
              <Node pos="l" depth="4" NCoef="0" IVar="-1" Cut="0.0000000000000000e+00" cType="1" res="-7.5315223075449467e-03" rms="3.3952686190605164e-01" purity="7.0372182130813599e-01" nType="-99"/>
              <Node pos="r" depth="4" NCoef="0" IVar="-1" Cut="0.0000000000000000e+00" cType="1" res="1.6310691135004163e-03" rms="3.4363877773284912e-01" purity="3.8825780153274536e-01" nType="-99"/>
            </Node>
          </Node>
          <Node pos="r" depth="2" NCoef="0" IVar="13" Cut="3.0165264606475830e+00" cType="1" res="8.1721669994294643e-04" rms="3.5963800549507141e-01" purity="3.3743998408317566e-01" nType="0">
            <Node pos="l" depth="3" NCoef="0" IVar="5" Cut="4.4210690625000000e+05" cType="1" res="-8.9514034334570169e-04" rms="3.5389059782028198e-01" purity="3.1153130531311035e-01" nType="0">
              <Node pos="l" depth="4" NCoef="0" IVar="-1" Cut="0.0000000000000000e+00" cType="1" res="-1.3700333656743169e-03" rms="3.5822302103042603e-01" purity="3.2238557934761047e-01" nType="-99"/>
              <Node pos="r" depth="4" NCoef="0" IVar="-1" Cut="0.0000000000000000e+00" cType="1" res="1.9473006948828697e-02" rms="2.7265256643295288e-01" purity="1.3331203162670135e-01" nType="-99"/>
            </Node>
            <Node pos="r" depth="3" NCoef="0" IVar="3" Cut="2.2645621875000000e+05" cType="1" res="7.0837656967341900e-03" rms="3.7986484169960022e-01" purity="4.3225547671318054e-01" nType="0">
              <Node pos="l" depth="4" NCoef="0" IVar="-1" Cut="0.0000000000000000e+00" cType="1" res="9.3474527820944786e-03" rms="4.1724613308906555e-01" purity="5.5513387918472290e-01" nType="-99"/>
              <Node pos="r" depth="4" NCoef="0" IVar="-1" Cut="0.0000000000000000e+00" cType="1" res="-3.9975615218281746e-03" rms="3.2807314395904541e-01" purity="2.8205248713493347e-01" nType="-99"/>
            </Node>
          </Node>
        </Node>
      </Node>
    </BinaryTree>
    <BinaryTree type="DecisionTree" boostWeight="1.0000000000000000e+00" itree="98">
      <Node pos="s" depth="0" NCoef="0" IVar="13" Cut="8.2276010513305664e-01" cType="1" res="-3.6089527384319808e-06" rms="3.4472137689590454e-01" purity="5.0000000000000000e-01" nType="0">
        <Node pos="l" depth="1" NCoef="0" IVar="20" Cut="6.2714992187500000e+04" cType="1" res="-5.3339479491114616e-03" rms="3.1761220097541809e-01" purity="1.7843550443649292e-01" nType="0">
          <Node pos="l" depth="2" NCoef="0" IVar="17" Cut="8.0507937500000000e+04" cType="1" res="-1.3015219010412693e-02" rms="3.5399883985519409e-01" purity="2.3066473007202148e-01" nType="0">
            <Node pos="l" depth="3" NCoef="0" IVar="15" Cut="1.8008975982666016e+00" cType="1" res="-2.6018608361482620e-02" rms="3.4299185872077942e-01" purity="2.1569541096687317e-01" nType="0">
              <Node pos="l" depth="4" NCoef="0" IVar="-1" Cut="0.0000000000000000e+00" cType="1" res="-9.6994852647185326e-03" rms="3.5889801383018494e-01" purity="2.6532763242721558e-01" nType="-99"/>
              <Node pos="r" depth="4" NCoef="0" IVar="-1" Cut="0.0000000000000000e+00" cType="1" res="-3.0747953802347183e-02" rms="3.2576692104339600e-01" purity="1.6578994691371918e-01" nType="-99"/>
            </Node>
            <Node pos="r" depth="3" NCoef="0" IVar="-1" Cut="0.0000000000000000e+00" cType="1" res="5.7388273999094963e-03" rms="3.7023127079010010e-01" purity="2.5501278042793274e-01" nType="-99"/>
          </Node>
          <Node pos="r" depth="2" NCoef="0" IVar="-1" Cut="0.0000000000000000e+00" cType="1" res="2.3338550701737404e-02" rms="2.2736294567584991e-01" purity="7.4073679745197296e-02" nType="-99"/>
        </Node>
        <Node pos="r" depth="1" NCoef="0" IVar="11" Cut="2.0306975841522217e+00" cType="1" res="2.9226878541521728e-04" rms="3.4616154432296753e-01" purity="5.1784950494766235e-01" nType="0">
          <Node pos="l" depth="2" NCoef="0" IVar="13" Cut="1.9981474876403809e+00" cType="1" res="1.0549789294600487e-03" rms="3.5367503762245178e-01" purity="5.6878620386123657e-01" nType="0">
            <Node pos="l" depth="3" NCoef="0" IVar="10" Cut="6.1878289062500000e+04" cType="1" res="7.0003373548388481e-03" rms="3.6095759272575378e-01" purity="3.3948281407356262e-01" nType="0">
              <Node pos="l" depth="4" NCoef="0" IVar="-1" Cut="0.0000000000000000e+00" cType="1" res="9.9692018702626228e-03" rms="3.8861349225044250e-01" purity="3.8688343763351440e-01" nType="-99"/>
              <Node pos="r" depth="4" NCoef="0" IVar="-1" Cut="0.0000000000000000e+00" cType="1" res="-9.2236470663920045e-04" rms="3.3209452033042908e-01" purity="2.9404681921005249e-01" nType="-99"/>
            </Node>
            <Node pos="r" depth="3" NCoef="0" IVar="7" Cut="1.8259121875000000e+05" cType="1" res="-4.7840265324339271e-04" rms="3.5175603628158569e-01" purity="6.2792640924453735e-01" nType="0">
              <Node pos="l" depth="4" NCoef="0" IVar="-1" Cut="0.0000000000000000e+00" cType="1" res="-7.6573848491534591e-04" rms="3.5385358333587646e-01" purity="6.2871855497360229e-01" nType="-99"/>
              <Node pos="r" depth="4" NCoef="0" IVar="-1" Cut="0.0000000000000000e+00" cType="1" res="1.4262421987950802e-02" rms="2.9615619778633118e-01" purity="6.0873812437057495e-01" nType="-99"/>
            </Node>
          </Node>
          <Node pos="r" depth="2" NCoef="0" IVar="14" Cut="7.3034286499023438e-01" cType="1" res="-4.7722663730382919e-03" rms="2.9134646058082581e-01" purity="1.7962008714675903e-01" nType="0">
            <Node pos="l" depth="3" NCoef="0" IVar="-1" Cut="0.0000000000000000e+00" cType="1" res="-3.6285880953073502e-02" rms="2.5827342271804810e-01" purity="1.1540047824382782e-01" nType="-99"/>
            <Node pos="r" depth="3" NCoef="0" IVar="1" Cut="8.3566031250000000e+04" cType="1" res="-2.1342199761420488e-03" rms="2.9448327422142029e-01" purity="1.8637070059776306e-01" nType="0">
              <Node pos="l" depth="4" NCoef="0" IVar="-1" Cut="0.0000000000000000e+00" cType="1" res="1.8023487646132708e-03" rms="2.9341676831245422e-01" purity="1.7130184173583984e-01" nType="-99"/>
              <Node pos="r" depth="4" NCoef="0" IVar="-1" Cut="0.0000000000000000e+00" cType="1" res="-1.6907930374145508e-02" rms="2.9820960760116577e-01" purity="2.4600048363208771e-01" nType="-99"/>
            </Node>
          </Node>
        </Node>
      </Node>
    </BinaryTree>
    <BinaryTree type="DecisionTree" boostWeight="1.0000000000000000e+00" itree="99">
      <Node pos="s" depth="0" NCoef="0" IVar="18" Cut="1.4775275000000000e+05" cType="1" res="-5.7111237765639089e-06" rms="3.4467279911041260e-01" purity="5.0000000000000000e-01" nType="0">
        <Node pos="l" depth="1" NCoef="0" IVar="9" Cut="2.6200375000000000e+05" cType="1" res="5.7007343275472522e-04" rms="3.5281211137771606e-01" purity="5.1551795005798340e-01" nType="0">
          <Node pos="l" depth="2" NCoef="0" IVar="3" Cut="8.3660742187500000e+04" cType="1" res="1.8297766800969839e-03" rms="3.5754203796386719e-01" purity="5.3073918819427490e-01" nType="0">
            <Node pos="l" depth="3" NCoef="0" IVar="3" Cut="7.4988492187500000e+04" cType="1" res="-1.2650283984839916e-02" rms="3.7883090972900391e-01" purity="3.5827180743217468e-01" nType="0">
              <Node pos="l" depth="4" NCoef="0" IVar="-1" Cut="0.0000000000000000e+00" cType="1" res="6.3117197714745998e-03" rms="3.9830821752548218e-01" purity="3.9169797301292419e-01" nType="-99"/>
              <Node pos="r" depth="4" NCoef="0" IVar="-1" Cut="0.0000000000000000e+00" cType="1" res="-3.7436991930007935e-02" rms="3.3368253707885742e-01" purity="2.9383683204650879e-01" nType="-99"/>
            </Node>
            <Node pos="r" depth="3" NCoef="0" IVar="9" Cut="7.3392101562500000e+04" cType="1" res="4.4493111781775951e-03" rms="3.5349050164222717e-01" purity="5.6193959712982178e-01" nType="0">
              <Node pos="l" depth="4" NCoef="0" IVar="-1" Cut="0.0000000000000000e+00" cType="1" res="1.1165736243128777e-02" rms="3.9571121335029602e-01" purity="6.1887568235397339e-01" nType="-99"/>
              <Node pos="r" depth="4" NCoef="0" IVar="-1" Cut="0.0000000000000000e+00" cType="1" res="7.5238477438688278e-04" rms="3.4113839268684387e-01" purity="5.4660195112228394e-01" nType="-99"/>
            </Node>
          </Node>
          <Node pos="r" depth="2" NCoef="0" IVar="20" Cut="7.9471593750000000e+04" cType="1" res="-1.9764505326747894e-02" rms="2.6419734954833984e-01" purity="2.6981157064437866e-01" nType="0">
            <Node pos="l" depth="3" NCoef="0" IVar="13" Cut="2.9797914028167725e+00" cType="1" res="-3.1570840626955032e-02" rms="3.5469102859497070e-01" purity="5.1367032527923584e-01" nType="0">
              <Node pos="l" depth="4" NCoef="0" IVar="-1" Cut="0.0000000000000000e+00" cType="1" res="-4.1246149688959122e-02" rms="3.4683063626289368e-01" purity="4.9034649133682251e-01" nType="-99"/>
              <Node pos="r" depth="4" NCoef="0" IVar="-1" Cut="0.0000000000000000e+00" cType="1" res="-1.1197343468666077e-02" rms="3.6027041077613831e-01" purity="5.3300082683563232e-01" nType="-99"/>
            </Node>
            <Node pos="r" depth="3" NCoef="0" IVar="0" Cut="5.3333334922790527e+00" cType="1" res="-7.6761431992053986e-03" rms="1.1030884832143784e-01" purity="2.0127518102526665e-02" nType="0">
              <Node pos="l" depth="4" NCoef="0" IVar="-1" Cut="0.0000000000000000e+00" cType="1" res="2.1967091597616673e-03" rms="1.5417204797267914e-01" purity="4.2421441525220871e-02" nType="-99"/>
              <Node pos="r" depth="4" NCoef="0" IVar="-1" Cut="0.0000000000000000e+00" cType="1" res="-9.5675706863403320e-02" rms="5.6657798588275909e-02" purity="3.0879373662173748e-03" nType="-99"/>
            </Node>
          </Node>
        </Node>
        <Node pos="r" depth="1" NCoef="0" IVar="0" Cut="2.3333332538604736e+00" cType="1" res="-2.5872739497572184e-03" rms="3.0551227927207947e-01" purity="4.3042436242103577e-01" nType="0">
          <Node pos="l" depth="2" NCoef="0" IVar="5" Cut="2.3000014062500000e+05" cType="1" res="-1.3230703771114349e-02" rms="3.1324204802513123e-01" purity="3.6374327540397644e-01" nType="0">
            <Node pos="l" depth="3" NCoef="0" IVar="5" Cut="1.5196343750000000e+05" cType="1" res="-2.2795507684350014e-02" rms="3.1782013177871704e-01" purity="4.6662604808807373e-01" nType="0">
              <Node pos="l" depth="4" NCoef="0" IVar="-1" Cut="0.0000000000000000e+00" cType="1" res="-1.3879901729524136e-02" rms="3.1816619634628296e-01" purity="4.8760789632797241e-01" nType="-99"/>
              <Node pos="r" depth="4" NCoef="0" IVar="-1" Cut="0.0000000000000000e+00" cType="1" res="-2.8073476627469063e-02" rms="3.1729021668434143e-01" purity="4.4538486003875732e-01" nType="-99"/>
            </Node>
            <Node pos="r" depth="3" NCoef="0" IVar="1" Cut="8.4070078125000000e+04" cType="1" res="-4.6867514029145241e-03" rms="3.0884486436843872e-01" purity="2.7184113860130310e-01" nType="0">
              <Node pos="l" depth="4" NCoef="0" IVar="-1" Cut="0.0000000000000000e+00" cType="1" res="-1.4948207885026932e-02" rms="2.9636308550834656e-01" purity="2.0771971344947815e-01" nType="-99"/>
              <Node pos="r" depth="4" NCoef="0" IVar="-1" Cut="0.0000000000000000e+00" cType="1" res="5.4312478750944138e-03" rms="3.2440057396888733e-01" purity="3.5720983147621155e-01" nType="-99"/>
            </Node>
          </Node>
          <Node pos="r" depth="2" NCoef="0" IVar="0" Cut="6.0952382087707520e+00" cType="1" res="1.1507510207593441e-03" rms="3.0266192555427551e-01" purity="4.5384308695793152e-01" nType="0">
            <Node pos="l" depth="3" NCoef="0" IVar="13" Cut="2.8620386123657227e+00" cType="1" res="9.7481179982423782e-03" rms="2.9154834151268005e-01" purity="6.3327389955520630e-01" nType="0">
              <Node pos="l" depth="4" NCoef="0" IVar="-1" Cut="0.0000000000000000e+00" cType="1" res="1.3819772284477949e-03" rms="3.0788823962211609e-01" purity="5.3304165601730347e-01" nType="-99"/>
              <Node pos="r" depth="4" NCoef="0" IVar="-1" Cut="0.0000000000000000e+00" cType="1" res="3.0130410566926003e-02" rms="2.6059883832931519e-01" purity="8.0481022596359253e-01" nType="-99"/>
            </Node>
            <Node pos="r" depth="3" NCoef="0" IVar="19" Cut="1.2900694531250000e+05" cType="1" res="-5.8090831153094769e-03" rms="3.1119436025619507e-01" purity="3.0858832597732544e-01" nType="0">
              <Node pos="l" depth="4" NCoef="0" IVar="-1" Cut="0.0000000000000000e+00" cType="1" res="-1.1764434166252613e-02" rms="3.3744055032730103e-01" purity="4.3493652343750000e-01" nType="-99"/>
              <Node pos="r" depth="4" NCoef="0" IVar="-1" Cut="0.0000000000000000e+00" cType="1" res="8.7085822597146034e-03" rms="2.6715210080146790e-01" purity="1.2143809348344803e-01" nType="-99"/>
            </Node>
          </Node>
        </Node>
      </Node>
    </BinaryTree>
    <BinaryTree type="DecisionTree" boostWeight="1.0000000000000000e+00" itree="100">
      <Node pos="s" depth="0" NCoef="0" IVar="11" Cut="9.7634357213973999e-01" cType="1" res="-8.2913275036844425e-06" rms="3.4450012445449829e-01" purity="5.0000000000000000e-01" nType="0">
        <Node pos="l" depth="1" NCoef="0" IVar="14" Cut="7.5314164161682129e-01" cType="1" res="1.3982238015159965e-03" rms="3.4191143512725830e-01" purity="6.4255952835083008e-01" nType="0">
          <Node pos="l" depth="2" NCoef="0" IVar="5" Cut="1.4030425000000000e+05" cType="1" res="-1.2406554073095322e-02" rms="3.6003741621971130e-01" purity="6.0632956027984619e-01" nType="0">
            <Node pos="l" depth="3" NCoef="0" IVar="-1" Cut="0.0000000000000000e+00" cType="1" res="-1.5653792768716812e-02" rms="3.5426813364028931e-01" purity="6.6178935766220093e-01" nType="-99"/>
            <Node pos="r" depth="3" NCoef="0" IVar="-1" Cut="0.0000000000000000e+00" cType="1" res="4.5307885739021003e-04" rms="3.6853200197219849e-01" purity="5.1929306983947754e-01" nType="-99"/>
          </Node>
          <Node pos="r" depth="2" NCoef="0" IVar="13" Cut="3.1378233432769775e+00" cType="1" res="2.4021167773753405e-03" rms="3.4053385257720947e-01" purity="6.4519417285919189e-01" nType="0">
            <Node pos="l" depth="3" NCoef="0" IVar="20" Cut="3.8926101562500000e+04" cType="1" res="4.2491373606026173e-03" rms="3.4199538826942444e-01" purity="6.3152611255645752e-01" nType="0">
              <Node pos="l" depth="4" NCoef="0" IVar="-1" Cut="0.0000000000000000e+00" cType="1" res="9.5366366440430284e-04" rms="3.5217300057411194e-01" purity="6.4298295974731445e-01" nType="-99"/>
              <Node pos="r" depth="4" NCoef="0" IVar="-1" Cut="0.0000000000000000e+00" cType="1" res="1.0104183107614517e-02" rms="3.1868007779121399e-01" purity="6.0664802789688110e-01" nType="-99"/>
            </Node>
            <Node pos="r" depth="3" NCoef="0" IVar="0" Cut="7.3333334922790527e+00" cType="1" res="-7.4723740108311176e-03" rms="3.3243727684020996e-01" purity="7.1826571226119995e-01" nType="0">
              <Node pos="l" depth="4" NCoef="0" IVar="-1" Cut="0.0000000000000000e+00" cType="1" res="-1.8274431349709630e-03" rms="3.2082328200340271e-01" purity="7.6108980178833008e-01" nType="-99"/>
              <Node pos="r" depth="4" NCoef="0" IVar="-1" Cut="0.0000000000000000e+00" cType="1" res="-2.0908769220113754e-02" rms="3.7672540545463562e-01" purity="5.3725039958953857e-01" nType="-99"/>
            </Node>
          </Node>
        </Node>
        <Node pos="r" depth="1" NCoef="0" IVar="12" Cut="1.9075363874435425e+00" cType="1" res="-1.1948811588808894e-03" rms="3.4666460752487183e-01" purity="3.7973135709762573e-01" nType="0">
          <Node pos="l" depth="2" NCoef="0" IVar="9" Cut="6.3926515625000000e+04" cType="1" res="-7.9639349132776260e-03" rms="3.6237239837646484e-01" purity="3.8171511888504028e-01" nType="0">
            <Node pos="l" depth="3" NCoef="0" IVar="19" Cut="7.5746804687500000e+04" cType="1" res="6.4628729596734047e-03" rms="3.9873433113098145e-01" purity="5.0488859415054321e-01" nType="0">
              <Node pos="l" depth="4" NCoef="0" IVar="-1" Cut="0.0000000000000000e+00" cType="1" res="-7.1716038510203362e-03" rms="3.9033254981040955e-01" purity="5.3472930192947388e-01" nType="-99"/>
              <Node pos="r" depth="4" NCoef="0" IVar="-1" Cut="0.0000000000000000e+00" cType="1" res="2.3702574893832207e-02" rms="4.1206660866737366e-01" purity="4.4788885116577148e-01" nType="-99"/>
            </Node>
            <Node pos="r" depth="3" NCoef="0" IVar="15" Cut="1.9255621433258057e+00" cType="1" res="-2.5026381015777588e-02" rms="3.1312158703804016e-01" purity="2.3603899776935577e-01" nType="0">
              <Node pos="l" depth="4" NCoef="0" IVar="-1" Cut="0.0000000000000000e+00" cType="1" res="-3.1577203422784805e-02" rms="3.3132654428482056e-01" purity="2.6844206452369690e-01" nType="-99"/>
              <Node pos="r" depth="4" NCoef="0" IVar="-1" Cut="0.0000000000000000e+00" cType="1" res="-1.2935873121023178e-02" rms="2.9349455237388611e-01" purity="2.0413081347942352e-01" nType="-99"/>
            </Node>
          </Node>
          <Node pos="r" depth="2" NCoef="0" IVar="14" Cut="1.0307539701461792e+00" cType="1" res="-3.3974746474996209e-04" rms="3.4461984038352966e-01" purity="3.7948077917098999e-01" nType="0">
            <Node pos="l" depth="3" NCoef="0" IVar="20" Cut="6.4668253906250000e+04" cType="1" res="5.6495014578104019e-03" rms="3.5469132661819458e-01" purity="3.4296634793281555e-01" nType="0">
              <Node pos="l" depth="4" NCoef="0" IVar="-1" Cut="0.0000000000000000e+00" cType="1" res="-2.1097108256071806e-03" rms="4.0196558833122253e-01" purity="4.9893441796302795e-01" nType="-99"/>
              <Node pos="r" depth="4" NCoef="0" IVar="-1" Cut="0.0000000000000000e+00" cType="1" res="2.2510461509227753e-02" rms="2.8632363677024841e-01" purity="1.5287974476814270e-01" nType="-99"/>
            </Node>
            <Node pos="r" depth="3" NCoef="0" IVar="0" Cut="1.3333333730697632e+00" cType="1" res="-1.7748584505170584e-03" rms="3.4214696288108826e-01" purity="3.8823011517524719e-01" nType="0">
              <Node pos="l" depth="4" NCoef="0" IVar="-1" Cut="0.0000000000000000e+00" cType="1" res="-1.0055424645543098e-02" rms="3.2766240835189819e-01" purity="2.6038721203804016e-01" nType="-99"/>
              <Node pos="r" depth="4" NCoef="0" IVar="-1" Cut="0.0000000000000000e+00" cType="1" res="-3.7051906110718846e-04" rms="3.4403687715530396e-01" purity="4.0550920367240906e-01" nType="-99"/>
            </Node>
          </Node>
        </Node>
      </Node>
    </BinaryTree>
    <BinaryTree type="DecisionTree" boostWeight="1.0000000000000000e+00" itree="101">
      <Node pos="s" depth="0" NCoef="0" IVar="12" Cut="1.2675663232803345e+00" cType="1" res="-7.9225428635254502e-06" rms="3.4441992640495300e-01" purity="5.0000000000000000e-01" nType="0">
        <Node pos="l" depth="1" NCoef="0" IVar="1" Cut="5.1487003906250000e+04" cType="1" res="-6.3299438916146755e-03" rms="3.5424685478210449e-01" purity="2.4588495492935181e-01" nType="0">
          <Node pos="l" depth="2" NCoef="0" IVar="17" Cut="8.0613039062500000e+04" cType="1" res="9.9994298070669174e-03" rms="3.2534629106521606e-01" purity="1.6166773438453674e-01" nType="0">
            <Node pos="l" depth="3" NCoef="0" IVar="-1" Cut="0.0000000000000000e+00" cType="1" res="-4.0066945366561413e-03" rms="3.0602031946182251e-01" purity="1.4567032456398010e-01" nType="-99"/>
            <Node pos="r" depth="3" NCoef="0" IVar="-1" Cut="0.0000000000000000e+00" cType="1" res="2.5801798328757286e-02" rms="3.4609791636466980e-01" purity="1.8062193691730499e-01" nType="-99"/>
          </Node>
          <Node pos="r" depth="2" NCoef="0" IVar="15" Cut="2.0470459461212158e+00" cType="1" res="-2.2381477057933807e-02" rms="3.7983879446983337e-01" purity="3.2866922020912170e-01" nType="0">
            <Node pos="l" depth="3" NCoef="0" IVar="-1" Cut="0.0000000000000000e+00" cType="1" res="-2.7824984863400459e-03" rms="3.9852479100227356e-01" purity="3.6442661285400391e-01" nType="-99"/>
            <Node pos="r" depth="3" NCoef="0" IVar="-1" Cut="0.0000000000000000e+00" cType="1" res="-2.3829177021980286e-02" rms="3.6363881826400757e-01" purity="3.0017173290252686e-01" nType="-99"/>
          </Node>
        </Node>
        <Node pos="r" depth="1" NCoef="0" IVar="11" Cut="4.9856403470039368e-01" cType="1" res="2.9200283461250365e-04" rms="3.4394386410713196e-01" purity="5.1205557584762573e-01" nType="0">
          <Node pos="l" depth="2" NCoef="0" IVar="13" Cut="1.9708240032196045e+00" cType="1" res="4.5446516014635563e-03" rms="3.2197567820549011e-01" purity="7.5079995393753052e-01" nType="0">
            <Node pos="l" depth="3" NCoef="0" IVar="-1" Cut="0.0000000000000000e+00" cType="1" res="1.7244225367903709e-02" rms="3.7621241807937622e-01" purity="4.5221653580665588e-01" nType="-99"/>
            <Node pos="r" depth="3" NCoef="0" IVar="6" Cut="1.5555807812500000e+05" cType="1" res="2.0178740378469229e-03" rms="3.1473392248153687e-01" purity="7.8668743371963501e-01" nType="0">
              <Node pos="l" depth="4" NCoef="0" IVar="-1" Cut="0.0000000000000000e+00" cType="1" res="-8.2895560190081596e-03" rms="3.6537167429924011e-01" purity="6.8867081403732300e-01" nType="-99"/>
              <Node pos="r" depth="4" NCoef="0" IVar="-1" Cut="0.0000000000000000e+00" cType="1" res="5.0643058493733406e-03" rms="3.0241766571998596e-01" purity="8.0817997455596924e-01" nType="-99"/>
            </Node>
          </Node>
          <Node pos="r" depth="2" NCoef="0" IVar="2" Cut="7.0797475000000000e+05" cType="1" res="-4.2225199285894632e-04" rms="3.4749224781990051e-01" purity="4.7195720672607422e-01" nType="0">
            <Node pos="l" depth="3" NCoef="0" IVar="3" Cut="8.7103789062500000e+04" cType="1" res="-1.0209212778136134e-03" rms="3.5617151856422424e-01" purity="5.0897365808486938e-01" nType="0">
              <Node pos="l" depth="4" NCoef="0" IVar="-1" Cut="0.0000000000000000e+00" cType="1" res="-9.2147476971149445e-03" rms="3.7896305322647095e-01" purity="3.6564868688583374e-01" nType="-99"/>
              <Node pos="r" depth="4" NCoef="0" IVar="-1" Cut="0.0000000000000000e+00" cType="1" res="7.1707658935338259e-04" rms="3.5283002257347107e-01" purity="5.2897673845291138e-01" nType="-99"/>
            </Node>
            <Node pos="r" depth="3" NCoef="0" IVar="16" Cut="2.4907038211822510e+00" cType="1" res="3.8329095114022493e-03" rms="2.7806720137596130e-01" purity="2.0885509252548218e-01" nType="0">
              <Node pos="l" depth="4" NCoef="0" IVar="-1" Cut="0.0000000000000000e+00" cType="1" res="-2.4204591754823923e-03" rms="2.7099221944808960e-01" purity="2.1264728903770447e-01" nType="-99"/>
              <Node pos="r" depth="4" NCoef="0" IVar="-1" Cut="0.0000000000000000e+00" cType="1" res="2.4635296314954758e-02" rms="2.9745751619338989e-01" purity="1.9757443666458130e-01" nType="-99"/>
            </Node>
          </Node>
        </Node>
      </Node>
    </BinaryTree>
    <BinaryTree type="DecisionTree" boostWeight="1.0000000000000000e+00" itree="102">
      <Node pos="s" depth="0" NCoef="0" IVar="19" Cut="2.8405653125000000e+05" cType="1" res="-8.3111945059499703e-06" rms="3.4437063336372375e-01" purity="5.0000000000000000e-01" nType="0">
        <Node pos="l" depth="1" NCoef="0" IVar="19" Cut="3.9957800781250000e+04" cType="1" res="2.7060601860284805e-04" rms="3.4624573588371277e-01" purity="5.1193803548812866e-01" nType="0">
          <Node pos="l" depth="2" NCoef="0" IVar="4" Cut="5.4730418750000000e+05" cType="1" res="-3.8354815915226936e-03" rms="3.4386506676673889e-01" purity="5.1760685443878174e-01" nType="0">
            <Node pos="l" depth="3" NCoef="0" IVar="1" Cut="2.3882353515625000e+04" cType="1" res="-2.7838964015245438e-03" rms="3.4709045290946960e-01" purity="5.2810013294219971e-01" nType="0">
              <Node pos="l" depth="4" NCoef="0" IVar="-1" Cut="0.0000000000000000e+00" cType="1" res="-1.6150223091244698e-02" rms="3.2395929098129272e-01" purity="2.7430042624473572e-01" nType="-99"/>
              <Node pos="r" depth="4" NCoef="0" IVar="-1" Cut="0.0000000000000000e+00" cType="1" res="6.8810919765383005e-04" rms="3.5223728418350220e-01" purity="5.8811038732528687e-01" nType="-99"/>
            </Node>
            <Node pos="r" depth="3" NCoef="0" IVar="-1" Cut="0.0000000000000000e+00" cType="1" res="-5.4975200444459915e-02" rms="2.2350265085697174e-01" purity="2.0096641778945923e-01" nType="-99"/>
          </Node>
          <Node pos="r" depth="2" NCoef="0" IVar="19" Cut="7.4828234375000000e+04" cType="1" res="2.4625747464597225e-03" rms="3.4749007225036621e-01" purity="5.0891184806823730e-01" nType="0">
            <Node pos="l" depth="3" NCoef="0" IVar="19" Cut="7.1507210937500000e+04" cType="1" res="8.1064887344837189e-03" rms="3.3329531550407410e-01" purity="6.8730360269546509e-01" nType="0">
              <Node pos="l" depth="4" NCoef="0" IVar="-1" Cut="0.0000000000000000e+00" cType="1" res="7.9691447317600250e-03" rms="3.3189281821250916e-01" purity="6.9465970993041992e-01" nType="-99"/>
              <Node pos="r" depth="4" NCoef="0" IVar="-1" Cut="0.0000000000000000e+00" cType="1" res="-6.3844081014394760e-03" rms="3.5013547539710999e-01" purity="5.9423226118087769e-01" nType="-99"/>
            </Node>
            <Node pos="r" depth="3" NCoef="0" IVar="15" Cut="1.5368406772613525e+00" cType="1" res="-2.3463910911232233e-03" rms="3.5907250642776489e-01" purity="3.5691100358963013e-01" nType="0">
              <Node pos="l" depth="4" NCoef="0" IVar="-1" Cut="0.0000000000000000e+00" cType="1" res="4.7440570779144764e-03" rms="3.8397178053855896e-01" purity="4.0979090332984924e-01" nType="-99"/>
              <Node pos="r" depth="4" NCoef="0" IVar="-1" Cut="0.0000000000000000e+00" cType="1" res="-6.1191432178020477e-03" rms="3.4388646483421326e-01" purity="3.2661601901054382e-01" nType="-99"/>
            </Node>
          </Node>
        </Node>
        <Node pos="r" depth="1" NCoef="0" IVar="15" Cut="1.7293862104415894e+00" cType="1" res="-7.7441027387976646e-03" rms="2.8742423653602600e-01" purity="1.6889743506908417e-01" nType="0">
          <Node pos="l" depth="2" NCoef="0" IVar="-1" Cut="0.0000000000000000e+00" cType="1" res="-2.6742858812212944e-02" rms="2.9228389263153076e-01" purity="1.7103332281112671e-01" nType="-99"/>
          <Node pos="r" depth="2" NCoef="0" IVar="1" Cut="7.0983039062500000e+04" cType="1" res="3.7616058252751827e-03" rms="2.8385612368583679e-01" purity="1.6762016713619232e-01" nType="0">
            <Node pos="l" depth="3" NCoef="0" IVar="-1" Cut="0.0000000000000000e+00" cType="1" res="-1.7058009281754494e-02" rms="2.4597807228565216e-01" purity="9.9079824984073639e-02" nType="-99"/>
            <Node pos="r" depth="3" NCoef="0" IVar="-1" Cut="0.0000000000000000e+00" cType="1" res="1.8921308219432831e-02" rms="3.1616699695587158e-01" purity="2.3534747958183289e-01" nType="-99"/>
          </Node>
        </Node>
      </Node>
    </BinaryTree>
    <BinaryTree type="DecisionTree" boostWeight="1.0000000000000000e+00" itree="103">
      <Node pos="s" depth="0" NCoef="0" IVar="19" Cut="2.8405653125000000e+05" cType="1" res="-8.4174944277037866e-06" rms="3.4429898858070374e-01" purity="5.0000000000000000e-01" nType="0">
        <Node pos="l" depth="1" NCoef="0" IVar="19" Cut="3.9957800781250000e+04" cType="1" res="2.1553994156420231e-04" rms="3.4618443250656128e-01" purity="5.1193803548812866e-01" nType="0">
          <Node pos="l" depth="2" NCoef="0" IVar="14" Cut="6.5443462133407593e-01" cType="1" res="-3.0733386520296335e-03" rms="3.4377750754356384e-01" purity="5.1760685443878174e-01" nType="0">
            <Node pos="l" depth="3" NCoef="0" IVar="-1" Cut="0.0000000000000000e+00" cType="1" res="-1.8208261579275131e-02" rms="3.5593479871749878e-01" purity="3.9822563529014587e-01" nType="-99"/>
            <Node pos="r" depth="3" NCoef="0" IVar="9" Cut="2.6200375000000000e+05" cType="1" res="-1.8877075053751469e-03" rms="3.4304124116897583e-01" purity="5.2433365583419800e-01" nType="0">
              <Node pos="l" depth="4" NCoef="0" IVar="-1" Cut="0.0000000000000000e+00" cType="1" res="-6.0132367070764303e-04" rms="3.4658926725387573e-01" purity="5.3834319114685059e-01" nType="-99"/>
              <Node pos="r" depth="4" NCoef="0" IVar="-1" Cut="0.0000000000000000e+00" cType="1" res="-3.7499014288187027e-02" rms="2.5300562381744385e-01" purity="2.2061991691589355e-01" nType="-99"/>
            </Node>
          </Node>
          <Node pos="r" depth="2" NCoef="0" IVar="19" Cut="7.4828234375000000e+04" cType="1" res="1.9712548237293959e-03" rms="3.4744977951049805e-01" purity="5.0891184806823730e-01" nType="0">
            <Node pos="l" depth="3" NCoef="0" IVar="19" Cut="4.9921601562500000e+04" cType="1" res="6.4886999316513538e-03" rms="3.3326518535614014e-01" purity="6.8730360269546509e-01" nType="0">
              <Node pos="l" depth="4" NCoef="0" IVar="-1" Cut="0.0000000000000000e+00" cType="1" res="-3.7955236621201038e-04" rms="3.1498086452484131e-01" purity="7.3337066173553467e-01" nType="-99"/>
              <Node pos="r" depth="4" NCoef="0" IVar="-1" Cut="0.0000000000000000e+00" cType="1" res="7.8211240470409393e-03" rms="3.4126293659210205e-01" purity="6.6621291637420654e-01" nType="-99"/>
            </Node>
            <Node pos="r" depth="3" NCoef="0" IVar="15" Cut="1.5368406772613525e+00" cType="1" res="-1.8778897356241941e-03" rms="3.5904923081398010e-01" purity="3.5691100358963013e-01" nType="0">
              <Node pos="l" depth="4" NCoef="0" IVar="-1" Cut="0.0000000000000000e+00" cType="1" res="3.7938086315989494e-03" rms="3.8396582007408142e-01" purity="4.0979090332984924e-01" nType="-99"/>
              <Node pos="r" depth="4" NCoef="0" IVar="-1" Cut="0.0000000000000000e+00" cType="1" res="-4.9032373353838921e-03" rms="3.4389171004295349e-01" purity="3.2661601901054382e-01" nType="-99"/>
            </Node>
          </Node>
        </Node>
        <Node pos="r" depth="1" NCoef="0" IVar="2" Cut="9.3301487500000000e+05" cType="1" res="-6.2198950909078121e-03" rms="2.8704351186752319e-01" purity="1.6889743506908417e-01" nType="0">
          <Node pos="l" depth="2" NCoef="0" IVar="-1" Cut="0.0000000000000000e+00" cType="1" res="-1.8291510641574860e-02" rms="3.2796069979667664e-01" purity="2.1769557893276215e-01" nType="-99"/>
          <Node pos="r" depth="2" NCoef="0" IVar="-1" Cut="0.0000000000000000e+00" cType="1" res="9.4853015616536140e-03" rms="2.4713398516178131e-01" purity="1.2822066247463226e-01" nType="-99"/>
        </Node>
      </Node>
    </BinaryTree>
    <BinaryTree type="DecisionTree" boostWeight="1.0000000000000000e+00" itree="104">
      <Node pos="s" depth="0" NCoef="0" IVar="16" Cut="2.4834966659545898e+00" cType="1" res="-6.9135430749156512e-06" rms="3.4425514936447144e-01" purity="5.0000000000000000e-01" nType="0">
        <Node pos="l" depth="1" NCoef="0" IVar="19" Cut="9.0827445312500000e+04" cType="1" res="-5.4071377962827682e-04" rms="3.4256827831268311e-01" purity="5.3322315216064453e-01" nType="0">
          <Node pos="l" depth="2" NCoef="0" IVar="19" Cut="4.2877570312500000e+04" cType="1" res="1.1100752744823694e-03" rms="3.4160554409027100e-01" purity="6.0382491350173950e-01" nType="0">
            <Node pos="l" depth="3" NCoef="0" IVar="14" Cut="2.0658736228942871e+00" cType="1" res="-2.6578097604215145e-03" rms="3.4040161967277527e-01" purity="5.5564725399017334e-01" nType="0">
              <Node pos="l" depth="4" NCoef="0" IVar="-1" Cut="0.0000000000000000e+00" cType="1" res="-5.4970639757812023e-03" rms="3.5232514142990112e-01" purity="4.9459227919578552e-01" nType="-99"/>
              <Node pos="r" depth="4" NCoef="0" IVar="-1" Cut="0.0000000000000000e+00" cType="1" res="2.2066938690841198e-03" rms="3.2597547769546509e-01" purity="6.2633562088012695e-01" nType="-99"/>
            </Node>
            <Node pos="r" depth="3" NCoef="0" IVar="8" Cut="1.0210593750000000e+05" cType="1" res="4.9043758772313595e-03" rms="3.4277179837226868e-01" purity="6.5234041213989258e-01" nType="0">
              <Node pos="l" depth="4" NCoef="0" IVar="-1" Cut="0.0000000000000000e+00" cType="1" res="5.6461491622030735e-03" rms="3.5521090030670166e-01" purity="7.1177977323532104e-01" nType="-99"/>
              <Node pos="r" depth="4" NCoef="0" IVar="-1" Cut="0.0000000000000000e+00" cType="1" res="-4.7234248369932175e-02" rms="1.6332456469535828e-01" purity="3.5638131201267242e-02" nType="-99"/>
            </Node>
          </Node>
          <Node pos="r" depth="2" NCoef="0" IVar="16" Cut="9.9672329425811768e-01" cType="1" res="-6.0224169865250587e-03" rms="3.4568938612937927e-01" purity="2.9877898097038269e-01" nType="0">
            <Node pos="l" depth="3" NCoef="0" IVar="-1" Cut="0.0000000000000000e+00" cType="1" res="-3.4487392753362656e-02" rms="3.1175947189331055e-01" purity="2.9568940401077271e-01" nType="-99"/>
            <Node pos="r" depth="3" NCoef="0" IVar="10" Cut="1.1677993750000000e+05" cType="1" res="-3.9649931713938713e-03" rms="3.4771952033042908e-01" purity="2.9898339509963989e-01" nType="0">
              <Node pos="l" depth="4" NCoef="0" IVar="-1" Cut="0.0000000000000000e+00" cType="1" res="-1.1083192192018032e-02" rms="3.5648807883262634e-01" purity="2.6873263716697693e-01" nType="-99"/>
              <Node pos="r" depth="4" NCoef="0" IVar="-1" Cut="0.0000000000000000e+00" cType="1" res="3.8039700593799353e-03" rms="3.4022670984268188e-01" purity="3.2344391942024231e-01" nType="-99"/>
            </Node>
          </Node>
        </Node>
        <Node pos="r" depth="1" NCoef="0" IVar="16" Cut="2.7426745891571045e+00" cType="1" res="3.2593002542853355e-03" rms="3.5438445210456848e-01" purity="2.9671430587768555e-01" nType="0">
          <Node pos="l" depth="2" NCoef="0" IVar="13" Cut="1.9202867746353149e+00" cType="1" res="1.0373585857450962e-02" rms="3.6243864893913269e-01" purity="3.1492313742637634e-01" nType="0">
            <Node pos="l" depth="3" NCoef="0" IVar="1" Cut="4.6261832031250000e+04" cType="1" res="-2.8384369798004627e-03" rms="3.1605467200279236e-01" purity="1.6781364381313324e-01" nType="0">
              <Node pos="l" depth="4" NCoef="0" IVar="-1" Cut="0.0000000000000000e+00" cType="1" res="2.2482752799987793e-02" rms="2.9952341318130493e-01" purity="1.1835931986570358e-01" nType="-99"/>
              <Node pos="r" depth="4" NCoef="0" IVar="-1" Cut="0.0000000000000000e+00" cType="1" res="-1.7949072644114494e-02" rms="3.3078393340110779e-01" purity="2.1798557043075562e-01" nType="-99"/>
            </Node>
            <Node pos="r" depth="3" NCoef="0" IVar="12" Cut="2.3720502853393555e+00" cType="1" res="1.8767016008496284e-02" rms="3.8881063461303711e-01" purity="4.0837994217872620e-01" nType="0">
              <Node pos="l" depth="4" NCoef="0" IVar="-1" Cut="0.0000000000000000e+00" cType="1" res="2.9972169548273087e-02" rms="3.9918687939643860e-01" purity="4.7052851319313049e-01" nType="-99"/>
              <Node pos="r" depth="4" NCoef="0" IVar="-1" Cut="0.0000000000000000e+00" cType="1" res="4.0289298631250858e-03" rms="3.8333752751350403e-01" purity="3.8035795092582703e-01" nType="-99"/>
            </Node>
          </Node>
          <Node pos="r" depth="2" NCoef="0" IVar="10" Cut="1.0530168750000000e+05" cType="1" res="-1.7279341118410230e-03" rms="3.4854081273078918e-01" purity="2.8394961357116699e-01" nType="0">
            <Node pos="l" depth="3" NCoef="0" IVar="14" Cut="1.7284857034683228e+00" cType="1" res="6.7751449532806873e-03" rms="3.5903838276863098e-01" purity="2.7150416374206543e-01" nType="0">
              <Node pos="l" depth="4" NCoef="0" IVar="-1" Cut="0.0000000000000000e+00" cType="1" res="1.8018506467342377e-02" rms="3.6574327945709229e-01" purity="3.0810427665710449e-01" nType="-99"/>
              <Node pos="r" depth="4" NCoef="0" IVar="-1" Cut="0.0000000000000000e+00" cType="1" res="-3.8679833523929119e-03" rms="3.5365456342697144e-01" purity="2.4511627852916718e-01" nType="-99"/>
            </Node>
            <Node pos="r" depth="3" NCoef="0" IVar="13" Cut="2.6014811992645264e+00" cType="1" res="-1.0402197949588299e-02" rms="3.3727478981018066e-01" purity="2.9664558172225952e-01" nType="0">
              <Node pos="l" depth="4" NCoef="0" IVar="-1" Cut="0.0000000000000000e+00" cType="1" res="-2.5269120931625366e-02" rms="2.9297253489494324e-01" purity="1.7867965996265411e-01" nType="-99"/>
              <Node pos="r" depth="4" NCoef="0" IVar="-1" Cut="0.0000000000000000e+00" cType="1" res="-1.0972815798595548e-03" rms="3.6187553405761719e-01" purity="3.7018093466758728e-01" nType="-99"/>
            </Node>
          </Node>
        </Node>
      </Node>
    </BinaryTree>
    <BinaryTree type="DecisionTree" boostWeight="1.0000000000000000e+00" itree="105">
      <Node pos="s" depth="0" NCoef="0" IVar="13" Cut="2.1940269470214844e+00" cType="1" res="-1.1139602065668441e-05" rms="3.4417268633842468e-01" purity="5.0000000000000000e-01" nType="0">
        <Node pos="l" depth="1" NCoef="0" IVar="10" Cut="5.3469230468750000e+04" cType="1" res="1.8567126244306564e-03" rms="3.3877745270729065e-01" purity="2.9838448762893677e-01" nType="0">
          <Node pos="l" depth="2" NCoef="0" IVar="15" Cut="2.0660901069641113e+00" cType="1" res="7.0590050891041756e-03" rms="3.6067315936088562e-01" purity="2.9736974835395813e-01" nType="0">
            <Node pos="l" depth="3" NCoef="0" IVar="7" Cut="4.9184964843750000e+04" cType="1" res="1.3369700871407986e-02" rms="3.6551541090011597e-01" purity="3.2414790987968445e-01" nType="0">
              <Node pos="l" depth="4" NCoef="0" IVar="-1" Cut="0.0000000000000000e+00" cType="1" res="1.6491651535034180e-02" rms="4.0606266260147095e-01" purity="4.5781001448631287e-01" nType="-99"/>
              <Node pos="r" depth="4" NCoef="0" IVar="-1" Cut="0.0000000000000000e+00" cType="1" res="4.5212238910607994e-04" rms="3.2247349619865417e-01" purity="1.9909435510635376e-01" nType="-99"/>
            </Node>
            <Node pos="r" depth="3" NCoef="0" IVar="1" Cut="5.1453687500000000e+04" cType="1" res="-1.2216127943247557e-03" rms="3.5404834151268005e-01" purity="2.6223266124725342e-01" nType="0">
              <Node pos="l" depth="4" NCoef="0" IVar="-1" Cut="0.0000000000000000e+00" cType="1" res="1.1439803056418896e-02" rms="3.2598537206649780e-01" purity="1.7973153293132782e-01" nType="-99"/>
              <Node pos="r" depth="4" NCoef="0" IVar="-1" Cut="0.0000000000000000e+00" cType="1" res="-1.2821125797927380e-02" rms="3.9101245999336243e-01" purity="3.8408416509628296e-01" nType="-99"/>
            </Node>
          </Node>
          <Node pos="r" depth="2" NCoef="0" IVar="13" Cut="1.5261970758438110e+00" cType="1" res="-1.9009220413863659e-03" rms="3.2198515534400940e-01" purity="2.9911747574806213e-01" nType="0">
            <Node pos="l" depth="3" NCoef="0" IVar="2" Cut="3.7490881250000000e+05" cType="1" res="-1.2341571971774101e-02" rms="2.5036934018135071e-01" purity="1.1849208921194077e-01" nType="0">
              <Node pos="l" depth="4" NCoef="0" IVar="-1" Cut="0.0000000000000000e+00" cType="1" res="-3.4094374626874924e-02" rms="3.0686637759208679e-01" purity="2.1702869236469269e-01" nType="-99"/>
              <Node pos="r" depth="4" NCoef="0" IVar="-1" Cut="0.0000000000000000e+00" cType="1" res="-6.0503734275698662e-03" rms="2.2797161340713501e-01" purity="8.5939355194568634e-02" nType="-99"/>
            </Node>
            <Node pos="r" depth="3" NCoef="0" IVar="6" Cut="2.2300440625000000e+05" cType="1" res="2.2287087049335241e-03" rms="3.4616044163703918e-01" purity="3.7056094408035278e-01" nType="0">
              <Node pos="l" depth="4" NCoef="0" IVar="-1" Cut="0.0000000000000000e+00" cType="1" res="4.8926002345979214e-03" rms="3.7189182639122009e-01" purity="4.3650212883949280e-01" nType="-99"/>
              <Node pos="r" depth="4" NCoef="0" IVar="-1" Cut="0.0000000000000000e+00" cType="1" res="-1.4753050170838833e-02" rms="2.6064574718475342e-01" purity="1.8620871007442474e-01" nType="-99"/>
            </Node>
          </Node>
        </Node>
        <Node pos="r" depth="1" NCoef="0" IVar="16" Cut="5.1392787694931030e-01" cType="1" res="-9.7125105094164610e-04" rms="3.4690937399864197e-01" purity="6.0363417863845825e-01" nType="0">
          <Node pos="l" depth="2" NCoef="0" IVar="21" Cut="5.9771492187500000e+04" cType="1" res="7.4819875881075859e-03" rms="2.7561041712760925e-01" purity="8.2595658302307129e-01" nType="0">
            <Node pos="l" depth="3" NCoef="0" IVar="-1" Cut="0.0000000000000000e+00" cType="1" res="1.5331972390413284e-02" rms="2.5903955101966858e-01" purity="8.9338624477386475e-01" nType="-99"/>
            <Node pos="r" depth="3" NCoef="0" IVar="-1" Cut="0.0000000000000000e+00" cType="1" res="-1.8145914655178785e-03" rms="3.0656138062477112e-01" purity="6.8786054849624634e-01" nType="-99"/>
          </Node>
          <Node pos="r" depth="2" NCoef="0" IVar="10" Cut="1.4411993750000000e+05" cType="1" res="-1.6592984320595860e-03" rms="3.5206890106201172e-01" purity="5.8553832769393921e-01" nType="0">
            <Node pos="l" depth="3" NCoef="0" IVar="10" Cut="6.1392417968750000e+04" cType="1" res="-3.4866218920797110e-03" rms="3.6653068661689758e-01" purity="6.2990933656692505e-01" nType="0">
              <Node pos="l" depth="4" NCoef="0" IVar="-1" Cut="0.0000000000000000e+00" cType="1" res="-2.5954762473702431e-02" rms="3.8274925947189331e-01" purity="4.7719219326972961e-01" nType="-99"/>
              <Node pos="r" depth="4" NCoef="0" IVar="-1" Cut="0.0000000000000000e+00" cType="1" res="8.2248065154999495e-04" rms="3.6429616808891296e-01" purity="6.4789301156997681e-01" nType="-99"/>
            </Node>
            <Node pos="r" depth="3" NCoef="0" IVar="2" Cut="4.9044278125000000e+05" cType="1" res="1.0639765532687306e-03" rms="3.2932126522064209e-01" purity="5.1941186189651489e-01" nType="0">
              <Node pos="l" depth="4" NCoef="0" IVar="-1" Cut="0.0000000000000000e+00" cType="1" res="4.9807308241724968e-03" rms="3.4255573153495789e-01" purity="6.5191799402236938e-01" nType="-99"/>
              <Node pos="r" depth="4" NCoef="0" IVar="-1" Cut="0.0000000000000000e+00" cType="1" res="-4.2828358709812164e-03" rms="3.1416442990303040e-01" purity="3.7493002414703369e-01" nType="-99"/>
            </Node>
          </Node>
        </Node>
      </Node>
    </BinaryTree>
    <BinaryTree type="DecisionTree" boostWeight="1.0000000000000000e+00" itree="106">
      <Node pos="s" depth="0" NCoef="0" IVar="16" Cut="2.2361018657684326e+00" cType="1" res="-1.0118165846506599e-05" rms="3.4406819939613342e-01" purity="5.0000000000000000e-01" nType="0">
        <Node pos="l" depth="1" NCoef="0" IVar="16" Cut="6.4570415019989014e-01" cType="1" res="-6.6731398692354560e-04" rms="3.4145849943161011e-01" purity="5.5145055055618286e-01" nType="0">
          <Node pos="l" depth="2" NCoef="0" IVar="19" Cut="1.4733884765625000e+04" cType="1" res="5.8364477008581161e-03" rms="2.8811347484588623e-01" purity="7.6886689662933350e-01" nType="0">
            <Node pos="l" depth="3" NCoef="0" IVar="1" Cut="4.1111843750000000e+04" cType="1" res="-7.6599549502134323e-03" rms="3.6649656295776367e-01" purity="4.9702170491218567e-01" nType="0">
              <Node pos="l" depth="4" NCoef="0" IVar="-1" Cut="0.0000000000000000e+00" cType="1" res="1.1836100369691849e-02" rms="3.6876484751701355e-01" purity="3.6758375167846680e-01" nType="-99"/>
              <Node pos="r" depth="4" NCoef="0" IVar="-1" Cut="0.0000000000000000e+00" cType="1" res="-1.8679268658161163e-02" rms="3.6382904648780823e-01" purity="5.9085166454315186e-01" nType="-99"/>
            </Node>
            <Node pos="r" depth="3" NCoef="0" IVar="9" Cut="1.0284088281250000e+05" cType="1" res="8.8290134444832802e-03" rms="2.6754987239837646e-01" purity="8.2914328575134277e-01" nType="0">
              <Node pos="l" depth="4" NCoef="0" IVar="-1" Cut="0.0000000000000000e+00" cType="1" res="-2.9970812611281872e-03" rms="3.0761307477951050e-01" purity="8.0574250221252441e-01" nType="-99"/>
              <Node pos="r" depth="4" NCoef="0" IVar="-1" Cut="0.0000000000000000e+00" cType="1" res="2.2340741008520126e-02" rms="2.4213923513889313e-01" purity="8.4217226505279541e-01" nType="-99"/>
            </Node>
          </Node>
          <Node pos="r" depth="2" NCoef="0" IVar="15" Cut="4.7906082868576050e-01" cType="1" res="-2.0099661778658628e-03" rms="3.5144934058189392e-01" purity="5.0656664371490479e-01" nType="0">
            <Node pos="l" depth="3" NCoef="0" IVar="-1" Cut="0.0000000000000000e+00" cType="1" res="1.3646492734551430e-02" rms="3.6325770616531372e-01" purity="5.1073265075683594e-01" nType="-99"/>
            <Node pos="r" depth="3" NCoef="0" IVar="15" Cut="1.1176182031631470e+00" cType="1" res="-2.4650981649756432e-03" rms="3.5116514563560486e-01" purity="5.0647270679473877e-01" nType="0">
              <Node pos="l" depth="4" NCoef="0" IVar="-1" Cut="0.0000000000000000e+00" cType="1" res="-5.9384289197623730e-03" rms="3.6682683229446411e-01" purity="4.7284907102584839e-01" nType="-99"/>
              <Node pos="r" depth="4" NCoef="0" IVar="-1" Cut="0.0000000000000000e+00" cType="1" res="-1.0011994745582342e-03" rms="3.4776401519775391e-01" purity="5.1355600357055664e-01" nType="-99"/>
            </Node>
          </Node>
        </Node>
        <Node pos="r" depth="1" NCoef="0" IVar="2" Cut="3.8911162500000000e+05" cType="1" res="2.4769718293100595e-03" rms="3.5375908017158508e-01" purity="3.0529049038887024e-01" nType="0">
          <Node pos="l" depth="2" NCoef="0" IVar="18" Cut="9.6769015625000000e+04" cType="1" res="-4.7462363727390766e-03" rms="3.8241076469421387e-01" purity="3.6450365185737610e-01" nType="0">
            <Node pos="l" depth="3" NCoef="0" IVar="9" Cut="6.8540304687500000e+04" cType="1" res="1.9689977634698153e-03" rms="3.8509961962699890e-01" purity="3.8284459710121155e-01" nType="0">
              <Node pos="l" depth="4" NCoef="0" IVar="-1" Cut="0.0000000000000000e+00" cType="1" res="1.7018742859363556e-02" rms="3.8733077049255371e-01" purity="4.0915361046791077e-01" nType="-99"/>
              <Node pos="r" depth="4" NCoef="0" IVar="-1" Cut="0.0000000000000000e+00" cType="1" res="-1.1087770573794842e-02" rms="3.8234594464302063e-01" purity="3.6292186379432678e-01" nType="-99"/>
            </Node>
            <Node pos="r" depth="3" NCoef="0" IVar="-1" Cut="0.0000000000000000e+00" cType="1" res="-3.4366849809885025e-02" rms="3.6160895228385925e-01" purity="2.4621161818504333e-01" nType="-99"/>
          </Node>
          <Node pos="r" depth="2" NCoef="0" IVar="17" Cut="1.5509862500000000e+05" cType="1" res="7.6008280739188194e-03" rms="3.3184337615966797e-01" purity="2.6328700780868530e-01" nType="0">
            <Node pos="l" depth="3" NCoef="0" IVar="3" Cut="1.7259671875000000e+05" cType="1" res="1.2705042958259583e-02" rms="3.4508851170539856e-01" purity="2.9300838708877563e-01" nType="0">
              <Node pos="l" depth="4" NCoef="0" IVar="-1" Cut="0.0000000000000000e+00" cType="1" res="2.0478378981351852e-02" rms="3.7761890888214111e-01" purity="3.3541402220726013e-01" nType="-99"/>
              <Node pos="r" depth="4" NCoef="0" IVar="-1" Cut="0.0000000000000000e+00" cType="1" res="3.0044564045965672e-03" rms="3.2542806863784790e-01" purity="2.6968020200729370e-01" nType="-99"/>
            </Node>
            <Node pos="r" depth="3" NCoef="0" IVar="18" Cut="1.4822340625000000e+05" cType="1" res="-6.6887247376143932e-03" rms="2.9110467433929443e-01" purity="1.8008024990558624e-01" nType="0">
              <Node pos="l" depth="4" NCoef="0" IVar="-1" Cut="0.0000000000000000e+00" cType="1" res="-2.3731989786028862e-02" rms="2.9363715648651123e-01" purity="1.6251577436923981e-01" nType="-99"/>
              <Node pos="r" depth="4" NCoef="0" IVar="-1" Cut="0.0000000000000000e+00" cType="1" res="1.7887309659272432e-03" rms="2.8942921757698059e-01" purity="1.8925298750400543e-01" nType="-99"/>
            </Node>
          </Node>
        </Node>
      </Node>
    </BinaryTree>
    <BinaryTree type="DecisionTree" boostWeight="1.0000000000000000e+00" itree="107">
      <Node pos="s" depth="0" NCoef="0" IVar="18" Cut="4.4458743750000000e+05" cType="1" res="-7.9340852607856505e-06" rms="3.4396490454673767e-01" purity="5.0000000000000000e-01" nType="0">
        <Node pos="l" depth="1" NCoef="0" IVar="18" Cut="4.1737097656250000e+04" cType="1" res="1.0358978761360049e-04" rms="3.4495592117309570e-01" purity="5.0383251905441284e-01" nType="0">
          <Node pos="l" depth="2" NCoef="0" IVar="5" Cut="1.1241366406250000e+05" cType="1" res="-3.4417142160236835e-03" rms="3.5213065147399902e-01" purity="4.8730143904685974e-01" nType="0">
            <Node pos="l" depth="3" NCoef="0" IVar="17" Cut="3.6244300781250000e+04" cType="1" res="9.1310241259634495e-04" rms="3.5394957661628723e-01" purity="5.0498563051223755e-01" nType="0">
              <Node pos="l" depth="4" NCoef="0" IVar="-1" Cut="0.0000000000000000e+00" cType="1" res="5.5378056131303310e-03" rms="3.5402625799179077e-01" purity="5.3893882036209106e-01" nType="-99"/>
              <Node pos="r" depth="4" NCoef="0" IVar="-1" Cut="0.0000000000000000e+00" cType="1" res="-1.4346518553793430e-02" rms="3.5300478339195251e-01" purity="4.0302953124046326e-01" nType="-99"/>
            </Node>
            <Node pos="r" depth="3" NCoef="0" IVar="18" Cut="2.7603183593750000e+04" cType="1" res="-1.9534884020686150e-02" rms="3.4484893083572388e-01" purity="4.2194962501525879e-01" nType="0">
              <Node pos="l" depth="4" NCoef="0" IVar="-1" Cut="0.0000000000000000e+00" cType="1" res="-2.7299756184220314e-02" rms="3.1956580281257629e-01" purity="3.7722519040107727e-01" nType="-99"/>
              <Node pos="r" depth="4" NCoef="0" IVar="-1" Cut="0.0000000000000000e+00" cType="1" res="6.4492826350033283e-03" rms="3.9880225062370300e-01" purity="5.3202682733535767e-01" nType="-99"/>
            </Node>
          </Node>
          <Node pos="r" depth="2" NCoef="0" IVar="15" Cut="2.4220890998840332e+00" cType="1" res="2.0739682950079441e-03" rms="3.4088718891143799e-01" purity="5.1302009820938110e-01" nType="0">
            <Node pos="l" depth="3" NCoef="0" IVar="18" Cut="6.0919203125000000e+04" cType="1" res="-1.8001273565459996e-04" rms="3.5048198699951172e-01" purity="4.9219837784767151e-01" nType="0">
              <Node pos="l" depth="4" NCoef="0" IVar="-1" Cut="0.0000000000000000e+00" cType="1" res="6.3104042783379555e-03" rms="3.8609328866004944e-01" purity="5.2988570928573608e-01" nType="-99"/>
              <Node pos="r" depth="4" NCoef="0" IVar="-1" Cut="0.0000000000000000e+00" cType="1" res="-2.4386071600019932e-03" rms="3.3926475048065186e-01" purity="4.8112955689430237e-01" nType="-99"/>
            </Node>
            <Node pos="r" depth="3" NCoef="0" IVar="18" Cut="1.3768415625000000e+05" cType="1" res="6.2744840979576111e-03" rms="3.2220286130905151e-01" purity="5.5182349681854248e-01" nType="0">
              <Node pos="l" depth="4" NCoef="0" IVar="-1" Cut="0.0000000000000000e+00" cType="1" res="9.8822331055998802e-03" rms="3.3249145746231079e-01" purity="5.9933024644851685e-01" nType="-99"/>
              <Node pos="r" depth="4" NCoef="0" IVar="-1" Cut="0.0000000000000000e+00" cType="1" res="1.2838244438171387e-03" rms="3.1241324543952942e-01" purity="5.0836956501007080e-01" nType="-99"/>
            </Node>
          </Node>
        </Node>
        <Node pos="r" depth="1" NCoef="0" IVar="-1" Cut="0.0000000000000000e+00" cType="1" res="-1.6522569581866264e-02" rms="2.3387047648429871e-01" purity="1.4349031448364258e-01" nType="-99"/>
      </Node>
    </BinaryTree>
    <BinaryTree type="DecisionTree" boostWeight="1.0000000000000000e+00" itree="108">
      <Node pos="s" depth="0" NCoef="0" IVar="2" Cut="6.9643325000000000e+05" cType="1" res="-6.4253454183926806e-06" rms="3.4388116002082825e-01" purity="5.0000000000000000e-01" nType="0">
        <Node pos="l" depth="1" NCoef="0" IVar="17" Cut="2.2847775000000000e+05" cType="1" res="-4.9398979172110558e-04" rms="3.5180506110191345e-01" purity="5.3972923755645752e-01" nType="0">
          <Node pos="l" depth="2" NCoef="0" IVar="6" Cut="1.5937475000000000e+05" cType="1" res="1.3896671589463949e-04" rms="3.5305699706077576e-01" purity="5.4120516777038574e-01" nType="0">
            <Node pos="l" depth="3" NCoef="0" IVar="9" Cut="5.5530675781250000e+04" cType="1" res="-3.8990706671029329e-03" rms="3.8181069493293762e-01" purity="5.1426613330841064e-01" nType="0">
              <Node pos="l" depth="4" NCoef="0" IVar="-1" Cut="0.0000000000000000e+00" cType="1" res="3.4748511388897896e-03" rms="3.9675557613372803e-01" purity="4.8293858766555786e-01" nType="-99"/>
              <Node pos="r" depth="4" NCoef="0" IVar="-1" Cut="0.0000000000000000e+00" cType="1" res="-5.6908493861556053e-03" rms="3.7477135658264160e-01" purity="5.2844071388244629e-01" nType="-99"/>
            </Node>
            <Node pos="r" depth="3" NCoef="0" IVar="2" Cut="4.0984678125000000e+05" cType="1" res="4.6927360817790031e-03" rms="3.1746062636375427e-01" purity="5.7158482074737549e-01" nType="0">
              <Node pos="l" depth="4" NCoef="0" IVar="-1" Cut="0.0000000000000000e+00" cType="1" res="1.0420513339340687e-02" rms="3.1951099634170532e-01" purity="6.6276681423187256e-01" nType="-99"/>
              <Node pos="r" depth="4" NCoef="0" IVar="-1" Cut="0.0000000000000000e+00" cType="1" res="-2.5072079151868820e-03" rms="3.1501901149749756e-01" purity="4.7078225016593933e-01" nType="-99"/>
            </Node>
          </Node>
          <Node pos="r" depth="2" NCoef="0" IVar="10" Cut="8.9950679687500000e+04" cType="1" res="-2.5961192324757576e-02" rms="2.9596826434135437e-01" purity="4.8034319281578064e-01" nType="0">
            <Node pos="l" depth="3" NCoef="0" IVar="-1" Cut="0.0000000000000000e+00" cType="1" res="-1.1172377504408360e-02" rms="3.1864905357360840e-01" purity="4.2861655354499817e-01" nType="-99"/>
            <Node pos="r" depth="3" NCoef="0" IVar="-1" Cut="0.0000000000000000e+00" cType="1" res="-4.8543740063905716e-02" rms="2.7183359861373901e-01" purity="5.2981460094451904e-01" nType="-99"/>
          </Node>
        </Node>
        <Node pos="r" depth="1" NCoef="0" IVar="5" Cut="2.2984262500000000e+05" cType="1" res="2.9995455406606197e-03" rms="2.9027116298675537e-01" purity="2.5505840778350830e-01" nType="0">
          <Node pos="l" depth="2" NCoef="0" IVar="19" Cut="1.5660665625000000e+05" cType="1" res="1.3916196301579475e-02" rms="3.0102056264877319e-01" purity="3.2897764444351196e-01" nType="0">
            <Node pos="l" depth="3" NCoef="0" IVar="18" Cut="1.4073903125000000e+05" cType="1" res="2.3846525698900223e-02" rms="3.0877214670181274e-01" purity="3.7950578331947327e-01" nType="0">
              <Node pos="l" depth="4" NCoef="0" IVar="-1" Cut="0.0000000000000000e+00" cType="1" res="3.9201892912387848e-02" rms="3.1922218203544617e-01" purity="3.6448132991790771e-01" nType="-99"/>
              <Node pos="r" depth="4" NCoef="0" IVar="-1" Cut="0.0000000000000000e+00" cType="1" res="-3.5417031031101942e-03" rms="2.8709664940834045e-01" purity="4.0644058585166931e-01" nType="-99"/>
            </Node>
            <Node pos="r" depth="3" NCoef="0" IVar="-1" Cut="0.0000000000000000e+00" cType="1" res="-8.1395255401730537e-03" rms="2.8262284398078918e-01" purity="2.2123654186725616e-01" nType="-99"/>
          </Node>
          <Node pos="r" depth="2" NCoef="0" IVar="1" Cut="1.0869223437500000e+05" cType="1" res="-1.9450236577540636e-03" rms="2.8513160347938538e-01" purity="2.2157754004001617e-01" nType="0">
            <Node pos="l" depth="3" NCoef="0" IVar="13" Cut="2.7434322834014893e+00" cType="1" res="-9.1724833473563194e-03" rms="2.6933303475379944e-01" purity="1.8063358962535858e-01" nType="0">
              <Node pos="l" depth="4" NCoef="0" IVar="-1" Cut="0.0000000000000000e+00" cType="1" res="-4.5192237012088299e-03" rms="2.6199531555175781e-01" purity="1.4682982861995697e-01" nType="-99"/>
              <Node pos="r" depth="4" NCoef="0" IVar="-1" Cut="0.0000000000000000e+00" cType="1" res="-2.4974951520562172e-02" rms="2.8603976964950562e-01" purity="2.6359733939170837e-01" nType="-99"/>
            </Node>
            <Node pos="r" depth="3" NCoef="0" IVar="11" Cut="9.2793494462966919e-01" cType="1" res="1.2520049698650837e-02" rms="3.1387588381767273e-01" purity="3.0352294445037842e-01" nType="0">
              <Node pos="l" depth="4" NCoef="0" IVar="-1" Cut="0.0000000000000000e+00" cType="1" res="1.9852245226502419e-02" rms="3.4534317255020142e-01" purity="4.0990352630615234e-01" nType="-99"/>
              <Node pos="r" depth="4" NCoef="0" IVar="-1" Cut="0.0000000000000000e+00" cType="1" res="-3.0251722782850266e-03" rms="2.6724106073379517e-01" purity="1.6656814515590668e-01" nType="-99"/>
            </Node>
          </Node>
        </Node>
      </Node>
    </BinaryTree>
    <BinaryTree type="DecisionTree" boostWeight="1.0000000000000000e+00" itree="109">
      <Node pos="s" depth="0" NCoef="0" IVar="12" Cut="1.2675663232803345e+00" cType="1" res="-3.8843131733301561e-06" rms="3.4377625584602356e-01" purity="5.0000000000000000e-01" nType="0">
        <Node pos="l" depth="1" NCoef="0" IVar="21" Cut="4.4254417968750000e+04" cType="1" res="-5.5524474009871483e-03" rms="3.5315969586372375e-01" purity="2.4588495492935181e-01" nType="0">
          <Node pos="l" depth="2" NCoef="0" IVar="21" Cut="2.3177511718750000e+04" cType="1" res="1.3797042192891240e-03" rms="3.7888109683990479e-01" purity="2.9250681400299072e-01" nType="0">
            <Node pos="l" depth="3" NCoef="0" IVar="13" Cut="9.0128368139266968e-01" cType="1" res="-1.4449292793869972e-02" rms="3.5015860199928284e-01" purity="2.6744055747985840e-01" nType="0">
              <Node pos="l" depth="4" NCoef="0" IVar="-1" Cut="0.0000000000000000e+00" cType="1" res="-2.5183627381920815e-02" rms="3.2724139094352722e-01" purity="1.9322744011878967e-01" nType="-99"/>
              <Node pos="r" depth="4" NCoef="0" IVar="-1" Cut="0.0000000000000000e+00" cType="1" res="2.3381137289106846e-03" rms="3.6991485953330994e-01" purity="3.3856329321861267e-01" nType="-99"/>
            </Node>
            <Node pos="r" depth="3" NCoef="0" IVar="-1" Cut="0.0000000000000000e+00" cType="1" res="1.6719361767172813e-02" rms="4.2048001289367676e-01" purity="3.3361053466796875e-01" nType="-99"/>
          </Node>
          <Node pos="r" depth="2" NCoef="0" IVar="-1" Cut="0.0000000000000000e+00" cType="1" res="-3.6675833165645599e-02" rms="2.4880012869834900e-01" purity="9.2027254402637482e-02" nType="-99"/>
        </Node>
        <Node pos="r" depth="1" NCoef="0" IVar="13" Cut="1.9197735786437988e+00" cType="1" res="2.5934714358299971e-04" rms="3.4332248568534851e-01" purity="5.1205557584762573e-01" nType="0">
          <Node pos="l" depth="2" NCoef="0" IVar="11" Cut="1.2420724630355835e+00" cType="1" res="3.2171150669455528e-03" rms="3.2688951492309570e-01" purity="2.5803583860397339e-01" nType="0">
            <Node pos="l" depth="3" NCoef="0" IVar="10" Cut="5.3597585937500000e+04" cType="1" res="1.0867909528315067e-02" rms="3.6726367473602295e-01" purity="3.7009119987487793e-01" nType="0">
              <Node pos="l" depth="4" NCoef="0" IVar="-1" Cut="0.0000000000000000e+00" cType="1" res="1.3094988651573658e-02" rms="3.9070275425910950e-01" purity="4.0118342638015747e-01" nType="-99"/>
              <Node pos="r" depth="4" NCoef="0" IVar="-1" Cut="0.0000000000000000e+00" cType="1" res="2.7134863194078207e-03" rms="3.4709385037422180e-01" purity="3.4509196877479553e-01" nType="-99"/>
            </Node>
            <Node pos="r" depth="3" NCoef="0" IVar="12" Cut="2.5149991512298584e+00" cType="1" res="-1.1263603810220957e-03" rms="3.0148622393608093e-01" purity="1.9442021846771240e-01" nType="0">
              <Node pos="l" depth="4" NCoef="0" IVar="-1" Cut="0.0000000000000000e+00" cType="1" res="-9.9499942734837532e-03" rms="3.2335871458053589e-01" purity="2.0043653249740601e-01" nType="-99"/>
              <Node pos="r" depth="4" NCoef="0" IVar="-1" Cut="0.0000000000000000e+00" cType="1" res="3.0145153868943453e-03" rms="2.9241606593132019e-01" purity="1.9207257032394409e-01" nType="-99"/>
            </Node>
          </Node>
          <Node pos="r" depth="2" NCoef="0" IVar="16" Cut="1.4999334812164307e+00" cType="1" res="-5.9704622253775597e-04" rms="3.4793093800544739e-01" purity="5.8560454845428467e-01" nType="0">
            <Node pos="l" depth="3" NCoef="0" IVar="11" Cut="1.3607265949249268e+00" cType="1" res="-2.3294223938137293e-03" rms="3.2582822442054749e-01" purity="6.9933420419692993e-01" nType="0">
              <Node pos="l" depth="4" NCoef="0" IVar="-1" Cut="0.0000000000000000e+00" cType="1" res="-4.4127372093498707e-03" rms="3.1598556041717529e-01" purity="7.7709913253784180e-01" nType="-99"/>
              <Node pos="r" depth="4" NCoef="0" IVar="-1" Cut="0.0000000000000000e+00" cType="1" res="3.4765505697578192e-03" rms="3.5327112674713135e-01" purity="4.6912831068038940e-01" nType="-99"/>
            </Node>
            <Node pos="r" depth="3" NCoef="0" IVar="0" Cut="6.3333334922790527e+00" cType="1" res="2.0311344414949417e-03" rms="3.7899464368820190e-01" purity="4.1306573152542114e-01" nType="0">
              <Node pos="l" depth="4" NCoef="0" IVar="-1" Cut="0.0000000000000000e+00" cType="1" res="-2.0510680042207241e-03" rms="3.7814295291900635e-01" purity="4.8817256093025208e-01" nType="-99"/>
              <Node pos="r" depth="4" NCoef="0" IVar="-1" Cut="0.0000000000000000e+00" cType="1" res="6.0584833845496178e-03" rms="3.8005396723747253e-01" purity="3.0977660417556763e-01" nType="-99"/>
            </Node>
          </Node>
        </Node>
      </Node>
    </BinaryTree>
    <BinaryTree type="DecisionTree" boostWeight="1.0000000000000000e+00" itree="110">
      <Node pos="s" depth="0" NCoef="0" IVar="12" Cut="2.8754057884216309e+00" cType="1" res="-5.3488329285755754e-06" rms="3.4371683001518250e-01" purity="5.0000000000000000e-01" nType="0">
        <Node pos="l" depth="1" NCoef="0" IVar="9" Cut="9.8558781250000000e+04" cType="1" res="-9.5490948297083378e-04" rms="3.5431522130966187e-01" purity="4.8231020569801331e-01" nType="0">
          <Node pos="l" depth="2" NCoef="0" IVar="15" Cut="9.8509746789932251e-01" cType="1" res="2.4453159421682358e-03" rms="3.7915563583374023e-01" purity="5.0125759840011597e-01" nType="0">
            <Node pos="l" depth="3" NCoef="0" IVar="11" Cut="1.4044790267944336e+00" cType="1" res="2.1336147561669350e-02" rms="3.9404976367950439e-01" purity="5.6383126974105835e-01" nType="0">
              <Node pos="l" depth="4" NCoef="0" IVar="-1" Cut="0.0000000000000000e+00" cType="1" res="7.7964045340195298e-04" rms="3.8523799180984497e-01" purity="5.6248039007186890e-01" nType="-99"/>
              <Node pos="r" depth="4" NCoef="0" IVar="-1" Cut="0.0000000000000000e+00" cType="1" res="3.1418755650520325e-02" rms="4.0552154183387756e-01" purity="5.6595933437347412e-01" nType="-99"/>
            </Node>
            <Node pos="r" depth="3" NCoef="0" IVar="7" Cut="7.3720734375000000e+04" cType="1" res="-1.0927676921710372e-03" rms="3.7619513273239136e-01" purity="4.8953807353973389e-01" nType="0">
              <Node pos="l" depth="4" NCoef="0" IVar="-1" Cut="0.0000000000000000e+00" cType="1" res="2.0142998546361923e-03" rms="3.8057455420494080e-01" purity="5.4029971361160278e-01" nType="-99"/>
              <Node pos="r" depth="4" NCoef="0" IVar="-1" Cut="0.0000000000000000e+00" cType="1" res="-1.6252726316452026e-02" rms="3.5404089093208313e-01" purity="2.4891033768653870e-01" nType="-99"/>
            </Node>
          </Node>
          <Node pos="r" depth="2" NCoef="0" IVar="12" Cut="2.1442599296569824e+00" cType="1" res="-5.4009486921131611e-03" rms="3.1887423992156982e-01" purity="4.5753508806228638e-01" nType="0">
            <Node pos="l" depth="3" NCoef="0" IVar="2" Cut="4.3492793750000000e+05" cType="1" res="-2.3612814024090767e-02" rms="2.9268634319305420e-01" purity="2.1123534440994263e-01" nType="0">
              <Node pos="l" depth="4" NCoef="0" IVar="-1" Cut="0.0000000000000000e+00" cType="1" res="-3.9987359195947647e-02" rms="3.6501398682594299e-01" purity="3.6918091773986816e-01" nType="-99"/>
              <Node pos="r" depth="4" NCoef="0" IVar="-1" Cut="0.0000000000000000e+00" cType="1" res="-1.5040908940136433e-02" rms="2.6045933365821838e-01" purity="1.5373918414115906e-01" nType="-99"/>
            </Node>
            <Node pos="r" depth="3" NCoef="0" IVar="15" Cut="9.7869139909744263e-01" cType="1" res="-7.3727610288187861e-04" rms="3.2507741451263428e-01" purity="5.2060729265213013e-01" nType="0">
              <Node pos="l" depth="4" NCoef="0" IVar="-1" Cut="0.0000000000000000e+00" cType="1" res="-1.6777249053120613e-02" rms="3.5595735907554626e-01" purity="4.5407202839851379e-01" nType="-99"/>
              <Node pos="r" depth="4" NCoef="0" IVar="-1" Cut="0.0000000000000000e+00" cType="1" res="2.4225360248237848e-03" rms="3.1959399580955505e-01" purity="5.3154498338699341e-01" nType="-99"/>
            </Node>
          </Node>
        </Node>
        <Node pos="r" depth="1" NCoef="0" IVar="15" Cut="1.2873384952545166e+00" cType="1" res="1.4730420662090182e-03" rms="3.2652649283409119e-01" purity="5.2754163742065430e-01" nType="0">
          <Node pos="l" depth="2" NCoef="0" IVar="6" Cut="2.1140559375000000e+05" cType="1" res="-4.6578133478760719e-03" rms="3.5053381323814392e-01" purity="4.7734645009040833e-01" nType="0">
            <Node pos="l" depth="3" NCoef="0" IVar="6" Cut="1.4018001562500000e+05" cType="1" res="-1.1833176948130131e-02" rms="3.7165251374244690e-01" purity="4.9227494001388550e-01" nType="0">
              <Node pos="l" depth="4" NCoef="0" IVar="-1" Cut="0.0000000000000000e+00" cType="1" res="-1.6880685463547707e-02" rms="3.9019328355789185e-01" purity="4.5631977915763855e-01" nType="-99"/>
              <Node pos="r" depth="4" NCoef="0" IVar="-1" Cut="0.0000000000000000e+00" cType="1" res="2.3070480674505234e-03" rms="3.5195916891098022e-01" purity="5.2744030952453613e-01" nType="-99"/>
            </Node>
            <Node pos="r" depth="3" NCoef="0" IVar="1" Cut="7.5650171875000000e+04" cType="1" res="9.9446345120668411e-03" rms="3.0251881480216980e-01" purity="4.4696569442749023e-01" nType="0">
              <Node pos="l" depth="4" NCoef="0" IVar="-1" Cut="0.0000000000000000e+00" cType="1" res="2.3246983066201210e-02" rms="3.0627936124801636e-01" purity="4.1945394873619080e-01" nType="-99"/>
              <Node pos="r" depth="4" NCoef="0" IVar="-1" Cut="0.0000000000000000e+00" cType="1" res="-8.1061562523245811e-03" rms="2.9629498720169067e-01" purity="4.8547971248626709e-01" nType="-99"/>
            </Node>
          </Node>
          <Node pos="r" depth="2" NCoef="0" IVar="10" Cut="3.5086378125000000e+05" cType="1" res="3.5082027316093445e-03" rms="3.1813082098960876e-01" purity="5.4420411586761475e-01" nType="0">
            <Node pos="l" depth="3" NCoef="0" IVar="21" Cut="1.2784861718750000e+05" cType="1" res="4.2981235310435295e-03" rms="3.2047575712203979e-01" purity="5.5727273225784302e-01" nType="0">
              <Node pos="l" depth="4" NCoef="0" IVar="-1" Cut="0.0000000000000000e+00" cType="1" res="1.8009768100455403e-03" rms="3.3147904276847839e-01" purity="5.7171088457107544e-01" nType="-99"/>
              <Node pos="r" depth="4" NCoef="0" IVar="-1" Cut="0.0000000000000000e+00" cType="1" res="2.6944961398839951e-02" rms="2.4548159539699554e-01" purity="4.7223782539367676e-01" nType="-99"/>
            </Node>
            <Node pos="r" depth="3" NCoef="0" IVar="-1" Cut="0.0000000000000000e+00" cType="1" res="-2.1396651864051819e-02" rms="2.5443202257156372e-01" purity="2.2921273112297058e-01" nType="-99"/>
          </Node>
        </Node>
      </Node>
    </BinaryTree>
    <BinaryTree type="DecisionTree" boostWeight="1.0000000000000000e+00" itree="111">
      <Node pos="s" depth="0" NCoef="0" IVar="11" Cut="9.7634357213973999e-01" cType="1" res="-4.6929935706430115e-06" rms="3.4356528520584106e-01" purity="5.0000000000000000e-01" nType="0">
        <Node pos="l" depth="1" NCoef="0" IVar="14" Cut="3.2106113433837891e+00" cType="1" res="1.2053343234583735e-03" rms="3.4106266498565674e-01" purity="6.4255952835083008e-01" nType="0">
          <Node pos="l" depth="2" NCoef="0" IVar="14" Cut="1.2328997850418091e+00" cType="1" res="1.7071510665118694e-03" rms="3.4089612960815430e-01" purity="6.4539206027984619e-01" nType="0">
            <Node pos="l" depth="3" NCoef="0" IVar="17" Cut="6.0626632812500000e+04" cType="1" res="-5.1833330653607845e-03" rms="3.6196371912956238e-01" purity="6.0833722352981567e-01" nType="0">
              <Node pos="l" depth="4" NCoef="0" IVar="-1" Cut="0.0000000000000000e+00" cType="1" res="3.0544164474122226e-04" rms="3.5951766371726990e-01" purity="6.3970422744750977e-01" nType="-99"/>
              <Node pos="r" depth="4" NCoef="0" IVar="-1" Cut="0.0000000000000000e+00" cType="1" res="-2.4367643520236015e-02" rms="3.7198916077613831e-01" purity="4.6301192045211792e-01" nType="-99"/>
            </Node>
            <Node pos="r" depth="3" NCoef="0" IVar="6" Cut="4.7064243750000000e+05" cType="1" res="3.4475554712116718e-03" rms="3.3534318208694458e-01" purity="6.5475130081176758e-01" nType="0">
              <Node pos="l" depth="4" NCoef="0" IVar="-1" Cut="0.0000000000000000e+00" cType="1" res="3.4669071901589632e-03" rms="3.3820632100105286e-01" purity="6.6944092512130737e-01" nType="-99"/>
              <Node pos="r" depth="4" NCoef="0" IVar="-1" Cut="0.0000000000000000e+00" cType="1" res="-2.9460484161973000e-02" rms="2.2377398610115051e-01" purity="1.8361106514930725e-01" nType="-99"/>
            </Node>
          </Node>
          <Node pos="r" depth="2" NCoef="0" IVar="-1" Cut="0.0000000000000000e+00" cType="1" res="-1.5784526243805885e-02" rms="3.4719914197921753e-01" purity="5.2639126777648926e-01" nType="-99"/>
        </Node>
        <Node pos="r" depth="1" NCoef="0" IVar="0" Cut="2.3333332538604736e+00" cType="1" res="-1.0255182860419154e-03" rms="3.4565922617912292e-01" purity="3.7973135709762573e-01" nType="0">
          <Node pos="l" depth="2" NCoef="0" IVar="11" Cut="1.4996427297592163e+00" cType="1" res="3.4924428910017014e-03" rms="3.4388464689254761e-01" purity="3.4109202027320862e-01" nType="0">
            <Node pos="l" depth="3" NCoef="0" IVar="12" Cut="2.5480890274047852e+00" cType="1" res="-4.2262836359441280e-03" rms="3.6934277415275574e-01" purity="4.5927387475967407e-01" nType="0">
              <Node pos="l" depth="4" NCoef="0" IVar="-1" Cut="0.0000000000000000e+00" cType="1" res="-1.0401392355561256e-02" rms="3.6656624078750610e-01" purity="3.9566370844841003e-01" nType="-99"/>
              <Node pos="r" depth="4" NCoef="0" IVar="-1" Cut="0.0000000000000000e+00" cType="1" res="3.7361956201493740e-03" rms="3.7157464027404785e-01" purity="5.1694279909133911e-01" nType="-99"/>
            </Node>
            <Node pos="r" depth="3" NCoef="0" IVar="8" Cut="7.8076640625000000e+04" cType="1" res="9.5887603238224983e-03" rms="3.2222899794578552e-01" purity="2.4775095283985138e-01" nType="0">
              <Node pos="l" depth="4" NCoef="0" IVar="-1" Cut="0.0000000000000000e+00" cType="1" res="1.3969173654913902e-02" rms="4.0767681598663330e-01" purity="4.2688724398612976e-01" nType="-99"/>
              <Node pos="r" depth="4" NCoef="0" IVar="-1" Cut="0.0000000000000000e+00" cType="1" res="-1.8031336367130280e-02" rms="1.7624528706073761e-01" purity="4.0172804147005081e-02" nType="-99"/>
            </Node>
          </Node>
          <Node pos="r" depth="2" NCoef="0" IVar="0" Cut="6.0952382087707520e+00" cType="1" res="-2.4917523842304945e-03" rms="3.4622049331665039e-01" purity="3.9227116107940674e-01" nType="0">
            <Node pos="l" depth="3" NCoef="0" IVar="2" Cut="6.3534518750000000e+05" cType="1" res="-6.4371875487267971e-03" rms="3.5095405578613281e-01" purity="5.0841379165649414e-01" nType="0">
              <Node pos="l" depth="4" NCoef="0" IVar="-1" Cut="0.0000000000000000e+00" cType="1" res="-7.0347702130675316e-03" rms="3.5670083761215210e-01" purity="5.4473328590393066e-01" nType="-99"/>
              <Node pos="r" depth="4" NCoef="0" IVar="-1" Cut="0.0000000000000000e+00" cType="1" res="1.4435606077313423e-02" rms="3.0752241611480713e-01" purity="2.5682732462882996e-01" nType="-99"/>
            </Node>
            <Node pos="r" depth="3" NCoef="0" IVar="15" Cut="1.7349828481674194e+00" cType="1" res="9.3439628835767508e-04" rms="3.4201988577842712e-01" purity="2.9141491651535034e-01" nType="0">
              <Node pos="l" depth="4" NCoef="0" IVar="-1" Cut="0.0000000000000000e+00" cType="1" res="4.5102285221219063e-03" rms="3.5949620604515076e-01" purity="3.0595746636390686e-01" nType="-99"/>
              <Node pos="r" depth="4" NCoef="0" IVar="-1" Cut="0.0000000000000000e+00" cType="1" res="-2.8818533755838871e-03" rms="3.2650563120841980e-01" purity="2.7915981411933899e-01" nType="-99"/>
            </Node>
          </Node>
        </Node>
      </Node>
    </BinaryTree>
    <BinaryTree type="DecisionTree" boostWeight="1.0000000000000000e+00" itree="112">
      <Node pos="s" depth="0" NCoef="0" IVar="12" Cut="1.2675663232803345e+00" cType="1" res="-4.4389662434696220e-06" rms="3.4350666403770447e-01" purity="5.0000000000000000e-01" nType="0">
        <Node pos="l" depth="1" NCoef="0" IVar="1" Cut="5.1487003906250000e+04" cType="1" res="-5.0620497204363346e-03" rms="3.5257002711296082e-01" purity="2.4588495492935181e-01" nType="0">
          <Node pos="l" depth="2" NCoef="0" IVar="8" Cut="2.2393375000000000e+04" cType="1" res="6.4178323373198509e-03" rms="3.2401317358016968e-01" purity="1.6166773438453674e-01" nType="0">
            <Node pos="l" depth="3" NCoef="0" IVar="-1" Cut="0.0000000000000000e+00" cType="1" res="-7.9535469412803650e-03" rms="2.9896557331085205e-01" purity="1.3072095811367035e-01" nType="-99"/>
            <Node pos="r" depth="3" NCoef="0" IVar="-1" Cut="0.0000000000000000e+00" cType="1" res="1.8619829788804054e-02" rms="3.4656763076782227e-01" purity="1.9248013198375702e-01" nType="-99"/>
          </Node>
          <Node pos="r" depth="2" NCoef="0" IVar="12" Cut="1.0122381448745728e+00" cType="1" res="-1.6346603631973267e-02" rms="3.7820771336555481e-01" purity="3.2866922020912170e-01" nType="0">
            <Node pos="l" depth="3" NCoef="0" IVar="-1" Cut="0.0000000000000000e+00" cType="1" res="-1.8394246697425842e-02" rms="3.8112372159957886e-01" purity="2.8706175088882446e-01" nType="-99"/>
            <Node pos="r" depth="3" NCoef="0" IVar="-1" Cut="0.0000000000000000e+00" cType="1" res="-2.4269572459161282e-03" rms="3.7477636337280273e-01" purity="3.7135857343673706e-01" nType="-99"/>
          </Node>
        </Node>
        <Node pos="r" depth="1" NCoef="0" IVar="11" Cut="4.9856403470039368e-01" cType="1" res="2.3550105106551200e-04" rms="3.4306886792182922e-01" purity="5.1205557584762573e-01" nType="0">
          <Node pos="l" depth="2" NCoef="0" IVar="13" Cut="2.2076051235198975e+00" cType="1" res="3.9215004071593285e-03" rms="3.2103869318962097e-01" purity="7.5079995393753052e-01" nType="0">
            <Node pos="l" depth="3" NCoef="0" IVar="12" Cut="1.8084608316421509e+00" cType="1" res="1.8299343064427376e-02" rms="3.7089502811431885e-01" purity="5.2033007144927979e-01" nType="0">
              <Node pos="l" depth="4" NCoef="0" IVar="-1" Cut="0.0000000000000000e+00" cType="1" res="8.8606206700205803e-03" rms="3.7116053700447083e-01" purity="4.1753184795379639e-01" nType="-99"/>
              <Node pos="r" depth="4" NCoef="0" IVar="-1" Cut="0.0000000000000000e+00" cType="1" res="1.5649326145648956e-02" rms="3.7060701847076416e-01" purity="6.0652875900268555e-01" nType="-99"/>
            </Node>
            <Node pos="r" depth="3" NCoef="0" IVar="12" Cut="2.8382792472839355e+00" cType="1" res="1.0177773656323552e-03" rms="3.0991715192794800e-01" purity="7.9734522104263306e-01" nType="0">
              <Node pos="l" depth="4" NCoef="0" IVar="-1" Cut="0.0000000000000000e+00" cType="1" res="-6.3730417750775814e-03" rms="3.1759834289550781e-01" purity="7.7945381402969360e-01" nType="-99"/>
              <Node pos="r" depth="4" NCoef="0" IVar="-1" Cut="0.0000000000000000e+00" cType="1" res="6.6186604090034962e-03" rms="3.0417209863662720e-01" purity="8.1016492843627930e-01" nType="-99"/>
            </Node>
          </Node>
          <Node pos="r" depth="2" NCoef="0" IVar="2" Cut="7.0797475000000000e+05" cType="1" res="-3.8358199526555836e-04" rms="3.4662780165672302e-01" purity="4.7195720672607422e-01" nType="0">
            <Node pos="l" depth="3" NCoef="0" IVar="3" Cut="8.7103789062500000e+04" cType="1" res="-1.0016045998781919e-03" rms="3.5535004734992981e-01" purity="5.0897365808486938e-01" nType="0">
              <Node pos="l" depth="4" NCoef="0" IVar="-1" Cut="0.0000000000000000e+00" cType="1" res="-8.8386721909046173e-03" rms="3.7799847126007080e-01" purity="3.6564868688583374e-01" nType="-99"/>
              <Node pos="r" depth="4" NCoef="0" IVar="-1" Cut="0.0000000000000000e+00" cType="1" res="6.7319103982299566e-04" rms="3.5203325748443604e-01" purity="5.2897673845291138e-01" nType="-99"/>
            </Node>
            <Node pos="r" depth="3" NCoef="0" IVar="16" Cut="1.7524989843368530e+00" cType="1" res="4.0091373957693577e-03" rms="2.7678453922271729e-01" purity="2.0885509252548218e-01" nType="0">
              <Node pos="l" depth="4" NCoef="0" IVar="-1" Cut="0.0000000000000000e+00" cType="1" res="-5.8839479461312294e-03" rms="2.7230647206306458e-01" purity="2.3974856734275818e-01" nType="-99"/>
              <Node pos="r" depth="4" NCoef="0" IVar="-1" Cut="0.0000000000000000e+00" cType="1" res="1.4498965814709663e-02" rms="2.8044471144676208e-01" purity="1.8163223564624786e-01" nType="-99"/>
            </Node>
          </Node>
        </Node>
      </Node>
    </BinaryTree>
    <BinaryTree type="DecisionTree" boostWeight="1.0000000000000000e+00" itree="113">
      <Node pos="s" depth="0" NCoef="0" IVar="13" Cut="1.9197735786437988e+00" cType="1" res="-4.6895806917746086e-06" rms="3.4346386790275574e-01" purity="5.0000000000000000e-01" nType="0">
        <Node pos="l" depth="1" NCoef="0" IVar="10" Cut="9.5069726562500000e+04" cType="1" res="1.8186571542173624e-03" rms="3.3096957206726074e-01" purity="2.5426813960075378e-01" nType="0">
          <Node pos="l" depth="2" NCoef="0" IVar="1" Cut="5.1266890625000000e+04" cType="1" res="4.0262248367071152e-03" rms="3.4608849883079529e-01" purity="2.8058010339736938e-01" nType="0">
            <Node pos="l" depth="3" NCoef="0" IVar="13" Cut="1.3720810413360596e+00" cType="1" res="9.1936998069286346e-03" rms="3.1538051366806030e-01" purity="1.7594498395919800e-01" nType="0">
              <Node pos="l" depth="4" NCoef="0" IVar="-1" Cut="0.0000000000000000e+00" cType="1" res="1.7343347426503897e-03" rms="2.8850841522216797e-01" purity="1.2934006750583649e-01" nType="-99"/>
              <Node pos="r" depth="4" NCoef="0" IVar="-1" Cut="0.0000000000000000e+00" cType="1" res="1.7628243193030357e-02" rms="3.5483717918395996e-01" purity="2.5262942910194397e-01" nType="-99"/>
            </Node>
            <Node pos="r" depth="3" NCoef="0" IVar="15" Cut="9.1921103000640869e-01" cType="1" res="-1.7381046200171113e-03" rms="3.7732312083244324e-01" purity="3.9730080962181091e-01" nType="0">
              <Node pos="l" depth="4" NCoef="0" IVar="-1" Cut="0.0000000000000000e+00" cType="1" res="1.4412187039852142e-02" rms="3.9998158812522888e-01" purity="4.7681829333305359e-01" nType="-99"/>
              <Node pos="r" depth="4" NCoef="0" IVar="-1" Cut="0.0000000000000000e+00" cType="1" res="-3.7594700697809458e-03" rms="3.7356320023536682e-01" purity="3.8505613803863525e-01" nType="-99"/>
            </Node>
          </Node>
          <Node pos="r" depth="2" NCoef="0" IVar="9" Cut="1.1411429687500000e+05" cType="1" res="-8.1705292686820030e-03" rms="2.5119629502296448e-01" purity="1.3520719110965729e-01" nType="0">
            <Node pos="l" depth="3" NCoef="0" IVar="9" Cut="7.5982796875000000e+04" cType="1" res="-1.8452959135174751e-02" rms="2.9101821780204773e-01" purity="1.8512308597564697e-01" nType="0">
              <Node pos="l" depth="4" NCoef="0" IVar="-1" Cut="0.0000000000000000e+00" cType="1" res="-9.5920888707041740e-03" rms="3.3916598558425903e-01" purity="2.5271210074424744e-01" nType="-99"/>
              <Node pos="r" depth="4" NCoef="0" IVar="-1" Cut="0.0000000000000000e+00" cType="1" res="-3.2367032021284103e-02" rms="2.3778776824474335e-01" purity="1.2258011847734451e-01" nType="-99"/>
            </Node>
            <Node pos="r" depth="3" NCoef="0" IVar="11" Cut="1.7377939224243164e+00" cType="1" res="3.3068881020881236e-04" rms="2.1233993768692017e-01" purity="9.3938179314136505e-02" nType="0">
              <Node pos="l" depth="4" NCoef="0" IVar="-1" Cut="0.0000000000000000e+00" cType="1" res="1.6344219446182251e-02" rms="2.6605266332626343e-01" purity="1.5674574673175812e-01" nType="-99"/>
              <Node pos="r" depth="4" NCoef="0" IVar="-1" Cut="0.0000000000000000e+00" cType="1" res="-8.4097355604171753e-02" rms="9.6891701221466064e-02" purity="7.6875509694218636e-03" nType="-99"/>
            </Node>
          </Node>
        </Node>
        <Node pos="r" depth="1" NCoef="0" IVar="11" Cut="6.9075554609298706e-01" cType="1" res="-6.3549907645210624e-04" rms="3.4767967462539673e-01" purity="5.8501398563385010e-01" nType="0">
          <Node pos="l" depth="2" NCoef="0" IVar="15" Cut="9.6614611148834229e-01" cType="1" res="1.8551470711827278e-03" rms="3.2188713550567627e-01" purity="7.6063352823257446e-01" nType="0">
            <Node pos="l" depth="3" NCoef="0" IVar="-1" Cut="0.0000000000000000e+00" cType="1" res="-8.6832772940397263e-03" rms="3.5130208730697632e-01" purity="6.9123929738998413e-01" nType="-99"/>
            <Node pos="r" depth="3" NCoef="0" IVar="16" Cut="1.8874394893646240e+00" cType="1" res="3.6461339332163334e-03" rms="3.1762278079986572e-01" purity="7.7009677886962891e-01" nType="0">
              <Node pos="l" depth="4" NCoef="0" IVar="-1" Cut="0.0000000000000000e+00" cType="1" res="5.8580969925969839e-04" rms="2.9842394590377808e-01" purity="8.1335210800170898e-01" nType="-99"/>
              <Node pos="r" depth="4" NCoef="0" IVar="-1" Cut="0.0000000000000000e+00" cType="1" res="1.1236197315156460e-02" rms="3.9594811201095581e-01" purity="5.6474459171295166e-01" nType="-99"/>
            </Node>
          </Node>
          <Node pos="r" depth="2" NCoef="0" IVar="16" Cut="2.9831619262695312e+00" cType="1" res="-1.7433485481888056e-03" rms="3.5855102539062500e-01" purity="5.0689768791198730e-01" nType="0">
            <Node pos="l" depth="3" NCoef="0" IVar="0" Cut="6.3333334922790527e+00" cType="1" res="-1.0556925553828478e-03" rms="3.5912838578224182e-01" purity="5.1601988077163696e-01" nType="0">
              <Node pos="l" depth="4" NCoef="0" IVar="-1" Cut="0.0000000000000000e+00" cType="1" res="-2.9226406477391720e-03" rms="3.5295280814170837e-01" purity="5.8387100696563721e-01" nType="-99"/>
              <Node pos="r" depth="4" NCoef="0" IVar="-1" Cut="0.0000000000000000e+00" cType="1" res="2.2113535087555647e-03" rms="3.6854687333106995e-01" purity="4.0982851386070251e-01" nType="-99"/>
            </Node>
            <Node pos="r" depth="3" NCoef="0" IVar="11" Cut="1.5281105041503906e+00" cType="1" res="-1.7579473555088043e-02" rms="3.4460833668708801e-01" purity="2.9682227969169617e-01" nType="0">
              <Node pos="l" depth="4" NCoef="0" IVar="-1" Cut="0.0000000000000000e+00" cType="1" res="-2.0119115710258484e-02" rms="3.6454892158508301e-01" purity="3.6777323484420776e-01" nType="-99"/>
              <Node pos="r" depth="4" NCoef="0" IVar="-1" Cut="0.0000000000000000e+00" cType="1" res="-2.5470876134932041e-03" rms="3.2155394554138184e-01" purity="2.2190485894680023e-01" nType="-99"/>
            </Node>
          </Node>
        </Node>
      </Node>
    </BinaryTree>
    <BinaryTree type="DecisionTree" boostWeight="1.0000000000000000e+00" itree="114">
      <Node pos="s" depth="0" NCoef="0" IVar="0" Cut="7.3333334922790527e+00" cType="1" res="-7.4563099587976467e-06" rms="3.4340286254882812e-01" purity="5.0000000000000000e-01" nType="0">
        <Node pos="l" depth="1" NCoef="0" IVar="12" Cut="9.7718805074691772e-01" cType="1" res="5.9307931223884225e-04" rms="3.4011739492416382e-01" purity="5.4426568746566772e-01" nType="0">
          <Node pos="l" depth="2" NCoef="0" IVar="-1" Cut="0.0000000000000000e+00" cType="1" res="-1.0395136661827564e-02" rms="3.5833084583282471e-01" purity="2.3587206006050110e-01" nType="-99"/>
          <Node pos="r" depth="2" NCoef="0" IVar="16" Cut="3.2256813049316406e+00" cType="1" res="8.8327325647696853e-04" rms="3.3974400162696838e-01" purity="5.5031406879425049e-01" nType="0">
            <Node pos="l" depth="3" NCoef="0" IVar="16" Cut="2.6130771636962891e+00" cType="1" res="1.1049974709749222e-03" rms="3.3972960710525513e-01" purity="5.5457812547683716e-01" nType="0">
              <Node pos="l" depth="4" NCoef="0" IVar="-1" Cut="0.0000000000000000e+00" cType="1" res="3.6758862552233040e-04" rms="3.3764514327049255e-01" purity="5.7377380132675171e-01" nType="-99"/>
              <Node pos="r" depth="4" NCoef="0" IVar="-1" Cut="0.0000000000000000e+00" cType="1" res="6.3111539930105209e-03" rms="3.6169096827507019e-01" purity="3.4437867999076843e-01" nType="-99"/>
            </Node>
            <Node pos="r" depth="3" NCoef="0" IVar="-1" Cut="0.0000000000000000e+00" cType="1" res="-9.0226819738745689e-03" rms="3.4032610058784485e-01" purity="3.0527272820472717e-01" nType="-99"/>
          </Node>
        </Node>
        <Node pos="r" depth="1" NCoef="0" IVar="13" Cut="3.2441620826721191e+00" cType="1" res="0.0000000000000000e+00" rms="0.0000000000000000e+00" purity="3.4550502896308899e-01" nType="0">
          <Node pos="l" depth="2" NCoef="0" IVar="12" Cut="2.3120863437652588e+00" cType="1" res="0.0000000000000000e+00" rms="0.0000000000000000e+00" purity="3.4290692210197449e-01" nType="0">
            <Node pos="l" depth="3" NCoef="0" IVar="15" Cut="1.5064567327499390e+00" cType="1" res="0.0000000000000000e+00" rms="0.0000000000000000e+00" purity="2.9280772805213928e-01" nType="0">
              <Node pos="l" depth="4" NCoef="0" IVar="-1" Cut="0.0000000000000000e+00" cType="1" res="1.7827676609158516e-02" rms="3.9051225781440735e-01" purity="3.5218688845634460e-01" nType="-99"/>
              <Node pos="r" depth="4" NCoef="0" IVar="-1" Cut="0.0000000000000000e+00" cType="1" res="-6.2935095047578216e-04" rms="3.5525721311569214e-01" purity="2.6652294397354126e-01" nType="-99"/>
            </Node>
            <Node pos="r" depth="3" NCoef="0" IVar="12" Cut="2.4746897220611572e+00" cType="1" res="0.0000000000000000e+00" rms="0.0000000000000000e+00" purity="3.7026751041412354e-01" nType="0">
              <Node pos="l" depth="4" NCoef="0" IVar="-1" Cut="0.0000000000000000e+00" cType="1" res="-1.9414501264691353e-02" rms="3.5435208678245544e-01" purity="3.4202623367309570e-01" nType="-99"/>
              <Node pos="r" depth="4" NCoef="0" IVar="-1" Cut="0.0000000000000000e+00" cType="1" res="-1.3363839825615287e-03" rms="3.4580343961715698e-01" purity="3.7381392717361450e-01" nType="-99"/>
            </Node>
          </Node>
          <Node pos="r" depth="2" NCoef="0" IVar="14" Cut="2.0828342437744141e+00" cType="1" res="0.0000000000000000e+00" rms="0.0000000000000000e+00" purity="3.6559987068176270e-01" nType="0">
            <Node pos="l" depth="3" NCoef="0" IVar="-1" Cut="0.0000000000000000e+00" cType="1" res="-2.0830133929848671e-02" rms="3.6244335770606995e-01" purity="3.1369292736053467e-01" nType="-99"/>
            <Node pos="r" depth="3" NCoef="0" IVar="-1" Cut="0.0000000000000000e+00" cType="1" res="-1.3745386386290193e-03" rms="3.5384872555732727e-01" purity="4.3085131049156189e-01" nType="-99"/>
          </Node>
        </Node>
      </Node>
    </BinaryTree>
    <BinaryTree type="DecisionTree" boostWeight="1.0000000000000000e+00" itree="115">
      <Node pos="s" depth="0" NCoef="0" IVar="11" Cut="2.5967428088188171e-01" cType="1" res="-6.8192775870556943e-06" rms="3.4337079524993896e-01" purity="5.0000000000000000e-01" nType="0">
        <Node pos="l" depth="1" NCoef="0" IVar="-1" Cut="0.0000000000000000e+00" cType="1" res="6.3652493990957737e-03" rms="3.0737233161926270e-01" purity="7.4361503124237061e-01" nType="-99"/>
        <Node pos="r" depth="1" NCoef="0" IVar="2" Cut="6.9643325000000000e+05" cType="1" res="-1.3981843949295580e-04" rms="3.4405401349067688e-01" purity="4.9510651826858521e-01" nType="0">
          <Node pos="l" depth="2" NCoef="0" IVar="8" Cut="3.1002259765625000e+04" cType="1" res="-5.6319148279726505e-04" rms="3.5225996375083923e-01" purity="5.3474789857864380e-01" nType="0">
            <Node pos="l" depth="3" NCoef="0" IVar="1" Cut="1.2267405468750000e+05" cType="1" res="-6.3559128902852535e-03" rms="3.6522644758224487e-01" purity="6.0271745920181274e-01" nType="0">
              <Node pos="l" depth="4" NCoef="0" IVar="-1" Cut="0.0000000000000000e+00" cType="1" res="-7.7306330204010010e-03" rms="3.6807870864868164e-01" purity="5.7612609863281250e-01" nType="-99"/>
              <Node pos="r" depth="4" NCoef="0" IVar="-1" Cut="0.0000000000000000e+00" cType="1" res="2.2722616791725159e-02" rms="3.4041291475296021e-01" purity="8.0730915069580078e-01" nType="-99"/>
            </Node>
            <Node pos="r" depth="3" NCoef="0" IVar="1" Cut="1.8874814062500000e+05" cType="1" res="1.8651287537068129e-03" rms="3.4665137529373169e-01" purity="5.0625497102737427e-01" nType="0">
              <Node pos="l" depth="4" NCoef="0" IVar="-1" Cut="0.0000000000000000e+00" cType="1" res="2.1500487346202135e-03" rms="3.4689554572105408e-01" purity="5.0692230463027954e-01" nType="-99"/>
              <Node pos="r" depth="4" NCoef="0" IVar="-1" Cut="0.0000000000000000e+00" cType="1" res="-2.9826190322637558e-02" rms="3.3316144347190857e-01" purity="4.7581443190574646e-01" nType="-99"/>
            </Node>
          </Node>
          <Node pos="r" depth="2" NCoef="0" IVar="16" Cut="2.4942204952239990e+00" cType="1" res="2.5244825519621372e-03" rms="2.8706613183021545e-01" purity="2.4564193189144135e-01" nType="0">
            <Node pos="l" depth="3" NCoef="0" IVar="13" Cut="3.2350814342498779e+00" cType="1" res="-6.2883115606382489e-04" rms="2.8235083818435669e-01" purity="2.5852110981941223e-01" nType="0">
              <Node pos="l" depth="4" NCoef="0" IVar="-1" Cut="0.0000000000000000e+00" cType="1" res="2.8909379616379738e-03" rms="2.8317850828170776e-01" purity="2.5453016161918640e-01" nType="-99"/>
              <Node pos="r" depth="4" NCoef="0" IVar="-1" Cut="0.0000000000000000e+00" cType="1" res="-2.1328650414943695e-02" rms="2.7669084072113037e-01" purity="2.8212898969650269e-01" nType="-99"/>
            </Node>
            <Node pos="r" depth="3" NCoef="0" IVar="16" Cut="3.0105576515197754e+00" cType="1" res="1.1903906241059303e-02" rms="3.0045923590660095e-01" purity="2.0733319222927094e-01" nType="0">
              <Node pos="l" depth="4" NCoef="0" IVar="-1" Cut="0.0000000000000000e+00" cType="1" res="2.6811778545379639e-02" rms="3.0480170249938965e-01" purity="2.1360203623771667e-01" nType="-99"/>
              <Node pos="r" depth="4" NCoef="0" IVar="-1" Cut="0.0000000000000000e+00" cType="1" res="-9.2157693579792976e-03" rms="2.9172399640083313e-01" purity="1.9661684334278107e-01" nType="-99"/>
            </Node>
          </Node>
        </Node>
      </Node>
    </BinaryTree>
    <BinaryTree type="DecisionTree" boostWeight="1.0000000000000000e+00" itree="116">
      <Node pos="s" depth="0" NCoef="0" IVar="11" Cut="9.7634357213973999e-01" cType="1" res="-4.4103667278250214e-06" rms="3.4329095482826233e-01" purity="5.0000000000000000e-01" nType="0">
        <Node pos="l" depth="1" NCoef="0" IVar="20" Cut="4.2037992187500000e+04" cType="1" res="1.1135067325085402e-03" rms="3.4076777100563049e-01" purity="6.4255952835083008e-01" nType="0">
          <Node pos="l" depth="2" NCoef="0" IVar="11" Cut="6.1231732368469238e-01" cType="1" res="-5.7112722424790263e-04" rms="3.4898933768272400e-01" purity="6.6485923528671265e-01" nType="0">
            <Node pos="l" depth="3" NCoef="0" IVar="20" Cut="1.3624316406250000e+04" cType="1" res="4.2913779616355896e-03" rms="3.3239531517028809e-01" purity="7.0178836584091187e-01" nType="0">
              <Node pos="l" depth="4" NCoef="0" IVar="-1" Cut="0.0000000000000000e+00" cType="1" res="-1.2593559920787811e-02" rms="3.5636875033378601e-01" purity="4.7062471508979797e-01" nType="-99"/>
              <Node pos="r" depth="4" NCoef="0" IVar="-1" Cut="0.0000000000000000e+00" cType="1" res="5.8693420141935349e-03" rms="3.2948538661003113e-01" purity="7.2789108753204346e-01" nType="-99"/>
            </Node>
            <Node pos="r" depth="3" NCoef="0" IVar="7" Cut="5.1804492187500000e+04" cType="1" res="-7.6714488677680492e-03" rms="3.7177839875221252e-01" purity="6.1093473434448242e-01" nType="0">
              <Node pos="l" depth="4" NCoef="0" IVar="-1" Cut="0.0000000000000000e+00" cType="1" res="7.5988378375768661e-04" rms="3.6290961503982544e-01" purity="6.3915276527404785e-01" nType="-99"/>
              <Node pos="r" depth="4" NCoef="0" IVar="-1" Cut="0.0000000000000000e+00" cType="1" res="-1.6074538230895996e-02" rms="3.8761848211288452e-01" purity="5.5701875686645508e-01" nType="-99"/>
            </Node>
          </Node>
          <Node pos="r" depth="2" NCoef="0" IVar="2" Cut="4.0230228125000000e+05" cType="1" res="5.7785739190876484e-03" rms="3.1684270501136780e-01" purity="5.8080720901489258e-01" nType="0">
            <Node pos="l" depth="3" NCoef="0" IVar="-1" Cut="0.0000000000000000e+00" cType="1" res="2.3070421069860458e-02" rms="3.1574150919914246e-01" purity="8.4053832292556763e-01" nType="-99"/>
            <Node pos="r" depth="3" NCoef="0" IVar="15" Cut="1.2128921747207642e+00" cType="1" res="-2.5553975719958544e-03" rms="3.1696355342864990e-01" purity="4.6716353297233582e-01" nType="0">
              <Node pos="l" depth="4" NCoef="0" IVar="-1" Cut="0.0000000000000000e+00" cType="1" res="1.9327729940414429e-02" rms="3.6637949943542480e-01" purity="4.4210180640220642e-01" nType="-99"/>
              <Node pos="r" depth="4" NCoef="0" IVar="-1" Cut="0.0000000000000000e+00" cType="1" res="-6.9880727678537369e-03" rms="3.0726653337478638e-01" purity="4.7155645489692688e-01" nType="-99"/>
            </Node>
          </Node>
        </Node>
        <Node pos="r" depth="1" NCoef="0" IVar="14" Cut="2.8268120288848877e+00" cType="1" res="-9.4752787845209241e-04" rms="3.4540247917175293e-01" purity="3.7973135709762573e-01" nType="0">
          <Node pos="l" depth="2" NCoef="0" IVar="14" Cut="1.0796113014221191e+00" cType="1" res="-1.7502055270597339e-03" rms="3.4671774506568909e-01" purity="3.7402659654617310e-01" nType="0">
            <Node pos="l" depth="3" NCoef="0" IVar="1" Cut="5.8984746093750000e+04" cType="1" res="3.4699016250669956e-03" rms="3.5517674684524536e-01" purity="3.5249334573745728e-01" nType="0">
              <Node pos="l" depth="4" NCoef="0" IVar="-1" Cut="0.0000000000000000e+00" cType="1" res="8.8867628946900368e-03" rms="3.4825402498245239e-01" purity="2.8869453072547913e-01" nType="-99"/>
              <Node pos="r" depth="4" NCoef="0" IVar="-1" Cut="0.0000000000000000e+00" cType="1" res="-4.7493078745901585e-03" rms="3.6410078406333923e-01" purity="4.3884789943695068e-01" nType="-99"/>
            </Node>
            <Node pos="r" depth="3" NCoef="0" IVar="13" Cut="3.0165264606475830e+00" cType="1" res="-3.3036840613931417e-03" rms="3.4414494037628174e-01" purity="3.8043481111526489e-01" nType="0">
              <Node pos="l" depth="4" NCoef="0" IVar="-1" Cut="0.0000000000000000e+00" cType="1" res="-4.3231556192040443e-03" rms="3.3779293298721313e-01" purity="3.5307803750038147e-01" nType="-99"/>
              <Node pos="r" depth="4" NCoef="0" IVar="-1" Cut="0.0000000000000000e+00" cType="1" res="2.5155097246170044e-03" rms="3.6494880914688110e-01" purity="4.7396892309188843e-01" nType="-99"/>
            </Node>
          </Node>
          <Node pos="r" depth="2" NCoef="0" IVar="1" Cut="8.6747382812500000e+04" cType="1" res="6.3318889588117599e-03" rms="3.3314922451972961e-01" purity="4.3146750330924988e-01" nType="0">
            <Node pos="l" depth="3" NCoef="0" IVar="9" Cut="9.9938312500000000e+04" cType="1" res="8.2335801562294364e-04" rms="3.3934769034385681e-01" purity="3.8150495290756226e-01" nType="0">
              <Node pos="l" depth="4" NCoef="0" IVar="-1" Cut="0.0000000000000000e+00" cType="1" res="-1.0146401822566986e-02" rms="3.8271421194076538e-01" purity="4.2643561959266663e-01" nType="-99"/>
              <Node pos="r" depth="4" NCoef="0" IVar="-1" Cut="0.0000000000000000e+00" cType="1" res="1.2522350065410137e-02" rms="3.0446249246597290e-01" purity="3.4973517060279846e-01" nType="-99"/>
            </Node>
            <Node pos="r" depth="3" NCoef="0" IVar="-1" Cut="0.0000000000000000e+00" cType="1" res="1.9822696223855019e-02" rms="3.1372123956680298e-01" purity="5.7790786027908325e-01" nType="-99"/>
          </Node>
        </Node>
      </Node>
    </BinaryTree>
    <BinaryTree type="DecisionTree" boostWeight="1.0000000000000000e+00" itree="117">
      <Node pos="s" depth="0" NCoef="0" IVar="13" Cut="1.9197735786437988e+00" cType="1" res="-1.1897440117536462e-06" rms="3.4321320056915283e-01" purity="5.0000000000000000e-01" nType="0">
        <Node pos="l" depth="1" NCoef="0" IVar="9" Cut="1.0710858593750000e+05" cType="1" res="1.6220678808167577e-03" rms="3.3069664239883423e-01" purity="2.5426813960075378e-01" nType="0">
          <Node pos="l" depth="2" NCoef="0" IVar="7" Cut="5.4368769531250000e+04" cType="1" res="-1.2839788105338812e-03" rms="3.5902184247970581e-01" purity="2.9196470975875854e-01" nType="0">
            <Node pos="l" depth="3" NCoef="0" IVar="4" Cut="2.1484517187500000e+05" cType="1" res="6.7089865915477276e-03" rms="3.9864802360534668e-01" purity="4.0478953719139099e-01" nType="0">
              <Node pos="l" depth="4" NCoef="0" IVar="-1" Cut="0.0000000000000000e+00" cType="1" res="1.4096911065280437e-02" rms="3.9155468344688416e-01" purity="4.1536659002304077e-01" nType="-99"/>
              <Node pos="r" depth="4" NCoef="0" IVar="-1" Cut="0.0000000000000000e+00" cType="1" res="-3.3916367683559656e-03" rms="4.0375846624374390e-01" purity="3.9640453457832336e-01" nType="-99"/>
            </Node>
            <Node pos="r" depth="3" NCoef="0" IVar="3" Cut="8.9466875000000000e+04" cType="1" res="-1.0984926484525204e-02" rms="3.0378586053848267e-01" purity="1.5503080189228058e-01" nType="0">
              <Node pos="l" depth="4" NCoef="0" IVar="-1" Cut="0.0000000000000000e+00" cType="1" res="-2.9939137399196625e-02" rms="2.8686031699180603e-01" purity="1.4275617897510529e-01" nType="-99"/>
              <Node pos="r" depth="4" NCoef="0" IVar="-1" Cut="0.0000000000000000e+00" cType="1" res="-4.1282712481915951e-03" rms="3.0839124321937561e-01" purity="1.5874241292476654e-01" nType="-99"/>
            </Node>
          </Node>
          <Node pos="r" depth="2" NCoef="0" IVar="20" Cut="9.2126421875000000e+04" cType="1" res="7.3778857477009296e-03" rms="2.6573652029037476e-01" purity="1.7960500717163086e-01" nType="0">
            <Node pos="l" depth="3" NCoef="0" IVar="12" Cut="2.9674417972564697e+00" cType="1" res="1.6632610931992531e-02" rms="3.4487622976303101e-01" purity="3.1387761235237122e-01" nType="0">
              <Node pos="l" depth="4" NCoef="0" IVar="-1" Cut="0.0000000000000000e+00" cType="1" res="2.1511861123144627e-03" rms="3.3429026603698730e-01" purity="2.8606954216957092e-01" nType="-99"/>
              <Node pos="r" depth="4" NCoef="0" IVar="-1" Cut="0.0000000000000000e+00" cType="1" res="3.9211016148328781e-02" rms="3.6892810463905334e-01" purity="3.8774028420448303e-01" nType="-99"/>
            </Node>
            <Node pos="r" depth="3" NCoef="0" IVar="13" Cut="1.0057550668716431e+00" cType="1" res="-4.3655680492520332e-03" rms="9.5134876668453217e-02" purity="9.2245582491159439e-03" nType="0">
              <Node pos="l" depth="4" NCoef="0" IVar="-1" Cut="0.0000000000000000e+00" cType="1" res="3.3928174525499344e-02" rms="1.3454186916351318e-01" purity="1.8703501671552658e-02" nType="-99"/>
              <Node pos="r" depth="4" NCoef="0" IVar="-1" Cut="0.0000000000000000e+00" cType="1" res="-6.3777782022953033e-02" rms="7.2843573987483978e-02" purity="5.3506684489548206e-03" nType="-99"/>
            </Node>
          </Node>
        </Node>
        <Node pos="r" depth="1" NCoef="0" IVar="16" Cut="2.7363088130950928e+00" cType="1" res="-5.6277593830600381e-04" rms="3.4743672609329224e-01" purity="5.8501398563385010e-01" nType="0">
          <Node pos="l" depth="2" NCoef="0" IVar="16" Cut="2.6069469451904297e+00" cType="1" res="-1.6494528972543776e-04" rms="3.4595039486885071e-01" purity="6.0165643692016602e-01" nType="0">
            <Node pos="l" depth="3" NCoef="0" IVar="16" Cut="6.3664370775222778e-01" cType="1" res="-7.5286132050678134e-04" rms="3.4465584158897400e-01" purity="6.0628908872604370e-01" nType="0">
              <Node pos="l" depth="4" NCoef="0" IVar="-1" Cut="0.0000000000000000e+00" cType="1" res="3.9681312628090382e-03" rms="2.7693319320678711e-01" purity="8.1466251611709595e-01" nType="-99"/>
              <Node pos="r" depth="4" NCoef="0" IVar="-1" Cut="0.0000000000000000e+00" cType="1" res="-1.1957080569118261e-03" rms="3.5681164264678955e-01" purity="5.6406074762344360e-01" nType="-99"/>
            </Node>
            <Node pos="r" depth="3" NCoef="0" IVar="-1" Cut="0.0000000000000000e+00" cType="1" res="1.6188228502869606e-02" rms="3.9493259787559509e-01" purity="4.1048222780227661e-01" nType="-99"/>
          </Node>
          <Node pos="r" depth="2" NCoef="0" IVar="1" Cut="7.9167187500000000e+04" cType="1" res="-5.9969164431095123e-03" rms="3.6709389090538025e-01" purity="3.5768824815750122e-01" nType="0">
            <Node pos="l" depth="3" NCoef="0" IVar="5" Cut="1.1330837500000000e+05" cType="1" res="-1.4899849891662598e-02" rms="3.6203208565711975e-01" purity="2.8562343120574951e-01" nType="0">
              <Node pos="l" depth="4" NCoef="0" IVar="-1" Cut="0.0000000000000000e+00" cType="1" res="-1.8910247832536697e-02" rms="3.6346507072448730e-01" purity="2.9912516474723816e-01" nType="-99"/>
              <Node pos="r" depth="4" NCoef="0" IVar="-1" Cut="0.0000000000000000e+00" cType="1" res="1.1607676278799772e-03" rms="3.5948908329010010e-01" purity="2.6798823475837708e-01" nType="-99"/>
            </Node>
            <Node pos="r" depth="3" NCoef="0" IVar="-1" Cut="0.0000000000000000e+00" cType="1" res="7.9157827422022820e-03" rms="3.7633010745048523e-01" purity="5.0095617771148682e-01" nType="-99"/>
          </Node>
        </Node>
      </Node>
    </BinaryTree>
    <BinaryTree type="DecisionTree" boostWeight="1.0000000000000000e+00" itree="118">
      <Node pos="s" depth="0" NCoef="0" IVar="19" Cut="2.8405653125000000e+05" cType="1" res="-6.9809052547498140e-06" rms="3.4313800930976868e-01" purity="5.0000000000000000e-01" nType="0">
        <Node pos="l" depth="1" NCoef="0" IVar="19" Cut="3.9957800781250000e+04" cType="1" res="1.7159810522571206e-04" rms="3.4503343701362610e-01" purity="5.1193803548812866e-01" nType="0">
          <Node pos="l" depth="2" NCoef="0" IVar="0" Cut="7.3333334922790527e+00" cType="1" res="-2.1793656051158905e-03" rms="3.4263819456100464e-01" purity="5.1760685443878174e-01" nType="0">
            <Node pos="l" depth="3" NCoef="0" IVar="0" Cut="3.2857143878936768e+00" cType="1" res="2.5934775476343930e-04" rms="3.3865603804588318e-01" purity="5.6464505195617676e-01" nType="0">
              <Node pos="l" depth="4" NCoef="0" IVar="-1" Cut="0.0000000000000000e+00" cType="1" res="-4.5774970203638077e-03" rms="3.5936272144317627e-01" purity="4.7819581627845764e-01" nType="-99"/>
              <Node pos="r" depth="4" NCoef="0" IVar="-1" Cut="0.0000000000000000e+00" cType="1" res="4.4461647048592567e-03" rms="3.2222568988800049e-01" purity="6.2927049398422241e-01" nType="-99"/>
            </Node>
            <Node pos="r" depth="3" NCoef="0" IVar="13" Cut="1.6904063224792480e+00" cType="1" res="0.0000000000000000e+00" rms="0.0000000000000000e+00" purity="3.5197010636329651e-01" nType="0">
              <Node pos="l" depth="4" NCoef="0" IVar="-1" Cut="0.0000000000000000e+00" cType="1" res="9.1246012598276138e-03" rms="3.1739550828933716e-01" purity="1.7468337714672089e-01" nType="-99"/>
              <Node pos="r" depth="4" NCoef="0" IVar="-1" Cut="0.0000000000000000e+00" cType="1" res="-1.2158975005149841e-02" rms="3.6763381958007812e-01" purity="4.0941074490547180e-01" nType="-99"/>
            </Node>
          </Node>
          <Node pos="r" depth="2" NCoef="0" IVar="16" Cut="6.0326302051544189e-01" cType="1" res="1.4266221551224589e-03" rms="3.4629878401756287e-01" purity="5.0891184806823730e-01" nType="0">
            <Node pos="l" depth="3" NCoef="0" IVar="-1" Cut="0.0000000000000000e+00" cType="1" res="1.9503280520439148e-02" rms="2.4230436980724335e-01" purity="8.4331983327865601e-01" nType="-99"/>
            <Node pos="r" depth="3" NCoef="0" IVar="15" Cut="7.7769839763641357e-01" cType="1" res="6.6670711385086179e-04" rms="3.5191991925239563e-01" purity="4.8741793632507324e-01" nType="0">
              <Node pos="l" depth="4" NCoef="0" IVar="-1" Cut="0.0000000000000000e+00" cType="1" res="6.7437328398227692e-03" rms="3.8402259349822998e-01" purity="5.3535467386245728e-01" nType="-99"/>
              <Node pos="r" depth="4" NCoef="0" IVar="-1" Cut="0.0000000000000000e+00" cType="1" res="-1.7437749193049967e-04" rms="3.4862044453620911e-01" purity="4.8274600505828857e-01" nType="-99"/>
            </Node>
          </Node>
        </Node>
        <Node pos="r" depth="1" NCoef="0" IVar="15" Cut="1.7293862104415894e+00" cType="1" res="-4.9598845653235912e-03" rms="2.8555440902709961e-01" purity="1.6889743506908417e-01" nType="0">
          <Node pos="l" depth="2" NCoef="0" IVar="-1" Cut="0.0000000000000000e+00" cType="1" res="-2.0696876570582390e-02" rms="2.9073753952980042e-01" purity="1.7103332281112671e-01" nType="-99"/>
          <Node pos="r" depth="2" NCoef="0" IVar="13" Cut="1.8008837699890137e+00" cType="1" res="4.3525611981749535e-03" rms="2.8199887275695801e-01" purity="1.6762016713619232e-01" nType="0">
            <Node pos="l" depth="3" NCoef="0" IVar="-1" Cut="0.0000000000000000e+00" cType="1" res="-1.5123371966183186e-02" rms="2.2022674977779388e-01" purity="6.5551280975341797e-02" nType="-99"/>
            <Node pos="r" depth="3" NCoef="0" IVar="-1" Cut="0.0000000000000000e+00" cType="1" res="1.5228416770696640e-02" rms="3.2788619399070740e-01" purity="2.6061639189720154e-01" nType="-99"/>
          </Node>
        </Node>
      </Node>
    </BinaryTree>
    <BinaryTree type="DecisionTree" boostWeight="1.0000000000000000e+00" itree="119">
      <Node pos="s" depth="0" NCoef="0" IVar="11" Cut="9.7634357213973999e-01" cType="1" res="-5.1706847443711013e-06" rms="3.4310275316238403e-01" purity="5.0000000000000000e-01" nType="0">
        <Node pos="l" depth="1" NCoef="0" IVar="14" Cut="7.5314164161682129e-01" cType="1" res="9.7455212380737066e-04" rms="3.4057849645614624e-01" purity="6.4255952835083008e-01" nType="0">
          <Node pos="l" depth="2" NCoef="0" IVar="14" Cut="6.1270713806152344e-01" cType="1" res="-9.7513664513826370e-03" rms="3.5870096087455750e-01" purity="6.0632956027984619e-01" nType="0">
            <Node pos="l" depth="3" NCoef="0" IVar="-1" Cut="0.0000000000000000e+00" cType="1" res="-1.2201709905639291e-03" rms="3.6156964302062988e-01" purity="6.1341375112533569e-01" nType="-99"/>
            <Node pos="r" depth="3" NCoef="0" IVar="-1" Cut="0.0000000000000000e+00" cType="1" res="-1.6579844057559967e-02" rms="3.5399889945983887e-01" purity="5.9568369388580322e-01" nType="-99"/>
          </Node>
          <Node pos="r" depth="2" NCoef="0" IVar="13" Cut="3.1378233432769775e+00" cType="1" res="1.7545482842251658e-03" rms="3.3920961618423462e-01" purity="6.4519417285919189e-01" nType="0">
            <Node pos="l" depth="3" NCoef="0" IVar="20" Cut="3.8926101562500000e+04" cType="1" res="3.1837185379117727e-03" rms="3.4061896800994873e-01" purity="6.3152611255645752e-01" nType="0">
              <Node pos="l" depth="4" NCoef="0" IVar="-1" Cut="0.0000000000000000e+00" cType="1" res="6.6063879057765007e-04" rms="3.5072633624076843e-01" purity="6.4298295974731445e-01" nType="-99"/>
              <Node pos="r" depth="4" NCoef="0" IVar="-1" Cut="0.0000000000000000e+00" cType="1" res="7.9186707735061646e-03" rms="3.1750622391700745e-01" purity="6.0664802789688110e-01" nType="-99"/>
            </Node>
            <Node pos="r" depth="3" NCoef="0" IVar="1" Cut="7.5502726562500000e+04" cType="1" res="-5.8860420249402523e-03" rms="3.3146882057189941e-01" purity="7.1826571226119995e-01" nType="0">
              <Node pos="l" depth="4" NCoef="0" IVar="-1" Cut="0.0000000000000000e+00" cType="1" res="-1.1499771848320961e-02" rms="3.4324848651885986e-01" purity="6.8272966146469116e-01" nType="-99"/>
              <Node pos="r" depth="4" NCoef="0" IVar="-1" Cut="0.0000000000000000e+00" cType="1" res="7.1523385122418404e-03" rms="3.1081929802894592e-01" purity="7.7628862857818604e-01" nType="-99"/>
            </Node>
          </Node>
        </Node>
        <Node pos="r" depth="1" NCoef="0" IVar="15" Cut="3.0486736297607422e+00" cType="1" res="-8.3170225843787193e-04" rms="3.4521582722663879e-01" purity="3.7973135709762573e-01" nType="0">
          <Node pos="l" depth="2" NCoef="0" IVar="18" Cut="8.4268539062500000e+04" cType="1" res="-1.3857713202014565e-03" rms="3.4591665863990784e-01" purity="3.8150483369827271e-01" nType="0">
            <Node pos="l" depth="3" NCoef="0" IVar="18" Cut="8.0224070312500000e+04" cType="1" res="2.3094088828656822e-04" rms="3.6164367198944092e-01" purity="4.1082748770713806e-01" nType="0">
              <Node pos="l" depth="4" NCoef="0" IVar="-1" Cut="0.0000000000000000e+00" cType="1" res="-8.2784146070480347e-04" rms="3.6141213774681091e-01" purity="4.0803962945938110e-01" nType="-99"/>
              <Node pos="r" depth="4" NCoef="0" IVar="-1" Cut="0.0000000000000000e+00" cType="1" res="2.6608586311340332e-02" rms="3.6588668823242188e-01" purity="4.8457297682762146e-01" nType="-99"/>
            </Node>
            <Node pos="r" depth="3" NCoef="0" IVar="15" Cut="1.9151966571807861e+00" cType="1" res="-4.4506657868623734e-03" rms="3.1392419338226318e-01" purity="3.2591620087623596e-01" nType="0">
              <Node pos="l" depth="4" NCoef="0" IVar="-1" Cut="0.0000000000000000e+00" cType="1" res="-1.5722764655947685e-02" rms="3.0385196208953857e-01" purity="2.4749217927455902e-01" nType="-99"/>
              <Node pos="r" depth="4" NCoef="0" IVar="-1" Cut="0.0000000000000000e+00" cType="1" res="2.9843745869584382e-04" rms="3.1799516081809998e-01" purity="3.5930055379867554e-01" nType="-99"/>
            </Node>
          </Node>
          <Node pos="r" depth="2" NCoef="0" IVar="4" Cut="2.6916171875000000e+05" cType="1" res="9.1904820874333382e-03" rms="3.3212390542030334e-01" purity="3.4765213727951050e-01" nType="0">
            <Node pos="l" depth="3" NCoef="0" IVar="-1" Cut="0.0000000000000000e+00" cType="1" res="-1.6288632759824395e-03" rms="3.6156994104385376e-01" purity="4.2269429564476013e-01" nType="-99"/>
            <Node pos="r" depth="3" NCoef="0" IVar="-1" Cut="0.0000000000000000e+00" cType="1" res="2.0705364644527435e-02" rms="3.0543574690818787e-01" purity="2.8585982322692871e-01" nType="-99"/>
          </Node>
        </Node>
      </Node>
    </BinaryTree>
    <BinaryTree type="DecisionTree" boostWeight="1.0000000000000000e+00" itree="120">
      <Node pos="s" depth="0" NCoef="0" IVar="18" Cut="4.4458743750000000e+05" cType="1" res="-3.7492586670850869e-06" rms="3.4305548667907715e-01" purity="5.0000000000000000e-01" nType="0">
        <Node pos="l" depth="1" NCoef="0" IVar="18" Cut="4.1737097656250000e+04" cType="1" res="8.8958629930857569e-05" rms="3.4404930472373962e-01" purity="5.0383251905441284e-01" nType="0">
          <Node pos="l" depth="2" NCoef="0" IVar="15" Cut="2.0944604873657227e+00" cType="1" res="-3.1204281840473413e-03" rms="3.5093766450881958e-01" purity="4.8730143904685974e-01" nType="0">
            <Node pos="l" depth="3" NCoef="0" IVar="18" Cut="1.3578204345703125e+03" cType="1" res="1.2215430615469813e-03" rms="3.5586136579513550e-01" purity="4.9853980541229248e-01" nType="0">
              <Node pos="l" depth="4" NCoef="0" IVar="-1" Cut="0.0000000000000000e+00" cType="1" res="4.5089018531143665e-03" rms="3.4111809730529785e-01" purity="5.0038164854049683e-01" nType="-99"/>
              <Node pos="r" depth="4" NCoef="0" IVar="-1" Cut="0.0000000000000000e+00" cType="1" res="-6.9037578068673611e-03" rms="3.9294028282165527e-01" purity="4.9352720379829407e-01" nType="-99"/>
            </Node>
            <Node pos="r" depth="3" NCoef="0" IVar="12" Cut="3.3686137199401855e+00" cType="1" res="-1.6505753621459007e-02" rms="3.3495026826858521e-01" purity="4.5265612006187439e-01" nType="0">
              <Node pos="l" depth="4" NCoef="0" IVar="-1" Cut="0.0000000000000000e+00" cType="1" res="-1.8108556047081947e-02" rms="3.3258754014968872e-01" purity="4.5313909649848938e-01" nType="-99"/>
              <Node pos="r" depth="4" NCoef="0" IVar="-1" Cut="0.0000000000000000e+00" cType="1" res="1.8864689394831657e-02" rms="3.4984105825424194e-01" purity="4.4902014732360840e-01" nType="-99"/>
            </Node>
          </Node>
          <Node pos="r" depth="2" NCoef="0" IVar="18" Cut="9.9282585937500000e+04" cType="1" res="1.8726438283920288e-03" rms="3.4014758467674255e-01" purity="5.1302009820938110e-01" nType="0">
            <Node pos="l" depth="3" NCoef="0" IVar="2" Cut="2.4198168750000000e+05" cType="1" res="4.5713526196777821e-03" rms="3.6295768618583679e-01" purity="5.3672921657562256e-01" nType="0">
              <Node pos="l" depth="4" NCoef="0" IVar="-1" Cut="0.0000000000000000e+00" cType="1" res="1.2495420873165131e-02" rms="3.8332384824752808e-01" purity="5.6786531209945679e-01" nType="-99"/>
              <Node pos="r" depth="4" NCoef="0" IVar="-1" Cut="0.0000000000000000e+00" cType="1" res="4.8769256682135165e-04" rms="3.5729497671127319e-01" purity="5.2852690219879150e-01" nType="-99"/>
            </Node>
            <Node pos="r" depth="3" NCoef="0" IVar="11" Cut="1.3607265949249268e+00" cType="1" res="-5.4708111565560102e-04" rms="3.1828925013542175e-01" purity="4.9176195263862610e-01" nType="0">
              <Node pos="l" depth="4" NCoef="0" IVar="-1" Cut="0.0000000000000000e+00" cType="1" res="3.3001396805047989e-03" rms="3.3055669069290161e-01" purity="6.0228437185287476e-01" nType="-99"/>
              <Node pos="r" depth="4" NCoef="0" IVar="-1" Cut="0.0000000000000000e+00" cType="1" res="-1.3076043687760830e-02" rms="2.8441223502159119e-01" purity="2.1058136224746704e-01" nType="-99"/>
            </Node>
          </Node>
        </Node>
        <Node pos="r" depth="1" NCoef="0" IVar="-1" Cut="0.0000000000000000e+00" cType="1" res="-1.3963594101369381e-02" rms="2.3257495462894440e-01" purity="1.4349031448364258e-01" nType="-99"/>
      </Node>
    </BinaryTree>
    <BinaryTree type="DecisionTree" boostWeight="1.0000000000000000e+00" itree="121">
      <Node pos="s" depth="0" NCoef="0" IVar="15" Cut="2.2873806953430176e+00" cType="1" res="-3.2292575724568451e-06" rms="3.4298980236053467e-01" purity="5.0000000000000000e-01" nType="0">
        <Node pos="l" depth="1" NCoef="0" IVar="18" Cut="6.2517085937500000e+04" cType="1" res="-6.2913540750741959e-04" rms="3.5348188877105713e-01" purity="4.8790642619132996e-01" nType="0">
          <Node pos="l" depth="2" NCoef="0" IVar="15" Cut="2.0698602199554443e+00" cType="1" res="1.4973337529227138e-03" rms="3.6272269487380981e-01" purity="5.0363898277282715e-01" nType="0">
            <Node pos="l" depth="3" NCoef="0" IVar="9" Cut="2.6200375000000000e+05" cType="1" res="2.9760804027318954e-03" rms="3.6424824595451355e-01" purity="5.0709444284439087e-01" nType="0">
              <Node pos="l" depth="4" NCoef="0" IVar="-1" Cut="0.0000000000000000e+00" cType="1" res="3.0320785008370876e-03" rms="3.6938905715942383e-01" purity="5.2224481105804443e-01" nType="-99"/>
              <Node pos="r" depth="4" NCoef="0" IVar="-1" Cut="0.0000000000000000e+00" cType="1" res="-2.4883819743990898e-02" rms="2.6226702332496643e-01" purity="2.5246116518974304e-01" nType="-99"/>
            </Node>
            <Node pos="r" depth="3" NCoef="0" IVar="3" Cut="1.3239450000000000e+05" cType="1" res="-1.6019655391573906e-02" rms="3.4365338087081909e-01" purity="4.6270635724067688e-01" nType="0">
              <Node pos="l" depth="4" NCoef="0" IVar="-1" Cut="0.0000000000000000e+00" cType="1" res="-2.9014360159635544e-02" rms="3.4715497493743896e-01" purity="3.6777323484420776e-01" nType="-99"/>
              <Node pos="r" depth="4" NCoef="0" IVar="-1" Cut="0.0000000000000000e+00" cType="1" res="-1.5988687518984079e-03" rms="3.4088748693466187e-01" purity="5.1476043462753296e-01" nType="-99"/>
            </Node>
          </Node>
          <Node pos="r" depth="2" NCoef="0" IVar="15" Cut="1.4772359132766724e+00" cType="1" res="-3.6605077330023050e-03" rms="3.3985164761543274e-01" purity="4.6547895669937134e-01" nType="0">
            <Node pos="l" depth="3" NCoef="0" IVar="16" Cut="1.6055812835693359e+00" cType="1" res="-1.2546539306640625e-02" rms="3.4198528528213501e-01" purity="3.8710466027259827e-01" nType="0">
              <Node pos="l" depth="4" NCoef="0" IVar="-1" Cut="0.0000000000000000e+00" cType="1" res="-2.0069180056452751e-02" rms="3.3689451217651367e-01" purity="4.5418658852577209e-01" nType="-99"/>
              <Node pos="r" depth="4" NCoef="0" IVar="-1" Cut="0.0000000000000000e+00" cType="1" res="-4.3025551713071764e-04" rms="3.4743821620941162e-01" purity="3.0892550945281982e-01" nType="-99"/>
            </Node>
            <Node pos="r" depth="3" NCoef="0" IVar="13" Cut="3.1501145362854004e+00" cType="1" res="-4.3893334805034101e-04" rms="3.3901727199554443e-01" purity="4.9389305710792542e-01" nType="0">
              <Node pos="l" depth="4" NCoef="0" IVar="-1" Cut="0.0000000000000000e+00" cType="1" res="1.6800226876512170e-03" rms="3.3913189172744751e-01" purity="4.9118411540985107e-01" nType="-99"/>
              <Node pos="r" depth="4" NCoef="0" IVar="-1" Cut="0.0000000000000000e+00" cType="1" res="-1.2873859144747257e-02" rms="3.3788794279098511e-01" purity="5.1093798875808716e-01" nType="-99"/>
            </Node>
          </Node>
        </Node>
        <Node pos="r" depth="1" NCoef="0" IVar="12" Cut="3.5822372436523438e+00" cType="1" res="1.1988069163635373e-03" rms="3.2187896966934204e-01" purity="5.2322542667388916e-01" nType="0">
          <Node pos="l" depth="2" NCoef="0" IVar="14" Cut="3.0982403755187988e+00" cType="1" res="1.5715356857981533e-04" rms="3.2181271910667419e-01" purity="5.2404135465621948e-01" nType="0">
            <Node pos="l" depth="3" NCoef="0" IVar="4" Cut="5.2870568750000000e+05" cType="1" res="1.5499350847676396e-03" rms="3.2033070921897888e-01" purity="5.2722996473312378e-01" nType="0">
              <Node pos="l" depth="4" NCoef="0" IVar="-1" Cut="0.0000000000000000e+00" cType="1" res="2.9694482218474150e-03" rms="3.2894083857536316e-01" purity="5.6802564859390259e-01" nType="-99"/>
              <Node pos="r" depth="4" NCoef="0" IVar="-1" Cut="0.0000000000000000e+00" cType="1" res="-1.2245617806911469e-02" rms="2.6361137628555298e-01" purity="2.8657656908035278e-01" nType="-99"/>
            </Node>
            <Node pos="r" depth="3" NCoef="0" IVar="9" Cut="7.9137992187500000e+04" cType="1" res="-1.3919932767748833e-02" rms="3.3610150218009949e-01" purity="4.9181377887725830e-01" nType="0">
              <Node pos="l" depth="4" NCoef="0" IVar="-1" Cut="0.0000000000000000e+00" cType="1" res="-2.4204229936003685e-02" rms="3.7173318862915039e-01" purity="3.8594374060630798e-01" nType="-99"/>
              <Node pos="r" depth="4" NCoef="0" IVar="-1" Cut="0.0000000000000000e+00" cType="1" res="-2.9305033385753632e-03" rms="3.1528288125991821e-01" purity="5.4726159572601318e-01" nType="-99"/>
            </Node>
          </Node>
          <Node pos="r" depth="2" NCoef="0" IVar="-1" Cut="0.0000000000000000e+00" cType="1" res="1.8855266273021698e-02" rms="3.2249531149864197e-01" purity="5.0831878185272217e-01" nType="-99"/>
        </Node>
      </Node>
    </BinaryTree>
    <BinaryTree type="DecisionTree" boostWeight="1.0000000000000000e+00" itree="122">
      <Node pos="s" depth="0" NCoef="0" IVar="5" Cut="2.2984054687500000e+05" cType="1" res="-2.6432753656990826e-06" rms="3.4292307496070862e-01" purity="5.0000000000000000e-01" nType="0">
        <Node pos="l" depth="1" NCoef="0" IVar="5" Cut="1.8106695312500000e+05" cType="1" res="-4.6670529991388321e-04" rms="3.4681975841522217e-01" purity="5.3397262096405029e-01" nType="0">
          <Node pos="l" depth="2" NCoef="0" IVar="19" Cut="2.0904654687500000e+05" cType="1" res="5.0876312889158726e-04" rms="3.4750631451606750e-01" purity="5.3685384988784790e-01" nType="0">
            <Node pos="l" depth="3" NCoef="0" IVar="5" Cut="3.2431802734375000e+04" cType="1" res="9.1555243125185370e-04" rms="3.4790724515914917e-01" purity="5.4351812601089478e-01" nType="0">
              <Node pos="l" depth="4" NCoef="0" IVar="-1" Cut="0.0000000000000000e+00" cType="1" res="-4.1576605290174484e-03" rms="3.5505616664886475e-01" purity="4.6596679091453552e-01" nType="-99"/>
              <Node pos="r" depth="4" NCoef="0" IVar="-1" Cut="0.0000000000000000e+00" cType="1" res="1.4031187165528536e-03" rms="3.4694436192512512e-01" purity="5.5374586582183838e-01" nType="-99"/>
            </Node>
            <Node pos="r" depth="3" NCoef="0" IVar="-1" Cut="0.0000000000000000e+00" cType="1" res="-1.3112174347043037e-02" rms="3.3070096373558044e-01" purity="2.7086806297302246e-01" nType="-99"/>
          </Node>
          <Node pos="r" depth="2" NCoef="0" IVar="12" Cut="2.0322396755218506e+00" cType="1" res="-8.2290954887866974e-03" rms="3.4120759367942810e-01" purity="5.1104491949081421e-01" nType="0">
            <Node pos="l" depth="3" NCoef="0" IVar="-1" Cut="0.0000000000000000e+00" cType="1" res="-1.7039556056261063e-02" rms="3.6401727795600891e-01" purity="3.4210938215255737e-01" nType="-99"/>
            <Node pos="r" depth="3" NCoef="0" IVar="16" Cut="1.9894669055938721e+00" cType="1" res="-3.8337111473083496e-03" rms="3.3440256118774414e-01" purity="5.5840188264846802e-01" nType="0">
              <Node pos="l" depth="4" NCoef="0" IVar="-1" Cut="0.0000000000000000e+00" cType="1" res="-8.5857398808002472e-03" rms="3.2355779409408569e-01" purity="6.2956559658050537e-01" nType="-99"/>
              <Node pos="r" depth="4" NCoef="0" IVar="-1" Cut="0.0000000000000000e+00" cType="1" res="9.8383435979485512e-03" rms="3.6562803387641907e-01" purity="3.3671835064888000e-01" nType="-99"/>
            </Node>
          </Node>
        </Node>
        <Node pos="r" depth="1" NCoef="0" IVar="2" Cut="4.5967728125000000e+05" cType="1" res="1.9314017845317721e-03" rms="3.2617512345314026e-01" purity="3.5841417312622070e-01" nType="0">
          <Node pos="l" depth="2" NCoef="0" IVar="1" Cut="6.2834464843750000e+04" cType="1" res="1.4787689782679081e-02" rms="3.8778048753738403e-01" purity="6.2796384096145630e-01" nType="0">
            <Node pos="l" depth="3" NCoef="0" IVar="-1" Cut="0.0000000000000000e+00" cType="1" res="2.9369778931140900e-02" rms="4.0117019414901733e-01" purity="5.6276333332061768e-01" nType="-99"/>
            <Node pos="r" depth="3" NCoef="0" IVar="-1" Cut="0.0000000000000000e+00" cType="1" res="-2.6071399915963411e-03" rms="3.7806177139282227e-01" purity="6.6831988096237183e-01" nType="-99"/>
          </Node>
          <Node pos="r" depth="2" NCoef="0" IVar="13" Cut="3.2911906242370605e+00" cType="1" res="-5.9902173234149814e-04" rms="3.1256085634231567e-01" purity="3.0536034703254700e-01" nType="0">
            <Node pos="l" depth="3" NCoef="0" IVar="16" Cut="1.0167683362960815e+00" cType="1" res="1.3376438291743398e-03" rms="3.1405550241470337e-01" purity="3.0450332164764404e-01" nType="0">
              <Node pos="l" depth="4" NCoef="0" IVar="-1" Cut="0.0000000000000000e+00" cType="1" res="-1.0169015266001225e-02" rms="3.1088420748710632e-01" purity="5.4350608587265015e-01" nType="-99"/>
              <Node pos="r" depth="4" NCoef="0" IVar="-1" Cut="0.0000000000000000e+00" cType="1" res="5.6781978346407413e-03" rms="3.1508427858352661e-01" purity="2.1785463392734528e-01" nType="-99"/>
            </Node>
            <Node pos="r" depth="3" NCoef="0" IVar="-1" Cut="0.0000000000000000e+00" cType="1" res="-2.4516940116882324e-02" rms="2.9180371761322021e-01" purity="3.1624251604080200e-01" nType="-99"/>
          </Node>
        </Node>
      </Node>
    </BinaryTree>
    <BinaryTree type="DecisionTree" boostWeight="1.0000000000000000e+00" itree="123">
      <Node pos="s" depth="0" NCoef="0" IVar="5" Cut="4.3468087500000000e+05" cType="1" res="-2.3484258235839661e-06" rms="3.4287193417549133e-01" purity="5.0000000000000000e-01" nType="0">
        <Node pos="l" depth="1" NCoef="0" IVar="5" Cut="6.4017382812500000e+04" cType="1" res="-2.1684318198822439e-04" rms="3.4525445103645325e-01" purity="5.1539814472198486e-01" nType="0">
          <Node pos="l" depth="2" NCoef="0" IVar="1" Cut="3.9954765625000000e+04" cType="1" res="2.9039871878921986e-03" rms="3.5572695732116699e-01" purity="4.9863106012344360e-01" nType="0">
            <Node pos="l" depth="3" NCoef="0" IVar="1" Cut="1.3413755859375000e+04" cType="1" res="-7.6410919427871704e-03" rms="3.5051634907722473e-01" purity="3.2094237208366394e-01" nType="0">
              <Node pos="l" depth="4" NCoef="0" IVar="-1" Cut="0.0000000000000000e+00" cType="1" res="-3.7121377885341644e-02" rms="3.0612125992774963e-01" purity="2.0036220550537109e-01" nType="-99"/>
              <Node pos="r" depth="4" NCoef="0" IVar="-1" Cut="0.0000000000000000e+00" cType="1" res="8.9029368245974183e-04" rms="3.6080321669578552e-01" purity="3.5275077819824219e-01" nType="-99"/>
            </Node>
            <Node pos="r" depth="3" NCoef="0" IVar="17" Cut="7.9233195312500000e+04" cType="1" res="1.0489208623766899e-02" rms="3.5923698544502258e-01" purity="6.2644505500793457e-01" nType="0">
              <Node pos="l" depth="4" NCoef="0" IVar="-1" Cut="0.0000000000000000e+00" cType="1" res="9.9891973659396172e-03" rms="3.6350244283676147e-01" purity="6.3560879230499268e-01" nType="-99"/>
              <Node pos="r" depth="4" NCoef="0" IVar="-1" Cut="0.0000000000000000e+00" cType="1" res="-1.2933764606714249e-02" rms="3.2609382271766663e-01" purity="5.6100791692733765e-01" nType="-99"/>
            </Node>
          </Node>
          <Node pos="r" depth="2" NCoef="0" IVar="14" Cut="1.9751118421554565e+00" cType="1" res="-1.4405671972781420e-03" rms="3.4105244278907776e-01" purity="5.2197277545928955e-01" nType="0">
            <Node pos="l" depth="3" NCoef="0" IVar="17" Cut="7.0740632812500000e+04" cType="1" res="-4.6165166422724724e-03" rms="3.5477614402770996e-01" purity="4.7188928723335266e-01" nType="0">
              <Node pos="l" depth="4" NCoef="0" IVar="-1" Cut="0.0000000000000000e+00" cType="1" res="-7.6814222848042846e-04" rms="3.6576268076896667e-01" purity="4.9947592616081238e-01" nType="-99"/>
              <Node pos="r" depth="4" NCoef="0" IVar="-1" Cut="0.0000000000000000e+00" cType="1" res="-1.0618329979479313e-02" rms="3.3158704638481140e-01" purity="4.1668921709060669e-01" nType="-99"/>
            </Node>
            <Node pos="r" depth="3" NCoef="0" IVar="16" Cut="1.5069909095764160e+00" cType="1" res="1.7464115517213941e-03" rms="3.2667109370231628e-01" purity="5.7223016023635864e-01" nType="0">
              <Node pos="l" depth="4" NCoef="0" IVar="-1" Cut="0.0000000000000000e+00" cType="1" res="5.1677939482033253e-03" rms="3.0588051676750183e-01" purity="7.2617065906524658e-01" nType="-99"/>
              <Node pos="r" depth="4" NCoef="0" IVar="-1" Cut="0.0000000000000000e+00" cType="1" res="-2.9005792457610369e-03" rms="3.5725560784339905e-01" purity="3.2677668333053589e-01" nType="-99"/>
            </Node>
          </Node>
        </Node>
        <Node pos="r" depth="1" NCoef="0" IVar="10" Cut="1.1646107812500000e+05" cType="1" res="4.0658731013536453e-03" rms="2.9402178525924683e-01" purity="2.0795036852359772e-01" nType="0">
          <Node pos="l" depth="2" NCoef="0" IVar="3" Cut="1.3966181250000000e+05" cType="1" res="1.5769803896546364e-02" rms="3.2494294643402100e-01" purity="2.4088796973228455e-01" nType="0">
            <Node pos="l" depth="3" NCoef="0" IVar="-1" Cut="0.0000000000000000e+00" cType="1" res="2.6699164882302284e-02" rms="3.8588148355484009e-01" purity="3.1260856986045837e-01" nType="-99"/>
            <Node pos="r" depth="3" NCoef="0" IVar="-1" Cut="0.0000000000000000e+00" cType="1" res="-4.6983412466943264e-03" rms="2.5467303395271301e-01" purity="1.7472554743289948e-01" nType="-99"/>
          </Node>
          <Node pos="r" depth="2" NCoef="0" IVar="5" Cut="6.2002112500000000e+05" cType="1" res="-6.1754710040986538e-03" rms="2.6358431577682495e-01" purity="1.7912887036800385e-01" nType="0">
            <Node pos="l" depth="3" NCoef="0" IVar="-1" Cut="0.0000000000000000e+00" cType="1" res="5.4173469543457031e-03" rms="2.9132044315338135e-01" purity="2.3598395287990570e-01" nType="-99"/>
            <Node pos="r" depth="3" NCoef="0" IVar="-1" Cut="0.0000000000000000e+00" cType="1" res="-3.8832310587167740e-02" rms="2.1461479365825653e-01" purity="9.4288699328899384e-02" nType="-99"/>
          </Node>
        </Node>
      </Node>
    </BinaryTree>
    <BinaryTree type="DecisionTree" boostWeight="1.0000000000000000e+00" itree="124">
      <Node pos="s" depth="0" NCoef="0" IVar="2" Cut="6.9643325000000000e+05" cType="1" res="-4.3367558646423277e-06" rms="3.4278243780136108e-01" purity="5.0000000000000000e-01" nType="0">
        <Node pos="l" depth="1" NCoef="0" IVar="5" Cut="3.4870728125000000e+05" cType="1" res="-3.8375944131985307e-04" rms="3.5076323151588440e-01" purity="5.3972923755645752e-01" nType="0">
          <Node pos="l" depth="2" NCoef="0" IVar="4" Cut="1.0974267968750000e+05" cType="1" res="-9.5305795548483729e-04" rms="3.4985968470573425e-01" purity="5.4170894622802734e-01" nType="0">
            <Node pos="l" depth="3" NCoef="0" IVar="-1" Cut="0.0000000000000000e+00" cType="1" res="-2.1398678421974182e-02" rms="3.6340796947479248e-01" purity="2.1885609626770020e-01" nType="-99"/>
            <Node pos="r" depth="3" NCoef="0" IVar="2" Cut="3.0007518750000000e+05" cType="1" res="-4.0616875048726797e-04" rms="3.4958291053771973e-01" purity="5.4762089252471924e-01" nType="0">
              <Node pos="l" depth="4" NCoef="0" IVar="-1" Cut="0.0000000000000000e+00" cType="1" res="3.2838596962392330e-03" rms="3.6834937334060669e-01" purity="5.8065992593765259e-01" nType="-99"/>
              <Node pos="r" depth="4" NCoef="0" IVar="-1" Cut="0.0000000000000000e+00" cType="1" res="-3.2608404289931059e-03" rms="3.3642095327377319e-01" purity="5.2555060386657715e-01" nType="-99"/>
            </Node>
          </Node>
          <Node pos="r" depth="2" NCoef="0" IVar="3" Cut="1.3787709375000000e+05" cType="1" res="2.1322907879948616e-02" rms="3.8299936056137085e-01" purity="4.6424561738967896e-01" nType="0">
            <Node pos="l" depth="3" NCoef="0" IVar="-1" Cut="0.0000000000000000e+00" cType="1" res="2.3640951141715050e-02" rms="4.0275117754936218e-01" purity="4.8400121927261353e-01" nType="-99"/>
            <Node pos="r" depth="3" NCoef="0" IVar="-1" Cut="0.0000000000000000e+00" cType="1" res="5.2567296661436558e-03" rms="3.6460235714912415e-01" purity="4.4733643531799316e-01" nType="-99"/>
          </Node>
        </Node>
        <Node pos="r" depth="1" NCoef="0" IVar="5" Cut="2.2984262500000000e+05" cType="1" res="2.3349099792540073e-03" rms="2.8873577713966370e-01" purity="2.5505840778350830e-01" nType="0">
          <Node pos="l" depth="2" NCoef="0" IVar="19" Cut="1.5660665625000000e+05" cType="1" res="1.0471536777913570e-02" rms="2.9896000027656555e-01" purity="3.2897764444351196e-01" nType="0">
            <Node pos="l" depth="3" NCoef="0" IVar="11" Cut="1.3281441926956177e+00" cType="1" res="1.8644748255610466e-02" rms="3.0652266740798950e-01" purity="3.7950578331947327e-01" nType="0">
              <Node pos="l" depth="4" NCoef="0" IVar="-1" Cut="0.0000000000000000e+00" cType="1" res="3.6366339772939682e-03" rms="3.3167755603790283e-01" purity="5.1469606161117554e-01" nType="-99"/>
              <Node pos="r" depth="4" NCoef="0" IVar="-1" Cut="0.0000000000000000e+00" cType="1" res="6.1162985861301422e-02" rms="2.6612505316734314e-01" purity="1.9041545689105988e-01" nType="-99"/>
            </Node>
            <Node pos="r" depth="3" NCoef="0" IVar="-1" Cut="0.0000000000000000e+00" cType="1" res="-7.8642489388585091e-03" rms="2.8136622905731201e-01" purity="2.2123654186725616e-01" nType="-99"/>
          </Node>
          <Node pos="r" depth="2" NCoef="0" IVar="15" Cut="1.4845653772354126e+00" cType="1" res="-1.3504798989742994e-03" rms="2.8390699625015259e-01" purity="2.2157754004001617e-01" nType="0">
            <Node pos="l" depth="3" NCoef="0" IVar="13" Cut="2.4694144725799561e+00" cType="1" res="-1.6457645222544670e-02" rms="2.6726561784744263e-01" purity="1.4414797723293304e-01" nType="0">
              <Node pos="l" depth="4" NCoef="0" IVar="-1" Cut="0.0000000000000000e+00" cType="1" res="-1.1747861281037331e-02" rms="2.4966812133789062e-01" purity="1.1016663908958435e-01" nType="-99"/>
              <Node pos="r" depth="4" NCoef="0" IVar="-1" Cut="0.0000000000000000e+00" cType="1" res="-2.6570677757263184e-02" rms="2.8595018386840820e-01" purity="1.8334308266639709e-01" nType="-99"/>
            </Node>
            <Node pos="r" depth="3" NCoef="0" IVar="15" Cut="1.8343722820281982e+00" cType="1" res="3.8123400881886482e-03" rms="2.8919392824172974e-01" purity="2.4803879857063293e-01" nType="0">
              <Node pos="l" depth="4" NCoef="0" IVar="-1" Cut="0.0000000000000000e+00" cType="1" res="3.0760545283555984e-02" rms="3.1504330039024353e-01" purity="2.3572762310504913e-01" nType="-99"/>
              <Node pos="r" depth="4" NCoef="0" IVar="-1" Cut="0.0000000000000000e+00" cType="1" res="-1.4319760957732797e-03" rms="2.8315922617912292e-01" purity="2.5064590573310852e-01" nType="-99"/>
            </Node>
          </Node>
        </Node>
      </Node>
    </BinaryTree>
    <BinaryTree type="DecisionTree" boostWeight="1.0000000000000000e+00" itree="125">
      <Node pos="s" depth="0" NCoef="0" IVar="11" Cut="2.6485717296600342e+00" cType="1" res="-6.3490865613857750e-06" rms="3.4270289540290833e-01" purity="5.0000000000000000e-01" nType="0">
        <Node pos="l" depth="1" NCoef="0" IVar="11" Cut="6.4643657207489014e-01" cType="1" res="1.8741794337984174e-04" rms="3.4631857275962830e-01" purity="5.1688575744628906e-01" nType="0">
          <Node pos="l" depth="2" NCoef="0" IVar="17" Cut="3.1073690625000000e+05" cType="1" res="2.8985443059355021e-03" rms="3.2671946287155151e-01" purity="6.8070513010025024e-01" nType="0">
            <Node pos="l" depth="3" NCoef="0" IVar="8" Cut="3.5259675781250000e+04" cType="1" res="3.7613245658576488e-03" rms="3.2781136035919189e-01" purity="6.9387024641036987e-01" nType="0">
              <Node pos="l" depth="4" NCoef="0" IVar="-1" Cut="0.0000000000000000e+00" cType="1" res="1.1427422286942601e-03" rms="3.3824226260185242e-01" purity="6.8399894237518311e-01" nType="-99"/>
              <Node pos="r" depth="4" NCoef="0" IVar="-1" Cut="0.0000000000000000e+00" cType="1" res="1.2162002734839916e-02" rms="2.9098650813102722e-01" purity="7.2613501548767090e-01" nType="-99"/>
            </Node>
            <Node pos="r" depth="3" NCoef="0" IVar="-1" Cut="0.0000000000000000e+00" cType="1" res="-1.8774801865220070e-02" rms="2.9935130476951599e-01" purity="3.7288740277290344e-01" nType="-99"/>
          </Node>
          <Node pos="r" depth="2" NCoef="0" IVar="5" Cut="2.2984054687500000e+05" cType="1" res="-7.9410680336877704e-04" rms="3.5314092040061951e-01" purity="4.5757725834846497e-01" nType="0">
            <Node pos="l" depth="3" NCoef="0" IVar="19" Cut="2.0325682812500000e+05" cType="1" res="-2.0646757911890745e-03" rms="3.5914671421051025e-01" purity="4.9088835716247559e-01" nType="0">
              <Node pos="l" depth="4" NCoef="0" IVar="-1" Cut="0.0000000000000000e+00" cType="1" res="-1.0915923630818725e-03" rms="3.6038532853126526e-01" purity="5.0088065862655640e-01" nType="-99"/>
              <Node pos="r" depth="4" NCoef="0" IVar="-1" Cut="0.0000000000000000e+00" cType="1" res="-1.6641624271869659e-02" rms="3.2257118821144104e-01" purity="2.1441210806369781e-01" nType="-99"/>
            </Node>
            <Node pos="r" depth="3" NCoef="0" IVar="16" Cut="1.0167683362960815e+00" cType="1" res="4.9430285580456257e-03" rms="3.2457989454269409e-01" purity="3.0716440081596375e-01" nType="0">
              <Node pos="l" depth="4" NCoef="0" IVar="-1" Cut="0.0000000000000000e+00" cType="1" res="-8.7838247418403625e-03" rms="3.3036053180694580e-01" purity="5.2348625659942627e-01" nType="-99"/>
              <Node pos="r" depth="4" NCoef="0" IVar="-1" Cut="0.0000000000000000e+00" cType="1" res="1.0051324963569641e-02" rms="3.2227745652198792e-01" purity="2.2849485278129578e-01" nType="-99"/>
            </Node>
          </Node>
        </Node>
        <Node pos="r" depth="1" NCoef="0" IVar="15" Cut="2.0533847808837891e+00" cType="1" res="-4.5194430276751518e-03" rms="2.4371878802776337e-01" purity="1.0670797526836395e-01" nType="0">
          <Node pos="l" depth="2" NCoef="0" IVar="2" Cut="3.6376234375000000e+05" cType="1" res="-1.1914777569472790e-02" rms="2.4022646248340607e-01" purity="1.0360848158597946e-01" nType="0">
            <Node pos="l" depth="3" NCoef="0" IVar="-1" Cut="0.0000000000000000e+00" cType="1" res="-2.4248933419585228e-02" rms="2.8415292501449585e-01" purity="1.5056467056274414e-01" nType="-99"/>
            <Node pos="r" depth="3" NCoef="0" IVar="-1" Cut="0.0000000000000000e+00" cType="1" res="-6.2167597934603691e-03" rms="1.8941947817802429e-01" purity="5.9485677629709244e-02" nType="-99"/>
          </Node>
          <Node pos="r" depth="2" NCoef="0" IVar="-1" Cut="0.0000000000000000e+00" cType="1" res="1.1546828784048557e-02" rms="2.4853545427322388e-01" purity="1.1144359409809113e-01" nType="-99"/>
        </Node>
      </Node>
    </BinaryTree>
    <BinaryTree type="DecisionTree" boostWeight="1.0000000000000000e+00" itree="126">
      <Node pos="s" depth="0" NCoef="0" IVar="16" Cut="3.2256813049316406e+00" cType="1" res="-5.7979750636150129e-06" rms="3.4266623854637146e-01" purity="5.0000000000000000e-01" nType="0">
        <Node pos="l" depth="1" NCoef="0" IVar="16" Cut="6.2214362621307373e-01" cType="1" res="-1.4137563994154334e-04" rms="3.4264957904815674e-01" purity="5.0438487529754639e-01" nType="0">
          <Node pos="l" depth="2" NCoef="0" IVar="7" Cut="7.7284890625000000e+04" cType="1" res="4.3374183587729931e-03" rms="2.8701689839363098e-01" purity="7.6854521036148071e-01" nType="0">
            <Node pos="l" depth="3" NCoef="0" IVar="1" Cut="4.1071949218750000e+04" cType="1" res="8.5745807737112045e-03" rms="2.8929370641708374e-01" purity="8.2930684089660645e-01" nType="0">
              <Node pos="l" depth="4" NCoef="0" IVar="-1" Cut="0.0000000000000000e+00" cType="1" res="-1.7247343203052878e-03" rms="3.4435260295867920e-01" purity="6.8221414089202881e-01" nType="-99"/>
              <Node pos="r" depth="4" NCoef="0" IVar="-1" Cut="0.0000000000000000e+00" cType="1" res="1.5124514698982239e-02" rms="2.6685145497322083e-01" purity="8.8169997930526733e-01" nType="-99"/>
            </Node>
            <Node pos="r" depth="3" NCoef="0" IVar="18" Cut="5.9231558593750000e+04" cType="1" res="-5.2596116438508034e-03" rms="2.8155636787414551e-01" purity="6.3092231750488281e-01" nType="0">
              <Node pos="l" depth="4" NCoef="0" IVar="-1" Cut="0.0000000000000000e+00" cType="1" res="-2.3930223658680916e-02" rms="3.0061632394790649e-01" purity="5.4970687627792358e-01" nType="-99"/>
              <Node pos="r" depth="4" NCoef="0" IVar="-1" Cut="0.0000000000000000e+00" cType="1" res="6.5595726482570171e-03" rms="2.6844888925552368e-01" purity="6.8160617351531982e-01" nType="-99"/>
            </Node>
          </Node>
          <Node pos="r" depth="2" NCoef="0" IVar="16" Cut="1.2420370578765869e+00" cType="1" res="-7.7422644244506955e-04" rms="3.4979310631752014e-01" purity="4.6705916523933411e-01" nType="0">
            <Node pos="l" depth="3" NCoef="0" IVar="16" Cut="1.1534672975540161e+00" cType="1" res="-2.6728555094450712e-03" rms="3.3158558607101440e-01" purity="6.4580053091049194e-01" nType="0">
              <Node pos="l" depth="4" NCoef="0" IVar="-1" Cut="0.0000000000000000e+00" cType="1" res="-6.2808766961097717e-04" rms="3.2733786106109619e-01" purity="6.6190779209136963e-01" nType="-99"/>
              <Node pos="r" depth="4" NCoef="0" IVar="-1" Cut="0.0000000000000000e+00" cType="1" res="-1.2595376931130886e-02" rms="3.5981395840644836e-01" purity="5.3223699331283569e-01" nType="-99"/>
            </Node>
            <Node pos="r" depth="3" NCoef="0" IVar="1" Cut="2.1656515625000000e+05" cType="1" res="3.1585694523528218e-04" rms="3.5982620716094971e-01" purity="3.6443617939949036e-01" nType="0">
              <Node pos="l" depth="4" NCoef="0" IVar="-1" Cut="0.0000000000000000e+00" cType="1" res="5.4521497804671526e-04" rms="3.6047321557998657e-01" purity="3.6732703447341919e-01" nType="-99"/>
              <Node pos="r" depth="4" NCoef="0" IVar="-1" Cut="0.0000000000000000e+00" cType="1" res="-1.5678491443395615e-02" rms="3.3109110593795776e-01" purity="2.4321958422660828e-01" nType="-99"/>
            </Node>
          </Node>
        </Node>
        <Node pos="r" depth="1" NCoef="0" IVar="-1" Cut="0.0000000000000000e+00" cType="1" res="5.7018604129552841e-03" rms="3.4345218539237976e-01" purity="2.7357205748558044e-01" nType="-99"/>
      </Node>
    </BinaryTree>
    <BinaryTree type="DecisionTree" boostWeight="1.0000000000000000e+00" itree="127">
      <Node pos="s" depth="0" NCoef="0" IVar="12" Cut="1.2675663232803345e+00" cType="1" res="-3.0788987714913674e-06" rms="3.4264147281646729e-01" purity="5.0000000000000000e-01" nType="0">
        <Node pos="l" depth="1" NCoef="0" IVar="21" Cut="4.4254417968750000e+04" cType="1" res="-4.2546843178570271e-03" rms="3.5151505470275879e-01" purity="2.4588495492935181e-01" nType="0">
          <Node pos="l" depth="2" NCoef="0" IVar="21" Cut="2.3177511718750000e+04" cType="1" res="1.0037547908723354e-03" rms="3.7731564044952393e-01" purity="2.9250681400299072e-01" nType="0">
            <Node pos="l" depth="3" NCoef="0" IVar="19" Cut="6.7625250000000000e+04" cType="1" res="-1.0687489993870258e-02" rms="3.4896418452262878e-01" purity="2.6744055747985840e-01" nType="0">
              <Node pos="l" depth="4" NCoef="0" IVar="-1" Cut="0.0000000000000000e+00" cType="1" res="-1.9713768735527992e-02" rms="3.3279401063919067e-01" purity="2.9378357529640198e-01" nType="-99"/>
              <Node pos="r" depth="4" NCoef="0" IVar="-1" Cut="0.0000000000000000e+00" cType="1" res="4.3651773594319820e-03" rms="3.6330974102020264e-01" purity="2.4170368909835815e-01" nType="-99"/>
            </Node>
            <Node pos="r" depth="3" NCoef="0" IVar="-1" Cut="0.0000000000000000e+00" cType="1" res="1.2212575413286686e-02" rms="4.1897574067115784e-01" purity="3.3361053466796875e-01" nType="-99"/>
          </Node>
          <Node pos="r" depth="2" NCoef="0" IVar="-1" Cut="0.0000000000000000e+00" cType="1" res="-2.9275238513946533e-02" rms="2.4721284210681915e-01" purity="9.2027254402637482e-02" nType="-99"/>
        </Node>
        <Node pos="r" depth="1" NCoef="0" IVar="11" Cut="4.9856403470039368e-01" cType="1" res="1.9862310728058219e-04" rms="3.4221345186233521e-01" purity="5.1205557584762573e-01" nType="0">
          <Node pos="l" depth="2" NCoef="0" IVar="11" Cut="4.0754935145378113e-01" cType="1" res="2.6916929055005312e-03" rms="3.2035693526268005e-01" purity="7.5079995393753052e-01" nType="0">
            <Node pos="l" depth="3" NCoef="0" IVar="0" Cut="2.3333332538604736e+00" cType="1" res="6.9901137612760067e-03" rms="3.1199666857719421e-01" purity="7.7409559488296509e-01" nType="0">
              <Node pos="l" depth="4" NCoef="0" IVar="-1" Cut="0.0000000000000000e+00" cType="1" res="-2.7204002253711224e-03" rms="3.6160123348236084e-01" purity="6.8363451957702637e-01" nType="-99"/>
              <Node pos="r" depth="4" NCoef="0" IVar="-1" Cut="0.0000000000000000e+00" cType="1" res="1.1326876468956470e-02" rms="2.9281869530677795e-01" purity="8.0535364151000977e-01" nType="-99"/>
            </Node>
            <Node pos="r" depth="3" NCoef="0" IVar="12" Cut="2.9364914894104004e+00" cType="1" res="-3.9857290685176849e-03" rms="3.3281806111335754e-01" purity="7.1461111307144165e-01" nType="0">
              <Node pos="l" depth="4" NCoef="0" IVar="-1" Cut="0.0000000000000000e+00" cType="1" res="-8.4322243928909302e-03" rms="3.3903852105140686e-01" purity="6.7765295505523682e-01" nType="-99"/>
              <Node pos="r" depth="4" NCoef="0" IVar="-1" Cut="0.0000000000000000e+00" cType="1" res="5.3771906532347202e-03" rms="3.2213082909584045e-01" purity="7.7515506744384766e-01" nType="-99"/>
            </Node>
          </Node>
          <Node pos="r" depth="2" NCoef="0" IVar="5" Cut="2.2984054687500000e+05" cType="1" res="-2.2010113752912730e-04" rms="3.4574711322784424e-01" purity="4.7195720672607422e-01" nType="0">
            <Node pos="l" depth="3" NCoef="0" IVar="18" Cut="2.3500156250000000e+05" cType="1" res="-8.2322489470243454e-04" rms="3.5037466883659363e-01" purity="5.0168931484222412e-01" nType="0">
              <Node pos="l" depth="4" NCoef="0" IVar="-1" Cut="0.0000000000000000e+00" cType="1" res="-3.3120493753813207e-04" rms="3.5143798589706421e-01" purity="5.0474566221237183e-01" nType="-99"/>
              <Node pos="r" depth="4" NCoef="0" IVar="-1" Cut="0.0000000000000000e+00" cType="1" res="-1.9566476345062256e-02" rms="2.9843366146087646e-01" purity="3.6498826742172241e-01" nType="-99"/>
            </Node>
            <Node pos="r" depth="3" NCoef="0" IVar="12" Cut="3.3250043392181396e+00" cType="1" res="2.6235366240143776e-03" rms="3.2302188873291016e-01" purity="3.3177456259727478e-01" nType="0">
              <Node pos="l" depth="4" NCoef="0" IVar="-1" Cut="0.0000000000000000e+00" cType="1" res="4.3936967849731445e-03" rms="3.2490503787994385e-01" purity="3.3885017037391663e-01" nType="-99"/>
              <Node pos="r" depth="4" NCoef="0" IVar="-1" Cut="0.0000000000000000e+00" cType="1" res="-2.2500853985548019e-02" rms="3.0130535364151001e-01" purity="2.5656190514564514e-01" nType="-99"/>
            </Node>
          </Node>
        </Node>
      </Node>
    </BinaryTree>
    <BinaryTree type="DecisionTree" boostWeight="1.0000000000000000e+00" itree="128">
      <Node pos="s" depth="0" NCoef="0" IVar="0" Cut="5.3333334922790527e+00" cType="1" res="-3.0638091175205773e-06" rms="3.4260860085487366e-01" purity="5.0000000000000000e-01" nType="0">
        <Node pos="l" depth="1" NCoef="0" IVar="17" Cut="3.0076831250000000e+05" cType="1" res="9.4927329337224364e-04" rms="3.3170375227928162e-01" purity="5.9258693456649780e-01" nType="0">
          <Node pos="l" depth="2" NCoef="0" IVar="16" Cut="2.9811358451843262e+00" cType="1" res="1.5196877066046000e-03" rms="3.3326363563537598e-01" purity="6.0097861289978027e-01" nType="0">
            <Node pos="l" depth="3" NCoef="0" IVar="16" Cut="1.1517834663391113e+00" cType="1" res="8.0562941730022430e-04" rms="3.3217009902000427e-01" purity="6.0927802324295044e-01" nType="0">
              <Node pos="l" depth="4" NCoef="0" IVar="-1" Cut="0.0000000000000000e+00" cType="1" res="5.1743914373219013e-03" rms="2.9131531715393066e-01" purity="7.7131539583206177e-01" nType="-99"/>
              <Node pos="r" depth="4" NCoef="0" IVar="-1" Cut="0.0000000000000000e+00" cType="1" res="-1.8083173781633377e-03" rms="3.6219543218612671e-01" purity="4.7650793194770813e-01" nType="-99"/>
            </Node>
            <Node pos="r" depth="3" NCoef="0" IVar="-1" Cut="0.0000000000000000e+00" cType="1" res="1.4122102409601212e-02" rms="3.5889068245887756e-01" purity="3.9494147896766663e-01" nType="-99"/>
          </Node>
          <Node pos="r" depth="2" NCoef="0" IVar="-1" Cut="0.0000000000000000e+00" cType="1" res="-3.0189542099833488e-02" rms="2.6289764046669006e-01" purity="2.6569977402687073e-01" nType="-99"/>
        </Node>
        <Node pos="r" depth="1" NCoef="0" IVar="12" Cut="3.4113523960113525e+00" cType="1" res="-9.0673851082101464e-04" rms="3.5264217853546143e-01" purity="4.1214406490325928e-01" nType="0">
          <Node pos="l" depth="2" NCoef="0" IVar="1" Cut="1.0835192968750000e+05" cType="1" res="-1.7281596083194017e-03" rms="3.5406497120857239e-01" purity="4.1604068875312805e-01" nType="0">
            <Node pos="l" depth="3" NCoef="0" IVar="1" Cut="3.1055951171875000e+04" cType="1" res="-3.5460293292999268e-03" rms="3.5698112845420837e-01" purity="3.9515444636344910e-01" nType="0">
              <Node pos="l" depth="4" NCoef="0" IVar="-1" Cut="0.0000000000000000e+00" cType="1" res="-1.4883073978126049e-02" rms="3.3442309498786926e-01" purity="2.3789328336715698e-01" nType="-99"/>
              <Node pos="r" depth="4" NCoef="0" IVar="-1" Cut="0.0000000000000000e+00" cType="1" res="1.8629133701324463e-03" rms="3.6644476652145386e-01" purity="4.6542543172836304e-01" nType="-99"/>
            </Node>
            <Node pos="r" depth="3" NCoef="0" IVar="6" Cut="3.3361528125000000e+05" cType="1" res="7.8548938035964966e-03" rms="3.3811524510383606e-01" purity="5.2614414691925049e-01" nType="0">
              <Node pos="l" depth="4" NCoef="0" IVar="-1" Cut="0.0000000000000000e+00" cType="1" res="9.5050651580095291e-03" rms="3.5588309168815613e-01" purity="5.8582723140716553e-01" nType="-99"/>
              <Node pos="r" depth="4" NCoef="0" IVar="-1" Cut="0.0000000000000000e+00" cType="1" res="-3.3954914659261703e-02" rms="2.1426615118980408e-01" purity="1.9963628053665161e-01" nType="-99"/>
            </Node>
          </Node>
          <Node pos="r" depth="2" NCoef="0" IVar="19" Cut="8.0989664062500000e+04" cType="1" res="7.9453447833657265e-03" rms="3.3680149912834167e-01" purity="3.7015232443809509e-01" nType="0">
            <Node pos="l" depth="3" NCoef="0" IVar="16" Cut="1.1933733224868774e+00" cType="1" res="1.8556734547019005e-02" rms="3.5288345813751221e-01" purity="4.6946412324905396e-01" nType="0">
              <Node pos="l" depth="4" NCoef="0" IVar="-1" Cut="0.0000000000000000e+00" cType="1" res="8.8179664453491569e-04" rms="3.3895486593246460e-01" purity="6.1868858337402344e-01" nType="-99"/>
              <Node pos="r" depth="4" NCoef="0" IVar="-1" Cut="0.0000000000000000e+00" cType="1" res="2.6309879496693611e-02" rms="3.6390751600265503e-01" purity="3.3935210108757019e-01" nType="-99"/>
            </Node>
            <Node pos="r" depth="3" NCoef="0" IVar="-1" Cut="0.0000000000000000e+00" cType="1" res="-1.2338314205408096e-02" rms="3.0285626649856567e-01" purity="1.8129715323448181e-01" nType="-99"/>
          </Node>
        </Node>
      </Node>
    </BinaryTree>
    <BinaryTree type="DecisionTree" boostWeight="1.0000000000000000e+00" itree="129">
      <Node pos="s" depth="0" NCoef="0" IVar="15" Cut="2.7949092388153076e+00" cType="1" res="-4.3045383790740743e-06" rms="3.4253665804862976e-01" purity="5.0000000000000000e-01" nType="0">
        <Node pos="l" depth="1" NCoef="0" IVar="11" Cut="2.6485717296600342e+00" cType="1" res="-3.3731150324456394e-04" rms="3.4539809823036194e-01" purity="4.9912241101264954e-01" nType="0">
          <Node pos="l" depth="2" NCoef="0" IVar="11" Cut="2.7104532718658447e-01" cType="1" res="-4.8861962568480521e-05" rms="3.4922680258750916e-01" purity="5.1638168096542358e-01" nType="0">
            <Node pos="l" depth="3" NCoef="0" IVar="-1" Cut="0.0000000000000000e+00" cType="1" res="1.1699088849127293e-02" rms="3.0975660681724548e-01" purity="7.5488072633743286e-01" nType="-99"/>
            <Node pos="r" depth="3" NCoef="0" IVar="15" Cut="6.6812241077423096e-01" cType="1" res="-3.3257339964620769e-04" rms="3.5007566213607788e-01" purity="5.1090586185455322e-01" nType="0">
              <Node pos="l" depth="4" NCoef="0" IVar="-1" Cut="0.0000000000000000e+00" cType="1" res="3.4516195300966501e-03" rms="3.7497869133949280e-01" purity="5.1709961891174316e-01" nType="-99"/>
              <Node pos="r" depth="4" NCoef="0" IVar="-1" Cut="0.0000000000000000e+00" cType="1" res="-5.7509320322424173e-04" rms="3.4810617566108704e-01" purity="5.1043492555618286e-01" nType="-99"/>
            </Node>
          </Node>
          <Node pos="r" depth="2" NCoef="0" IVar="2" Cut="3.6376234375000000e+05" cType="1" res="-6.9664837792515755e-03" rms="2.4110713601112366e-01" purity="1.0246821492910385e-01" nType="0">
            <Node pos="l" depth="3" NCoef="0" IVar="-1" Cut="0.0000000000000000e+00" cType="1" res="-1.6473572701215744e-02" rms="2.8596425056457520e-01" purity="1.4772264659404755e-01" nType="-99"/>
            <Node pos="r" depth="3" NCoef="0" IVar="-1" Cut="0.0000000000000000e+00" cType="1" res="-1.3006515800952911e-03" rms="1.9252488017082214e-01" purity="6.2313981354236603e-02" nType="-99"/>
          </Node>
        </Node>
        <Node pos="r" depth="1" NCoef="0" IVar="12" Cut="3.2934858798980713e+00" cType="1" res="2.2014777641743422e-03" rms="3.2293480634689331e-01" purity="5.0581318140029907e-01" nType="0">
          <Node pos="l" depth="2" NCoef="0" IVar="14" Cut="2.9919688701629639e+00" cType="1" res="-2.6727310614660382e-04" rms="3.2252025604248047e-01" purity="4.9863207340240479e-01" nType="0">
            <Node pos="l" depth="3" NCoef="0" IVar="10" Cut="1.9242660937500000e+05" cType="1" res="3.2871237490326166e-03" rms="3.2102358341217041e-01" purity="4.9306780099868774e-01" nType="0">
              <Node pos="l" depth="4" NCoef="0" IVar="-1" Cut="0.0000000000000000e+00" cType="1" res="5.6746904738247395e-03" rms="3.2803675532341003e-01" purity="5.0250899791717529e-01" nType="-99"/>
              <Node pos="r" depth="4" NCoef="0" IVar="-1" Cut="0.0000000000000000e+00" cType="1" res="-2.0858990028500557e-02" rms="2.7378091216087341e-01" purity="4.3570354580879211e-01" nType="-99"/>
            </Node>
            <Node pos="r" depth="3" NCoef="0" IVar="14" Cut="3.2000336647033691e+00" cType="1" res="-1.2450817041099072e-02" rms="3.2730582356452942e-01" purity="5.1770502328872681e-01" nType="0">
              <Node pos="l" depth="4" NCoef="0" IVar="-1" Cut="0.0000000000000000e+00" cType="1" res="-3.2953086774796247e-03" rms="3.1928068399429321e-01" purity="5.9428596496582031e-01" nType="-99"/>
              <Node pos="r" depth="4" NCoef="0" IVar="-1" Cut="0.0000000000000000e+00" cType="1" res="-1.9857484847307205e-02" rms="3.3691218495368958e-01" purity="4.2015573382377625e-01" nType="-99"/>
            </Node>
          </Node>
          <Node pos="r" depth="2" NCoef="0" IVar="-1" Cut="0.0000000000000000e+00" cType="1" res="1.8506465479731560e-02" rms="3.2528188824653625e-01" purity="5.5566179752349854e-01" nType="-99"/>
        </Node>
      </Node>
    </BinaryTree>
    <BinaryTree type="DecisionTree" boostWeight="1.0000000000000000e+00" itree="130">
      <Node pos="s" depth="0" NCoef="0" IVar="16" Cut="1.2465226650238037e+00" cType="1" res="-3.3733992950146785e-06" rms="3.4251350164413452e-01" purity="5.0000000000000000e-01" nType="0">
        <Node pos="l" depth="1" NCoef="0" IVar="16" Cut="1.0698118209838867e+00" cType="1" res="-9.7167660715058446e-04" rms="3.1978327035903931e-01" purity="6.7921566963195801e-01" nType="0">
          <Node pos="l" depth="2" NCoef="0" IVar="12" Cut="1.5083364248275757e+00" cType="1" res="6.8684754660353065e-04" rms="3.1144756078720093e-01" purity="7.0826661586761475e-01" nType="0">
            <Node pos="l" depth="3" NCoef="0" IVar="-1" Cut="0.0000000000000000e+00" cType="1" res="-1.6654279083013535e-02" rms="3.7721803784370422e-01" purity="3.7371090054512024e-01" nType="-99"/>
            <Node pos="r" depth="3" NCoef="0" IVar="19" Cut="5.0146652343750000e+04" cType="1" res="1.4382553054019809e-03" rms="3.0920192599296570e-01" purity="7.1841967105865479e-01" nType="0">
              <Node pos="l" depth="4" NCoef="0" IVar="-1" Cut="0.0000000000000000e+00" cType="1" res="-1.3344227336347103e-03" rms="3.1574705243110657e-01" purity="7.1565252542495728e-01" nType="-99"/>
              <Node pos="r" depth="4" NCoef="0" IVar="-1" Cut="0.0000000000000000e+00" cType="1" res="7.2072492912411690e-03" rms="2.9600891470909119e-01" purity="7.2378998994827271e-01" nType="-99"/>
            </Node>
          </Node>
          <Node pos="r" depth="2" NCoef="0" IVar="1" Cut="8.3672085937500000e+04" cType="1" res="-8.4751145914196968e-03" rms="3.5496154427528381e-01" purity="5.4778414964675903e-01" nType="0">
            <Node pos="l" depth="3" NCoef="0" IVar="1" Cut="2.8051080078125000e+04" cType="1" res="-1.3977232389152050e-02" rms="3.5959216952323914e-01" purity="5.0957453250885010e-01" nType="0">
              <Node pos="l" depth="4" NCoef="0" IVar="-1" Cut="0.0000000000000000e+00" cType="1" res="-2.5679154321551323e-02" rms="3.5081329941749573e-01" purity="3.3920705318450928e-01" nType="-99"/>
              <Node pos="r" depth="4" NCoef="0" IVar="-1" Cut="0.0000000000000000e+00" cType="1" res="-4.9447985365986824e-03" rms="3.6255398392677307e-01" purity="5.7340717315673828e-01" nType="-99"/>
            </Node>
            <Node pos="r" depth="3" NCoef="0" IVar="-1" Cut="0.0000000000000000e+00" cType="1" res="4.6833772212266922e-03" rms="3.4223395586013794e-01" purity="6.4699089527130127e-01" nType="-99"/>
          </Node>
        </Node>
        <Node pos="r" depth="1" NCoef="0" IVar="20" Cut="7.3403414062500000e+04" cType="1" res="7.4812292587012053e-04" rms="3.5916244983673096e-01" purity="3.6091145873069763e-01" nType="0">
          <Node pos="l" depth="2" NCoef="0" IVar="3" Cut="2.4580606250000000e+05" cType="1" res="-6.4552284311503172e-04" rms="3.9626771211624146e-01" purity="4.5647174119949341e-01" nType="0">
            <Node pos="l" depth="3" NCoef="0" IVar="21" Cut="7.7052234375000000e+04" cType="1" res="1.7751472769305110e-03" rms="3.9608025550842285e-01" purity="4.5375105738639832e-01" nType="0">
              <Node pos="l" depth="4" NCoef="0" IVar="-1" Cut="0.0000000000000000e+00" cType="1" res="2.6702359318733215e-03" rms="3.9595863223075867e-01" purity="4.5644143223762512e-01" nType="-99"/>
              <Node pos="r" depth="4" NCoef="0" IVar="-1" Cut="0.0000000000000000e+00" cType="1" res="-1.2552557513117790e-02" rms="3.9643600583076477e-01" purity="4.3015494942665100e-01" nType="-99"/>
            </Node>
            <Node pos="r" depth="3" NCoef="0" IVar="6" Cut="2.4552712500000000e+05" cType="1" res="-1.6304733231663704e-02" rms="3.9712181687355042e-01" purity="4.7407200932502747e-01" nType="0">
              <Node pos="l" depth="4" NCoef="0" IVar="-1" Cut="0.0000000000000000e+00" cType="1" res="-2.1903779357671738e-02" rms="4.0758234262466431e-01" purity="4.4191470742225647e-01" nType="-99"/>
              <Node pos="r" depth="4" NCoef="0" IVar="-1" Cut="0.0000000000000000e+00" cType="1" res="-1.2936404673382640e-03" rms="3.8943457603454590e-01" purity="4.9520814418792725e-01" nType="-99"/>
            </Node>
          </Node>
          <Node pos="r" depth="2" NCoef="0" IVar="11" Cut="2.0354578495025635e+00" cType="1" res="5.2043860778212547e-03" rms="1.9834992289543152e-01" purity="5.5351752787828445e-02" nType="0">
            <Node pos="l" depth="3" NCoef="0" IVar="20" Cut="1.1244034375000000e+05" cType="1" res="1.1787911877036095e-02" rms="2.2243039309978485e-01" purity="7.2846010327339172e-02" nType="0">
              <Node pos="l" depth="4" NCoef="0" IVar="-1" Cut="0.0000000000000000e+00" cType="1" res="3.2992497086524963e-02" rms="2.5564730167388916e-01" purity="9.6577458083629608e-02" nType="-99"/>
              <Node pos="r" depth="4" NCoef="0" IVar="-1" Cut="0.0000000000000000e+00" cType="1" res="-1.0298671573400497e-01" rms="1.3264072127640247e-02" purity="0.0000000000000000e+00" nType="-99"/>
            </Node>
            <Node pos="r" depth="3" NCoef="0" IVar="2" Cut="4.2572318750000000e+05" cType="1" res="-4.1439565829932690e-03" rms="1.5749888122081757e-01" purity="3.0510609969496727e-02" nType="0">
              <Node pos="l" depth="4" NCoef="0" IVar="-1" Cut="0.0000000000000000e+00" cType="1" res="-2.9387254267930984e-02" rms="1.8064473569393158e-01" purity="4.1433256119489670e-02" nType="-99"/>
              <Node pos="r" depth="4" NCoef="0" IVar="-1" Cut="0.0000000000000000e+00" cType="1" res="1.7613794654607773e-02" rms="1.3533651828765869e-01" purity="2.1609509363770485e-02" nType="-99"/>
            </Node>
          </Node>
        </Node>
      </Node>
    </BinaryTree>
    <BinaryTree type="DecisionTree" boostWeight="1.0000000000000000e+00" itree="131">
      <Node pos="s" depth="0" NCoef="0" IVar="12" Cut="2.8754057884216309e+00" cType="1" res="-1.1928946150874253e-05" rms="3.4241655468940735e-01" purity="5.0000000000000000e-01" nType="0">
        <Node pos="l" depth="1" NCoef="0" IVar="9" Cut="9.8558781250000000e+04" cType="1" res="-6.7118066363036633e-04" rms="3.5302710533142090e-01" purity="4.8231020569801331e-01" nType="0">
          <Node pos="l" depth="2" NCoef="0" IVar="11" Cut="1.9380258321762085e+00" cType="1" res="2.4799862876534462e-03" rms="3.7782126665115356e-01" purity="5.0125759840011597e-01" nType="0">
            <Node pos="l" depth="3" NCoef="0" IVar="21" Cut="7.3720734375000000e+04" cType="1" res="3.2019015634432435e-04" rms="3.7750461697578430e-01" purity="5.2027404308319092e-01" nType="0">
              <Node pos="l" depth="4" NCoef="0" IVar="-1" Cut="0.0000000000000000e+00" cType="1" res="1.8153560813516378e-03" rms="3.7962353229522705e-01" purity="5.4433673620223999e-01" nType="-99"/>
              <Node pos="r" depth="4" NCoef="0" IVar="-1" Cut="0.0000000000000000e+00" cType="1" res="-2.0548565313220024e-02" rms="3.5232016444206238e-01" purity="2.5610256195068359e-01" nType="-99"/>
            </Node>
            <Node pos="r" depth="3" NCoef="0" IVar="13" Cut="2.5299232006072998e+00" cType="1" res="2.0817721262574196e-02" rms="3.8000497221946716e-01" purity="3.3979871869087219e-01" nType="0">
              <Node pos="l" depth="4" NCoef="0" IVar="-1" Cut="0.0000000000000000e+00" cType="1" res="1.8753563053905964e-03" rms="3.5793423652648926e-01" purity="2.6365923881530762e-01" nType="-99"/>
              <Node pos="r" depth="4" NCoef="0" IVar="-1" Cut="0.0000000000000000e+00" cType="1" res="3.3673617988824844e-02" rms="4.1603407263755798e-01" purity="4.8240086436271667e-01" nType="-99"/>
            </Node>
          </Node>
          <Node pos="r" depth="2" NCoef="0" IVar="12" Cut="2.1442599296569824e+00" cType="1" res="-4.7915582545101643e-03" rms="3.1765383481979370e-01" purity="4.5753508806228638e-01" nType="0">
            <Node pos="l" depth="3" NCoef="0" IVar="2" Cut="4.3492793750000000e+05" cType="1" res="-2.0169980823993683e-02" rms="2.9105526208877563e-01" purity="2.1123534440994263e-01" nType="0">
              <Node pos="l" depth="4" NCoef="0" IVar="-1" Cut="0.0000000000000000e+00" cType="1" res="-3.3366482704877853e-02" rms="3.6338862776756287e-01" purity="3.6918091773986816e-01" nType="-99"/>
              <Node pos="r" depth="4" NCoef="0" IVar="-1" Cut="0.0000000000000000e+00" cType="1" res="-1.3671057298779488e-02" rms="2.5913265347480774e-01" purity="1.5373918414115906e-01" nType="-99"/>
            </Node>
            <Node pos="r" depth="3" NCoef="0" IVar="15" Cut="9.7869139909744263e-01" cType="1" res="-8.5346982814371586e-04" rms="3.2399690151214600e-01" purity="5.2060729265213013e-01" nType="0">
              <Node pos="l" depth="4" NCoef="0" IVar="-1" Cut="0.0000000000000000e+00" cType="1" res="-1.3645145110785961e-02" rms="3.5445755720138550e-01" purity="4.5407202839851379e-01" nType="-99"/>
              <Node pos="r" depth="4" NCoef="0" IVar="-1" Cut="0.0000000000000000e+00" cType="1" res="1.6941041685640812e-03" rms="3.1863346695899963e-01" purity="5.3154498338699341e-01" nType="-99"/>
            </Node>
          </Node>
        </Node>
        <Node pos="r" depth="1" NCoef="0" IVar="5" Cut="4.5350371875000000e+05" cType="1" res="1.0144739644601941e-03" rms="3.2520577311515808e-01" purity="5.2754163742065430e-01" nType="0">
          <Node pos="l" depth="2" NCoef="0" IVar="5" Cut="8.6214039062500000e+04" cType="1" res="1.4932634076103568e-03" rms="3.2678928971290588e-01" purity="5.3665655851364136e-01" nType="0">
            <Node pos="l" depth="3" NCoef="0" IVar="10" Cut="1.0104582812500000e+05" cType="1" res="-2.4400535039603710e-03" rms="3.3282431960105896e-01" purity="5.0224530696868896e-01" nType="0">
              <Node pos="l" depth="4" NCoef="0" IVar="-1" Cut="0.0000000000000000e+00" cType="1" res="-8.7133357301354408e-03" rms="3.3970814943313599e-01" purity="3.9634972810745239e-01" nType="-99"/>
              <Node pos="r" depth="4" NCoef="0" IVar="-1" Cut="0.0000000000000000e+00" cType="1" res="3.1612650491297245e-03" rms="3.2760494947433472e-01" purity="5.7911264896392822e-01" nType="-99"/>
            </Node>
            <Node pos="r" depth="3" NCoef="0" IVar="16" Cut="2.7348783016204834e+00" cType="1" res="4.7644651494920254e-03" rms="3.2164731621742249e-01" purity="5.6527519226074219e-01" nType="0">
              <Node pos="l" depth="4" NCoef="0" IVar="-1" Cut="0.0000000000000000e+00" cType="1" res="3.2000585924834013e-03" rms="3.1978213787078857e-01" purity="5.8745425939559937e-01" nType="-99"/>
              <Node pos="r" depth="4" NCoef="0" IVar="-1" Cut="0.0000000000000000e+00" cType="1" res="1.7180027440190315e-02" rms="3.4210619330406189e-01" purity="3.0850881338119507e-01" nType="-99"/>
            </Node>
          </Node>
          <Node pos="r" depth="2" NCoef="0" IVar="-1" Cut="0.0000000000000000e+00" cType="1" res="-1.9127957522869110e-02" rms="2.6232445240020752e-01" purity="2.0400014519691467e-01" nType="-99"/>
        </Node>
      </Node>
    </BinaryTree>
    <BinaryTree type="DecisionTree" boostWeight="1.0000000000000000e+00" itree="132">
      <Node pos="s" depth="0" NCoef="0" IVar="16" Cut="2.7308914661407471e+00" cType="1" res="-1.1339770935592242e-05" rms="3.4232819080352783e-01" purity="5.0000000000000000e-01" nType="0">
        <Node pos="l" depth="1" NCoef="0" IVar="16" Cut="2.6013019084930420e+00" cType="1" res="2.4182940251193941e-04" rms="3.4204009175300598e-01" purity="5.2008587121963501e-01" nType="0">
          <Node pos="l" depth="2" NCoef="0" IVar="19" Cut="9.0827445312500000e+04" cType="1" res="-2.4472267250530422e-04" rms="3.4123712778091431e-01" purity="5.2628415822982788e-01" nType="0">
            <Node pos="l" depth="3" NCoef="0" IVar="19" Cut="4.2877570312500000e+04" cType="1" res="6.5939041087403893e-04" rms="3.4008908271789551e-01" purity="5.9971225261688232e-01" nType="0">
              <Node pos="l" depth="4" NCoef="0" IVar="-1" Cut="0.0000000000000000e+00" cType="1" res="-1.5824858564883471e-03" rms="3.3871254324913025e-01" purity="5.5087691545486450e-01" nType="-99"/>
              <Node pos="r" depth="4" NCoef="0" IVar="-1" Cut="0.0000000000000000e+00" cType="1" res="2.6875350158661604e-03" rms="3.4146189689636230e-01" purity="6.4932370185852051e-01" nType="-99"/>
            </Node>
            <Node pos="r" depth="3" NCoef="0" IVar="6" Cut="2.1486315625000000e+05" cType="1" res="-3.0543664470314980e-03" rms="3.4476527571678162e-01" purity="2.9809725284576416e-01" nType="0">
              <Node pos="l" depth="4" NCoef="0" IVar="-1" Cut="0.0000000000000000e+00" cType="1" res="-7.5122579000890255e-03" rms="3.8495922088623047e-01" purity="3.4156349301338196e-01" nType="-99"/>
              <Node pos="r" depth="4" NCoef="0" IVar="-1" Cut="0.0000000000000000e+00" cType="1" res="7.1387700736522675e-03" rms="2.9318711161613464e-01" purity="2.4958208203315735e-01" nType="-99"/>
            </Node>
          </Node>
          <Node pos="r" depth="2" NCoef="0" IVar="15" Cut="1.8225576877593994e+00" cType="1" res="1.5964621677994728e-02" rms="3.6669605970382690e-01" purity="3.1979098916053772e-01" nType="0">
            <Node pos="l" depth="3" NCoef="0" IVar="-1" Cut="0.0000000000000000e+00" cType="1" res="2.0111393183469772e-02" rms="3.9038223028182983e-01" purity="4.1809812188148499e-01" nType="-99"/>
            <Node pos="r" depth="3" NCoef="0" IVar="-1" Cut="0.0000000000000000e+00" cType="1" res="3.4348738845437765e-03" rms="3.4416881203651428e-01" purity="2.3371835052967072e-01" nType="-99"/>
          </Node>
        </Node>
        <Node pos="r" depth="1" NCoef="0" IVar="15" Cut="2.9547395706176758e+00" cType="1" res="-2.7458281256258488e-03" rms="3.4541282057762146e-01" purity="2.8305149078369141e-01" nType="0">
          <Node pos="l" depth="2" NCoef="0" IVar="15" Cut="2.3953027725219727e+00" cType="1" res="-6.3643380999565125e-03" rms="3.4859901666641235e-01" purity="2.9245868325233459e-01" nType="0">
            <Node pos="l" depth="3" NCoef="0" IVar="18" Cut="4.2924015625000000e+04" cType="1" res="-1.4126483583822846e-03" rms="3.6299893260002136e-01" purity="3.2848590612411499e-01" nType="0">
              <Node pos="l" depth="4" NCoef="0" IVar="-1" Cut="0.0000000000000000e+00" cType="1" res="-7.7708517201244831e-03" rms="3.6976400017738342e-01" purity="3.7121772766113281e-01" nType="-99"/>
              <Node pos="r" depth="4" NCoef="0" IVar="-1" Cut="0.0000000000000000e+00" cType="1" res="4.6069319359958172e-03" rms="3.5772913694381714e-01" purity="2.9683575034141541e-01" nType="-99"/>
            </Node>
            <Node pos="r" depth="3" NCoef="0" IVar="-1" Cut="0.0000000000000000e+00" cType="1" res="-1.8637597560882568e-02" rms="3.0545458197593689e-01" purity="1.9412183761596680e-01" nType="-99"/>
          </Node>
          <Node pos="r" depth="2" NCoef="0" IVar="-1" Cut="0.0000000000000000e+00" cType="1" res="1.5997091308236122e-02" rms="3.2659128308296204e-01" purity="2.3124004900455475e-01" nType="-99"/>
        </Node>
      </Node>
    </BinaryTree>
    <BinaryTree type="DecisionTree" boostWeight="1.0000000000000000e+00" itree="133">
      <Node pos="s" depth="0" NCoef="0" IVar="18" Cut="1.4775275000000000e+05" cType="1" res="-1.0150437447009608e-05" rms="3.4229338169097900e-01" purity="5.0000000000000000e-01" nType="0">
        <Node pos="l" depth="1" NCoef="0" IVar="9" Cut="2.6200375000000000e+05" cType="1" res="3.4933336428366601e-04" rms="3.5039749741554260e-01" purity="5.1551795005798340e-01" nType="0">
          <Node pos="l" depth="2" NCoef="0" IVar="3" Cut="8.3660742187500000e+04" cType="1" res="1.1971775675192475e-03" rms="3.5514566302299500e-01" purity="5.3073918819427490e-01" nType="0">
            <Node pos="l" depth="3" NCoef="0" IVar="7" Cut="4.3944539062500000e+04" cType="1" res="-8.1685837358236313e-03" rms="3.7545067071914673e-01" purity="3.5827180743217468e-01" nType="0">
              <Node pos="l" depth="4" NCoef="0" IVar="-1" Cut="0.0000000000000000e+00" cType="1" res="5.7949884794652462e-03" rms="3.9685425162315369e-01" purity="4.4142311811447144e-01" nType="-99"/>
              <Node pos="r" depth="4" NCoef="0" IVar="-1" Cut="0.0000000000000000e+00" cType="1" res="-2.7390487492084503e-02" rms="3.3402466773986816e-01" purity="2.1775966882705688e-01" nType="-99"/>
            </Node>
            <Node pos="r" depth="3" NCoef="0" IVar="21" Cut="3.1235693359375000e+04" cType="1" res="2.8915030416101217e-03" rms="3.5132035613059998e-01" purity="5.6193959712982178e-01" nType="0">
              <Node pos="l" depth="4" NCoef="0" IVar="-1" Cut="0.0000000000000000e+00" cType="1" res="-4.3395427055656910e-03" rms="3.3475944399833679e-01" purity="7.4777638912200928e-01" nType="-99"/>
              <Node pos="r" depth="4" NCoef="0" IVar="-1" Cut="0.0000000000000000e+00" cType="1" res="5.0381147302687168e-03" rms="3.5903114080429077e-01" purity="4.7163194417953491e-01" nType="-99"/>
            </Node>
          </Node>
          <Node pos="r" depth="2" NCoef="0" IVar="14" Cut="1.6157877445220947e+00" cType="1" res="-1.3336869888007641e-02" rms="2.6172924041748047e-01" purity="2.6981157064437866e-01" nType="0">
            <Node pos="l" depth="3" NCoef="0" IVar="0" Cut="5.3333334922790527e+00" cType="1" res="-4.6844355529174209e-04" rms="2.6950627565383911e-01" purity="2.6575741171836853e-01" nType="0">
              <Node pos="l" depth="4" NCoef="0" IVar="-1" Cut="0.0000000000000000e+00" cType="1" res="1.3613360002636909e-02" rms="2.9891395568847656e-01" purity="3.6113873124122620e-01" nType="-99"/>
              <Node pos="r" depth="4" NCoef="0" IVar="-1" Cut="0.0000000000000000e+00" cType="1" res="-1.8869301304221153e-02" rms="2.3527544736862183e-01" purity="1.6892315447330475e-01" nType="-99"/>
            </Node>
            <Node pos="r" depth="3" NCoef="0" IVar="20" Cut="7.9471593750000000e+04" cType="1" res="-2.4034233763813972e-02" rms="2.5458925962448120e-01" purity="2.7318170666694641e-01" nType="0">
              <Node pos="l" depth="4" NCoef="0" IVar="-1" Cut="0.0000000000000000e+00" cType="1" res="-3.2069552689790726e-02" rms="3.4809747338294983e-01" purity="5.3493916988372803e-01" nType="-99"/>
              <Node pos="r" depth="4" NCoef="0" IVar="-1" Cut="0.0000000000000000e+00" cType="1" res="-4.8142757266759872e-02" rms="9.9415831267833710e-02" purity="2.0240884274244308e-02" nType="-99"/>
            </Node>
          </Node>
        </Node>
        <Node pos="r" depth="1" NCoef="0" IVar="0" Cut="2.3333332538604736e+00" cType="1" res="-1.6219165408983827e-03" rms="3.0330255627632141e-01" purity="4.3042436242103577e-01" nType="0">
          <Node pos="l" depth="2" NCoef="0" IVar="2" Cut="6.8386612500000000e+05" cType="1" res="-9.5855342224240303e-03" rms="3.1114229559898376e-01" purity="3.6374327540397644e-01" nType="0">
            <Node pos="l" depth="3" NCoef="0" IVar="15" Cut="2.6182229518890381e+00" cType="1" res="-1.7608664929866791e-02" rms="3.3091527223587036e-01" purity="4.9246931076049805e-01" nType="0">
              <Node pos="l" depth="4" NCoef="0" IVar="-1" Cut="0.0000000000000000e+00" cType="1" res="-2.2236743941903114e-02" rms="3.3171901106834412e-01" purity="4.6015691757202148e-01" nType="-99"/>
              <Node pos="r" depth="4" NCoef="0" IVar="-1" Cut="0.0000000000000000e+00" cType="1" res="-8.1109693273901939e-03" rms="3.2988613843917847e-01" purity="5.2495431900024414e-01" nType="-99"/>
            </Node>
            <Node pos="r" depth="3" NCoef="0" IVar="0" Cut="1.0476191043853760e+00" cType="1" res="-4.6995884622447193e-04" rms="2.8675648570060730e-01" purity="2.1748970448970795e-01" nType="0">
              <Node pos="l" depth="4" NCoef="0" IVar="-1" Cut="0.0000000000000000e+00" cType="1" res="1.4394033700227737e-02" rms="2.8420001268386841e-01" purity="1.9551800191402435e-01" nType="-99"/>
              <Node pos="r" depth="4" NCoef="0" IVar="-1" Cut="0.0000000000000000e+00" cType="1" res="-1.3503912836313248e-02" rms="2.8893020749092102e-01" purity="2.4067196249961853e-01" nType="-99"/>
            </Node>
          </Node>
          <Node pos="r" depth="2" NCoef="0" IVar="0" Cut="6.0952382087707520e+00" cType="1" res="1.1749450350180268e-03" rms="3.0045062303543091e-01" purity="4.5384308695793152e-01" nType="0">
            <Node pos="l" depth="3" NCoef="0" IVar="13" Cut="2.8620386123657227e+00" cType="1" res="8.3423815667629242e-03" rms="2.8943571448326111e-01" purity="6.3327389955520630e-01" nType="0">
              <Node pos="l" depth="4" NCoef="0" IVar="-1" Cut="0.0000000000000000e+00" cType="1" res="1.7611342482268810e-03" rms="3.0561950802803040e-01" purity="5.3304165601730347e-01" nType="-99"/>
              <Node pos="r" depth="4" NCoef="0" IVar="-1" Cut="0.0000000000000000e+00" cType="1" res="2.5645831599831581e-02" rms="2.5901296734809875e-01" purity="8.0481022596359253e-01" nType="-99"/>
            </Node>
            <Node pos="r" depth="3" NCoef="0" IVar="19" Cut="1.2900694531250000e+05" cType="1" res="-4.6273167245090008e-03" rms="3.0895838141441345e-01" purity="3.0858832597732544e-01" nType="0">
              <Node pos="l" depth="4" NCoef="0" IVar="-1" Cut="0.0000000000000000e+00" cType="1" res="-9.9691944196820259e-03" rms="3.3505326509475708e-01" purity="4.3493652343750000e-01" nType="-99"/>
              <Node pos="r" depth="4" NCoef="0" IVar="-1" Cut="0.0000000000000000e+00" cType="1" res="7.8918617218732834e-03" rms="2.6528897881507874e-01" purity="1.2143809348344803e-01" nType="-99"/>
            </Node>
          </Node>
        </Node>
      </Node>
    </BinaryTree>
    <BinaryTree type="DecisionTree" boostWeight="1.0000000000000000e+00" itree="134">
      <Node pos="s" depth="0" NCoef="0" IVar="13" Cut="1.9197735786437988e+00" cType="1" res="-1.0325733455829322e-05" rms="3.4219211339950562e-01" purity="5.0000000000000000e-01" nType="0">
        <Node pos="l" depth="1" NCoef="0" IVar="13" Cut="1.8283419609069824e+00" cType="1" res="1.4572307700291276e-03" rms="3.2967093586921692e-01" purity="2.5426813960075378e-01" nType="0">
          <Node pos="l" depth="2" NCoef="0" IVar="10" Cut="9.0359882812500000e+04" cType="1" res="1.8405242008157074e-04" rms="3.2664874196052551e-01" purity="2.3960196971893311e-01" nType="0">
            <Node pos="l" depth="3" NCoef="0" IVar="1" Cut="5.1289734375000000e+04" cType="1" res="2.6289918459951878e-03" rms="3.4306821227073669e-01" purity="2.6772832870483398e-01" nType="0">
              <Node pos="l" depth="4" NCoef="0" IVar="-1" Cut="0.0000000000000000e+00" cType="1" res="8.5494816303253174e-03" rms="3.1052091717720032e-01" purity="1.6638596355915070e-01" nType="-99"/>
              <Node pos="r" depth="4" NCoef="0" IVar="-1" Cut="0.0000000000000000e+00" cType="1" res="-2.6162085123360157e-03" rms="3.7672942876815796e-01" purity="3.8353911042213440e-01" nType="-99"/>
            </Node>
            <Node pos="r" depth="3" NCoef="0" IVar="16" Cut="1.4668091535568237e+00" cType="1" res="-1.0735062882304192e-02" rms="2.3967368900775909e-01" purity="1.1398945003747940e-01" nType="0">
              <Node pos="l" depth="4" NCoef="0" IVar="-1" Cut="0.0000000000000000e+00" cType="1" res="9.7732599824666977e-03" rms="2.8711384534835815e-01" purity="2.0933572947978973e-01" nType="-99"/>
              <Node pos="r" depth="4" NCoef="0" IVar="-1" Cut="0.0000000000000000e+00" cType="1" res="-3.0647438019514084e-02" rms="2.1770322322845459e-01" purity="7.6413385570049286e-02" nType="-99"/>
            </Node>
          </Node>
          <Node pos="r" depth="2" NCoef="0" IVar="13" Cut="1.8805812597274780e+00" cType="1" res="1.3467832468450069e-02" rms="3.5670030117034912e-01" purity="3.9262235164642334e-01" nType="0">
            <Node pos="l" depth="3" NCoef="0" IVar="-1" Cut="0.0000000000000000e+00" cType="1" res="-4.5520002022385597e-03" rms="3.4395363926887512e-01" purity="3.7423461675643921e-01" nType="-99"/>
            <Node pos="r" depth="3" NCoef="0" IVar="-1" Cut="0.0000000000000000e+00" cType="1" res="2.8013074770569801e-02" rms="3.7068635225296021e-01" purity="4.1574212908744812e-01" nType="-99"/>
          </Node>
        </Node>
        <Node pos="r" depth="1" NCoef="0" IVar="16" Cut="1.5020434856414795e+00" cType="1" res="-5.1804515533149242e-04" rms="3.4641715884208679e-01" purity="5.8501398563385010e-01" nType="0">
          <Node pos="l" depth="2" NCoef="0" IVar="15" Cut="1.6201062202453613e+00" cType="1" res="-1.6263321740552783e-03" rms="3.2476320862770081e-01" purity="6.9883626699447632e-01" nType="0">
            <Node pos="l" depth="3" NCoef="0" IVar="18" Cut="9.1325695312500000e+04" cType="1" res="-6.7523894831538200e-03" rms="3.4612107276916504e-01" purity="6.5833431482315063e-01" nType="0">
              <Node pos="l" depth="4" NCoef="0" IVar="-1" Cut="0.0000000000000000e+00" cType="1" res="-2.9291093815118074e-03" rms="3.4753388166427612e-01" purity="6.8602335453033447e-01" nType="-99"/>
              <Node pos="r" depth="4" NCoef="0" IVar="-1" Cut="0.0000000000000000e+00" cType="1" res="-2.6049511507153511e-02" rms="3.3550575375556946e-01" purity="4.6861112117767334e-01" nType="-99"/>
            </Node>
            <Node pos="r" depth="3" NCoef="0" IVar="14" Cut="1.8552798032760620e+00" cType="1" res="5.7185289915651083e-04" rms="3.1513574719429016e-01" purity="7.1620452404022217e-01" nType="0">
              <Node pos="l" depth="4" NCoef="0" IVar="-1" Cut="0.0000000000000000e+00" cType="1" res="5.1839724183082581e-03" rms="3.4309697151184082e-01" purity="6.2918424606323242e-01" nType="-99"/>
              <Node pos="r" depth="4" NCoef="0" IVar="-1" Cut="0.0000000000000000e+00" cType="1" res="-1.4668515650555491e-03" rms="3.0480551719665527e-01" purity="7.4640709161758423e-01" nType="-99"/>
            </Node>
          </Node>
          <Node pos="r" depth="2" NCoef="0" IVar="11" Cut="1.2738480567932129e+00" cType="1" res="1.1642674217000604e-03" rms="3.7691041827201843e-01" purity="4.1223868727684021e-01" nType="0">
            <Node pos="l" depth="3" NCoef="0" IVar="6" Cut="1.8905056250000000e+05" cType="1" res="5.8592483401298523e-03" rms="3.9547795057296753e-01" purity="5.0915873050689697e-01" nType="0">
              <Node pos="l" depth="4" NCoef="0" IVar="-1" Cut="0.0000000000000000e+00" cType="1" res="-1.3805288472212851e-04" rms="4.1302344202995300e-01" purity="5.3907310962677002e-01" nType="-99"/>
              <Node pos="r" depth="4" NCoef="0" IVar="-1" Cut="0.0000000000000000e+00" cType="1" res="9.5171472057700157e-03" rms="3.7255251407623291e-01" purity="4.7224485874176025e-01" nType="-99"/>
            </Node>
            <Node pos="r" depth="3" NCoef="0" IVar="1" Cut="5.8989304687500000e+04" cType="1" res="-4.8298081383109093e-03" rms="3.5169279575347900e-01" purity="2.8850099444389343e-01" nType="0">
              <Node pos="l" depth="4" NCoef="0" IVar="-1" Cut="0.0000000000000000e+00" cType="1" res="2.4281980004161596e-03" rms="3.4021955728530884e-01" purity="2.3999135196208954e-01" nType="-99"/>
              <Node pos="r" depth="4" NCoef="0" IVar="-1" Cut="0.0000000000000000e+00" cType="1" res="-1.2033669278025627e-02" rms="3.6801740527153015e-01" purity="3.6169049143791199e-01" nType="-99"/>
            </Node>
          </Node>
        </Node>
      </Node>
    </BinaryTree>
    <BinaryTree type="DecisionTree" boostWeight="1.0000000000000000e+00" itree="135">
      <Node pos="s" depth="0" NCoef="0" IVar="12" Cut="1.2675663232803345e+00" cType="1" res="-1.0245686098642182e-05" rms="3.4211316704750061e-01" purity="5.0000000000000000e-01" nType="0">
        <Node pos="l" depth="1" NCoef="0" IVar="7" Cut="2.2127208984375000e+04" cType="1" res="-3.7211012095212936e-03" rms="3.5089516639709473e-01" purity="2.4588495492935181e-01" nType="0">
          <Node pos="l" depth="2" NCoef="0" IVar="-1" Cut="0.0000000000000000e+00" cType="1" res="-1.2140329927206039e-02" rms="3.4617295861244202e-01" purity="3.1171262264251709e-01" nType="-99"/>
          <Node pos="r" depth="2" NCoef="0" IVar="9" Cut="4.3725554687500000e+04" cType="1" res="2.2486785892397165e-03" rms="3.5274058580398560e-01" purity="2.1754933893680573e-01" nType="0">
            <Node pos="l" depth="3" NCoef="0" IVar="-1" Cut="0.0000000000000000e+00" cType="1" res="1.2929719872772694e-02" rms="4.2021393775939941e-01" purity="3.3191072940826416e-01" nType="-99"/>
            <Node pos="r" depth="3" NCoef="0" IVar="-1" Cut="0.0000000000000000e+00" cType="1" res="-1.7888760194182396e-02" rms="2.7544274926185608e-01" purity="1.1247939616441727e-01" nType="-99"/>
          </Node>
        </Node>
        <Node pos="r" depth="1" NCoef="0" IVar="13" Cut="1.9197735786437988e+00" cType="1" res="1.6580239753238857e-04" rms="3.4168991446495056e-01" purity="5.1205557584762573e-01" nType="0">
          <Node pos="l" depth="2" NCoef="0" IVar="11" Cut="1.2420724630355835e+00" cType="1" res="2.1545011550188065e-03" rms="3.2519286870956421e-01" purity="2.5803583860397339e-01" nType="0">
            <Node pos="l" depth="3" NCoef="0" IVar="12" Cut="1.7161891460418701e+00" cType="1" res="8.5828332230448723e-03" rms="3.6564302444458008e-01" purity="3.7009119987487793e-01" nType="0">
              <Node pos="l" depth="4" NCoef="0" IVar="-1" Cut="0.0000000000000000e+00" cType="1" res="-7.2039192309603095e-04" rms="3.5525569319725037e-01" purity="3.0573588609695435e-01" nType="-99"/>
              <Node pos="r" depth="4" NCoef="0" IVar="-1" Cut="0.0000000000000000e+00" cType="1" res="1.0844656266272068e-02" rms="3.7262505292892456e-01" purity="4.1532662510871887e-01" nType="-99"/>
            </Node>
            <Node pos="r" depth="3" NCoef="0" IVar="10" Cut="3.3471589843750000e+04" cType="1" res="-1.4949631877243519e-03" rms="2.9974848031997681e-01" purity="1.9442021846771240e-01" nType="0">
              <Node pos="l" depth="4" NCoef="0" IVar="-1" Cut="0.0000000000000000e+00" cType="1" res="5.9350063093006611e-03" rms="3.2458141446113586e-01" purity="2.1872667968273163e-01" nType="-99"/>
              <Node pos="r" depth="4" NCoef="0" IVar="-1" Cut="0.0000000000000000e+00" cType="1" res="-4.7524585388600826e-03" rms="2.9063564538955688e-01" purity="1.8603365123271942e-01" nType="-99"/>
            </Node>
          </Node>
          <Node pos="r" depth="2" NCoef="0" IVar="16" Cut="1.4999334812164307e+00" cType="1" res="-4.1000629425980151e-04" rms="3.4631764888763428e-01" purity="5.8560454845428467e-01" nType="0">
            <Node pos="l" depth="3" NCoef="0" IVar="11" Cut="1.3607265949249268e+00" cType="1" res="-1.4578555710613728e-03" rms="3.2453927397727966e-01" purity="6.9933420419692993e-01" nType="0">
              <Node pos="l" depth="4" NCoef="0" IVar="-1" Cut="0.0000000000000000e+00" cType="1" res="-3.2061405945569277e-03" rms="3.1474128365516663e-01" purity="7.7709913253784180e-01" nType="-99"/>
              <Node pos="r" depth="4" NCoef="0" IVar="-1" Cut="0.0000000000000000e+00" cType="1" res="3.1950292177498341e-03" rms="3.5188859701156616e-01" purity="4.6912831068038940e-01" nType="-99"/>
            </Node>
            <Node pos="r" depth="3" NCoef="0" IVar="11" Cut="1.2738480567932129e+00" cType="1" res="1.1796815088018775e-03" rms="3.7695726752281189e-01" purity="4.1306573152542114e-01" nType="0">
              <Node pos="l" depth="4" NCoef="0" IVar="-1" Cut="0.0000000000000000e+00" cType="1" res="3.2074193004518747e-03" rms="3.9587542414665222e-01" purity="5.1139253377914429e-01" nType="-99"/>
              <Node pos="r" depth="4" NCoef="0" IVar="-1" Cut="0.0000000000000000e+00" cType="1" res="-3.0050934292376041e-03" rms="3.5149616003036499e-01" purity="2.8863400220870972e-01" nType="-99"/>
            </Node>
          </Node>
        </Node>
      </Node>
    </BinaryTree>
    <BinaryTree type="DecisionTree" boostWeight="1.0000000000000000e+00" itree="136">
      <Node pos="s" depth="0" NCoef="0" IVar="14" Cut="1.2873336076736450e+00" cType="1" res="-9.0266848928877153e-06" rms="3.4208187460899353e-01" purity="5.0000000000000000e-01" nType="0">
        <Node pos="l" depth="1" NCoef="0" IVar="20" Cut="6.9249031250000000e+04" cType="1" res="-1.4191725058481097e-03" rms="3.5492658615112305e-01" purity="4.4710662961006165e-01" nType="0">
          <Node pos="l" depth="2" NCoef="0" IVar="17" Cut="2.8010355468750000e+04" cType="1" res="-4.9619567580521107e-03" rms="3.8320788741111755e-01" purity="5.5751568078994751e-01" nType="0">
            <Node pos="l" depth="3" NCoef="0" IVar="14" Cut="9.2094153165817261e-01" cType="1" res="5.4070800542831421e-03" rms="3.6744675040245056e-01" purity="5.8847457170486450e-01" nType="0">
              <Node pos="l" depth="4" NCoef="0" IVar="-1" Cut="0.0000000000000000e+00" cType="1" res="-3.4104792866855860e-03" rms="3.7060478329658508e-01" purity="5.6963980197906494e-01" nType="-99"/>
              <Node pos="r" depth="4" NCoef="0" IVar="-1" Cut="0.0000000000000000e+00" cType="1" res="1.4784540981054306e-02" rms="3.6196416616439819e-01" purity="6.1733782291412354e-01" nType="-99"/>
            </Node>
            <Node pos="r" depth="3" NCoef="0" IVar="1" Cut="5.9323132812500000e+04" cType="1" res="-1.7065938562154770e-02" rms="4.0048348903656006e-01" purity="5.2137678861618042e-01" nType="0">
              <Node pos="l" depth="4" NCoef="0" IVar="-1" Cut="0.0000000000000000e+00" cType="1" res="-9.9159726232755929e-05" rms="3.9390024542808533e-01" purity="4.2349961400032043e-01" nType="-99"/>
              <Node pos="r" depth="4" NCoef="0" IVar="-1" Cut="0.0000000000000000e+00" cType="1" res="-2.0525233820080757e-02" rms="4.0580287575721741e-01" purity="6.1104655265808105e-01" nType="-99"/>
            </Node>
          </Node>
          <Node pos="r" depth="2" NCoef="0" IVar="18" Cut="8.4500156250000000e+04" cType="1" res="9.1627789661288261e-03" rms="2.5193381309509277e-01" purity="1.1732556670904160e-01" nType="0">
            <Node pos="l" depth="3" NCoef="0" IVar="18" Cut="1.9804207031250000e+04" cType="1" res="1.9297728314995766e-02" rms="2.9101201891899109e-01" purity="1.6111649572849274e-01" nType="0">
              <Node pos="l" depth="4" NCoef="0" IVar="-1" Cut="0.0000000000000000e+00" cType="1" res="-3.5509779118001461e-03" rms="2.4623183906078339e-01" purity="1.2128787487745285e-01" nType="-99"/>
              <Node pos="r" depth="4" NCoef="0" IVar="-1" Cut="0.0000000000000000e+00" cType="1" res="4.7218408435583115e-02" rms="3.3235710859298706e-01" purity="2.0563019812107086e-01" nType="-99"/>
            </Node>
            <Node pos="r" depth="3" NCoef="0" IVar="14" Cut="8.7637883424758911e-01" cType="1" res="-5.8790501207113266e-03" rms="1.7776988446712494e-01" purity="5.2333045750856400e-02" nType="0">
              <Node pos="l" depth="4" NCoef="0" IVar="-1" Cut="0.0000000000000000e+00" cType="1" res="1.0391044430434704e-02" rms="1.9280615448951721e-01" purity="6.0816340148448944e-02" nType="-99"/>
              <Node pos="r" depth="4" NCoef="0" IVar="-1" Cut="0.0000000000000000e+00" cType="1" res="-3.6061421036720276e-02" rms="1.6477505862712860e-01" purity="4.5751690864562988e-02" nType="-99"/>
            </Node>
          </Node>
        </Node>
        <Node pos="r" depth="1" NCoef="0" IVar="13" Cut="2.4680671691894531e+00" cType="1" res="4.7033885493874550e-04" rms="3.3760282397270203e-01" purity="5.1798057556152344e-01" nType="0">
          <Node pos="l" depth="2" NCoef="0" IVar="4" Cut="3.0234675000000000e+05" cType="1" res="2.2661653347313404e-03" rms="3.4071299433708191e-01" purity="3.7176239490509033e-01" nType="0">
            <Node pos="l" depth="3" NCoef="0" IVar="7" Cut="5.2323000000000000e+04" cType="1" res="6.0755433514714241e-03" rms="3.6114042997360229e-01" purity="4.3035423755645752e-01" nType="0">
              <Node pos="l" depth="4" NCoef="0" IVar="-1" Cut="0.0000000000000000e+00" cType="1" res="9.4246389344334602e-03" rms="3.7596485018730164e-01" purity="5.6411409378051758e-01" nType="-99"/>
              <Node pos="r" depth="4" NCoef="0" IVar="-1" Cut="0.0000000000000000e+00" cType="1" res="-1.1994212400168180e-03" rms="3.4614428877830505e-01" purity="3.0197727680206299e-01" nType="-99"/>
            </Node>
            <Node pos="r" depth="3" NCoef="0" IVar="5" Cut="2.0735535937500000e+05" cType="1" res="-1.8732610624283552e-03" rms="3.1697505712509155e-01" purity="3.0809411406517029e-01" nType="0">
              <Node pos="l" depth="4" NCoef="0" IVar="-1" Cut="0.0000000000000000e+00" cType="1" res="-8.9918421581387520e-03" rms="3.0689644813537598e-01" purity="3.5126119852066040e-01" nType="-99"/>
              <Node pos="r" depth="4" NCoef="0" IVar="-1" Cut="0.0000000000000000e+00" cType="1" res="2.2369856014847755e-03" rms="3.2303085923194885e-01" purity="2.8115996718406677e-01" nType="-99"/>
            </Node>
          </Node>
          <Node pos="r" depth="2" NCoef="0" IVar="12" Cut="3.6423256397247314e+00" cType="1" res="-9.7323831869289279e-04" rms="3.3507481217384338e-01" purity="6.3551825284957886e-01" nType="0">
            <Node pos="l" depth="3" NCoef="0" IVar="11" Cut="2.4356725215911865e+00" cType="1" res="-1.9183147232979536e-03" rms="3.3540663123130798e-01" purity="6.4470994472503662e-01" nType="0">
              <Node pos="l" depth="4" NCoef="0" IVar="-1" Cut="0.0000000000000000e+00" cType="1" res="-2.4722332600504160e-03" rms="3.3562049269676208e-01" purity="6.5621352195739746e-01" nType="-99"/>
              <Node pos="r" depth="4" NCoef="0" IVar="-1" Cut="0.0000000000000000e+00" cType="1" res="3.7106867879629135e-02" rms="3.2551124691963196e-01" purity="2.3070451617240906e-01" nType="-99"/>
            </Node>
            <Node pos="r" depth="3" NCoef="0" IVar="13" Cut="3.2518153190612793e+00" cType="1" res="1.2643441557884216e-02" rms="3.2995662093162537e-01" purity="5.0308352708816528e-01" nType="0">
              <Node pos="l" depth="4" NCoef="0" IVar="-1" Cut="0.0000000000000000e+00" cType="1" res="2.8105676174163818e-02" rms="3.3299005031585693e-01" purity="4.9348539113998413e-01" nType="-99"/>
              <Node pos="r" depth="4" NCoef="0" IVar="-1" Cut="0.0000000000000000e+00" cType="1" res="-1.9295668462291360e-03" rms="3.2689425349235535e-01" purity="5.1017487049102783e-01" nType="-99"/>
            </Node>
          </Node>
        </Node>
      </Node>
    </BinaryTree>
    <BinaryTree type="DecisionTree" boostWeight="1.0000000000000000e+00" itree="137">
      <Node pos="s" depth="0" NCoef="0" IVar="5" Cut="4.3468087500000000e+05" cType="1" res="-9.8925147540285252e-06" rms="3.4195414185523987e-01" purity="5.0000000000000000e-01" nType="0">
        <Node pos="l" depth="1" NCoef="0" IVar="11" Cut="2.8506696224212646e-01" cType="1" res="-2.1082148305140436e-04" rms="3.4435430169105530e-01" purity="5.1539814472198486e-01" nType="0">
          <Node pos="l" depth="2" NCoef="0" IVar="-1" Cut="0.0000000000000000e+00" cType="1" res="1.0127781890332699e-02" rms="2.9970267415046692e-01" purity="7.9313409328460693e-01" nType="-99"/>
          <Node pos="r" depth="2" NCoef="0" IVar="12" Cut="1.8783133029937744e+00" cType="1" res="-4.8798267380334437e-04" rms="3.4547275304794312e-01" purity="5.0791871547698975e-01" nType="0">
            <Node pos="l" depth="3" NCoef="0" IVar="5" Cut="8.3526203125000000e+04" cType="1" res="-4.8043383285403252e-03" rms="3.7020516395568848e-01" purity="3.7456724047660828e-01" nType="0">
              <Node pos="l" depth="4" NCoef="0" IVar="-1" Cut="0.0000000000000000e+00" cType="1" res="9.9736880511045456e-03" rms="3.9897921681404114e-01" purity="4.8352053761482239e-01" nType="-99"/>
              <Node pos="r" depth="4" NCoef="0" IVar="-1" Cut="0.0000000000000000e+00" cType="1" res="-8.6564300581812859e-03" rms="3.5942095518112183e-01" purity="3.3681708574295044e-01" nType="-99"/>
            </Node>
            <Node pos="r" depth="3" NCoef="0" IVar="14" Cut="2.5702321529388428e+00" cType="1" res="1.9564774993341416e-04" rms="3.4138625860214233e-01" purity="5.2903902530670166e-01" nType="0">
              <Node pos="l" depth="4" NCoef="0" IVar="-1" Cut="0.0000000000000000e+00" cType="1" res="-6.6082825651392341e-04" rms="3.4562897682189941e-01" purity="5.0862950086593628e-01" nType="-99"/>
              <Node pos="r" depth="4" NCoef="0" IVar="-1" Cut="0.0000000000000000e+00" cType="1" res="3.9292266592383385e-03" rms="3.2359626889228821e-01" purity="6.1172407865524292e-01" nType="-99"/>
            </Node>
          </Node>
        </Node>
        <Node pos="r" depth="1" NCoef="0" IVar="12" Cut="1.7363753318786621e+00" cType="1" res="3.8010329008102417e-03" rms="2.9270243644714355e-01" purity="2.0795036852359772e-01" nType="0">
          <Node pos="l" depth="2" NCoef="0" IVar="-1" Cut="0.0000000000000000e+00" cType="1" res="2.2938271984457970e-02" rms="2.8253710269927979e-01" purity="1.4698441326618195e-01" nType="-99"/>
          <Node pos="r" depth="2" NCoef="0" IVar="10" Cut="1.1646107812500000e+05" cType="1" res="-2.5181984528899193e-03" rms="2.9678198695182800e-01" purity="2.3439915478229523e-01" nType="0">
            <Node pos="l" depth="3" NCoef="0" IVar="-1" Cut="0.0000000000000000e+00" cType="1" res="6.7024086602032185e-03" rms="3.3526363968849182e-01" purity="2.9100403189659119e-01" nType="-99"/>
            <Node pos="r" depth="3" NCoef="0" IVar="11" Cut="8.9538705348968506e-01" cType="1" res="-9.0307472273707390e-03" rms="2.6867091655731201e-01" purity="1.9765640795230865e-01" nType="0">
              <Node pos="l" depth="4" NCoef="0" IVar="-1" Cut="0.0000000000000000e+00" cType="1" res="6.2118592904880643e-04" rms="3.1459066271781921e-01" purity="3.2030034065246582e-01" nType="-99"/>
              <Node pos="r" depth="4" NCoef="0" IVar="-1" Cut="0.0000000000000000e+00" cType="1" res="-3.5265579819679260e-02" rms="2.1064326167106628e-01" purity="7.1195624768733978e-02" nType="-99"/>
            </Node>
          </Node>
        </Node>
      </Node>
    </BinaryTree>
    <BinaryTree type="DecisionTree" boostWeight="1.0000000000000000e+00" itree="138">
      <Node pos="s" depth="0" NCoef="0" IVar="11" Cut="1.6930128335952759e+00" cType="1" res="-9.1636693468899466e-06" rms="3.4192475676536560e-01" purity="5.0000000000000000e-01" nType="0">
        <Node pos="l" depth="1" NCoef="0" IVar="11" Cut="1.6133761405944824e+00" cType="1" res="4.6037024003453553e-04" rms="3.5061255097389221e-01" purity="5.7933968305587769e-01" nType="0">
          <Node pos="l" depth="2" NCoef="0" IVar="11" Cut="3.2413509488105774e-01" cType="1" res="5.9551955928327516e-05" rms="3.5010468959808350e-01" purity="5.8530980348587036e-01" nType="0">
            <Node pos="l" depth="3" NCoef="0" IVar="0" Cut="6.3333334922790527e+00" cType="1" res="7.6338388025760651e-03" rms="3.0677595734596252e-01" purity="7.4750673770904541e-01" nType="0">
              <Node pos="l" depth="4" NCoef="0" IVar="-1" Cut="0.0000000000000000e+00" cType="1" res="1.5562709420919418e-02" rms="2.7202641963958740e-01" purity="8.1941771507263184e-01" nType="-99"/>
              <Node pos="r" depth="4" NCoef="0" IVar="-1" Cut="0.0000000000000000e+00" cType="1" res="-4.2538712732493877e-03" rms="3.7266659736633301e-01" purity="5.8649718761444092e-01" nType="-99"/>
            </Node>
            <Node pos="r" depth="3" NCoef="0" IVar="13" Cut="3.5656394958496094e+00" cType="1" res="-4.2347129783593118e-04" rms="3.5268181562423706e-01" purity="5.7496625185012817e-01" nType="0">
              <Node pos="l" depth="4" NCoef="0" IVar="-1" Cut="0.0000000000000000e+00" cType="1" res="-7.5601819844450802e-05" rms="3.5257956385612488e-01" purity="5.7587504386901855e-01" nType="-99"/>
              <Node pos="r" depth="4" NCoef="0" IVar="-1" Cut="0.0000000000000000e+00" cType="1" res="-6.5015968866646290e-03" rms="3.5518959164619446e-01" purity="5.5168533325195312e-01" nType="-99"/>
            </Node>
          </Node>
          <Node pos="r" depth="2" NCoef="0" IVar="2" Cut="3.3156896875000000e+05" cType="1" res="1.1330586858093739e-02" rms="3.6394712328910828e-01" purity="4.1742935776710510e-01" nType="0">
            <Node pos="l" depth="3" NCoef="0" IVar="-1" Cut="0.0000000000000000e+00" cType="1" res="2.0571473985910416e-02" rms="3.9957222342491150e-01" purity="5.5329197645187378e-01" nType="-99"/>
            <Node pos="r" depth="3" NCoef="0" IVar="-1" Cut="0.0000000000000000e+00" cType="1" res="-1.0598511435091496e-02" rms="3.2108014822006226e-01" purity="2.7588504552841187e-01" nType="-99"/>
          </Node>
        </Node>
        <Node pos="r" depth="1" NCoef="0" IVar="13" Cut="3.2346739768981934e+00" cType="1" res="-1.5659995842725039e-03" rms="3.1138408184051514e-01" purity="2.3693297803401947e-01" nType="0">
          <Node pos="l" depth="2" NCoef="0" IVar="12" Cut="3.0448479652404785e+00" cType="1" res="-3.9167399518191814e-03" rms="3.0624473094940186e-01" purity="2.2689253091812134e-01" nType="0">
            <Node pos="l" depth="3" NCoef="0" IVar="13" Cut="9.2491114139556885e-01" cType="1" res="-7.9063465818762779e-03" rms="3.1706264615058899e-01" purity="2.4040648341178894e-01" nType="0">
              <Node pos="l" depth="4" NCoef="0" IVar="-1" Cut="0.0000000000000000e+00" cType="1" res="1.3228469528257847e-02" rms="2.9918903112411499e-01" purity="1.6194318234920502e-01" nType="-99"/>
              <Node pos="r" depth="4" NCoef="0" IVar="-1" Cut="0.0000000000000000e+00" cType="1" res="-1.0006414726376534e-02" rms="3.1975704431533813e-01" purity="2.5312489271163940e-01" nType="-99"/>
            </Node>
            <Node pos="r" depth="3" NCoef="0" IVar="14" Cut="2.5702321529388428e+00" cType="1" res="2.8042013291269541e-03" rms="2.8697502613067627e-01" purity="2.0412674546241760e-01" nType="0">
              <Node pos="l" depth="4" NCoef="0" IVar="-1" Cut="0.0000000000000000e+00" cType="1" res="-1.8704190151765943e-03" rms="2.8305953741073608e-01" purity="1.8410465121269226e-01" nType="-99"/>
              <Node pos="r" depth="4" NCoef="0" IVar="-1" Cut="0.0000000000000000e+00" cType="1" res="2.6531795039772987e-02" rms="3.0493253469467163e-01" purity="3.0482819676399231e-01" nType="-99"/>
            </Node>
          </Node>
          <Node pos="r" depth="2" NCoef="0" IVar="9" Cut="1.0727387500000000e+05" cType="1" res="1.5527220442891121e-02" rms="3.4598946571350098e-01" purity="3.0994141101837158e-01" nType="0">
            <Node pos="l" depth="3" NCoef="0" IVar="-1" Cut="0.0000000000000000e+00" cType="1" res="2.4673417210578918e-02" rms="4.1569590568542480e-01" purity="4.5855927467346191e-01" nType="-99"/>
            <Node pos="r" depth="3" NCoef="0" IVar="-1" Cut="0.0000000000000000e+00" cType="1" res="-5.6033087894320488e-03" rms="2.6996362209320068e-01" purity="1.8129715323448181e-01" nType="-99"/>
          </Node>
        </Node>
      </Node>
    </BinaryTree>
    <BinaryTree type="DecisionTree" boostWeight="1.0000000000000000e+00" itree="139">
      <Node pos="s" depth="0" NCoef="0" IVar="13" Cut="5.4850673675537109e-01" cType="1" res="-7.8931470852694474e-06" rms="3.4188115596771240e-01" purity="5.0000000000000000e-01" nType="0">
        <Node pos="l" depth="1" NCoef="0" IVar="12" Cut="1.5903397798538208e+00" cType="1" res="-5.3368136286735535e-03" rms="3.1696611642837524e-01" purity="1.6937981545925140e-01" nType="0">
          <Node pos="l" depth="2" NCoef="0" IVar="-1" Cut="0.0000000000000000e+00" cType="1" res="-1.7832191661000252e-02" rms="3.3594590425491333e-01" purity="1.7174468934535980e-01" nType="-99"/>
          <Node pos="r" depth="2" NCoef="0" IVar="-1" Cut="0.0000000000000000e+00" cType="1" res="1.1549205519258976e-02" rms="2.9700040817260742e-01" purity="1.6713199019432068e-01" nType="-99"/>
        </Node>
        <Node pos="r" depth="1" NCoef="0" IVar="20" Cut="1.2483096093750000e+05" cType="1" res="1.0474256123416126e-04" rms="3.4238731861114502e-01" purity="5.0698822736740112e-01" nType="0">
          <Node pos="l" depth="2" NCoef="0" IVar="20" Cut="1.0195672656250000e+05" cType="1" res="3.2061507226899266e-04" rms="3.5020175576210022e-01" purity="5.3067040443420410e-01" nType="0">
            <Node pos="l" depth="3" NCoef="0" IVar="21" Cut="1.4958998437500000e+05" cType="1" res="1.0841790353879333e-03" rms="3.6027601361274719e-01" purity="5.6378579139709473e-01" nType="0">
              <Node pos="l" depth="4" NCoef="0" IVar="-1" Cut="0.0000000000000000e+00" cType="1" res="1.4507261221297085e-04" rms="3.6161848902702332e-01" purity="5.5580699443817139e-01" nType="-99"/>
              <Node pos="r" depth="4" NCoef="0" IVar="-1" Cut="0.0000000000000000e+00" cType="1" res="1.8476650118827820e-02" rms="3.2982718944549561e-01" purity="7.3371464014053345e-01" nType="-99"/>
            </Node>
            <Node pos="r" depth="3" NCoef="0" IVar="16" Cut="1.0117294788360596e+00" cType="1" res="-1.1644220910966396e-02" rms="1.0164696723222733e-01" purity="1.1760535649955273e-02" nType="0">
              <Node pos="l" depth="4" NCoef="0" IVar="-1" Cut="0.0000000000000000e+00" cType="1" res="-5.9650961309671402e-02" rms="1.3681896030902863e-01" purity="2.1566113457083702e-02" nType="-99"/>
              <Node pos="r" depth="4" NCoef="0" IVar="-1" Cut="0.0000000000000000e+00" cType="1" res="-5.2136220037937164e-02" rms="9.0222842991352081e-02" purity="9.2398561537265778e-03" nType="-99"/>
            </Node>
          </Node>
          <Node pos="r" depth="2" NCoef="0" IVar="5" Cut="2.0324914062500000e+05" cType="1" res="-4.4995094649493694e-03" rms="4.2102687060832977e-02" purity="1.8809210741892457e-03" nType="0">
            <Node pos="l" depth="3" NCoef="0" IVar="13" Cut="1.9608811140060425e+00" cType="1" res="-5.9182476252317429e-03" rms="3.9089947938919067e-02" purity="1.4507169835269451e-03" nType="0">
              <Node pos="l" depth="4" NCoef="0" IVar="-1" Cut="0.0000000000000000e+00" cType="1" res="-4.7745533287525177e-02" rms="6.1993364244699478e-02" purity="3.8006235845386982e-03" nType="-99"/>
              <Node pos="r" depth="4" NCoef="0" IVar="-1" Cut="0.0000000000000000e+00" cType="1" res="-1.0201782733201981e-01" rms="9.5987152308225632e-03" purity="0.0000000000000000e+00" nType="-99"/>
            </Node>
            <Node pos="r" depth="3" NCoef="0" IVar="-1" Cut="0.0000000000000000e+00" cType="1" res="-4.2225677520036697e-02" rms="4.7041863203048706e-02" purity="2.6738359592854977e-03" nType="-99"/>
          </Node>
        </Node>
      </Node>
    </BinaryTree>
    <BinaryTree type="DecisionTree" boostWeight="1.0000000000000000e+00" itree="140">
      <Node pos="s" depth="0" NCoef="0" IVar="16" Cut="2.7308914661407471e+00" cType="1" res="-1.4967419701861218e-05" rms="3.4185299277305603e-01" purity="5.0000000000000000e-01" nType="0">
        <Node pos="l" depth="1" NCoef="0" IVar="16" Cut="2.6013019084930420e+00" cType="1" res="2.0394084276631474e-04" rms="3.4158122539520264e-01" purity="5.2008587121963501e-01" nType="0">
          <Node pos="l" depth="2" NCoef="0" IVar="16" Cut="6.2663054466247559e-01" cType="1" res="-1.7823246889747679e-04" rms="3.4079238772392273e-01" purity="5.2628415822982788e-01" nType="0">
            <Node pos="l" depth="3" NCoef="0" IVar="19" Cut="1.4733884765625000e+04" cType="1" res="3.8431193679571152e-03" rms="2.8653749823570251e-01" purity="7.6842796802520752e-01" nType="0">
              <Node pos="l" depth="4" NCoef="0" IVar="-1" Cut="0.0000000000000000e+00" cType="1" res="-5.1621096208691597e-03" rms="3.6412599682807922e-01" purity="4.9617448449134827e-01" nType="-99"/>
              <Node pos="r" depth="4" NCoef="0" IVar="-1" Cut="0.0000000000000000e+00" cType="1" res="8.2391425967216492e-03" rms="2.6540920138359070e-01" purity="8.3113765716552734e-01" nType="-99"/>
            </Node>
            <Node pos="r" depth="3" NCoef="0" IVar="12" Cut="1.0248779058456421e+00" cType="1" res="-8.3040649769827724e-04" rms="3.4879252314567566e-01" purity="4.8701381683349609e-01" nType="0">
              <Node pos="l" depth="4" NCoef="0" IVar="-1" Cut="0.0000000000000000e+00" cType="1" res="-8.6402902379631996e-03" rms="3.4701734781265259e-01" purity="2.2914822399616241e-01" nType="-99"/>
              <Node pos="r" depth="4" NCoef="0" IVar="-1" Cut="0.0000000000000000e+00" cType="1" res="-4.7496607294306159e-04" rms="3.4882789850234985e-01" purity="4.9266439676284790e-01" nType="-99"/>
            </Node>
          </Node>
          <Node pos="r" depth="2" NCoef="0" IVar="14" Cut="1.8175988197326660e+00" cType="1" res="1.2553763575851917e-02" rms="3.6594390869140625e-01" purity="3.1979098916053772e-01" nType="0">
            <Node pos="l" depth="3" NCoef="0" IVar="-1" Cut="0.0000000000000000e+00" cType="1" res="9.2060462338849902e-04" rms="3.5786312818527222e-01" purity="3.3003717660903931e-01" nType="-99"/>
            <Node pos="r" depth="3" NCoef="0" IVar="-1" Cut="0.0000000000000000e+00" cType="1" res="2.0108129829168320e-02" rms="3.7458476424217224e-01" purity="3.0802521109580994e-01" nType="-99"/>
          </Node>
        </Node>
        <Node pos="r" depth="1" NCoef="0" IVar="4" Cut="2.3077532812500000e+05" cType="1" res="-2.3794027511030436e-03" rms="3.4476593136787415e-01" purity="2.8305149078369141e-01" nType="0">
          <Node pos="l" depth="2" NCoef="0" IVar="9" Cut="6.6577242187500000e+04" cType="1" res="-1.3682509772479534e-02" rms="3.6391708254814148e-01" purity="3.2044878602027893e-01" nType="0">
            <Node pos="l" depth="3" NCoef="0" IVar="-1" Cut="0.0000000000000000e+00" cType="1" res="5.9180688112974167e-03" rms="3.7342336773872375e-01" purity="3.6052608489990234e-01" nType="-99"/>
            <Node pos="r" depth="3" NCoef="0" IVar="-1" Cut="0.0000000000000000e+00" cType="1" res="-2.2943014279007912e-02" rms="3.5510131716728210e-01" purity="2.8839036822319031e-01" nType="-99"/>
          </Node>
          <Node pos="r" depth="2" NCoef="0" IVar="6" Cut="2.3397715625000000e+05" cType="1" res="2.3777056485414505e-03" rms="3.3626642823219299e-01" purity="2.6731219887733459e-01" nType="0">
            <Node pos="l" depth="3" NCoef="0" IVar="8" Cut="4.2295261718750000e+04" cType="1" res="9.3804439529776573e-03" rms="3.6856761574745178e-01" purity="3.2308080792427063e-01" nType="0">
              <Node pos="l" depth="4" NCoef="0" IVar="-1" Cut="0.0000000000000000e+00" cType="1" res="1.1910072527825832e-02" rms="4.1290840506553650e-01" purity="4.2668789625167847e-01" nType="-99"/>
              <Node pos="r" depth="4" NCoef="0" IVar="-1" Cut="0.0000000000000000e+00" cType="1" res="-5.8628676924854517e-04" rms="3.2195797562599182e-01" purity="2.2747328877449036e-01" nType="-99"/>
            </Node>
            <Node pos="r" depth="3" NCoef="0" IVar="20" Cut="7.2828257812500000e+04" cType="1" res="-1.0733501985669136e-02" rms="2.6492422819137573e-01" purity="1.6289678215980530e-01" nType="0">
              <Node pos="l" depth="4" NCoef="0" IVar="-1" Cut="0.0000000000000000e+00" cType="1" res="-1.6447504982352257e-02" rms="3.4975203871726990e-01" purity="3.0204558372497559e-01" nType="-99"/>
              <Node pos="r" depth="4" NCoef="0" IVar="-1" Cut="0.0000000000000000e+00" cType="1" res="5.4602492600679398e-03" rms="1.2535597383975983e-01" purity="1.8233204260468483e-02" nType="-99"/>
            </Node>
          </Node>
        </Node>
      </Node>
    </BinaryTree>
    <BinaryTree type="DecisionTree" boostWeight="1.0000000000000000e+00" itree="141">
      <Node pos="s" depth="0" NCoef="0" IVar="15" Cut="1.5260878801345825e+00" cType="1" res="-1.2555543435155414e-05" rms="3.4182724356651306e-01" purity="5.0000000000000000e-01" nType="0">
        <Node pos="l" depth="1" NCoef="0" IVar="17" Cut="1.2276909375000000e+05" cType="1" res="1.0094768367707729e-03" rms="3.6239787936210632e-01" purity="4.8203909397125244e-01" nType="0">
          <Node pos="l" depth="2" NCoef="0" IVar="17" Cut="6.4046644531250000e+04" cType="1" res="3.1554650049656630e-03" rms="3.7098747491836548e-01" purity="5.1169705390930176e-01" nType="0">
            <Node pos="l" depth="3" NCoef="0" IVar="12" Cut="3.3794958591461182e+00" cType="1" res="7.3587237857282162e-03" rms="3.7297910451889038e-01" purity="5.3646069765090942e-01" nType="0">
              <Node pos="l" depth="4" NCoef="0" IVar="-1" Cut="0.0000000000000000e+00" cType="1" res="6.4173531718552113e-03" rms="3.7418848276138306e-01" purity="5.4523909091949463e-01" nType="-99"/>
              <Node pos="r" depth="4" NCoef="0" IVar="-1" Cut="0.0000000000000000e+00" cType="1" res="-1.1664072051644325e-02" rms="3.5727217793464661e-01" purity="4.3046531081199646e-01" nType="-99"/>
            </Node>
            <Node pos="r" depth="3" NCoef="0" IVar="14" Cut="1.9242664575576782e+00" cType="1" res="-9.9835535511374474e-03" rms="3.6437904834747314e-01" purity="4.3428817391395569e-01" nType="0">
              <Node pos="l" depth="4" NCoef="0" IVar="-1" Cut="0.0000000000000000e+00" cType="1" res="-1.5126688405871391e-02" rms="3.5824248194694519e-01" purity="4.1653239727020264e-01" nType="-99"/>
              <Node pos="r" depth="4" NCoef="0" IVar="-1" Cut="0.0000000000000000e+00" cType="1" res="7.4961348436772823e-03" rms="3.7760195136070251e-01" purity="4.7609013319015503e-01" nType="-99"/>
            </Node>
          </Node>
          <Node pos="r" depth="2" NCoef="0" IVar="20" Cut="9.4378023437500000e+04" cType="1" res="-1.7073368653655052e-02" rms="2.7907848358154297e-01" purity="2.3213057219982147e-01" nType="0">
            <Node pos="l" depth="3" NCoef="0" IVar="0" Cut="5.3333334922790527e+00" cType="1" res="-2.7193607762455940e-02" rms="3.4753593802452087e-01" purity="3.7264135479927063e-01" nType="0">
              <Node pos="l" depth="4" NCoef="0" IVar="-1" Cut="0.0000000000000000e+00" cType="1" res="-9.8223406821489334e-03" rms="3.7216329574584961e-01" purity="4.8661610484123230e-01" nType="-99"/>
              <Node pos="r" depth="4" NCoef="0" IVar="-1" Cut="0.0000000000000000e+00" cType="1" res="-3.1954269856214523e-02" rms="3.2217594981193542e-01" purity="2.6553186774253845e-01" nType="-99"/>
            </Node>
            <Node pos="r" depth="3" NCoef="0" IVar="-1" Cut="0.0000000000000000e+00" cType="1" res="-1.0996996425092220e-02" rms="1.0537937283515930e-01" purity="1.4709465205669403e-02" nType="-99"/>
          </Node>
        </Node>
        <Node pos="r" depth="1" NCoef="0" IVar="12" Cut="3.4113523960113525e+00" cType="1" res="-5.3128076251596212e-04" rms="3.3089667558670044e-01" purity="5.0911593437194824e-01" nType="0">
          <Node pos="l" depth="2" NCoef="0" IVar="7" Cut="1.1230007031250000e+05" cType="1" res="-1.3265338493511081e-03" rms="3.3138164877891541e-01" purity="5.1235181093215942e-01" nType="0">
            <Node pos="l" depth="3" NCoef="0" IVar="21" Cut="6.9518929687500000e+04" cType="1" res="-3.0012603383511305e-03" rms="3.4106233716011047e-01" purity="5.2436870336532593e-01" nType="0">
              <Node pos="l" depth="4" NCoef="0" IVar="-1" Cut="0.0000000000000000e+00" cType="1" res="1.2406400637701154e-03" rms="3.5307464003562927e-01" purity="6.1381721496582031e-01" nType="-99"/>
              <Node pos="r" depth="4" NCoef="0" IVar="-1" Cut="0.0000000000000000e+00" cType="1" res="-2.0917903631925583e-02" rms="2.9343318939208984e-01" purity="2.0397357642650604e-01" nType="-99"/>
            </Node>
            <Node pos="r" depth="3" NCoef="0" IVar="3" Cut="2.6587050000000000e+05" cType="1" res="6.9095361977815628e-03" rms="2.7877989411354065e-01" purity="4.5325443148612976e-01" nType="0">
              <Node pos="l" depth="4" NCoef="0" IVar="-1" Cut="0.0000000000000000e+00" cType="1" res="1.1927591636776924e-02" rms="3.1519573926925659e-01" purity="5.5729246139526367e-01" nType="-99"/>
              <Node pos="r" depth="4" NCoef="0" IVar="-1" Cut="0.0000000000000000e+00" cType="1" res="-6.2112924642860889e-03" rms="1.9452752172946930e-01" purity="2.6209315657615662e-01" nType="-99"/>
            </Node>
          </Node>
          <Node pos="r" depth="2" NCoef="0" IVar="10" Cut="1.1316429687500000e+05" cType="1" res="8.6462656036019325e-03" rms="3.2510700821876526e-01" purity="4.7177228331565857e-01" nType="0">
            <Node pos="l" depth="3" NCoef="0" IVar="-1" Cut="0.0000000000000000e+00" cType="1" res="2.0439695566892624e-02" rms="3.3519455790519714e-01" purity="4.6867445111274719e-01" nType="-99"/>
            <Node pos="r" depth="3" NCoef="0" IVar="13" Cut="3.6144852638244629e+00" cType="1" res="1.1060066753998399e-03" rms="3.1936284899711609e-01" purity="4.7341781854629517e-01" nType="0">
              <Node pos="l" depth="4" NCoef="0" IVar="-1" Cut="0.0000000000000000e+00" cType="1" res="-8.0840038135647774e-03" rms="3.1084212660789490e-01" purity="4.5030620694160461e-01" nType="-99"/>
              <Node pos="r" depth="4" NCoef="0" IVar="-1" Cut="0.0000000000000000e+00" cType="1" res="1.4970244839787483e-02" rms="3.3435198664665222e-01" purity="5.1753973960876465e-01" nType="-99"/>
            </Node>
          </Node>
        </Node>
      </Node>
    </BinaryTree>
    <BinaryTree type="DecisionTree" boostWeight="1.0000000000000000e+00" itree="142">
      <Node pos="s" depth="0" NCoef="0" IVar="5" Cut="4.3468087500000000e+05" cType="1" res="-1.2350843462627381e-05" rms="3.4172043204307556e-01" purity="5.0000000000000000e-01" nType="0">
        <Node pos="l" depth="1" NCoef="0" IVar="5" Cut="6.4017382812500000e+04" cType="1" res="-2.0316180598456413e-04" rms="3.4413772821426392e-01" purity="5.1539814472198486e-01" nType="0">
          <Node pos="l" depth="2" NCoef="0" IVar="14" Cut="2.3136525154113770e+00" cType="1" res="1.9030156545341015e-03" rms="3.5452762246131897e-01" purity="4.9863106012344360e-01" nType="0">
            <Node pos="l" depth="3" NCoef="0" IVar="1" Cut="3.5264605468750000e+04" cType="1" res="5.4841013625264168e-03" rms="3.5490792989730835e-01" purity="4.9286085367202759e-01" nType="0">
              <Node pos="l" depth="4" NCoef="0" IVar="-1" Cut="0.0000000000000000e+00" cType="1" res="-6.1093554832041264e-03" rms="3.3887881040573120e-01" purity="2.8449749946594238e-01" nType="-99"/>
              <Node pos="r" depth="4" NCoef="0" IVar="-1" Cut="0.0000000000000000e+00" cType="1" res="9.1765597462654114e-03" rms="3.6331844329833984e-01" purity="6.0872721672058105e-01" nType="-99"/>
            </Node>
            <Node pos="r" depth="3" NCoef="0" IVar="2" Cut="1.9332356250000000e+05" cType="1" res="-9.5591703429818153e-03" rms="3.5306340456008911e-01" purity="5.1710015535354614e-01" nType="0">
              <Node pos="l" depth="4" NCoef="0" IVar="-1" Cut="0.0000000000000000e+00" cType="1" res="-2.6134693995118141e-02" rms="3.8064640760421753e-01" purity="4.0810072422027588e-01" nType="-99"/>
              <Node pos="r" depth="4" NCoef="0" IVar="-1" Cut="0.0000000000000000e+00" cType="1" res="-1.4758250908926129e-03" rms="3.4559851884841919e-01" purity="5.4353421926498413e-01" nType="-99"/>
            </Node>
          </Node>
          <Node pos="r" depth="2" NCoef="0" IVar="14" Cut="1.2363098859786987e+00" cType="1" res="-1.0290252976119518e-03" rms="3.3997350931167603e-01" purity="5.2197277545928955e-01" nType="0">
            <Node pos="l" depth="3" NCoef="0" IVar="1" Cut="4.6727398437500000e+04" cType="1" res="-6.1089447699487209e-03" rms="3.6191835999488831e-01" purity="4.4557911157608032e-01" nType="0">
              <Node pos="l" depth="4" NCoef="0" IVar="-1" Cut="0.0000000000000000e+00" cType="1" res="7.0889578200876713e-03" rms="3.5060778260231018e-01" purity="3.3586487174034119e-01" nType="-99"/>
              <Node pos="r" depth="4" NCoef="0" IVar="-1" Cut="0.0000000000000000e+00" cType="1" res="-1.1571827344596386e-02" rms="3.6883842945098877e-01" purity="5.1763880252838135e-01" nType="-99"/>
            </Node>
            <Node pos="r" depth="3" NCoef="0" IVar="13" Cut="2.6582405567169189e+00" cType="1" res="3.3410565811209381e-04" rms="3.3382633328437805e-01" purity="5.4247200489044189e-01" nType="0">
              <Node pos="l" depth="4" NCoef="0" IVar="-1" Cut="0.0000000000000000e+00" cType="1" res="-1.9925420638173819e-03" rms="3.4053909778594971e-01" purity="4.3139448761940002e-01" nType="-99"/>
              <Node pos="r" depth="4" NCoef="0" IVar="-1" Cut="0.0000000000000000e+00" cType="1" res="3.2632134389132261e-03" rms="3.2565614581108093e-01" purity="6.7418795824050903e-01" nType="-99"/>
            </Node>
          </Node>
        </Node>
        <Node pos="r" depth="1" NCoef="0" IVar="16" Cut="9.6491640806198120e-01" cType="1" res="3.6066712345927954e-03" rms="2.9208514094352722e-01" purity="2.0795036852359772e-01" nType="0">
          <Node pos="l" depth="2" NCoef="0" IVar="-1" Cut="0.0000000000000000e+00" cType="1" res="-1.0363985784351826e-02" rms="3.0771702527999878e-01" purity="3.7781506776809692e-01" nType="-99"/>
          <Node pos="r" depth="2" NCoef="0" IVar="11" Cut="6.8517512083053589e-01" cType="1" res="7.7951769344508648e-03" rms="2.8740811347961426e-01" purity="1.6029886901378632e-01" nType="0">
            <Node pos="l" depth="3" NCoef="0" IVar="-1" Cut="0.0000000000000000e+00" cType="1" res="-5.5253482423722744e-03" rms="3.1167587637901306e-01" purity="1.9755247235298157e-01" nType="-99"/>
            <Node pos="r" depth="3" NCoef="0" IVar="0" Cut="6.3333334922790527e+00" cType="1" res="1.5060530044138432e-02" rms="2.7302891016006470e-01" purity="1.4003315567970276e-01" nType="0">
              <Node pos="l" depth="4" NCoef="0" IVar="-1" Cut="0.0000000000000000e+00" cType="1" res="3.3323921263217926e-02" rms="3.1097117066383362e-01" purity="1.9814494252204895e-01" nType="-99"/>
              <Node pos="r" depth="4" NCoef="0" IVar="-1" Cut="0.0000000000000000e+00" cType="1" res="-5.7196319103240967e-03" rms="2.1529270708560944e-01" purity="6.7646481096744537e-02" nType="-99"/>
            </Node>
          </Node>
        </Node>
      </Node>
    </BinaryTree>
    <BinaryTree type="DecisionTree" boostWeight="1.0000000000000000e+00" itree="143">
      <Node pos="s" depth="0" NCoef="0" IVar="5" Cut="2.2984054687500000e+05" cType="1" res="-1.0187478437728714e-05" rms="3.4165069460868835e-01" purity="5.0000000000000000e-01" nType="0">
        <Node pos="l" depth="1" NCoef="0" IVar="2" Cut="6.9643325000000000e+05" cType="1" res="-3.9498918340541422e-04" rms="3.4561467170715332e-01" purity="5.3397262096405029e-01" nType="0">
          <Node pos="l" depth="2" NCoef="0" IVar="6" Cut="1.2115983593750000e+05" cType="1" res="-9.0192141942679882e-04" rms="3.4818819165229797e-01" purity="5.4566192626953125e-01" nType="0">
            <Node pos="l" depth="3" NCoef="0" IVar="1" Cut="8.8262875000000000e+04" cType="1" res="-7.0412964560091496e-03" rms="3.8785409927368164e-01" purity="4.6444487571716309e-01" nType="0">
              <Node pos="l" depth="4" NCoef="0" IVar="-1" Cut="0.0000000000000000e+00" cType="1" res="-7.4163866229355335e-03" rms="3.8885968923568726e-01" purity="4.0910822153091431e-01" nType="-99"/>
              <Node pos="r" depth="4" NCoef="0" IVar="-1" Cut="0.0000000000000000e+00" cType="1" res="1.0343728587031364e-02" rms="3.8190957903862000e-01" purity="7.4167329072952271e-01" nType="-99"/>
            </Node>
            <Node pos="r" depth="3" NCoef="0" IVar="2" Cut="3.3722109375000000e+05" cType="1" res="1.5473623061552644e-03" rms="3.3100819587707520e-01" purity="5.7806318998336792e-01" nType="0">
              <Node pos="l" depth="4" NCoef="0" IVar="-1" Cut="0.0000000000000000e+00" cType="1" res="5.5199437774717808e-03" rms="3.4402179718017578e-01" purity="6.4864587783813477e-01" nType="-99"/>
              <Node pos="r" depth="4" NCoef="0" IVar="-1" Cut="0.0000000000000000e+00" cType="1" res="-2.7539415750652552e-03" rms="3.1964018940925598e-01" purity="5.1898211240768433e-01" nType="-99"/>
            </Node>
          </Node>
          <Node pos="r" depth="2" NCoef="0" IVar="18" Cut="1.0887779687500000e+05" cType="1" res="8.4950774908065796e-03" rms="2.9673743247985840e-01" purity="3.2897764444351196e-01" nType="0">
            <Node pos="l" depth="3" NCoef="0" IVar="20" Cut="7.5273390625000000e+04" cType="1" res="1.9741801545023918e-02" rms="3.0931925773620605e-01" purity="3.0679222941398621e-01" nType="0">
              <Node pos="l" depth="4" NCoef="0" IVar="-1" Cut="0.0000000000000000e+00" cType="1" res="2.4536054581403732e-02" rms="4.0239089727401733e-01" purity="5.5331212282180786e-01" nType="-99"/>
              <Node pos="r" depth="4" NCoef="0" IVar="-1" Cut="0.0000000000000000e+00" cType="1" res="-1.2136083096265793e-02" rms="1.3738214969635010e-01" purity="2.4451863020658493e-02" nType="-99"/>
            </Node>
            <Node pos="r" depth="3" NCoef="0" IVar="12" Cut="2.9428968429565430e+00" cType="1" res="-2.7100755833089352e-03" rms="2.8320387005805969e-01" purity="3.5108113288879395e-01" nType="0">
              <Node pos="l" depth="4" NCoef="0" IVar="-1" Cut="0.0000000000000000e+00" cType="1" res="-9.1915763914585114e-03" rms="2.9332536458969116e-01" purity="3.5308408737182617e-01" nType="-99"/>
              <Node pos="r" depth="4" NCoef="0" IVar="-1" Cut="0.0000000000000000e+00" cType="1" res="5.3074592724442482e-03" rms="2.7176618576049805e-01" purity="3.4893494844436646e-01" nType="-99"/>
            </Node>
          </Node>
        </Node>
        <Node pos="r" depth="1" NCoef="0" IVar="2" Cut="4.5967728125000000e+05" cType="1" res="1.5935287810862064e-03" rms="3.2460457086563110e-01" purity="3.5841417312622070e-01" nType="0">
          <Node pos="l" depth="2" NCoef="0" IVar="1" Cut="6.2834464843750000e+04" cType="1" res="1.2665867805480957e-02" rms="3.8636618852615356e-01" purity="6.2796384096145630e-01" nType="0">
            <Node pos="l" depth="3" NCoef="0" IVar="-1" Cut="0.0000000000000000e+00" cType="1" res="2.4177698418498039e-02" rms="3.9968788623809814e-01" purity="5.6276333332061768e-01" nType="-99"/>
            <Node pos="r" depth="3" NCoef="0" IVar="-1" Cut="0.0000000000000000e+00" cType="1" res="-1.5374615322798491e-03" rms="3.7711581587791443e-01" purity="6.6831988096237183e-01" nType="-99"/>
          </Node>
          <Node pos="r" depth="2" NCoef="0" IVar="13" Cut="3.2911906242370605e+00" cType="1" res="-5.8577099116519094e-04" rms="3.1096073985099792e-01" purity="3.0536034703254700e-01" nType="0">
            <Node pos="l" depth="3" NCoef="0" IVar="19" Cut="1.4166829687500000e+05" cType="1" res="7.6376984361559153e-04" rms="3.1248986721038818e-01" purity="3.0450332164764404e-01" nType="0">
              <Node pos="l" depth="4" NCoef="0" IVar="-1" Cut="0.0000000000000000e+00" cType="1" res="-4.0179574862122536e-03" rms="3.2209792733192444e-01" purity="4.0825176239013672e-01" nType="-99"/>
              <Node pos="r" depth="4" NCoef="0" IVar="-1" Cut="0.0000000000000000e+00" cType="1" res="7.6198792085051537e-03" rms="3.0056065320968628e-01" purity="1.8124462664127350e-01" nType="-99"/>
            </Node>
            <Node pos="r" depth="3" NCoef="0" IVar="-1" Cut="0.0000000000000000e+00" cType="1" res="-1.7566205933690071e-02" rms="2.9030072689056396e-01" purity="3.1624251604080200e-01" nType="-99"/>
          </Node>
        </Node>
      </Node>
    </BinaryTree>
    <BinaryTree type="DecisionTree" boostWeight="1.0000000000000000e+00" itree="144">
      <Node pos="s" depth="0" NCoef="0" IVar="15" Cut="2.2873806953430176e+00" cType="1" res="-7.9175333667080849e-06" rms="3.4158957004547119e-01" purity="5.0000000000000000e-01" nType="0">
        <Node pos="l" depth="1" NCoef="0" IVar="2" Cut="1.3531616250000000e+06" cType="1" res="-5.2846234757453203e-04" rms="3.5196647047996521e-01" purity="4.8790642619132996e-01" nType="0">
          <Node pos="l" depth="2" NCoef="0" IVar="3" Cut="7.6169789062500000e+04" cType="1" res="-2.9888231074437499e-04" rms="3.5396257042884827e-01" purity="4.9520066380500793e-01" nType="0">
            <Node pos="l" depth="3" NCoef="0" IVar="2" Cut="2.2726832812500000e+05" cType="1" res="1.0653644800186157e-02" rms="3.9726328849792480e-01" purity="4.0427747368812561e-01" nType="0">
              <Node pos="l" depth="4" NCoef="0" IVar="-1" Cut="0.0000000000000000e+00" cType="1" res="1.6852213069796562e-02" rms="3.9828932285308838e-01" purity="4.3552988767623901e-01" nType="-99"/>
              <Node pos="r" depth="4" NCoef="0" IVar="-1" Cut="0.0000000000000000e+00" cType="1" res="-6.2213833443820477e-03" rms="3.9498892426490784e-01" purity="3.6576133966445923e-01" nType="-99"/>
            </Node>
            <Node pos="r" depth="3" NCoef="0" IVar="2" Cut="1.5276096875000000e+05" cType="1" res="-1.4204940525814891e-03" rms="3.4920597076416016e-01" purity="5.0451177358627319e-01" nType="0">
              <Node pos="l" depth="4" NCoef="0" IVar="-1" Cut="0.0000000000000000e+00" cType="1" res="-2.3240000009536743e-02" rms="3.5366630554199219e-01" purity="3.6588263511657715e-01" nType="-99"/>
              <Node pos="r" depth="4" NCoef="0" IVar="-1" Cut="0.0000000000000000e+00" cType="1" res="-5.8383308351039886e-04" rms="3.4908047318458557e-01" purity="5.0734049081802368e-01" nType="-99"/>
            </Node>
          </Node>
          <Node pos="r" depth="2" NCoef="0" IVar="-1" Cut="0.0000000000000000e+00" cType="1" res="-2.7033179998397827e-02" rms="2.0634762942790985e-01" purity="6.7966900765895844e-02" nType="-99"/>
        </Node>
        <Node pos="r" depth="1" NCoef="0" IVar="14" Cut="2.0570728778839111e+00" cType="1" res="9.9177507217973471e-04" rms="3.2071843743324280e-01" purity="5.2322542667388916e-01" nType="0">
          <Node pos="l" depth="2" NCoef="0" IVar="11" Cut="1.9188327789306641e+00" cType="1" res="6.6758454777300358e-03" rms="3.2396170496940613e-01" purity="3.6848676204681396e-01" nType="0">
            <Node pos="l" depth="3" NCoef="0" IVar="13" Cut="2.6960949897766113e+00" cType="1" res="1.4452786184847355e-02" rms="3.5181266069412231e-01" purity="4.8826012015342712e-01" nType="0">
              <Node pos="l" depth="4" NCoef="0" IVar="-1" Cut="0.0000000000000000e+00" cType="1" res="2.0435985177755356e-02" rms="3.5478574037551880e-01" purity="3.9842492341995239e-01" nType="-99"/>
              <Node pos="r" depth="4" NCoef="0" IVar="-1" Cut="0.0000000000000000e+00" cType="1" res="-1.5018380945548415e-03" rms="3.4675747156143188e-01" purity="6.2002152204513550e-01" nType="-99"/>
            </Node>
            <Node pos="r" depth="3" NCoef="0" IVar="14" Cut="1.3728460073471069e+00" cType="1" res="-8.7776547297835350e-03" rms="2.5921657681465149e-01" purity="1.3048619031906128e-01" nType="0">
              <Node pos="l" depth="4" NCoef="0" IVar="-1" Cut="0.0000000000000000e+00" cType="1" res="-2.7939697727560997e-02" rms="2.3821154236793518e-01" purity="1.0521813482046127e-01" nType="-99"/>
              <Node pos="r" depth="4" NCoef="0" IVar="-1" Cut="0.0000000000000000e+00" cType="1" res="6.9995662197470665e-03" rms="2.8459247946739197e-01" purity="1.6475245356559753e-01" nType="-99"/>
            </Node>
          </Node>
          <Node pos="r" depth="2" NCoef="0" IVar="9" Cut="9.7749937500000000e+04" cType="1" res="-1.3093106681481004e-03" rms="3.1936731934547424e-01" purity="5.8586829900741577e-01" nType="0">
            <Node pos="l" depth="3" NCoef="0" IVar="17" Cut="6.8832953125000000e+04" cType="1" res="-7.7111832797527313e-03" rms="3.5067263245582581e-01" purity="5.3688007593154907e-01" nType="0">
              <Node pos="l" depth="4" NCoef="0" IVar="-1" Cut="0.0000000000000000e+00" cType="1" res="-1.4091942459344864e-02" rms="3.5701462626457214e-01" purity="5.3087878227233887e-01" nType="-99"/>
              <Node pos="r" depth="4" NCoef="0" IVar="-1" Cut="0.0000000000000000e+00" cType="1" res="-1.2421557912603021e-03" rms="3.4725049138069153e-01" purity="5.3992509841918945e-01" nType="-99"/>
            </Node>
            <Node pos="r" depth="3" NCoef="0" IVar="4" Cut="3.0669075000000000e+05" cType="1" res="3.4542083740234375e-03" rms="2.9382747411727905e-01" purity="6.2231957912445068e-01" nType="0">
              <Node pos="l" depth="4" NCoef="0" IVar="-1" Cut="0.0000000000000000e+00" cType="1" res="1.1982169002294540e-02" rms="3.2782229781150818e-01" purity="7.0712733268737793e-01" nType="-99"/>
              <Node pos="r" depth="4" NCoef="0" IVar="-1" Cut="0.0000000000000000e+00" cType="1" res="-1.9753435626626015e-03" rms="2.7459910511970520e-01" purity="5.7875949144363403e-01" nType="-99"/>
            </Node>
          </Node>
        </Node>
      </Node>
    </BinaryTree>
    <BinaryTree type="DecisionTree" boostWeight="1.0000000000000000e+00" itree="145">
      <Node pos="s" depth="0" NCoef="0" IVar="5" Cut="2.2984054687500000e+05" cType="1" res="-7.9433357313973829e-06" rms="3.4152165055274963e-01" purity="5.0000000000000000e-01" nType="0">
        <Node pos="l" depth="1" NCoef="0" IVar="2" Cut="6.9643325000000000e+05" cType="1" res="-3.8757690344937146e-04" rms="3.4548151493072510e-01" purity="5.3397262096405029e-01" nType="0">
          <Node pos="l" depth="2" NCoef="0" IVar="4" Cut="1.0974267968750000e+05" cType="1" res="-8.0438249278813601e-04" rms="3.4806609153747559e-01" purity="5.4566192626953125e-01" nType="0">
            <Node pos="l" depth="3" NCoef="0" IVar="-1" Cut="0.0000000000000000e+00" cType="1" res="-1.6777940094470978e-02" rms="3.6119171977043152e-01" purity="2.1885609626770020e-01" nType="-99"/>
            <Node pos="r" depth="3" NCoef="0" IVar="7" Cut="5.8017410156250000e+04" cType="1" res="-3.4732909989543259e-04" rms="3.4778121113777161e-01" purity="5.5225020647048950e-01" nType="0">
              <Node pos="l" depth="4" NCoef="0" IVar="-1" Cut="0.0000000000000000e+00" cType="1" res="2.4065275210887194e-03" rms="3.4724792838096619e-01" purity="7.0225751399993896e-01" nType="-99"/>
              <Node pos="r" depth="4" NCoef="0" IVar="-1" Cut="0.0000000000000000e+00" cType="1" res="-3.0088422354310751e-03" rms="3.4827613830566406e-01" purity="4.0342709422111511e-01" nType="-99"/>
            </Node>
          </Node>
          <Node pos="r" depth="2" NCoef="0" IVar="5" Cut="1.2253663281250000e+05" cType="1" res="6.9219390861690044e-03" rms="2.9642099142074585e-01" purity="3.2897764444351196e-01" nType="0">
            <Node pos="l" depth="3" NCoef="0" IVar="-1" Cut="0.0000000000000000e+00" cType="1" res="-1.0951405391097069e-02" rms="2.6958528161048889e-01" purity="2.4408359825611115e-01" nType="-99"/>
            <Node pos="r" depth="3" NCoef="0" IVar="18" Cut="1.0911134375000000e+05" cType="1" res="1.3788847252726555e-02" rms="3.0781790614128113e-01" purity="3.6829945445060730e-01" nType="0">
              <Node pos="l" depth="4" NCoef="0" IVar="-1" Cut="0.0000000000000000e+00" cType="1" res="2.6796355843544006e-02" rms="3.2777345180511475e-01" purity="3.5946136713027954e-01" nType="-99"/>
              <Node pos="r" depth="4" NCoef="0" IVar="-1" Cut="0.0000000000000000e+00" cType="1" res="1.9846777431666851e-03" rms="2.9214459657669067e-01" purity="3.7461531162261963e-01" nType="-99"/>
            </Node>
          </Node>
        </Node>
        <Node pos="r" depth="1" NCoef="0" IVar="11" Cut="6.9075554609298706e-01" cType="1" res="1.5742339892312884e-03" rms="3.2449364662170410e-01" purity="3.5841417312622070e-01" nType="0">
          <Node pos="l" depth="2" NCoef="0" IVar="10" Cut="2.1222523437500000e+05" cType="1" res="-4.7455690801143646e-03" rms="3.3594477176666260e-01" purity="4.8312690854072571e-01" nType="0">
            <Node pos="l" depth="3" NCoef="0" IVar="7" Cut="9.3194359375000000e+04" cType="1" res="-3.2633455703034997e-04" rms="3.4518063068389893e-01" purity="5.0024706125259399e-01" nType="0">
              <Node pos="l" depth="4" NCoef="0" IVar="-1" Cut="0.0000000000000000e+00" cType="1" res="-6.2784207984805107e-03" rms="3.5358417034149170e-01" purity="4.9002355337142944e-01" nType="-99"/>
              <Node pos="r" depth="4" NCoef="0" IVar="-1" Cut="0.0000000000000000e+00" cType="1" res="2.2696653380990028e-02" rms="3.1592875719070435e-01" purity="5.3252583742141724e-01" nType="-99"/>
            </Node>
            <Node pos="r" depth="3" NCoef="0" IVar="-1" Cut="0.0000000000000000e+00" cType="1" res="-2.4530695751309395e-02" rms="2.9062226414680481e-01" purity="4.0712729096412659e-01" nType="-99"/>
          </Node>
          <Node pos="r" depth="2" NCoef="0" IVar="16" Cut="7.7084559202194214e-01" cType="1" res="4.8966621980071068e-03" rms="3.1825807690620422e-01" purity="2.9285052418708801e-01" nType="0">
            <Node pos="l" depth="3" NCoef="0" IVar="-1" Cut="0.0000000000000000e+00" cType="1" res="-1.3252275995910168e-02" rms="3.2485017180442810e-01" purity="5.6218940019607544e-01" nType="-99"/>
            <Node pos="r" depth="3" NCoef="0" IVar="1" Cut="1.6731665625000000e+05" cType="1" res="8.3776181563735008e-03" rms="3.1692281365394592e-01" purity="2.4397861957550049e-01" nType="0">
              <Node pos="l" depth="4" NCoef="0" IVar="-1" Cut="0.0000000000000000e+00" cType="1" res="5.4757203906774521e-03" rms="3.1328633427619934e-01" purity="2.3525847494602203e-01" nType="-99"/>
              <Node pos="r" depth="4" NCoef="0" IVar="-1" Cut="0.0000000000000000e+00" cType="1" res="2.2439217194914818e-02" rms="3.3718940615653992e-01" purity="2.9572436213493347e-01" nType="-99"/>
            </Node>
          </Node>
        </Node>
      </Node>
    </BinaryTree>
    <BinaryTree type="DecisionTree" boostWeight="1.0000000000000000e+00" itree="146">
      <Node pos="s" depth="0" NCoef="0" IVar="16" Cut="2.7308914661407471e+00" cType="1" res="-6.8301696956041269e-06" rms="3.4146267175674438e-01" purity="5.0000000000000000e-01" nType="0">
        <Node pos="l" depth="1" NCoef="0" IVar="16" Cut="6.5748691558837891e-01" cType="1" res="2.1388879395090044e-04" rms="3.4121534228324890e-01" purity="5.2008587121963501e-01" nType="0">
          <Node pos="l" depth="2" NCoef="0" IVar="0" Cut="1.3333333730697632e+00" cType="1" res="4.3162861838936806e-03" rms="2.8741654753684998e-01" purity="7.6821470260620117e-01" nType="0">
            <Node pos="l" depth="3" NCoef="0" IVar="-1" Cut="0.0000000000000000e+00" cType="1" res="-1.1639749631285667e-02" rms="3.1903037428855896e-01" purity="6.5912818908691406e-01" nType="-99"/>
            <Node pos="r" depth="3" NCoef="0" IVar="13" Cut="1.6536825895309448e+00" cType="1" res="6.2859570607542992e-03" rms="2.8340336680412292e-01" purity="7.8103929758071899e-01" nType="0">
              <Node pos="l" depth="4" NCoef="0" IVar="-1" Cut="0.0000000000000000e+00" cType="1" res="2.2262986749410629e-02" rms="3.6057648062705994e-01" purity="3.8798123598098755e-01" nType="-99"/>
              <Node pos="r" depth="4" NCoef="0" IVar="-1" Cut="0.0000000000000000e+00" cType="1" res="5.2831256762146950e-03" rms="2.7553644776344299e-01" purity="8.1543821096420288e-01" nType="-99"/>
            </Node>
          </Node>
          <Node pos="r" depth="2" NCoef="0" IVar="16" Cut="2.6321561336517334e+00" cType="1" res="-5.4243730846792459e-04" rms="3.5022750496864319e-01" purity="4.7434037923812866e-01" nType="0">
            <Node pos="l" depth="3" NCoef="0" IVar="16" Cut="7.5151914358139038e-01" cType="1" res="-8.0989953130483627e-04" rms="3.4983506798744202e-01" purity="4.7850430011749268e-01" nType="0">
              <Node pos="l" depth="4" NCoef="0" IVar="-1" Cut="0.0000000000000000e+00" cType="1" res="-6.9026518613100052e-03" rms="3.0496367812156677e-01" purity="7.3639476299285889e-01" nType="-99"/>
              <Node pos="r" depth="4" NCoef="0" IVar="-1" Cut="0.0000000000000000e+00" cType="1" res="-2.8238384402357042e-04" rms="3.5304734110832214e-01" purity="4.5866248011589050e-01" nType="-99"/>
            </Node>
            <Node pos="r" depth="3" NCoef="0" IVar="16" Cut="2.6791887283325195e+00" cType="1" res="9.2643601819872856e-03" rms="3.6418855190277100e-01" purity="3.2166633009910583e-01" nType="0">
              <Node pos="l" depth="4" NCoef="0" IVar="-1" Cut="0.0000000000000000e+00" cType="1" res="8.9067118242383003e-03" rms="3.6740526556968689e-01" purity="3.3090385794639587e-01" nType="-99"/>
              <Node pos="r" depth="4" NCoef="0" IVar="-1" Cut="0.0000000000000000e+00" cType="1" res="5.4435441270470619e-03" rms="3.6103060841560364e-01" purity="3.1271553039550781e-01" nType="-99"/>
            </Node>
          </Node>
        </Node>
        <Node pos="r" depth="1" NCoef="0" IVar="15" Cut="2.9547395706176758e+00" cType="1" res="-2.3908228613436222e-03" rms="3.4411361813545227e-01" purity="2.8305149078369141e-01" nType="0">
          <Node pos="l" depth="2" NCoef="0" IVar="13" Cut="3.2289083003997803e+00" cType="1" res="-5.1863300614058971e-03" rms="3.4740862250328064e-01" purity="2.9245868325233459e-01" nType="0">
            <Node pos="l" depth="3" NCoef="0" IVar="11" Cut="6.9918048381805420e-01" cType="1" res="-8.6059207096695900e-03" rms="3.4442645311355591e-01" purity="2.8385865688323975e-01" nType="0">
              <Node pos="l" depth="4" NCoef="0" IVar="-1" Cut="0.0000000000000000e+00" cType="1" res="3.2537688966840506e-03" rms="3.8265031576156616e-01" purity="4.0478309988975525e-01" nType="-99"/>
              <Node pos="r" depth="4" NCoef="0" IVar="-1" Cut="0.0000000000000000e+00" cType="1" res="-1.0855007916688919e-02" rms="3.3114761114120483e-01" purity="2.4515680968761444e-01" nType="-99"/>
            </Node>
            <Node pos="r" depth="3" NCoef="0" IVar="-1" Cut="0.0000000000000000e+00" cType="1" res="1.0057799518108368e-02" rms="3.6254778504371643e-01" purity="3.3894857764244080e-01" nType="-99"/>
          </Node>
          <Node pos="r" depth="2" NCoef="0" IVar="-1" Cut="0.0000000000000000e+00" cType="1" res="1.2076321989297867e-02" rms="3.2493773102760315e-01" purity="2.3124004900455475e-01" nType="-99"/>
        </Node>
      </Node>
    </BinaryTree>
    <BinaryTree type="DecisionTree" boostWeight="1.0000000000000000e+00" itree="147">
      <Node pos="s" depth="0" NCoef="0" IVar="19" Cut="2.8405653125000000e+05" cType="1" res="-5.4895390348974615e-06" rms="3.4144204854965210e-01" purity="5.0000000000000000e-01" nType="0">
        <Node pos="l" depth="1" NCoef="0" IVar="16" Cut="2.8088903427124023e+00" cType="1" res="1.3266310270410031e-04" rms="3.4336218237876892e-01" purity="5.1193803548812866e-01" nType="0">
          <Node pos="l" depth="2" NCoef="0" IVar="16" Cut="2.6755735874176025e+00" cType="1" res="-2.5945267407223582e-04" rms="3.4257528185844421e-01" purity="5.2419340610504150e-01" nType="0">
            <Node pos="l" depth="3" NCoef="0" IVar="2" Cut="1.3531616250000000e+06" cType="1" res="1.0229897452518344e-04" rms="3.4219112992286682e-01" purity="5.2975416183471680e-01" nType="0">
              <Node pos="l" depth="4" NCoef="0" IVar="-1" Cut="0.0000000000000000e+00" cType="1" res="2.6393876760266721e-04" rms="3.4345000982284546e-01" purity="5.3512430191040039e-01" nType="-99"/>
              <Node pos="r" depth="4" NCoef="0" IVar="-1" Cut="0.0000000000000000e+00" cType="1" res="-3.1637769192457199e-02" rms="2.1890775859355927e-01" purity="1.0135893523693085e-01" nType="-99"/>
            </Node>
            <Node pos="r" depth="3" NCoef="0" IVar="11" Cut="1.1502754688262939e+00" cType="1" res="-1.5007942914962769e-02" rms="3.5757479071617126e-01" purity="2.9748386144638062e-01" nType="0">
              <Node pos="l" depth="4" NCoef="0" IVar="-1" Cut="0.0000000000000000e+00" cType="1" res="-2.0241631194949150e-02" rms="3.7789183855056763e-01" purity="3.7622168660163879e-01" nType="-99"/>
              <Node pos="r" depth="4" NCoef="0" IVar="-1" Cut="0.0000000000000000e+00" cType="1" res="-1.0632461635395885e-03" rms="3.3863672614097595e-01" purity="2.3018632829189301e-01" nType="-99"/>
            </Node>
          </Node>
          <Node pos="r" depth="2" NCoef="0" IVar="19" Cut="1.2131998437500000e+05" cType="1" res="6.5074856393039227e-03" rms="3.5585048794746399e-01" purity="3.1269609928131104e-01" nType="0">
            <Node pos="l" depth="3" NCoef="0" IVar="0" Cut="5.3333334922790527e+00" cType="1" res="-5.7307747192680836e-03" rms="3.4717792272567749e-01" purity="3.2758295536041260e-01" nType="0">
              <Node pos="l" depth="4" NCoef="0" IVar="-1" Cut="0.0000000000000000e+00" cType="1" res="1.1967234313488007e-02" rms="3.6118695139884949e-01" purity="4.3712913990020752e-01" nType="-99"/>
              <Node pos="r" depth="4" NCoef="0" IVar="-1" Cut="0.0000000000000000e+00" cType="1" res="-1.8651332706212997e-02" rms="3.3387538790702820e-01" purity="2.3578469455242157e-01" nType="-99"/>
            </Node>
            <Node pos="r" depth="3" NCoef="0" IVar="3" Cut="1.4708987500000000e+05" cType="1" res="1.7936605960130692e-02" rms="3.6339101195335388e-01" purity="2.9879349470138550e-01" nType="0">
              <Node pos="l" depth="4" NCoef="0" IVar="-1" Cut="0.0000000000000000e+00" cType="1" res="2.9417822137475014e-02" rms="3.9575543999671936e-01" purity="3.2381442189216614e-01" nType="-99"/>
              <Node pos="r" depth="4" NCoef="0" IVar="-1" Cut="0.0000000000000000e+00" cType="1" res="1.2203890364617109e-03" rms="3.3945831656455994e-01" purity="2.8236162662506104e-01" nType="-99"/>
            </Node>
          </Node>
        </Node>
        <Node pos="r" depth="1" NCoef="0" IVar="2" Cut="9.3301487500000000e+05" cType="1" res="-3.8371644914150238e-03" rms="2.8301677107810974e-01" purity="1.6889743506908417e-01" nType="0">
          <Node pos="l" depth="2" NCoef="0" IVar="-1" Cut="0.0000000000000000e+00" cType="1" res="-1.4011349529027939e-02" rms="3.2347154617309570e-01" purity="2.1769557893276215e-01" nType="-99"/>
          <Node pos="r" depth="2" NCoef="0" IVar="-1" Cut="0.0000000000000000e+00" cType="1" res="9.5553956925868988e-03" rms="2.4378067255020142e-01" purity="1.2822066247463226e-01" nType="-99"/>
        </Node>
      </Node>
    </BinaryTree>
    <BinaryTree type="DecisionTree" boostWeight="1.0000000000000000e+00" itree="148">
      <Node pos="s" depth="0" NCoef="0" IVar="5" Cut="4.3468087500000000e+05" cType="1" res="-6.2967451412987430e-06" rms="3.4140372276306152e-01" purity="5.0000000000000000e-01" nType="0">
        <Node pos="l" depth="1" NCoef="0" IVar="5" Cut="6.4017382812500000e+04" cType="1" res="-1.7719496099743992e-04" rms="3.4384146332740784e-01" purity="5.1539814472198486e-01" nType="0">
          <Node pos="l" depth="2" NCoef="0" IVar="17" Cut="3.9270320312500000e+04" cType="1" res="2.0003784447908401e-03" rms="3.5420742630958557e-01" purity="4.9863106012344360e-01" nType="0">
            <Node pos="l" depth="3" NCoef="0" IVar="17" Cut="1.2627935546875000e+04" cType="1" res="5.3977277129888535e-03" rms="3.5589891672134399e-01" purity="5.1050823926925659e-01" nType="0">
              <Node pos="l" depth="4" NCoef="0" IVar="-1" Cut="0.0000000000000000e+00" cType="1" res="6.9282655604183674e-03" rms="3.5328087210655212e-01" purity="5.2639210224151611e-01" nType="-99"/>
              <Node pos="r" depth="4" NCoef="0" IVar="-1" Cut="0.0000000000000000e+00" cType="1" res="-1.2715855613350868e-02" rms="3.7198156118392944e-01" purity="4.0460443496704102e-01" nType="-99"/>
            </Node>
            <Node pos="r" depth="3" NCoef="0" IVar="0" Cut="5.3333334922790527e+00" cType="1" res="-6.0818293131887913e-03" rms="3.5001808404922485e-01" purity="4.7037568688392639e-01" nType="0">
              <Node pos="l" depth="4" NCoef="0" IVar="-1" Cut="0.0000000000000000e+00" cType="1" res="7.6084635220468044e-03" rms="3.3974665403366089e-01" purity="5.8395659923553467e-01" nType="-99"/>
              <Node pos="r" depth="4" NCoef="0" IVar="-1" Cut="0.0000000000000000e+00" cType="1" res="-1.5259245410561562e-02" rms="3.5883927345275879e-01" purity="3.6349028348922729e-01" nType="-99"/>
            </Node>
          </Node>
          <Node pos="r" depth="2" NCoef="0" IVar="12" Cut="2.8926353454589844e+00" cType="1" res="-1.0310538345947862e-03" rms="3.3968669176101685e-01" purity="5.2197277545928955e-01" nType="0">
            <Node pos="l" depth="3" NCoef="0" IVar="2" Cut="2.3176785937500000e+05" cType="1" res="-2.9022521339356899e-03" rms="3.4970003366470337e-01" purity="4.9882873892784119e-01" nType="0">
              <Node pos="l" depth="4" NCoef="0" IVar="-1" Cut="0.0000000000000000e+00" cType="1" res="7.8630279749631882e-03" rms="3.7684863805770874e-01" purity="5.7738739252090454e-01" nType="-99"/>
              <Node pos="r" depth="4" NCoef="0" IVar="-1" Cut="0.0000000000000000e+00" cType="1" res="-3.6121169105172157e-03" rms="3.4668853878974915e-01" purity="4.9058315157890320e-01" nType="-99"/>
            </Node>
            <Node pos="r" depth="3" NCoef="0" IVar="5" Cut="8.1663523437500000e+04" cType="1" res="2.2687811870127916e-03" rms="3.2124212384223938e-01" purity="5.6278693675994873e-01" nType="0">
              <Node pos="l" depth="4" NCoef="0" IVar="-1" Cut="0.0000000000000000e+00" cType="1" res="-6.1235819011926651e-03" rms="3.2751476764678955e-01" purity="5.4065287113189697e-01" nType="-99"/>
              <Node pos="r" depth="4" NCoef="0" IVar="-1" Cut="0.0000000000000000e+00" cType="1" res="3.7002721801400185e-03" rms="3.2007050514221191e-01" purity="5.6677395105361938e-01" nType="-99"/>
            </Node>
          </Node>
        </Node>
        <Node pos="r" depth="1" NCoef="0" IVar="11" Cut="9.0663868188858032e-01" cType="1" res="3.2350495457649231e-03" rms="2.9131209850311279e-01" purity="2.0795036852359772e-01" nType="0">
          <Node pos="l" depth="2" NCoef="0" IVar="6" Cut="3.3476340625000000e+05" cType="1" res="1.0511728003621101e-02" rms="3.1582355499267578e-01" purity="2.7807313203811646e-01" nType="0">
            <Node pos="l" depth="3" NCoef="0" IVar="-1" Cut="0.0000000000000000e+00" cType="1" res="1.6780156642198563e-02" rms="3.7869429588317871e-01" purity="4.1321459412574768e-01" nType="-99"/>
            <Node pos="r" depth="3" NCoef="0" IVar="-1" Cut="0.0000000000000000e+00" cType="1" res="-1.4091428369283676e-02" rms="1.9803327322006226e-01" purity="9.2442028224468231e-02" nType="-99"/>
          </Node>
          <Node pos="r" depth="2" NCoef="0" IVar="16" Cut="1.6175405979156494e+00" cType="1" res="-4.9265939742326736e-03" rms="2.6085451245307922e-01" purity="1.2929953634738922e-01" nType="0">
            <Node pos="l" depth="3" NCoef="0" IVar="-1" Cut="0.0000000000000000e+00" cType="1" res="-1.9996102899312973e-02" rms="2.7187994122505188e-01" purity="1.5419058501720428e-01" nType="-99"/>
            <Node pos="r" depth="3" NCoef="0" IVar="-1" Cut="0.0000000000000000e+00" cType="1" res="8.0304527655243874e-03" rms="2.5022080540657043e-01" purity="1.0720162093639374e-01" nType="-99"/>
          </Node>
        </Node>
      </Node>
    </BinaryTree>
    <BinaryTree type="DecisionTree" boostWeight="1.0000000000000000e+00" itree="149">
      <Node pos="s" depth="0" NCoef="0" IVar="0" Cut="3.3333332538604736e+00" cType="1" res="-5.3123521865927614e-06" rms="3.4134826064109802e-01" purity="5.0000000000000000e-01" nType="0">
        <Node pos="l" depth="1" NCoef="0" IVar="20" Cut="6.1857671875000000e+04" cType="1" res="-1.1342088691890240e-03" rms="3.5417658090591431e-01" purity="4.7118261456489563e-01" nType="0">
          <Node pos="l" depth="2" NCoef="0" IVar="14" Cut="1.4948627948760986e+00" cType="1" res="-4.3672695755958557e-03" rms="3.8028573989868164e-01" purity="6.0037565231323242e-01" nType="0">
            <Node pos="l" depth="3" NCoef="0" IVar="20" Cut="1.8429828125000000e+04" cType="1" res="-1.3551436364650726e-02" rms="3.9300718903541565e-01" purity="5.5161839723587036e-01" nType="0">
              <Node pos="l" depth="4" NCoef="0" IVar="-1" Cut="0.0000000000000000e+00" cType="1" res="-2.8983602300286293e-02" rms="3.7962961196899414e-01" purity="4.0058174729347229e-01" nType="-99"/>
              <Node pos="r" depth="4" NCoef="0" IVar="-1" Cut="0.0000000000000000e+00" cType="1" res="-5.3210193291306496e-03" rms="3.9472490549087524e-01" purity="5.7419139146804810e-01" nType="-99"/>
            </Node>
            <Node pos="r" depth="3" NCoef="0" IVar="6" Cut="2.8671006250000000e+05" cType="1" res="3.0783162219449878e-04" rms="3.7355700135231018e-01" purity="6.2519496679306030e-01" nType="0">
              <Node pos="l" depth="4" NCoef="0" IVar="-1" Cut="0.0000000000000000e+00" cType="1" res="1.6690609045326710e-03" rms="3.7740489840507507e-01" purity="6.2469226121902466e-01" nType="-99"/>
              <Node pos="r" depth="4" NCoef="0" IVar="-1" Cut="0.0000000000000000e+00" cType="1" res="-2.0823087543249130e-02" rms="3.2793521881103516e-01" purity="6.3065540790557861e-01" nType="-99"/>
            </Node>
          </Node>
          <Node pos="r" depth="2" NCoef="0" IVar="8" Cut="1.1971788281250000e+05" cType="1" res="5.9600123204290867e-03" rms="2.8859993815422058e-01" purity="1.8769772350788116e-01" nType="0">
            <Node pos="l" depth="3" NCoef="0" IVar="8" Cut="7.8387367187500000e+04" cType="1" res="1.0157268494367599e-02" rms="3.3098784089088440e-01" purity="2.4913242459297180e-01" nType="0">
              <Node pos="l" depth="4" NCoef="0" IVar="-1" Cut="0.0000000000000000e+00" cType="1" res="1.4739373698830605e-02" rms="3.9834699034690857e-01" purity="4.0475142002105713e-01" nType="-99"/>
              <Node pos="r" depth="4" NCoef="0" IVar="-1" Cut="0.0000000000000000e+00" cType="1" res="-7.1118283085525036e-03" rms="2.3365728557109833e-01" purity="7.6294794678688049e-02" nType="-99"/>
            </Node>
            <Node pos="r" depth="3" NCoef="0" IVar="14" Cut="1.9123457670211792e+00" cType="1" res="-6.5459818579256535e-03" rms="6.9488808512687683e-02" purity="4.6490989625453949e-03" nType="0">
              <Node pos="l" depth="4" NCoef="0" IVar="-1" Cut="0.0000000000000000e+00" cType="1" res="-2.3910392075777054e-02" rms="9.0885393321514130e-02" purity="8.4054116159677505e-03" nType="-99"/>
              <Node pos="r" depth="4" NCoef="0" IVar="-1" Cut="0.0000000000000000e+00" cType="1" res="-1.0612775385379791e-01" rms="2.3138433694839478e-02" purity="0.0000000000000000e+00" nType="-99"/>
            </Node>
          </Node>
        </Node>
        <Node pos="r" depth="1" NCoef="0" IVar="16" Cut="3.2154717445373535e+00" cType="1" res="5.7195441331714392e-04" rms="3.3459696173667908e-01" purity="5.1473593711853027e-01" nType="0">
          <Node pos="l" depth="2" NCoef="0" IVar="19" Cut="2.7389971875000000e+05" cType="1" res="3.1727834721095860e-04" rms="3.3442035317420959e-01" purity="5.1923745870590210e-01" nType="0">
            <Node pos="l" depth="3" NCoef="0" IVar="5" Cut="1.6403573437500000e+05" cType="1" res="6.6024926491081715e-04" rms="3.3640468120574951e-01" purity="5.3067088127136230e-01" nType="0">
              <Node pos="l" depth="4" NCoef="0" IVar="-1" Cut="0.0000000000000000e+00" cType="1" res="1.6323346644639969e-03" rms="3.3931055665016174e-01" purity="5.5895417928695679e-01" nType="-99"/>
              <Node pos="r" depth="4" NCoef="0" IVar="-1" Cut="0.0000000000000000e+00" cType="1" res="-2.1456754766404629e-03" rms="3.2952201366424561e-01" purity="4.6484333276748657e-01" nType="-99"/>
            </Node>
            <Node pos="r" depth="3" NCoef="0" IVar="-1" Cut="0.0000000000000000e+00" cType="1" res="-1.3647072948515415e-02" rms="2.6253959536552429e-01" purity="1.5174618363380432e-01" nType="-99"/>
          </Node>
          <Node pos="r" depth="2" NCoef="0" IVar="-1" Cut="0.0000000000000000e+00" cType="1" res="1.1004227213561535e-02" rms="3.4302482008934021e-01" purity="2.9090699553489685e-01" nType="-99"/>
        </Node>
      </Node>
    </BinaryTree>
    <BinaryTree type="DecisionTree" boostWeight="1.0000000000000000e+00" itree="150">
      <Node pos="s" depth="0" NCoef="0" IVar="5" Cut="2.2984054687500000e+05" cType="1" res="-7.4739941737789195e-06" rms="3.4129658341407776e-01" purity="5.0000000000000000e-01" nType="0">
        <Node pos="l" depth="1" NCoef="0" IVar="12" Cut="1.6042649745941162e+00" cType="1" res="-4.7587224980816245e-04" rms="3.4529212117195129e-01" purity="5.3397262096405029e-01" nType="0">
          <Node pos="l" depth="2" NCoef="0" IVar="4" Cut="2.6971009375000000e+05" cType="1" res="-6.6636563278734684e-03" rms="3.7851935625076294e-01" purity="3.7019401788711548e-01" nType="0">
            <Node pos="l" depth="3" NCoef="0" IVar="5" Cut="8.7272695312500000e+04" cType="1" res="7.1813492104411125e-03" rms="3.9047273993492126e-01" purity="4.2658573389053345e-01" nType="0">
              <Node pos="l" depth="4" NCoef="0" IVar="-1" Cut="0.0000000000000000e+00" cType="1" res="1.4157133176922798e-02" rms="3.9864602684974670e-01" purity="4.7277319431304932e-01" nType="-99"/>
              <Node pos="r" depth="4" NCoef="0" IVar="-1" Cut="0.0000000000000000e+00" cType="1" res="-6.9471276365220547e-03" rms="3.7987339496612549e-01" purity="3.7244984507560730e-01" nType="-99"/>
            </Node>
            <Node pos="r" depth="3" NCoef="0" IVar="12" Cut="1.2915215492248535e+00" cType="1" res="-2.9762430116534233e-02" rms="3.5649359226226807e-01" purity="2.7611097693443298e-01" nType="0">
              <Node pos="l" depth="4" NCoef="0" IVar="-1" Cut="0.0000000000000000e+00" cType="1" res="-1.4051110483705997e-02" rms="3.5804629325866699e-01" purity="2.3973979055881500e-01" nType="-99"/>
              <Node pos="r" depth="4" NCoef="0" IVar="-1" Cut="0.0000000000000000e+00" cType="1" res="-2.9479658231139183e-02" rms="3.5455781221389771e-01" purity="3.1418088078498840e-01" nType="-99"/>
            </Node>
          </Node>
          <Node pos="r" depth="2" NCoef="0" IVar="11" Cut="5.2268707752227783e-01" cType="1" res="-2.1152514818822965e-05" rms="3.4271889925003052e-01" purity="5.4600822925567627e-01" nType="0">
            <Node pos="l" depth="3" NCoef="0" IVar="16" Cut="2.2458496093750000e+00" cType="1" res="5.8838790282607079e-03" rms="3.1203603744506836e-01" purity="8.0147957801818848e-01" nType="0">
              <Node pos="l" depth="4" NCoef="0" IVar="-1" Cut="0.0000000000000000e+00" cType="1" res="3.2174030784517527e-03" rms="2.9832428693771362e-01" purity="8.2904434204101562e-01" nType="-99"/>
              <Node pos="r" depth="4" NCoef="0" IVar="-1" Cut="0.0000000000000000e+00" cType="1" res="1.6777606680989265e-02" rms="4.0042212605476379e-01" purity="5.9239137172698975e-01" nType="-99"/>
            </Node>
            <Node pos="r" depth="3" NCoef="0" IVar="18" Cut="4.6476488281250000e+04" cType="1" res="-1.0892224963754416e-03" rms="3.4796914458274841e-01" purity="4.9979990720748901e-01" nType="0">
              <Node pos="l" depth="4" NCoef="0" IVar="-1" Cut="0.0000000000000000e+00" cType="1" res="-2.9017596971243620e-03" rms="3.5491302609443665e-01" purity="4.6994495391845703e-01" nType="-99"/>
              <Node pos="r" depth="4" NCoef="0" IVar="-1" Cut="0.0000000000000000e+00" cType="1" res="1.0020962217822671e-03" rms="3.4200572967529297e-01" purity="5.2489757537841797e-01" nType="-99"/>
            </Node>
          </Node>
        </Node>
        <Node pos="r" depth="1" NCoef="0" IVar="6" Cut="4.7207703125000000e+05" cType="1" res="1.9446429796516895e-03" rms="3.2410737872123718e-01" purity="3.5841417312622070e-01" nType="0">
          <Node pos="l" depth="2" NCoef="0" IVar="7" Cut="1.0587064062500000e+05" cType="1" res="3.0734953470528126e-03" rms="3.3353468775749207e-01" purity="3.8052809238433838e-01" nType="0">
            <Node pos="l" depth="3" NCoef="0" IVar="7" Cut="2.5207111328125000e+04" cType="1" res="-8.9938432211056352e-04" rms="3.5093584656715393e-01" purity="4.0806451439857483e-01" nType="0">
              <Node pos="l" depth="4" NCoef="0" IVar="-1" Cut="0.0000000000000000e+00" cType="1" res="-1.1923859827220440e-02" rms="3.5498341917991638e-01" purity="6.1247783899307251e-01" nType="-99"/>
              <Node pos="r" depth="4" NCoef="0" IVar="-1" Cut="0.0000000000000000e+00" cType="1" res="3.0879902187734842e-03" rms="3.4940436482429504e-01" purity="3.3786562085151672e-01" nType="-99"/>
            </Node>
            <Node pos="r" depth="3" NCoef="0" IVar="20" Cut="9.0092562500000000e+04" cType="1" res="1.5775792300701141e-02" rms="2.7009710669517517e-01" purity="2.9248726367950439e-01" nType="0">
              <Node pos="l" depth="4" NCoef="0" IVar="-1" Cut="0.0000000000000000e+00" cType="1" res="2.2999990731477737e-02" rms="3.5639852285385132e-01" purity="5.2666705846786499e-01" nType="-99"/>
              <Node pos="r" depth="4" NCoef="0" IVar="-1" Cut="0.0000000000000000e+00" cType="1" res="-1.4450459741055965e-02" rms="8.1343516707420349e-02" purity="7.4418587610125542e-03" nType="-99"/>
            </Node>
          </Node>
          <Node pos="r" depth="2" NCoef="0" IVar="-1" Cut="0.0000000000000000e+00" cType="1" res="-4.7346331179141998e-02" rms="1.3620544970035553e-01" purity="5.0844032317399979e-02" nType="-99"/>
        </Node>
      </Node>
    </BinaryTree>
    <BinaryTree type="DecisionTree" boostWeight="1.0000000000000000e+00" itree="151">
      <Node pos="s" depth="0" NCoef="0" IVar="15" Cut="3.3024377822875977e+00" cType="1" res="-6.9821871875319630e-06" rms="3.4123951196670532e-01" purity="5.0000000000000000e-01" nType="0">
        <Node pos="l" depth="1" NCoef="0" IVar="15" Cut="2.6740388870239258e+00" cType="1" res="9.7832467872649431e-05" rms="3.4129229187965393e-01" purity="5.0177645683288574e-01" nType="0">
          <Node pos="l" depth="2" NCoef="0" IVar="10" Cut="1.1677993750000000e+05" cType="1" res="-4.6804151497781277e-04" rms="3.4560391306877136e-01" purity="4.9687743186950684e-01" nType="0">
            <Node pos="l" depth="3" NCoef="0" IVar="6" Cut="2.5928543750000000e+05" cType="1" res="-1.8514909315854311e-03" rms="3.5959258675575256e-01" purity="4.7621700167655945e-01" nType="0">
              <Node pos="l" depth="4" NCoef="0" IVar="-1" Cut="0.0000000000000000e+00" cType="1" res="-7.7283743303269148e-04" rms="3.6520582437515259e-01" purity="4.9164599180221558e-01" nType="-99"/>
              <Node pos="r" depth="4" NCoef="0" IVar="-1" Cut="0.0000000000000000e+00" cType="1" res="-3.3338755369186401e-02" rms="2.2124765813350677e-01" purity="1.7242838442325592e-01" nType="-99"/>
            </Node>
            <Node pos="r" depth="3" NCoef="0" IVar="15" Cut="6.4858072996139526e-01" cType="1" res="1.4228546060621738e-03" rms="3.2550385594367981e-01" purity="5.2511614561080933e-01" nType="0">
              <Node pos="l" depth="4" NCoef="0" IVar="-1" Cut="0.0000000000000000e+00" cType="1" res="1.5637734904885292e-02" rms="3.5046234726905823e-01" purity="5.4411464929580688e-01" nType="-99"/>
              <Node pos="r" depth="4" NCoef="0" IVar="-1" Cut="0.0000000000000000e+00" cType="1" res="1.3007791494601406e-05" rms="3.2346478104591370e-01" purity="5.2365726232528687e-01" nType="-99"/>
            </Node>
          </Node>
          <Node pos="r" depth="2" NCoef="0" IVar="19" Cut="1.0114493750000000e+05" cType="1" res="3.0221040360629559e-03" rms="3.1806498765945435e-01" purity="5.2709329128265381e-01" nType="0">
            <Node pos="l" depth="3" NCoef="0" IVar="3" Cut="9.7838289062500000e+04" cType="1" res="6.0675102286040783e-03" rms="3.2083359360694885e-01" purity="6.3593459129333496e-01" nType="0">
              <Node pos="l" depth="4" NCoef="0" IVar="-1" Cut="0.0000000000000000e+00" cType="1" res="-6.1028823256492615e-03" rms="3.7502831220626831e-01" purity="3.4982585906982422e-01" nType="-99"/>
              <Node pos="r" depth="4" NCoef="0" IVar="-1" Cut="0.0000000000000000e+00" cType="1" res="8.0037582665681839e-03" rms="3.1254240870475769e-01" purity="6.7548829317092896e-01" nType="-99"/>
            </Node>
            <Node pos="r" depth="3" NCoef="0" IVar="16" Cut="2.4573137760162354e+00" cType="1" res="-5.8242459781467915e-03" rms="3.0971258878707886e-01" purity="2.1092915534973145e-01" nType="0">
              <Node pos="l" depth="4" NCoef="0" IVar="-1" Cut="0.0000000000000000e+00" cType="1" res="-1.9924800843000412e-02" rms="2.9865333437919617e-01" purity="2.1708494424819946e-01" nType="-99"/>
              <Node pos="r" depth="4" NCoef="0" IVar="-1" Cut="0.0000000000000000e+00" cType="1" res="8.6258947849273682e-03" rms="3.2008299231529236e-01" purity="2.0457424223423004e-01" nType="-99"/>
            </Node>
          </Node>
        </Node>
        <Node pos="r" depth="1" NCoef="0" IVar="-1" Cut="0.0000000000000000e+00" cType="1" res="-4.8377355560660362e-03" rms="3.3830648660659790e-01" purity="4.0335181355476379e-01" nType="-99"/>
      </Node>
    </BinaryTree>
    <BinaryTree type="DecisionTree" boostWeight="1.0000000000000000e+00" itree="152">
      <Node pos="s" depth="0" NCoef="0" IVar="5" Cut="2.2984054687500000e+05" cType="1" res="-6.0559145822480787e-06" rms="3.4120416641235352e-01" purity="5.0000000000000000e-01" nType="0">
        <Node pos="l" depth="1" NCoef="0" IVar="0" Cut="3.3333332538604736e+00" cType="1" res="-4.4112306204624474e-04" rms="3.4522131085395813e-01" purity="5.3397262096405029e-01" nType="0">
          <Node pos="l" depth="2" NCoef="0" IVar="8" Cut="6.5326148437500000e+04" cType="1" res="-2.6878418866544962e-03" rms="3.5923177003860474e-01" purity="5.0169676542282104e-01" nType="0">
            <Node pos="l" depth="3" NCoef="0" IVar="8" Cut="1.9169630859375000e+04" cType="1" res="-5.7206689380109310e-03" rms="3.7860235571861267e-01" purity="6.2441611289978027e-01" nType="0">
              <Node pos="l" depth="4" NCoef="0" IVar="-1" Cut="0.0000000000000000e+00" cType="1" res="-1.4563102275133133e-02" rms="3.7545019388198853e-01" purity="4.7414836287498474e-01" nType="-99"/>
              <Node pos="r" depth="4" NCoef="0" IVar="-1" Cut="0.0000000000000000e+00" cType="1" res="-1.9720194395631552e-03" rms="3.7905016541481018e-01" purity="6.4931118488311768e-01" nType="-99"/>
            </Node>
            <Node pos="r" depth="3" NCoef="0" IVar="15" Cut="1.4086121320724487e+00" cType="1" res="4.8160315491259098e-03" rms="3.0595123767852783e-01" purity="1.9806255400180817e-01" nType="0">
              <Node pos="l" depth="4" NCoef="0" IVar="-1" Cut="0.0000000000000000e+00" cType="1" res="2.0304726436734200e-02" rms="3.3267754316329956e-01" purity="2.2783683240413666e-01" nType="-99"/>
              <Node pos="r" depth="4" NCoef="0" IVar="-1" Cut="0.0000000000000000e+00" cType="1" res="-3.5738125443458557e-03" rms="2.9201087355613708e-01" purity="1.8387080729007721e-01" nType="-99"/>
            </Node>
          </Node>
          <Node pos="r" depth="2" NCoef="0" IVar="0" Cut="5.1428570747375488e+00" cType="1" res="6.8878917954862118e-04" rms="3.3795014023780823e-01" purity="5.5020469427108765e-01" nType="0">
            <Node pos="l" depth="3" NCoef="0" IVar="19" Cut="4.3432992187500000e+04" cType="1" res="6.0750446282327175e-03" rms="2.5526726245880127e-01" purity="8.9152443408966064e-01" nType="0">
              <Node pos="l" depth="4" NCoef="0" IVar="-1" Cut="0.0000000000000000e+00" cType="1" res="2.4292869493365288e-02" rms="2.3942555487155914e-01" purity="9.1328227519989014e-01" nType="-99"/>
              <Node pos="r" depth="4" NCoef="0" IVar="-1" Cut="0.0000000000000000e+00" cType="1" res="-2.6333283167332411e-03" rms="2.6687192916870117e-01" purity="8.7430709600448608e-01" nType="-99"/>
            </Node>
            <Node pos="r" depth="3" NCoef="0" IVar="18" Cut="5.4111507812500000e+04" cType="1" res="-9.7205460770055652e-04" rms="3.5961472988128662e-01" purity="4.4495925307273865e-01" nType="0">
              <Node pos="l" depth="4" NCoef="0" IVar="-1" Cut="0.0000000000000000e+00" cType="1" res="-3.6170850507915020e-03" rms="3.6598381400108337e-01" purity="4.1165906190872192e-01" nType="-99"/>
              <Node pos="r" depth="4" NCoef="0" IVar="-1" Cut="0.0000000000000000e+00" cType="1" res="2.3639232385903597e-03" rms="3.5322451591491699e-01" purity="4.7754514217376709e-01" nType="-99"/>
            </Node>
          </Node>
        </Node>
        <Node pos="r" depth="1" NCoef="0" IVar="2" Cut="4.5967728125000000e+05" cType="1" res="1.8071488011628389e-03" rms="3.2391983270645142e-01" purity="3.5841417312622070e-01" nType="0">
          <Node pos="l" depth="2" NCoef="0" IVar="4" Cut="4.2160037500000000e+05" cType="1" res="1.0214128531515598e-02" rms="3.8585311174392700e-01" purity="6.2796384096145630e-01" nType="0">
            <Node pos="l" depth="3" NCoef="0" IVar="-1" Cut="0.0000000000000000e+00" cType="1" res="-3.5079384688287973e-03" rms="3.9694193005561829e-01" purity="6.0106205940246582e-01" nType="-99"/>
            <Node pos="r" depth="3" NCoef="0" IVar="-1" Cut="0.0000000000000000e+00" cType="1" res="2.0427765324711800e-02" rms="3.7230953574180603e-01" purity="6.5796458721160889e-01" nType="-99"/>
          </Node>
          <Node pos="r" depth="2" NCoef="0" IVar="1" Cut="1.0869104687500000e+05" cType="1" res="1.5245516260620207e-04" rms="3.1025040149688721e-01" purity="3.0536034703254700e-01" nType="0">
            <Node pos="l" depth="3" NCoef="0" IVar="16" Cut="2.0140531063079834e+00" cType="1" res="-2.6837976183742285e-03" rms="2.9920554161071777e-01" purity="2.6858207583427429e-01" nType="0">
              <Node pos="l" depth="4" NCoef="0" IVar="-1" Cut="0.0000000000000000e+00" cType="1" res="-7.2378036566078663e-03" rms="3.0242514610290527e-01" purity="3.2705301046371460e-01" nType="-99"/>
              <Node pos="r" depth="4" NCoef="0" IVar="-1" Cut="0.0000000000000000e+00" cType="1" res="6.1184801161289215e-03" rms="2.9308760166168213e-01" purity="1.6227126121520996e-01" nType="-99"/>
            </Node>
            <Node pos="r" depth="3" NCoef="0" IVar="11" Cut="1.3729522228240967e+00" cType="1" res="6.1814677901566029e-03" rms="3.3243143558502197e-01" purity="3.8353973627090454e-01" nType="0">
              <Node pos="l" depth="4" NCoef="0" IVar="-1" Cut="0.0000000000000000e+00" cType="1" res="8.9701106771826744e-03" rms="3.5046350955963135e-01" purity="4.6195104718208313e-01" nType="-99"/>
              <Node pos="r" depth="4" NCoef="0" IVar="-1" Cut="0.0000000000000000e+00" cType="1" res="-1.2648614123463631e-02" rms="2.6803883910179138e-01" purity="1.3940249383449554e-01" nType="-99"/>
            </Node>
          </Node>
        </Node>
      </Node>
    </BinaryTree>
    <BinaryTree type="DecisionTree" boostWeight="1.0000000000000000e+00" itree="153">
      <Node pos="s" depth="0" NCoef="0" IVar="16" Cut="2.7308914661407471e+00" cType="1" res="-2.6822974632523255e-06" rms="3.4114077687263489e-01" purity="5.0000000000000000e-01" nType="0">
        <Node pos="l" depth="1" NCoef="0" IVar="16" Cut="2.6013019084930420e+00" cType="1" res="2.5563995586708188e-04" rms="3.4094178676605225e-01" purity="5.2008587121963501e-01" nType="0">
          <Node pos="l" depth="2" NCoef="0" IVar="10" Cut="1.1677993750000000e+05" cType="1" res="-3.5114138881908730e-05" rms="3.4015071392059326e-01" purity="5.2628415822982788e-01" nType="0">
            <Node pos="l" depth="3" NCoef="0" IVar="13" Cut="2.4209613800048828e+00" cType="1" res="-1.1513930512592196e-03" rms="3.5577759146690369e-01" purity="4.9888277053833008e-01" nType="0">
              <Node pos="l" depth="4" NCoef="0" IVar="-1" Cut="0.0000000000000000e+00" cType="1" res="1.5648537082597613e-03" rms="3.5184067487716675e-01" purity="3.7961858510971069e-01" nType="-99"/>
              <Node pos="r" depth="4" NCoef="0" IVar="-1" Cut="0.0000000000000000e+00" cType="1" res="-4.1217966936528683e-03" rms="3.6113041639328003e-01" purity="6.6459995508193970e-01" nType="-99"/>
            </Node>
            <Node pos="r" depth="3" NCoef="0" IVar="13" Cut="3.1986579895019531e+00" cType="1" res="1.4493904309347272e-03" rms="3.1817620992660522e-01" purity="5.6272441148757935e-01" nType="0">
              <Node pos="l" depth="4" NCoef="0" IVar="-1" Cut="0.0000000000000000e+00" cType="1" res="3.1653908081352711e-03" rms="3.1325662136077881e-01" purity="5.6808209419250488e-01" nType="-99"/>
              <Node pos="r" depth="4" NCoef="0" IVar="-1" Cut="0.0000000000000000e+00" cType="1" res="-4.2942054569721222e-03" rms="3.3513197302818298e-01" purity="5.4352557659149170e-01" nType="-99"/>
            </Node>
          </Node>
          <Node pos="r" depth="2" NCoef="0" IVar="15" Cut="1.8225576877593994e+00" cType="1" res="9.6512772142887115e-03" rms="3.6545976996421814e-01" purity="3.1979098916053772e-01" nType="0">
            <Node pos="l" depth="3" NCoef="0" IVar="-1" Cut="0.0000000000000000e+00" cType="1" res="1.4326772652566433e-02" rms="3.8887590169906616e-01" purity="4.1809812188148499e-01" nType="-99"/>
            <Node pos="r" depth="3" NCoef="0" IVar="-1" Cut="0.0000000000000000e+00" cType="1" res="-4.4467591214925051e-04" rms="3.4332880377769470e-01" purity="2.3371835052967072e-01" nType="-99"/>
          </Node>
        </Node>
        <Node pos="r" depth="1" NCoef="0" IVar="0" Cut="1.3333333730697632e+00" cType="1" res="-2.7928294148296118e-03" rms="3.4327054023742676e-01" purity="2.8305149078369141e-01" nType="0">
          <Node pos="l" depth="2" NCoef="0" IVar="-1" Cut="0.0000000000000000e+00" cType="1" res="1.0185335762798786e-02" rms="3.3204182982444763e-01" purity="2.2330172359943390e-01" nType="-99"/>
          <Node pos="r" depth="2" NCoef="0" IVar="0" Cut="3.1428570747375488e+00" cType="1" res="-4.9476451240479946e-03" rms="3.4487703442573547e-01" purity="2.9204204678535461e-01" nType="0">
            <Node pos="l" depth="3" NCoef="0" IVar="-1" Cut="0.0000000000000000e+00" cType="1" res="-1.3985821045935154e-02" rms="3.6584419012069702e-01" purity="2.8722420334815979e-01" nType="-99"/>
            <Node pos="r" depth="3" NCoef="0" IVar="0" Cut="6.0952382087707520e+00" cType="1" res="-2.4167684023268521e-04" rms="3.3774572610855103e-01" purity="2.9358637332916260e-01" nType="0">
              <Node pos="l" depth="4" NCoef="0" IVar="-1" Cut="0.0000000000000000e+00" cType="1" res="9.7756832838058472e-03" rms="3.5431894659996033e-01" purity="4.9316471815109253e-01" nType="-99"/>
              <Node pos="r" depth="4" NCoef="0" IVar="-1" Cut="0.0000000000000000e+00" cType="1" res="-5.7436181232333183e-03" rms="3.2912069559097290e-01" purity="1.9566601514816284e-01" nType="-99"/>
            </Node>
          </Node>
        </Node>
      </Node>
    </BinaryTree>
    <BinaryTree type="DecisionTree" boostWeight="1.0000000000000000e+00" itree="154">
      <Node pos="s" depth="0" NCoef="0" IVar="5" Cut="4.3468087500000000e+05" cType="1" res="-2.1535288396989927e-06" rms="3.4111443161964417e-01" purity="5.0000000000000000e-01" nType="0">
        <Node pos="l" depth="1" NCoef="0" IVar="14" Cut="3.0833916664123535e+00" cType="1" res="-1.6850713291205466e-04" rms="3.4356185793876648e-01" purity="5.1539814472198486e-01" nType="0">
          <Node pos="l" depth="2" NCoef="0" IVar="12" Cut="3.6918561458587646e+00" cType="1" res="1.1441441893111914e-04" rms="3.4415251016616821e-01" purity="5.1619863510131836e-01" nType="0">
            <Node pos="l" depth="3" NCoef="0" IVar="2" Cut="6.9643325000000000e+05" cType="1" res="4.1545910062268376e-04" rms="3.4505873918533325e-01" purity="5.2107834815979004e-01" nType="0">
              <Node pos="l" depth="4" NCoef="0" IVar="-1" Cut="0.0000000000000000e+00" cType="1" res="-7.8662364103365690e-05" rms="3.4979453682899475e-01" purity="5.4348945617675781e-01" nType="-99"/>
              <Node pos="r" depth="4" NCoef="0" IVar="-1" Cut="0.0000000000000000e+00" cType="1" res="6.0080261901021004e-03" rms="2.9359558224678040e-01" purity="2.9743531346321106e-01" nType="-99"/>
            </Node>
            <Node pos="r" depth="3" NCoef="0" IVar="3" Cut="2.5264600000000000e+05" cType="1" res="-8.6090788245201111e-03" rms="3.1664422154426575e-01" purity="3.7479576468467712e-01" nType="0">
              <Node pos="l" depth="4" NCoef="0" IVar="-1" Cut="0.0000000000000000e+00" cType="1" res="5.7104481384158134e-03" rms="3.6204686760902405e-01" purity="5.2408021688461304e-01" nType="-99"/>
              <Node pos="r" depth="4" NCoef="0" IVar="-1" Cut="0.0000000000000000e+00" cType="1" res="-2.4731634184718132e-02" rms="2.7516898512840271e-01" purity="2.5774243474006653e-01" nType="-99"/>
            </Node>
          </Node>
          <Node pos="r" depth="2" NCoef="0" IVar="3" Cut="2.0987165625000000e+05" cType="1" res="-6.1847795732319355e-03" rms="3.3069470524787903e-01" purity="4.9837711453437805e-01" nType="0">
            <Node pos="l" depth="3" NCoef="0" IVar="12" Cut="2.4285066127777100e+00" cType="1" res="-1.6769569367170334e-02" rms="3.5083961486816406e-01" purity="5.0248718261718750e-01" nType="0">
              <Node pos="l" depth="4" NCoef="0" IVar="-1" Cut="0.0000000000000000e+00" cType="1" res="-2.5184560567140579e-02" rms="3.5916543006896973e-01" purity="3.1954583525657654e-01" nType="-99"/>
              <Node pos="r" depth="4" NCoef="0" IVar="-1" Cut="0.0000000000000000e+00" cType="1" res="-3.3415218349546194e-03" rms="3.4439495205879211e-01" purity="6.2927478551864624e-01" nType="-99"/>
            </Node>
            <Node pos="r" depth="3" NCoef="0" IVar="-1" Cut="0.0000000000000000e+00" cType="1" res="1.1728445068001747e-02" rms="2.9630953073501587e-01" purity="4.9205392599105835e-01" nType="-99"/>
          </Node>
        </Node>
        <Node pos="r" depth="1" NCoef="0" IVar="12" Cut="1.7363753318786621e+00" cType="1" res="3.1529972329735756e-03" rms="2.9080304503440857e-01" purity="2.0795036852359772e-01" nType="0">
          <Node pos="l" depth="2" NCoef="0" IVar="-1" Cut="0.0000000000000000e+00" cType="1" res="1.7206536605954170e-02" rms="2.8013890981674194e-01" purity="1.4698441326618195e-01" nType="-99"/>
          <Node pos="r" depth="2" NCoef="0" IVar="5" Cut="6.2002112500000000e+05" cType="1" res="-1.5327351866289973e-03" rms="2.9518678784370422e-01" purity="2.3439915478229523e-01" nType="0">
            <Node pos="l" depth="3" NCoef="0" IVar="5" Cut="5.0528900000000000e+05" cType="1" res="4.0125991217792034e-03" rms="3.1426733732223511e-01" purity="2.8853195905685425e-01" nType="0">
              <Node pos="l" depth="4" NCoef="0" IVar="-1" Cut="0.0000000000000000e+00" cType="1" res="1.4442306943237782e-02" rms="3.2126680016517639e-01" purity="3.3183154463768005e-01" nType="-99"/>
              <Node pos="r" depth="4" NCoef="0" IVar="-1" Cut="0.0000000000000000e+00" cType="1" res="-1.0017517022788525e-02" rms="3.0508458614349365e-01" purity="2.3655810952186584e-01" nType="-99"/>
            </Node>
            <Node pos="r" depth="3" NCoef="0" IVar="-1" Cut="0.0000000000000000e+00" cType="1" res="-1.6083139926195145e-02" rms="2.5705572962760925e-01" purity="1.3709390163421631e-01" nType="-99"/>
          </Node>
        </Node>
      </Node>
    </BinaryTree>
    <BinaryTree type="DecisionTree" boostWeight="1.0000000000000000e+00" itree="155">
      <Node pos="s" depth="0" NCoef="0" IVar="3" Cut="4.4626618750000000e+05" cType="1" res="-2.7263356514595216e-06" rms="3.4107747673988342e-01" purity="5.0000000000000000e-01" nType="0">
        <Node pos="l" depth="1" NCoef="0" IVar="6" Cut="1.2778257812500000e+05" cType="1" res="-1.4855299377813935e-04" rms="3.4510129690170288e-01" purity="5.1428800821304321e-01" nType="0">
          <Node pos="l" depth="2" NCoef="0" IVar="21" Cut="5.6048562500000000e+04" cType="1" res="-4.8979860730469227e-03" rms="3.8875770568847656e-01" purity="4.7790190577507019e-01" nType="0">
            <Node pos="l" depth="3" NCoef="0" IVar="1" Cut="1.0244832812500000e+05" cType="1" res="-1.5296507626771927e-03" rms="3.8921397924423218e-01" purity="5.1940441131591797e-01" nType="0">
              <Node pos="l" depth="4" NCoef="0" IVar="-1" Cut="0.0000000000000000e+00" cType="1" res="-3.0709577258676291e-03" rms="3.9005634188652039e-01" purity="4.7992196679115295e-01" nType="-99"/>
              <Node pos="r" depth="4" NCoef="0" IVar="-1" Cut="0.0000000000000000e+00" cType="1" res="1.1329787783324718e-02" rms="3.8374787569046021e-01" purity="7.4742943048477173e-01" nType="-99"/>
            </Node>
            <Node pos="r" depth="3" NCoef="0" IVar="7" Cut="1.0409087500000000e+05" cType="1" res="-1.5860566869378090e-02" rms="3.8706609606742859e-01" purity="3.4282782673835754e-01" nType="0">
              <Node pos="l" depth="4" NCoef="0" IVar="-1" Cut="0.0000000000000000e+00" cType="1" res="-1.6291433945298195e-02" rms="3.8849136233329773e-01" purity="3.2011774182319641e-01" nType="-99"/>
              <Node pos="r" depth="4" NCoef="0" IVar="-1" Cut="0.0000000000000000e+00" cType="1" res="2.7284413576126099e-02" rms="3.7473767995834351e-01" purity="4.6578672528266907e-01" nType="-99"/>
            </Node>
          </Node>
          <Node pos="r" depth="2" NCoef="0" IVar="2" Cut="3.7974050000000000e+05" cType="1" res="1.8200315535068512e-03" rms="3.2527285814285278e-01" purity="5.2936971187591553e-01" nType="0">
            <Node pos="l" depth="3" NCoef="0" IVar="7" Cut="7.5674507812500000e+04" cType="1" res="6.7782327532768250e-03" rms="3.3663603663444519e-01" purity="6.4636343717575073e-01" nType="0">
              <Node pos="l" depth="4" NCoef="0" IVar="-1" Cut="0.0000000000000000e+00" cType="1" res="1.0640696622431278e-02" rms="3.3583018183708191e-01" purity="7.6079666614532471e-01" nType="-99"/>
              <Node pos="r" depth="4" NCoef="0" IVar="-1" Cut="0.0000000000000000e+00" cType="1" res="-2.3126848973333836e-03" rms="3.3770063519477844e-01" purity="4.6381992101669312e-01" nType="-99"/>
            </Node>
            <Node pos="r" depth="3" NCoef="0" IVar="15" Cut="1.2397446632385254e+00" cType="1" res="-2.0543423015624285e-03" rms="3.1605529785156250e-01" purity="4.3794989585876465e-01" nType="0">
              <Node pos="l" depth="4" NCoef="0" IVar="-1" Cut="0.0000000000000000e+00" cType="1" res="-1.0586813092231750e-02" rms="3.3967426419258118e-01" purity="3.6466276645660400e-01" nType="-99"/>
              <Node pos="r" depth="4" NCoef="0" IVar="-1" Cut="0.0000000000000000e+00" cType="1" res="2.1700623619835824e-04" rms="3.1053254008293152e-01" purity="4.5419007539749146e-01" nType="-99"/>
            </Node>
          </Node>
        </Node>
        <Node pos="r" depth="1" NCoef="0" IVar="15" Cut="1.2492897510528564e+00" cType="1" res="3.5704639740288258e-03" rms="2.2060489654541016e-01" purity="1.4990006387233734e-01" nType="0">
          <Node pos="l" depth="2" NCoef="0" IVar="-1" Cut="0.0000000000000000e+00" cType="1" res="3.4282345324754715e-02" rms="2.3981751501560211e-01" purity="1.6210032999515533e-01" nType="-99"/>
          <Node pos="r" depth="2" NCoef="0" IVar="14" Cut="2.0618226528167725e+00" cType="1" res="-1.7365413950756192e-03" rms="2.1320612728595734e-01" purity="1.4562295377254486e-01" nType="0">
            <Node pos="l" depth="3" NCoef="0" IVar="-1" Cut="0.0000000000000000e+00" cType="1" res="-1.9833538681268692e-02" rms="1.9006505608558655e-01" purity="9.8646439611911774e-02" nType="-99"/>
            <Node pos="r" depth="3" NCoef="0" IVar="-1" Cut="0.0000000000000000e+00" cType="1" res="8.0621354281902313e-03" rms="2.3364143073558807e-01" purity="1.9201517105102539e-01" nType="-99"/>
          </Node>
        </Node>
      </Node>
    </BinaryTree>
    <BinaryTree type="DecisionTree" boostWeight="1.0000000000000000e+00" itree="156">
      <Node pos="s" depth="0" NCoef="0" IVar="15" Cut="1.5260878801345825e+00" cType="1" res="-1.7345838614346576e-06" rms="3.4099540114402771e-01" purity="5.0000000000000000e-01" nType="0">
        <Node pos="l" depth="1" NCoef="0" IVar="1" Cut="1.6699770312500000e+05" cType="1" res="1.0006660595536232e-03" rms="3.6149460077285767e-01" purity="4.8203909397125244e-01" nType="0">
          <Node pos="l" depth="2" NCoef="0" IVar="8" Cut="6.9612359375000000e+04" cType="1" res="2.2737476974725723e-03" rms="3.6311191320419312e-01" purity="4.8457232117652893e-01" nType="0">
            <Node pos="l" depth="3" NCoef="0" IVar="9" Cut="7.0831164062500000e+04" cType="1" res="-1.3984026154503226e-03" rms="3.8507798314094543e-01" purity="5.9440743923187256e-01" nType="0">
              <Node pos="l" depth="4" NCoef="0" IVar="-1" Cut="0.0000000000000000e+00" cType="1" res="6.6981939598917961e-03" rms="3.9105805754661560e-01" purity="5.3610676527023315e-01" nType="-99"/>
              <Node pos="r" depth="4" NCoef="0" IVar="-1" Cut="0.0000000000000000e+00" cType="1" res="-5.4707177914679050e-03" rms="3.8155090808868408e-01" purity="6.2676668167114258e-01" nType="-99"/>
            </Node>
            <Node pos="r" depth="3" NCoef="0" IVar="20" Cut="8.7385609375000000e+04" cType="1" res="1.2681542895734310e-02" rms="2.9175916314125061e-01" purity="1.7327207326889038e-01" nType="0">
              <Node pos="l" depth="4" NCoef="0" IVar="-1" Cut="0.0000000000000000e+00" cType="1" res="2.0069165155291557e-02" rms="3.7467452883720398e-01" purity="2.9590278863906860e-01" nType="-99"/>
              <Node pos="r" depth="4" NCoef="0" IVar="-1" Cut="0.0000000000000000e+00" cType="1" res="-1.6764719039201736e-02" rms="1.3373991847038269e-01" purity="2.5140682235360146e-02" nType="-99"/>
            </Node>
          </Node>
          <Node pos="r" depth="2" NCoef="0" IVar="-1" Cut="0.0000000000000000e+00" cType="1" res="-1.9408252090215683e-02" rms="3.2914346456527710e-01" purity="4.3501490354537964e-01" nType="-99"/>
        </Node>
        <Node pos="r" depth="1" NCoef="0" IVar="15" Cut="1.7073682546615601e+00" cType="1" res="-5.1049585454165936e-04" rms="3.3010336756706238e-01" purity="5.0911593437194824e-01" nType="0">
          <Node pos="l" depth="2" NCoef="0" IVar="2" Cut="5.2159000000000000e+05" cType="1" res="-7.1716681122779846e-03" rms="3.5059618949890137e-01" purity="4.6957948803901672e-01" nType="0">
            <Node pos="l" depth="3" NCoef="0" IVar="1" Cut="4.5810144531250000e+04" cType="1" res="-1.3613772578537464e-02" rms="3.5632055997848511e-01" purity="5.2475398778915405e-01" nType="0">
              <Node pos="l" depth="4" NCoef="0" IVar="-1" Cut="0.0000000000000000e+00" cType="1" res="1.6983572859317064e-03" rms="3.6137336492538452e-01" purity="3.8843578100204468e-01" nType="-99"/>
              <Node pos="r" depth="4" NCoef="0" IVar="-1" Cut="0.0000000000000000e+00" cType="1" res="-1.9191559404134750e-02" rms="3.5190868377685547e-01" purity="6.2942475080490112e-01" nType="-99"/>
            </Node>
            <Node pos="r" depth="3" NCoef="0" IVar="-1" Cut="0.0000000000000000e+00" cType="1" res="1.2828291393816471e-02" rms="3.3114963769912720e-01" purity="2.9618450999259949e-01" nType="-99"/>
          </Node>
          <Node pos="r" depth="2" NCoef="0" IVar="12" Cut="3.4113523960113525e+00" cType="1" res="2.7657329337671399e-04" rms="3.2758837938308716e-01" purity="5.1378744840621948e-01" nType="0">
            <Node pos="l" depth="3" NCoef="0" IVar="1" Cut="1.0835192968750000e+05" cType="1" res="-4.7762881149537861e-04" rms="3.2784706354141235e-01" purity="5.1647895574569702e-01" nType="0">
              <Node pos="l" depth="4" NCoef="0" IVar="-1" Cut="0.0000000000000000e+00" cType="1" res="-1.6923153307288885e-03" rms="3.3011457324028015e-01" purity="4.9383193254470825e-01" nType="-99"/>
              <Node pos="r" depth="4" NCoef="0" IVar="-1" Cut="0.0000000000000000e+00" cType="1" res="6.1938855797052383e-03" rms="3.1663554906845093e-01" purity="6.2524116039276123e-01" nType="-99"/>
            </Node>
            <Node pos="r" depth="3" NCoef="0" IVar="16" Cut="1.2333704233169556e+00" cType="1" res="8.9665269479155540e-03" rms="3.2446619868278503e-01" purity="4.8277571797370911e-01" nType="0">
              <Node pos="l" depth="4" NCoef="0" IVar="-1" Cut="0.0000000000000000e+00" cType="1" res="-4.9551608972251415e-03" rms="3.1055179238319397e-01" purity="6.8621885776519775e-01" nType="-99"/>
              <Node pos="r" depth="4" NCoef="0" IVar="-1" Cut="0.0000000000000000e+00" cType="1" res="1.6443779692053795e-02" rms="3.3340087532997131e-01" purity="3.4224975109100342e-01" nType="-99"/>
            </Node>
          </Node>
        </Node>
      </Node>
    </BinaryTree>
    <BinaryTree type="DecisionTree" boostWeight="1.0000000000000000e+00" itree="157">
      <Node pos="s" depth="0" NCoef="0" IVar="13" Cut="5.4850673675537109e-01" cType="1" res="-1.9895692275895271e-06" rms="3.4090885519981384e-01" purity="5.0000000000000000e-01" nType="0">
        <Node pos="l" depth="1" NCoef="0" IVar="12" Cut="1.5903397798538208e+00" cType="1" res="-4.7019552439451218e-03" rms="3.1525421142578125e-01" purity="1.6937981545925140e-01" nType="0">
          <Node pos="l" depth="2" NCoef="0" IVar="-1" Cut="0.0000000000000000e+00" cType="1" res="-1.4762446284294128e-02" rms="3.3395066857337952e-01" purity="1.7174468934535980e-01" nType="-99"/>
          <Node pos="r" depth="2" NCoef="0" IVar="-1" Cut="0.0000000000000000e+00" cType="1" res="8.5584484040737152e-03" rms="2.9588812589645386e-01" purity="1.6713199019432068e-01" nType="-99"/>
        </Node>
        <Node pos="r" depth="1" NCoef="0" IVar="18" Cut="1.4775275000000000e+05" cType="1" res="9.7352116426918656e-05" rms="3.4142962098121643e-01" purity="5.0698822736740112e-01" nType="0">
          <Node pos="l" depth="2" NCoef="0" IVar="18" Cut="2.7605058593750000e+04" cType="1" res="4.9485097406432033e-04" rms="3.4971365332603455e-01" purity="5.2237766981124878e-01" nType="0">
            <Node pos="l" depth="3" NCoef="0" IVar="5" Cut="1.1241382031250000e+05" cType="1" res="-3.6951769143342972e-03" rms="3.4294989705085754e-01" purity="4.9006021022796631e-01" nType="0">
              <Node pos="l" depth="4" NCoef="0" IVar="-1" Cut="0.0000000000000000e+00" cType="1" res="3.5757219302468002e-04" rms="3.4769368171691895e-01" purity="5.1165455579757690e-01" nType="-99"/>
              <Node pos="r" depth="4" NCoef="0" IVar="-1" Cut="0.0000000000000000e+00" cType="1" res="-2.0519776269793510e-02" rms="3.1880429387092590e-01" purity="3.8782289624214172e-01" nType="-99"/>
            </Node>
            <Node pos="r" depth="3" NCoef="0" IVar="15" Cut="5.8474987745285034e-01" cType="1" res="2.9493679758161306e-03" rms="3.5359269380569458e-01" purity="5.4130923748016357e-01" nType="0">
              <Node pos="l" depth="4" NCoef="0" IVar="-1" Cut="0.0000000000000000e+00" cType="1" res="2.3944066837430000e-02" rms="3.7133112549781799e-01" purity="5.2836382389068604e-01" nType="-99"/>
              <Node pos="r" depth="4" NCoef="0" IVar="-1" Cut="0.0000000000000000e+00" cType="1" res="1.7261328175663948e-03" rms="3.5311636328697205e-01" purity="5.4162567853927612e-01" nType="-99"/>
            </Node>
          </Node>
          <Node pos="r" depth="2" NCoef="0" IVar="0" Cut="2.3333332538604736e+00" cType="1" res="-1.6953739104792476e-03" rms="3.0124476552009583e-01" purity="4.3758147954940796e-01" nType="0">
            <Node pos="l" depth="3" NCoef="0" IVar="13" Cut="3.0497002601623535e+00" cType="1" res="-9.9177714437246323e-03" rms="3.0772975087165833e-01" purity="3.6897787451744080e-01" nType="0">
              <Node pos="l" depth="4" NCoef="0" IVar="-1" Cut="0.0000000000000000e+00" cType="1" res="-1.6974933445453644e-02" rms="3.0208066105842590e-01" purity="3.2831645011901855e-01" nType="-99"/>
              <Node pos="r" depth="4" NCoef="0" IVar="-1" Cut="0.0000000000000000e+00" cType="1" res="1.1634632013738155e-02" rms="3.2505992054939270e-01" purity="5.0629389286041260e-01" nType="-99"/>
            </Node>
            <Node pos="r" depth="3" NCoef="0" IVar="10" Cut="1.2882495312500000e+05" cType="1" res="1.1759232729673386e-03" rms="2.9889374971389771e-01" purity="4.6153816580772400e-01" nType="0">
              <Node pos="l" depth="4" NCoef="0" IVar="-1" Cut="0.0000000000000000e+00" cType="1" res="-4.3546482920646667e-03" rms="3.1583115458488464e-01" purity="4.2804601788520813e-01" nType="-99"/>
              <Node pos="r" depth="4" NCoef="0" IVar="-1" Cut="0.0000000000000000e+00" cType="1" res="6.3992976211011410e-03" rms="2.8587484359741211e-01" purity="4.8588925600051880e-01" nType="-99"/>
            </Node>
          </Node>
        </Node>
      </Node>
    </BinaryTree>
    <BinaryTree type="DecisionTree" boostWeight="1.0000000000000000e+00" itree="158">
      <Node pos="s" depth="0" NCoef="0" IVar="11" Cut="9.7634357213973999e-01" cType="1" res="-1.7115849004767369e-06" rms="3.4085872769355774e-01" purity="5.0000000000000000e-01" nType="0">
        <Node pos="l" depth="1" NCoef="0" IVar="13" Cut="2.1950891017913818e+00" cType="1" res="7.9572887625545263e-04" rms="3.3847811818122864e-01" purity="6.4255952835083008e-01" nType="0">
          <Node pos="l" depth="2" NCoef="0" IVar="12" Cut="1.8845225572586060e+00" cType="1" res="5.1050470210611820e-03" rms="3.6279654502868652e-01" purity="3.9124083518981934e-01" nType="0">
            <Node pos="l" depth="3" NCoef="0" IVar="15" Cut="2.0279538631439209e+00" cType="1" res="5.6093913735821843e-04" rms="3.5833236575126648e-01" purity="3.0274695158004761e-01" nType="0">
              <Node pos="l" depth="4" NCoef="0" IVar="-1" Cut="0.0000000000000000e+00" cType="1" res="8.3267493173480034e-03" rms="3.7352982163429260e-01" purity="3.3053624629974365e-01" nType="-99"/>
              <Node pos="r" depth="4" NCoef="0" IVar="-1" Cut="0.0000000000000000e+00" cType="1" res="-6.3297823071479797e-03" rms="3.4540271759033203e-01" purity="2.8043881058692932e-01" nType="-99"/>
            </Node>
            <Node pos="r" depth="3" NCoef="0" IVar="14" Cut="2.4931333065032959e+00" cType="1" res="1.3267548754811287e-02" rms="3.7054052948951721e-01" purity="5.5020081996917725e-01" nType="0">
              <Node pos="l" depth="4" NCoef="0" IVar="-1" Cut="0.0000000000000000e+00" cType="1" res="3.9226901717483997e-03" rms="3.7713104486465454e-01" purity="5.2757412195205688e-01" nType="-99"/>
              <Node pos="r" depth="4" NCoef="0" IVar="-1" Cut="0.0000000000000000e+00" cType="1" res="2.4348394945263863e-02" rms="3.5255214571952820e-01" purity="6.0756886005401611e-01" nType="-99"/>
            </Node>
          </Node>
          <Node pos="r" depth="2" NCoef="0" IVar="1" Cut="7.9120460937500000e+04" cType="1" res="-8.5093849338591099e-04" rms="3.2869595289230347e-01" purity="7.3859286308288574e-01" nType="0">
            <Node pos="l" depth="3" NCoef="0" IVar="20" Cut="3.7437894531250000e+04" cType="1" res="-4.8989648930728436e-03" rms="3.3988693356513977e-01" purity="7.0236885547637939e-01" nType="0">
              <Node pos="l" depth="4" NCoef="0" IVar="-1" Cut="0.0000000000000000e+00" cType="1" res="-8.6580272763967514e-03" rms="3.5072755813598633e-01" purity="6.9728255271911621e-01" nType="-99"/>
              <Node pos="r" depth="4" NCoef="0" IVar="-1" Cut="0.0000000000000000e+00" cType="1" res="6.4581283368170261e-03" rms="3.1795150041580200e-01" purity="7.1202886104583740e-01" nType="-99"/>
            </Node>
            <Node pos="r" depth="3" NCoef="0" IVar="15" Cut="1.7019249200820923e+00" cType="1" res="6.0428241267800331e-03" rms="3.0858325958251953e-01" purity="8.0028206110000610e-01" nType="0">
              <Node pos="l" depth="4" NCoef="0" IVar="-1" Cut="0.0000000000000000e+00" cType="1" res="-6.4465909963473678e-04" rms="3.3823463320732117e-01" purity="7.5469636917114258e-01" nType="-99"/>
              <Node pos="r" depth="4" NCoef="0" IVar="-1" Cut="0.0000000000000000e+00" cType="1" res="1.1602121405303478e-02" rms="2.8866052627563477e-01" purity="8.2845366001129150e-01" nType="-99"/>
            </Node>
          </Node>
        </Node>
        <Node pos="r" depth="1" NCoef="0" IVar="14" Cut="2.8268120288848877e+00" cType="1" res="-6.7446281900629401e-04" rms="3.4285283088684082e-01" purity="3.7973135709762573e-01" nType="0">
          <Node pos="l" depth="2" NCoef="0" IVar="14" Cut="1.0796113014221191e+00" cType="1" res="-1.3332425151020288e-03" rms="3.4424734115600586e-01" purity="3.7402659654617310e-01" nType="0">
            <Node pos="l" depth="3" NCoef="0" IVar="0" Cut="1.3333333730697632e+00" cType="1" res="3.3946959301829338e-03" rms="3.5266360640525818e-01" purity="3.5249334573745728e-01" nType="0">
              <Node pos="l" depth="4" NCoef="0" IVar="-1" Cut="0.0000000000000000e+00" cType="1" res="1.6318596899509430e-02" rms="3.4795966744422913e-01" purity="2.7397203445434570e-01" nType="-99"/>
              <Node pos="r" depth="4" NCoef="0" IVar="-1" Cut="0.0000000000000000e+00" cType="1" res="7.5123977148905396e-04" rms="3.5330331325531006e-01" purity="3.6433151364326477e-01" nType="-99"/>
            </Node>
            <Node pos="r" depth="3" NCoef="0" IVar="13" Cut="3.0165264606475830e+00" cType="1" res="-2.7402539271861315e-03" rms="3.4169003367424011e-01" purity="3.8043481111526489e-01" nType="0">
              <Node pos="l" depth="4" NCoef="0" IVar="-1" Cut="0.0000000000000000e+00" cType="1" res="-3.7478024605661631e-03" rms="3.3544069528579712e-01" purity="3.5307803750038147e-01" nType="-99"/>
              <Node pos="r" depth="4" NCoef="0" IVar="-1" Cut="0.0000000000000000e+00" cType="1" res="2.3911073803901672e-03" rms="3.6218053102493286e-01" purity="4.7396892309188843e-01" nType="-99"/>
            </Node>
          </Node>
          <Node pos="r" depth="2" NCoef="0" IVar="16" Cut="1.7608851194381714e+00" cType="1" res="5.2999556064605713e-03" rms="3.2987719774246216e-01" purity="4.3146750330924988e-01" nType="0">
            <Node pos="l" depth="3" NCoef="0" IVar="15" Cut="2.3188459873199463e+00" cType="1" res="1.0425064712762833e-02" rms="3.3056259155273438e-01" purity="5.2987551689147949e-01" nType="0">
              <Node pos="l" depth="4" NCoef="0" IVar="-1" Cut="0.0000000000000000e+00" cType="1" res="1.9351549446582794e-02" rms="3.3045858144760132e-01" purity="4.8578059673309326e-01" nType="-99"/>
              <Node pos="r" depth="4" NCoef="0" IVar="-1" Cut="0.0000000000000000e+00" cType="1" res="-3.2289118971675634e-03" rms="3.3011594414710999e-01" purity="5.8051669597625732e-01" nType="-99"/>
            </Node>
            <Node pos="r" depth="3" NCoef="0" IVar="-1" Cut="0.0000000000000000e+00" cType="1" res="-3.8636664394289255e-03" rms="3.2835489511489868e-01" purity="2.4496212601661682e-01" nType="-99"/>
          </Node>
        </Node>
      </Node>
    </BinaryTree>
    <BinaryTree type="DecisionTree" boostWeight="1.0000000000000000e+00" itree="159">
      <Node pos="s" depth="0" NCoef="0" IVar="11" Cut="7.3745375871658325e-01" cType="1" res="-1.2143111405293894e-08" rms="3.4079593420028687e-01" purity="5.0000000000000000e-01" nType="0">
        <Node pos="l" depth="1" NCoef="0" IVar="14" Cut="2.7184875011444092e+00" cType="1" res="1.0475940071046352e-03" rms="3.2909786701202393e-01" purity="6.6764646768569946e-01" nType="0">
          <Node pos="l" depth="2" NCoef="0" IVar="8" Cut="3.3631308593750000e+04" cType="1" res="2.6040135417133570e-03" rms="3.3413168787956238e-01" purity="6.6764414310455322e-01" nType="0">
            <Node pos="l" depth="3" NCoef="0" IVar="9" Cut="1.9915815625000000e+05" cType="1" res="-7.5455993646755815e-04" rms="3.4783989191055298e-01" purity="6.5652257204055786e-01" nType="0">
              <Node pos="l" depth="4" NCoef="0" IVar="-1" Cut="0.0000000000000000e+00" cType="1" res="8.9953781571239233e-04" rms="3.4801805019378662e-01" purity="6.5142971277236938e-01" nType="-99"/>
              <Node pos="r" depth="4" NCoef="0" IVar="-1" Cut="0.0000000000000000e+00" cType="1" res="-1.5142507851123810e-02" rms="3.4572988748550415e-01" purity="7.0299637317657471e-01" nType="-99"/>
            </Node>
            <Node pos="r" depth="3" NCoef="0" IVar="8" Cut="4.6700246093750000e+04" cType="1" res="1.0008309967815876e-02" rms="3.0158644914627075e-01" purity="6.9216251373291016e-01" nType="0">
              <Node pos="l" depth="4" NCoef="0" IVar="-1" Cut="0.0000000000000000e+00" cType="1" res="1.8966399133205414e-02" rms="3.0496066808700562e-01" purity="8.1381618976593018e-01" nType="-99"/>
              <Node pos="r" depth="4" NCoef="0" IVar="-1" Cut="0.0000000000000000e+00" cType="1" res="-3.7502029445022345e-03" rms="2.9605066776275635e-01" purity="5.1378399133682251e-01" nType="-99"/>
            </Node>
          </Node>
          <Node pos="r" depth="2" NCoef="0" IVar="1" Cut="4.6247593750000000e+04" cType="1" res="-5.6517976336181164e-03" rms="3.0639785528182983e-01" purity="6.6765671968460083e-01" nType="0">
            <Node pos="l" depth="3" NCoef="0" IVar="-1" Cut="0.0000000000000000e+00" cType="1" res="-1.4366240240633488e-02" rms="3.2371452450752258e-01" purity="5.4945391416549683e-01" nType="-99"/>
            <Node pos="r" depth="3" NCoef="0" IVar="6" Cut="2.3180229687500000e+05" cType="1" res="2.1004374139010906e-04" rms="2.9581335186958313e-01" purity="7.3568785190582275e-01" nType="0">
              <Node pos="l" depth="4" NCoef="0" IVar="-1" Cut="0.0000000000000000e+00" cType="1" res="5.7733394205570221e-03" rms="3.1006664037704468e-01" purity="7.9276514053344727e-01" nType="-99"/>
              <Node pos="r" depth="4" NCoef="0" IVar="-1" Cut="0.0000000000000000e+00" cType="1" res="-1.0861652903258801e-02" rms="2.7404177188873291e-01" purity="6.5447199344635010e-01" nType="-99"/>
            </Node>
          </Node>
        </Node>
        <Node pos="r" depth="1" NCoef="0" IVar="15" Cut="3.0486736297607422e+00" cType="1" res="-4.7938612988218665e-04" rms="3.4601593017578125e-01" purity="4.2328667640686035e-01" nType="0">
          <Node pos="l" depth="2" NCoef="0" IVar="15" Cut="5.8353388309478760e-01" cType="1" res="-8.9209864381700754e-04" rms="3.4666243195533752e-01" purity="4.2497059702873230e-01" nType="0">
            <Node pos="l" depth="3" NCoef="0" IVar="0" Cut="6.3333334922790527e+00" cType="1" res="8.7207257747650146e-03" rms="3.7085044384002686e-01" purity="4.5846211910247803e-01" nType="0">
              <Node pos="l" depth="4" NCoef="0" IVar="-1" Cut="0.0000000000000000e+00" cType="1" res="-8.8044293224811554e-03" rms="3.6698979139328003e-01" purity="4.8875737190246582e-01" nType="-99"/>
              <Node pos="r" depth="4" NCoef="0" IVar="-1" Cut="0.0000000000000000e+00" cType="1" res="2.4688510224223137e-02" rms="3.7417587637901306e-01" purity="4.1850221157073975e-01" nType="-99"/>
            </Node>
            <Node pos="r" depth="3" NCoef="0" IVar="15" Cut="8.1832456588745117e-01" cType="1" res="-1.3751132646575570e-03" rms="3.4539529681205750e-01" purity="4.2328777909278870e-01" nType="0">
              <Node pos="l" depth="4" NCoef="0" IVar="-1" Cut="0.0000000000000000e+00" cType="1" res="-7.5485310517251492e-03" rms="3.6907985806465149e-01" purity="4.4108730554580688e-01" nType="-99"/>
              <Node pos="r" depth="4" NCoef="0" IVar="-1" Cut="0.0000000000000000e+00" cType="1" res="-5.6423369096592069e-04" rms="3.4357786178588867e-01" purity="4.2197775840759277e-01" nType="-99"/>
            </Node>
          </Node>
          <Node pos="r" depth="2" NCoef="0" IVar="12" Cut="2.8260147571563721e+00" cType="1" res="6.8974643945693970e-03" rms="3.3416366577148438e-01" purity="3.9318758249282837e-01" nType="0">
            <Node pos="l" depth="3" NCoef="0" IVar="10" Cut="9.8819351562500000e+04" cType="1" res="1.8570050597190857e-02" rms="3.4246703982353210e-01" purity="3.9276272058486938e-01" nType="0">
              <Node pos="l" depth="4" NCoef="0" IVar="-1" Cut="0.0000000000000000e+00" cType="1" res="2.2697599604725838e-02" rms="3.5770431160926819e-01" purity="3.6950367689132690e-01" nType="-99"/>
              <Node pos="r" depth="4" NCoef="0" IVar="-1" Cut="0.0000000000000000e+00" cType="1" res="6.6825929097831249e-03" rms="3.2537162303924561e-01" purity="4.1708645224571228e-01" nType="-99"/>
            </Node>
            <Node pos="r" depth="3" NCoef="0" IVar="-1" Cut="0.0000000000000000e+00" cType="1" res="-8.0784605816006660e-03" rms="3.2229340076446533e-01" purity="3.9374560117721558e-01" nType="-99"/>
          </Node>
        </Node>
      </Node>
    </BinaryTree>
    <BinaryTree type="DecisionTree" boostWeight="1.0000000000000000e+00" itree="160">
      <Node pos="s" depth="0" NCoef="0" IVar="11" Cut="4.9856403470039368e-01" cType="1" res="1.3193791801313637e-06" rms="3.4074431657791138e-01" purity="5.0000000000000000e-01" nType="0">
        <Node pos="l" depth="1" NCoef="0" IVar="11" Cut="4.7580194473266602e-01" cType="1" res="1.7877274658530951e-03" rms="3.2084611058235168e-01" purity="7.0127981901168823e-01" nType="0">
          <Node pos="l" depth="2" NCoef="0" IVar="0" Cut="1.3333333730697632e+00" cType="1" res="3.4476013388484716e-03" rms="3.2005569338798523e-01" purity="7.0802140235900879e-01" nType="0">
            <Node pos="l" depth="3" NCoef="0" IVar="-1" Cut="0.0000000000000000e+00" cType="1" res="1.1389542371034622e-02" rms="3.6740741133689880e-01" purity="5.8959758281707764e-01" nType="-99"/>
            <Node pos="r" depth="3" NCoef="0" IVar="0" Cut="2.2857143878936768e+00" cType="1" res="1.8285070545971394e-03" rms="3.1323739886283875e-01" purity="7.2364819049835205e-01" nType="0">
              <Node pos="l" depth="4" NCoef="0" IVar="-1" Cut="0.0000000000000000e+00" cType="1" res="-9.0301455929875374e-03" rms="3.4979119896888733e-01" purity="6.5999543666839600e-01" nType="-99"/>
              <Node pos="r" depth="4" NCoef="0" IVar="-1" Cut="0.0000000000000000e+00" cType="1" res="4.4786552898585796e-03" rms="3.0579134821891785e-01" purity="7.3564159870147705e-01" nType="-99"/>
            </Node>
          </Node>
          <Node pos="r" depth="2" NCoef="0" IVar="-1" Cut="0.0000000000000000e+00" cType="1" res="-1.2587860226631165e-02" rms="3.2799044251441956e-01" purity="6.3577204942703247e-01" nType="-99"/>
        </Node>
        <Node pos="r" depth="1" NCoef="0" IVar="19" Cut="3.8846715625000000e+05" cType="1" res="-3.1782299629412591e-04" rms="3.4417706727981567e-01" purity="4.6404129266738892e-01" nType="0">
          <Node pos="l" depth="2" NCoef="0" IVar="19" Cut="3.6342320312500000e+04" cType="1" res="-1.8036077381111681e-04" rms="3.4536531567573547e-01" purity="4.6901485323905945e-01" nType="0">
            <Node pos="l" depth="3" NCoef="0" IVar="15" Cut="9.1183429956436157e-01" cType="1" res="-2.2828048095107079e-03" rms="3.4672680497169495e-01" purity="4.6245536208152771e-01" nType="0">
              <Node pos="l" depth="4" NCoef="0" IVar="-1" Cut="0.0000000000000000e+00" cType="1" res="-1.2922941707074642e-02" rms="3.5667541623115540e-01" purity="4.0864002704620361e-01" nType="-99"/>
              <Node pos="r" depth="4" NCoef="0" IVar="-1" Cut="0.0000000000000000e+00" cType="1" res="5.3560601372737437e-05" rms="3.4508880972862244e-01" purity="4.7085559368133545e-01" nType="-99"/>
            </Node>
            <Node pos="r" depth="3" NCoef="0" IVar="14" Cut="7.7417421340942383e-01" cType="1" res="8.0686656292527914e-04" rms="3.4471970796585083e-01" purity="4.7209492325782776e-01" nType="0">
              <Node pos="l" depth="4" NCoef="0" IVar="-1" Cut="0.0000000000000000e+00" cType="1" res="7.9915346577763557e-03" rms="3.6186376214027405e-01" purity="4.4974941015243530e-01" nType="-99"/>
              <Node pos="r" depth="4" NCoef="0" IVar="-1" Cut="0.0000000000000000e+00" cType="1" res="-1.4419094077311456e-04" rms="3.4292110800743103e-01" purity="4.7435697913169861e-01" nType="-99"/>
            </Node>
          </Node>
          <Node pos="r" depth="2" NCoef="0" IVar="-1" Cut="0.0000000000000000e+00" cType="1" res="-1.4679231680929661e-02" rms="2.4736970663070679e-01" purity="1.1699379235506058e-01" nType="-99"/>
        </Node>
      </Node>
    </BinaryTree>
    <BinaryTree type="DecisionTree" boostWeight="1.0000000000000000e+00" itree="161">
      <Node pos="s" depth="0" NCoef="0" IVar="15" Cut="1.5260878801345825e+00" cType="1" res="1.2190263305456028e-06" rms="3.4072333574295044e-01" purity="5.0000000000000000e-01" nType="0">
        <Node pos="l" depth="1" NCoef="0" IVar="17" Cut="1.2276909375000000e+05" cType="1" res="1.0102341184392571e-03" rms="3.6113637685775757e-01" purity="4.8203909397125244e-01" nType="0">
          <Node pos="l" depth="2" NCoef="0" IVar="17" Cut="6.4046644531250000e+04" cType="1" res="2.6959911920130253e-03" rms="3.6973473429679871e-01" purity="5.1169705390930176e-01" nType="0">
            <Node pos="l" depth="3" NCoef="0" IVar="19" Cut="6.7278273437500000e+04" cType="1" res="6.0105752199888229e-03" rms="3.7175196409225464e-01" purity="5.3646069765090942e-01" nType="0">
              <Node pos="l" depth="4" NCoef="0" IVar="-1" Cut="0.0000000000000000e+00" cType="1" res="1.2906393967568874e-03" rms="3.5647121071815491e-01" purity="5.5317097902297974e-01" nType="-99"/>
              <Node pos="r" depth="4" NCoef="0" IVar="-1" Cut="0.0000000000000000e+00" cType="1" res="8.1928065046668053e-03" rms="3.9454644918441772e-01" purity="5.1011836528778076e-01" nType="-99"/>
            </Node>
            <Node pos="r" depth="3" NCoef="0" IVar="6" Cut="2.6005765625000000e+05" cType="1" res="-7.6651088893413544e-03" rms="3.6316180229187012e-01" purity="4.3428817391395569e-01" nType="0">
              <Node pos="l" depth="4" NCoef="0" IVar="-1" Cut="0.0000000000000000e+00" cType="1" res="-9.1242631897330284e-03" rms="3.7398225069046021e-01" purity="4.5472100377082825e-01" nType="-99"/>
              <Node pos="r" depth="4" NCoef="0" IVar="-1" Cut="0.0000000000000000e+00" cType="1" res="1.6887569800019264e-02" rms="3.0995374917984009e-01" purity="3.4417599439620972e-01" nType="-99"/>
            </Node>
          </Node>
          <Node pos="r" depth="2" NCoef="0" IVar="6" Cut="2.2215593750000000e+05" cType="1" res="-1.3194543309509754e-02" rms="2.7792108058929443e-01" purity="2.3213057219982147e-01" nType="0">
            <Node pos="l" depth="3" NCoef="0" IVar="-1" Cut="0.0000000000000000e+00" cType="1" res="-2.0768102258443832e-02" rms="3.2901170849800110e-01" purity="3.0948865413665771e-01" nType="-99"/>
            <Node pos="r" depth="3" NCoef="0" IVar="-1" Cut="0.0000000000000000e+00" cType="1" res="-5.4057128727436066e-03" rms="2.1914851665496826e-01" purity="1.5979084372520447e-01" nType="-99"/>
          </Node>
        </Node>
        <Node pos="r" depth="1" NCoef="0" IVar="5" Cut="6.0535506250000000e+05" cType="1" res="-5.1089935004711151e-04" rms="3.2987877726554871e-01" purity="5.0911593437194824e-01" nType="0">
          <Node pos="l" depth="2" NCoef="0" IVar="19" Cut="8.4959898437500000e+04" cType="1" res="-8.0616649938747287e-04" rms="3.3080121874809265e-01" purity="5.1625108718872070e-01" nType="0">
            <Node pos="l" depth="3" NCoef="0" IVar="15" Cut="2.4535765647888184e+00" cType="1" res="1.1582130100578070e-03" rms="3.2977643609046936e-01" purity="6.1622589826583862e-01" nType="0">
              <Node pos="l" depth="4" NCoef="0" IVar="-1" Cut="0.0000000000000000e+00" cType="1" res="-1.7809362616389990e-03" rms="3.3598598837852478e-01" purity="5.9099119901657104e-01" nType="-99"/>
              <Node pos="r" depth="4" NCoef="0" IVar="-1" Cut="0.0000000000000000e+00" cType="1" res="5.6541278026998043e-03" rms="3.2020515203475952e-01" purity="6.5395462512969971e-01" nType="-99"/>
            </Node>
            <Node pos="r" depth="3" NCoef="0" IVar="2" Cut="3.3004440625000000e+05" cType="1" res="-5.4193804971873760e-03" rms="3.3314996957778931e-01" purity="2.8146699070930481e-01" nType="0">
              <Node pos="l" depth="4" NCoef="0" IVar="-1" Cut="0.0000000000000000e+00" cType="1" res="-1.3898781500756741e-02" rms="3.7771186232566833e-01" purity="3.3110505342483521e-01" nType="-99"/>
              <Node pos="r" depth="4" NCoef="0" IVar="-1" Cut="0.0000000000000000e+00" cType="1" res="-2.5237461086362600e-03" rms="3.2493722438812256e-01" purity="2.7307093143463135e-01" nType="-99"/>
            </Node>
          </Node>
          <Node pos="r" depth="2" NCoef="0" IVar="-1" Cut="0.0000000000000000e+00" cType="1" res="1.9867489114403725e-02" rms="2.8017777204513550e-01" purity="1.5668091177940369e-01" nType="-99"/>
        </Node>
      </Node>
    </BinaryTree>
    <BinaryTree type="DecisionTree" boostWeight="1.0000000000000000e+00" itree="162">
      <Node pos="s" depth="0" NCoef="0" IVar="14" Cut="5.1759451627731323e-01" cType="1" res="5.5568813195350231e-07" rms="3.4068244695663452e-01" purity="5.0000000000000000e-01" nType="0">
        <Node pos="l" depth="1" NCoef="0" IVar="16" Cut="1.7642971277236938e+00" cType="1" res="-4.2000911198556423e-03" rms="3.5111865401268005e-01" purity="4.6852934360504150e-01" nType="0">
          <Node pos="l" depth="2" NCoef="0" IVar="-1" Cut="0.0000000000000000e+00" cType="1" res="4.1177151724696159e-03" rms="3.4034875035285950e-01" purity="5.8861291408538818e-01" nType="-99"/>
          <Node pos="r" depth="2" NCoef="0" IVar="-1" Cut="0.0000000000000000e+00" cType="1" res="-1.0869024321436882e-02" rms="3.6260765790939331e-01" purity="3.3298677206039429e-01" nType="-99"/>
        </Node>
        <Node pos="r" depth="1" NCoef="0" IVar="16" Cut="2.2361018657684326e+00" cType="1" res="1.2017183325951919e-04" rms="3.4037980437278748e-01" purity="5.0089615583419800e-01" nType="0">
          <Node pos="l" depth="2" NCoef="0" IVar="13" Cut="5.4850673675537109e-01" cType="1" res="-2.9123233980499208e-04" rms="3.3811220526695251e-01" purity="5.5197095870971680e-01" nType="0">
            <Node pos="l" depth="3" NCoef="0" IVar="-1" Cut="0.0000000000000000e+00" cType="1" res="-1.7423806712031364e-02" rms="3.0777168273925781e-01" purity="1.7013671994209290e-01" nType="-99"/>
            <Node pos="r" depth="3" NCoef="0" IVar="19" Cut="9.1065351562500000e+04" cType="1" res="-2.6273717594449408e-05" rms="3.3854416012763977e-01" purity="5.5775803327560425e-01" nType="0">
              <Node pos="l" depth="4" NCoef="0" IVar="-1" Cut="0.0000000000000000e+00" cType="1" res="9.5620553474873304e-04" rms="3.3786273002624512e-01" purity="6.2177830934524536e-01" nType="-99"/>
              <Node pos="r" depth="4" NCoef="0" IVar="-1" Cut="0.0000000000000000e+00" cType="1" res="-3.9117080159485340e-03" rms="3.4121862053871155e-01" purity="3.0147510766983032e-01" nType="-99"/>
            </Node>
          </Node>
          <Node pos="r" depth="2" NCoef="0" IVar="13" Cut="3.0170114040374756e+00" cType="1" res="1.6991103766486049e-03" rms="3.4894144535064697e-01" purity="3.0487483739852905e-01" nType="0">
            <Node pos="l" depth="3" NCoef="0" IVar="2" Cut="3.8911162500000000e+05" cType="1" res="-1.1235851561650634e-03" rms="3.4237509965896606e-01" purity="2.7686509490013123e-01" nType="0">
              <Node pos="l" depth="4" NCoef="0" IVar="-1" Cut="0.0000000000000000e+00" cType="1" res="-5.0601493567228317e-03" rms="3.7127923965454102e-01" purity="3.3265250921249390e-01" nType="-99"/>
              <Node pos="r" depth="4" NCoef="0" IVar="-1" Cut="0.0000000000000000e+00" cType="1" res="3.0240577179938555e-03" rms="3.1987160444259644e-01" purity="2.3668429255485535e-01" nType="-99"/>
            </Node>
            <Node pos="r" depth="3" NCoef="0" IVar="5" Cut="1.4185318750000000e+05" cType="1" res="1.2259807437658310e-02" rms="3.7229350209236145e-01" purity="4.0966910123825073e-01" nType="0">
              <Node pos="l" depth="4" NCoef="0" IVar="-1" Cut="0.0000000000000000e+00" cType="1" res="1.6853609122335911e-03" rms="3.7475562095642090e-01" purity="4.2169293761253357e-01" nType="-99"/>
              <Node pos="r" depth="4" NCoef="0" IVar="-1" Cut="0.0000000000000000e+00" cType="1" res="2.3260511457920074e-02" rms="3.6649960279464722e-01" purity="3.8547199964523315e-01" nType="-99"/>
            </Node>
          </Node>
        </Node>
      </Node>
    </BinaryTree>
    <BinaryTree type="DecisionTree" boostWeight="1.0000000000000000e+00" itree="163">
      <Node pos="s" depth="0" NCoef="0" IVar="13" Cut="1.9197735786437988e+00" cType="1" res="-1.0274790440689685e-07" rms="3.4066027402877808e-01" purity="5.0000000000000000e-01" nType="0">
        <Node pos="l" depth="1" NCoef="0" IVar="0" Cut="6.3333334922790527e+00" cType="1" res="1.3608814915642142e-03" rms="3.2815915346145630e-01" purity="2.5426813960075378e-01" nType="0">
          <Node pos="l" depth="2" NCoef="0" IVar="15" Cut="1.4631620645523071e+00" cType="1" res="4.5340182259678841e-03" rms="3.3695831894874573e-01" purity="3.0444964766502380e-01" nType="0">
            <Node pos="l" depth="3" NCoef="0" IVar="15" Cut="7.7047073841094971e-01" cType="1" res="-5.4153571836650372e-03" rms="3.4501197934150696e-01" purity="3.1816738843917847e-01" nType="0">
              <Node pos="l" depth="4" NCoef="0" IVar="-1" Cut="0.0000000000000000e+00" cType="1" res="1.6077106818556786e-02" rms="3.6936980485916138e-01" purity="3.6131519079208374e-01" nType="-99"/>
              <Node pos="r" depth="4" NCoef="0" IVar="-1" Cut="0.0000000000000000e+00" cType="1" res="-1.3121462427079678e-02" rms="3.3427780866622925e-01" purity="3.0103352665901184e-01" nType="-99"/>
            </Node>
            <Node pos="r" depth="3" NCoef="0" IVar="10" Cut="3.2396464843750000e+04" cType="1" res="8.5942856967449188e-03" rms="3.3353057503700256e-01" purity="2.9885151982307434e-01" nType="0">
              <Node pos="l" depth="4" NCoef="0" IVar="-1" Cut="0.0000000000000000e+00" cType="1" res="1.6651816666126251e-02" rms="3.6318087577819824e-01" purity="3.0107089877128601e-01" nType="-99"/>
              <Node pos="r" depth="4" NCoef="0" IVar="-1" Cut="0.0000000000000000e+00" cType="1" res="4.1270814836025238e-03" rms="3.2416504621505737e-01" purity="2.9819729924201965e-01" nType="-99"/>
            </Node>
          </Node>
          <Node pos="r" depth="2" NCoef="0" IVar="14" Cut="2.8076152801513672e+00" cType="1" res="-2.9657015111297369e-03" rms="3.1571522355079651e-01" purity="1.8584547936916351e-01" nType="0">
            <Node pos="l" depth="3" NCoef="0" IVar="16" Cut="1.1645671129226685e+00" cType="1" res="-5.7151857763528824e-03" rms="3.1228643655776978e-01" purity="1.8173980712890625e-01" nType="0">
              <Node pos="l" depth="4" NCoef="0" IVar="-1" Cut="0.0000000000000000e+00" cType="1" res="6.5674856305122375e-03" rms="3.5946437716484070e-01" purity="3.1014746427536011e-01" nType="-99"/>
              <Node pos="r" depth="4" NCoef="0" IVar="-1" Cut="0.0000000000000000e+00" cType="1" res="-1.0478008538484573e-02" rms="2.9668158292770386e-01" purity="1.4355637133121490e-01" nType="-99"/>
            </Node>
            <Node pos="r" depth="3" NCoef="0" IVar="-1" Cut="0.0000000000000000e+00" cType="1" res="1.4572406187653542e-02" rms="3.3761605620384216e-01" purity="2.1389907598495483e-01" nType="-99"/>
          </Node>
        </Node>
        <Node pos="r" depth="1" NCoef="0" IVar="15" Cut="3.0486736297607422e+00" cType="1" res="-4.7095218906179070e-04" rms="3.4487846493721008e-01" purity="5.8501398563385010e-01" nType="0">
          <Node pos="l" depth="2" NCoef="0" IVar="11" Cut="6.9075554609298706e-01" cType="1" res="-1.8100658780895174e-04" rms="3.4542936086654663e-01" purity="5.8586519956588745e-01" nType="0">
            <Node pos="l" depth="3" NCoef="0" IVar="2" Cut="3.1039903125000000e+05" cType="1" res="1.7099457327276468e-03" rms="3.1939560174942017e-01" purity="7.6185208559036255e-01" nType="0">
              <Node pos="l" depth="4" NCoef="0" IVar="-1" Cut="0.0000000000000000e+00" cType="1" res="8.7044779211282730e-03" rms="3.2343372702598572e-01" purity="7.7961748838424683e-01" nType="-99"/>
              <Node pos="r" depth="4" NCoef="0" IVar="-1" Cut="0.0000000000000000e+00" cType="1" res="-1.4629807556048036e-03" rms="3.1770554184913635e-01" purity="7.5473749637603760e-01" nType="-99"/>
            </Node>
            <Node pos="r" depth="3" NCoef="0" IVar="0" Cut="6.3333334922790527e+00" cType="1" res="-1.0203403653576970e-03" rms="3.5637280344963074e-01" purity="5.0775021314620972e-01" nType="0">
              <Node pos="l" depth="4" NCoef="0" IVar="-1" Cut="0.0000000000000000e+00" cType="1" res="-2.5834983680397272e-03" rms="3.5114818811416626e-01" purity="5.7640570402145386e-01" nType="-99"/>
              <Node pos="r" depth="4" NCoef="0" IVar="-1" Cut="0.0000000000000000e+00" cType="1" res="1.8046729965135455e-03" rms="3.6435413360595703e-01" purity="4.0053409337997437e-01" nType="-99"/>
            </Node>
          </Node>
          <Node pos="r" depth="2" NCoef="0" IVar="1" Cut="4.6042863281250000e+04" cType="1" res="-5.7764151133596897e-03" rms="3.3459362387657166e-01" purity="5.6943893432617188e-01" nType="0">
            <Node pos="l" depth="3" NCoef="0" IVar="-1" Cut="0.0000000000000000e+00" cType="1" res="-2.0247977226972580e-02" rms="3.4418591856956482e-01" purity="4.2690244317054749e-01" nType="-99"/>
            <Node pos="r" depth="3" NCoef="0" IVar="-1" Cut="0.0000000000000000e+00" cType="1" res="5.4319947957992554e-03" rms="3.2798379659652710e-01" purity="6.5734589099884033e-01" nType="-99"/>
          </Node>
        </Node>
      </Node>
    </BinaryTree>
    <BinaryTree type="DecisionTree" boostWeight="1.0000000000000000e+00" itree="164">
      <Node pos="s" depth="0" NCoef="0" IVar="15" Cut="1.5260878801345825e+00" cType="1" res="-1.2644002254091902e-06" rms="3.4061470627784729e-01" purity="5.0000000000000000e-01" nType="0">
        <Node pos="l" depth="1" NCoef="0" IVar="1" Cut="1.6699770312500000e+05" cType="1" res="1.0390408569946885e-03" rms="3.6100506782531738e-01" purity="4.8203909397125244e-01" nType="0">
          <Node pos="l" depth="2" NCoef="0" IVar="8" Cut="6.9612359375000000e+04" cType="1" res="2.0645959302783012e-03" rms="3.6262249946594238e-01" purity="4.8457232117652893e-01" nType="0">
            <Node pos="l" depth="3" NCoef="0" IVar="9" Cut="7.0831164062500000e+04" cType="1" res="-1.0110142175108194e-03" rms="3.8463330268859863e-01" purity="5.9440743923187256e-01" nType="0">
              <Node pos="l" depth="4" NCoef="0" IVar="-1" Cut="0.0000000000000000e+00" cType="1" res="5.5533223785459995e-03" rms="3.9069333672523499e-01" purity="5.3610676527023315e-01" nType="-99"/>
              <Node pos="r" depth="4" NCoef="0" IVar="-1" Cut="0.0000000000000000e+00" cType="1" res="-4.3744016438722610e-03" rms="3.8111668825149536e-01" purity="6.2676668167114258e-01" nType="-99"/>
            </Node>
            <Node pos="r" depth="3" NCoef="0" IVar="20" Cut="8.7385609375000000e+04" cType="1" res="1.0781646706163883e-02" rms="2.9116219282150269e-01" purity="1.7327207326889038e-01" nType="0">
              <Node pos="l" depth="4" NCoef="0" IVar="-1" Cut="0.0000000000000000e+00" cType="1" res="1.6636369749903679e-02" rms="3.7398377060890198e-01" purity="2.9590278863906860e-01" nType="-99"/>
              <Node pos="r" depth="4" NCoef="0" IVar="-1" Cut="0.0000000000000000e+00" cType="1" res="-1.2673296034336090e-02" rms="1.3379013538360596e-01" purity="2.5140682235360146e-02" nType="-99"/>
            </Node>
          </Node>
          <Node pos="r" depth="2" NCoef="0" IVar="-1" Cut="0.0000000000000000e+00" cType="1" res="-1.5406627207994461e-02" rms="3.2896247506141663e-01" purity="4.3501490354537964e-01" nType="-99"/>
        </Node>
        <Node pos="r" depth="1" NCoef="0" IVar="16" Cut="3.2300150394439697e+00" cType="1" res="-5.2926386706531048e-04" rms="3.2978251576423645e-01" purity="5.0911593437194824e-01" nType="0">
          <Node pos="l" depth="2" NCoef="0" IVar="13" Cut="2.7422969341278076e+00" cType="1" res="-8.1443547969684005e-04" rms="3.2960522174835205e-01" purity="5.1443803310394287e-01" nType="0">
            <Node pos="l" depth="3" NCoef="0" IVar="12" Cut="2.5260331630706787e+00" cType="1" res="9.7685761284083128e-04" rms="3.3150714635848999e-01" purity="4.2149293422698975e-01" nType="0">
              <Node pos="l" depth="4" NCoef="0" IVar="-1" Cut="0.0000000000000000e+00" cType="1" res="-2.1930732764303684e-03" rms="3.4659203886985779e-01" purity="3.9054742455482483e-01" nType="-99"/>
              <Node pos="r" depth="4" NCoef="0" IVar="-1" Cut="0.0000000000000000e+00" cType="1" res="4.3479781597852707e-03" rms="3.1609103083610535e-01" purity="4.5161372423171997e-01" nType="-99"/>
            </Node>
            <Node pos="r" depth="3" NCoef="0" IVar="18" Cut="1.2264396093750000e+05" cType="1" res="-3.4391337540000677e-03" rms="3.2678070664405823e-01" purity="6.5062612295150757e-01" nType="0">
              <Node pos="l" depth="4" NCoef="0" IVar="-1" Cut="0.0000000000000000e+00" cType="1" res="-6.2549756839871407e-03" rms="3.3816438913345337e-01" purity="6.5622699260711670e-01" nType="-99"/>
              <Node pos="r" depth="4" NCoef="0" IVar="-1" Cut="0.0000000000000000e+00" cType="1" res="3.6031543277204037e-03" rms="3.0588263273239136e-01" purity="6.4090013504028320e-01" nType="-99"/>
            </Node>
          </Node>
          <Node pos="r" depth="2" NCoef="0" IVar="-1" Cut="0.0000000000000000e+00" cType="1" res="1.1100429110229015e-02" rms="3.3775112032890320e-01" purity="2.5858071446418762e-01" nType="-99"/>
        </Node>
      </Node>
    </BinaryTree>
    <BinaryTree type="DecisionTree" boostWeight="1.0000000000000000e+00" itree="165">
      <Node pos="s" depth="0" NCoef="0" IVar="16" Cut="1.2465226650238037e+00" cType="1" res="-1.5859709492360707e-06" rms="3.4056064486503601e-01" purity="5.0000000000000000e-01" nType="0">
        <Node pos="l" depth="1" NCoef="0" IVar="16" Cut="8.3419775962829590e-01" cType="1" res="-8.1943947589024901e-04" rms="3.1822437047958374e-01" purity="6.7921566963195801e-01" nType="0">
          <Node pos="l" depth="2" NCoef="0" IVar="2" Cut="4.8334143750000000e+05" cType="1" res="1.7592313233762980e-03" rms="2.9554530978202820e-01" purity="7.4864774942398071e-01" nType="0">
            <Node pos="l" depth="3" NCoef="0" IVar="19" Cut="3.9166082031250000e+04" cType="1" res="4.8230378888547421e-03" rms="2.9717236757278442e-01" purity="7.8424733877182007e-01" nType="0">
              <Node pos="l" depth="4" NCoef="0" IVar="-1" Cut="0.0000000000000000e+00" cType="1" res="-7.3776429053395987e-04" rms="3.2232138514518738e-01" purity="7.1680223941802979e-01" nType="-99"/>
              <Node pos="r" depth="4" NCoef="0" IVar="-1" Cut="0.0000000000000000e+00" cType="1" res="1.9841378554701805e-02" rms="2.4932427704334259e-01" purity="8.9683645963668823e-01" nType="-99"/>
            </Node>
            <Node pos="r" depth="3" NCoef="0" IVar="8" Cut="5.7206960937500000e+04" cType="1" res="-7.6870215125381947e-03" rms="2.9026800394058228e-01" purity="6.3888788223266602e-01" nType="0">
              <Node pos="l" depth="4" NCoef="0" IVar="-1" Cut="0.0000000000000000e+00" cType="1" res="-1.1039176024496555e-03" rms="2.8301849961280823e-01" purity="8.4584391117095947e-01" nType="-99"/>
              <Node pos="r" depth="4" NCoef="0" IVar="-1" Cut="0.0000000000000000e+00" cType="1" res="-2.0396448671817780e-02" rms="3.0104798078536987e-01" purity="3.1228101253509521e-01" nType="-99"/>
            </Node>
          </Node>
          <Node pos="r" depth="2" NCoef="0" IVar="14" Cut="1.3888882398605347e+00" cType="1" res="-3.9774514734745026e-03" rms="3.4394136071205139e-01" purity="5.9418451786041260e-01" nType="0">
            <Node pos="l" depth="3" NCoef="0" IVar="6" Cut="1.5645493750000000e+05" cType="1" res="-1.1871872469782829e-02" rms="3.5461950302124023e-01" purity="5.4105275869369507e-01" nType="0">
              <Node pos="l" depth="4" NCoef="0" IVar="-1" Cut="0.0000000000000000e+00" cType="1" res="-1.6436187550425529e-02" rms="3.9054623246192932e-01" purity="5.4615622758865356e-01" nType="-99"/>
              <Node pos="r" depth="4" NCoef="0" IVar="-1" Cut="0.0000000000000000e+00" cType="1" res="8.2592836406547576e-05" rms="3.1943392753601074e-01" purity="5.3658998012542725e-01" nType="-99"/>
            </Node>
            <Node pos="r" depth="3" NCoef="0" IVar="12" Cut="2.0759210586547852e+00" cType="1" res="-1.3900329358875751e-03" rms="3.4032884240150452e-01" purity="6.1159855127334595e-01" nType="0">
              <Node pos="l" depth="4" NCoef="0" IVar="-1" Cut="0.0000000000000000e+00" cType="1" res="8.1283561885356903e-03" rms="3.7338599562644958e-01" purity="5.3657507896423340e-01" nType="-99"/>
              <Node pos="r" depth="4" NCoef="0" IVar="-1" Cut="0.0000000000000000e+00" cType="1" res="-3.0287234112620354e-03" rms="3.3457294106483459e-01" purity="6.2384229898452759e-01" nType="-99"/>
            </Node>
          </Node>
        </Node>
        <Node pos="r" depth="1" NCoef="0" IVar="1" Cut="2.1656515625000000e+05" cType="1" res="6.3314690487459302e-04" rms="3.5693240165710449e-01" purity="3.6091145873069763e-01" nType="0">
          <Node pos="l" depth="2" NCoef="0" IVar="1" Cut="6.1972191406250000e+04" cType="1" res="1.0689328191801906e-03" rms="3.5765254497528076e-01" purity="3.6372244358062744e-01" nType="0">
            <Node pos="l" depth="3" NCoef="0" IVar="1" Cut="5.9027593750000000e+04" cType="1" res="3.5244459286332130e-03" rms="3.4651616215705872e-01" purity="2.8484857082366943e-01" nType="0">
              <Node pos="l" depth="4" NCoef="0" IVar="-1" Cut="0.0000000000000000e+00" cType="1" res="3.6311584990471601e-03" rms="3.4492647647857666e-01" purity="2.7897146344184875e-01" nType="-99"/>
              <Node pos="r" depth="4" NCoef="0" IVar="-1" Cut="0.0000000000000000e+00" cType="1" res="-1.2639557011425495e-02" rms="3.7950193881988525e-01" purity="4.1564342379570007e-01" nType="-99"/>
            </Node>
            <Node pos="r" depth="3" NCoef="0" IVar="2" Cut="3.5687453125000000e+05" cType="1" res="-2.6182951405644417e-03" rms="3.7372207641601562e-01" purity="4.8216044902801514e-01" nType="0">
              <Node pos="l" depth="4" NCoef="0" IVar="-1" Cut="0.0000000000000000e+00" cType="1" res="-7.9402066767215729e-03" rms="4.0018332004547119e-01" purity="6.2550449371337891e-01" nType="-99"/>
              <Node pos="r" depth="4" NCoef="0" IVar="-1" Cut="0.0000000000000000e+00" cType="1" res="3.1151839066296816e-03" rms="3.5549429059028625e-01" purity="3.8990849256515503e-01" nType="-99"/>
            </Node>
          </Node>
          <Node pos="r" depth="2" NCoef="0" IVar="-1" Cut="0.0000000000000000e+00" cType="1" res="-1.6049725934863091e-02" rms="3.2514461874961853e-01" purity="2.4430613219738007e-01" nType="-99"/>
        </Node>
      </Node>
    </BinaryTree>
    <BinaryTree type="DecisionTree" boostWeight="1.0000000000000000e+00" itree="166">
      <Node pos="s" depth="0" NCoef="0" IVar="16" Cut="2.7308914661407471e+00" cType="1" res="1.3359000377022312e-06" rms="3.4049990773200989e-01" purity="5.0000000000000000e-01" nType="0">
        <Node pos="l" depth="1" NCoef="0" IVar="16" Cut="2.6013019084930420e+00" cType="1" res="2.1954196563456208e-04" rms="3.4031641483306885e-01" purity="5.2008587121963501e-01" nType="0">
          <Node pos="l" depth="2" NCoef="0" IVar="13" Cut="3.8395471572875977e+00" cType="1" res="-3.1597061024513096e-05" rms="3.3952161669731140e-01" purity="5.2628415822982788e-01" nType="0">
            <Node pos="l" depth="3" NCoef="0" IVar="13" Cut="3.4736108779907227e+00" cType="1" res="-2.1516755805350840e-04" rms="3.3930733799934387e-01" purity="5.2758032083511353e-01" nType="0">
              <Node pos="l" depth="4" NCoef="0" IVar="-1" Cut="0.0000000000000000e+00" cType="1" res="1.5816019731573761e-04" rms="3.3903214335441589e-01" purity="5.2720767259597778e-01" nType="-99"/>
              <Node pos="r" depth="4" NCoef="0" IVar="-1" Cut="0.0000000000000000e+00" cType="1" res="-8.9580239728093147e-03" rms="3.4662747383117676e-01" purity="5.3786313533782959e-01" nType="-99"/>
            </Node>
            <Node pos="r" depth="3" NCoef="0" IVar="-1" Cut="0.0000000000000000e+00" cType="1" res="7.7773029915988445e-03" rms="3.5073330998420715e-01" purity="4.5644134283065796e-01" nType="-99"/>
          </Node>
          <Node pos="r" depth="2" NCoef="0" IVar="3" Cut="1.7375173437500000e+05" cType="1" res="8.3350287750363350e-03" rms="3.6497688293457031e-01" purity="3.1979098916053772e-01" nType="0">
            <Node pos="l" depth="3" NCoef="0" IVar="-1" Cut="0.0000000000000000e+00" cType="1" res="1.2325609102845192e-02" rms="3.8791051506996155e-01" purity="3.6207234859466553e-01" nType="-99"/>
            <Node pos="r" depth="3" NCoef="0" IVar="-1" Cut="0.0000000000000000e+00" cType="1" res="-3.3363283146172762e-03" rms="3.3553886413574219e-01" purity="2.6992991566658020e-01" nType="-99"/>
          </Node>
        </Node>
        <Node pos="r" depth="1" NCoef="0" IVar="10" Cut="1.0530168750000000e+05" cType="1" res="-2.3555150255560875e-03" rms="3.4246662259101868e-01" purity="2.8305149078369141e-01" nType="0">
          <Node pos="l" depth="2" NCoef="0" IVar="14" Cut="1.7284857034683228e+00" cType="1" res="3.6856862716376781e-03" rms="3.5246044397354126e-01" purity="2.6878717541694641e-01" nType="0">
            <Node pos="l" depth="3" NCoef="0" IVar="-1" Cut="0.0000000000000000e+00" cType="1" res="1.5167040750384331e-02" rms="3.5978764295578003e-01" purity="3.0577939748764038e-01" nType="-99"/>
            <Node pos="r" depth="3" NCoef="0" IVar="13" Cut="1.4026167392730713e+00" cType="1" res="-7.5989780016243458e-03" rms="3.4662550687789917e-01" purity="2.4202334880828857e-01" nType="0">
              <Node pos="l" depth="4" NCoef="0" IVar="-1" Cut="0.0000000000000000e+00" cType="1" res="4.9339765682816505e-03" rms="3.2916703820228577e-01" purity="1.8780264258384705e-01" nType="-99"/>
              <Node pos="r" depth="4" NCoef="0" IVar="-1" Cut="0.0000000000000000e+00" cType="1" res="-1.6413411125540733e-02" rms="3.6716833710670471e-01" purity="3.1171509623527527e-01" nType="-99"/>
            </Node>
          </Node>
          <Node pos="r" depth="2" NCoef="0" IVar="11" Cut="1.0968182086944580e+00" cType="1" res="-8.5027655586600304e-03" rms="3.3187580108642578e-01" purity="2.9756623506546021e-01" nType="0">
            <Node pos="l" depth="3" NCoef="0" IVar="-1" Cut="0.0000000000000000e+00" cType="1" res="-1.9528892153175548e-05" rms="3.7083625793457031e-01" purity="4.2258825898170471e-01" nType="-99"/>
            <Node pos="r" depth="3" NCoef="0" IVar="13" Cut="2.8973259925842285e+00" cType="1" res="-1.5427399426698685e-02" rms="2.9608044028282166e-01" purity="1.9540721178054810e-01" nType="0">
              <Node pos="l" depth="4" NCoef="0" IVar="-1" Cut="0.0000000000000000e+00" cType="1" res="-3.9448041468858719e-02" rms="2.5769984722137451e-01" purity="1.2644158303737640e-01" nType="-99"/>
              <Node pos="r" depth="4" NCoef="0" IVar="-1" Cut="0.0000000000000000e+00" cType="1" res="1.4788821572437882e-03" rms="3.3215576410293579e-01" purity="2.7078205347061157e-01" nType="-99"/>
            </Node>
          </Node>
        </Node>
      </Node>
    </BinaryTree>
    <BinaryTree type="DecisionTree" boostWeight="1.0000000000000000e+00" itree="167">
      <Node pos="s" depth="0" NCoef="0" IVar="15" Cut="1.5260878801345825e+00" cType="1" res="-2.1025923047091055e-07" rms="3.4046944975852966e-01" purity="5.0000000000000000e-01" nType="0">
        <Node pos="l" depth="1" NCoef="0" IVar="17" Cut="1.2276909375000000e+05" cType="1" res="9.4635423738509417e-04" rms="3.6081075668334961e-01" purity="4.8203909397125244e-01" nType="0">
          <Node pos="l" depth="2" NCoef="0" IVar="17" Cut="6.4046644531250000e+04" cType="1" res="2.2725646849721670e-03" rms="3.6942654848098755e-01" purity="5.1169705390930176e-01" nType="0">
            <Node pos="l" depth="3" NCoef="0" IVar="19" Cut="6.7278273437500000e+04" cType="1" res="4.8671993426978588e-03" rms="3.7144011259078979e-01" purity="5.3646069765090942e-01" nType="0">
              <Node pos="l" depth="4" NCoef="0" IVar="-1" Cut="0.0000000000000000e+00" cType="1" res="7.7330885687842965e-04" rms="3.5613799095153809e-01" purity="5.5317097902297974e-01" nType="-99"/>
              <Node pos="r" depth="4" NCoef="0" IVar="-1" Cut="0.0000000000000000e+00" cType="1" res="6.9909808225929737e-03" rms="3.9428293704986572e-01" purity="5.1011836528778076e-01" nType="-99"/>
            </Node>
            <Node pos="r" depth="3" NCoef="0" IVar="14" Cut="1.9242664575576782e+00" cType="1" res="-5.8380370028316975e-03" rms="3.6294075846672058e-01" purity="4.3428817391395569e-01" nType="0">
              <Node pos="l" depth="4" NCoef="0" IVar="-1" Cut="0.0000000000000000e+00" cType="1" res="-1.0406284593045712e-02" rms="3.5674205422401428e-01" purity="4.1653239727020264e-01" nType="-99"/>
              <Node pos="r" depth="4" NCoef="0" IVar="-1" Cut="0.0000000000000000e+00" cType="1" res="7.5370483100414276e-03" rms="3.7659311294555664e-01" purity="4.7609013319015503e-01" nType="-99"/>
            </Node>
          </Node>
          <Node pos="r" depth="2" NCoef="0" IVar="0" Cut="4.3333334922790527e+00" cType="1" res="-1.0228757746517658e-02" rms="2.7754214406013489e-01" purity="2.3213057219982147e-01" nType="0">
            <Node pos="l" depth="3" NCoef="0" IVar="-1" Cut="0.0000000000000000e+00" cType="1" res="2.1826827432960272e-03" rms="3.0121156573295593e-01" purity="2.9545468091964722e-01" nType="-99"/>
            <Node pos="r" depth="3" NCoef="0" IVar="3" Cut="2.3345431250000000e+05" cType="1" res="-1.9341139122843742e-02" rms="2.5819671154022217e-01" purity="1.8512214720249176e-01" nType="0">
              <Node pos="l" depth="4" NCoef="0" IVar="-1" Cut="0.0000000000000000e+00" cType="1" res="-2.4706574156880379e-02" rms="3.1041380763053894e-01" purity="2.6850959658622742e-01" nType="-99"/>
              <Node pos="r" depth="4" NCoef="0" IVar="-1" Cut="0.0000000000000000e+00" cType="1" res="-2.6001296937465668e-02" rms="1.9476971030235291e-01" purity="1.0473064333200455e-01" nType="-99"/>
            </Node>
          </Node>
        </Node>
        <Node pos="r" depth="1" NCoef="0" IVar="12" Cut="3.4113523960113525e+00" cType="1" res="-4.8063223948702216e-04" rms="3.2966452836990356e-01" purity="5.0911593437194824e-01" nType="0">
          <Node pos="l" depth="2" NCoef="0" IVar="8" Cut="6.7422656250000000e+04" cType="1" res="-1.0041753994300961e-03" rms="3.3016631007194519e-01" purity="5.1235181093215942e-01" nType="0">
            <Node pos="l" depth="3" NCoef="0" IVar="20" Cut="3.4592128906250000e+04" cType="1" res="4.2896613012999296e-04" rms="3.5065865516662598e-01" purity="6.3890498876571655e-01" nType="0">
              <Node pos="l" depth="4" NCoef="0" IVar="-1" Cut="0.0000000000000000e+00" cType="1" res="-4.2113577947020531e-03" rms="3.4734168648719788e-01" purity="6.2043464183807373e-01" nType="-99"/>
              <Node pos="r" depth="4" NCoef="0" IVar="-1" Cut="0.0000000000000000e+00" cType="1" res="4.5178127475082874e-03" rms="3.5368448495864868e-01" purity="6.5640568733215332e-01" nType="-99"/>
            </Node>
            <Node pos="r" depth="3" NCoef="0" IVar="7" Cut="1.1230007031250000e+05" cType="1" res="-5.0652287900447845e-03" rms="2.6353916525840759e-01" purity="1.5374167263507843e-01" nType="0">
              <Node pos="l" depth="4" NCoef="0" IVar="-1" Cut="0.0000000000000000e+00" cType="1" res="-1.0988055728375912e-02" rms="2.8949025273323059e-01" purity="1.8652194738388062e-01" nType="-99"/>
              <Node pos="r" depth="4" NCoef="0" IVar="-1" Cut="0.0000000000000000e+00" cType="1" res="2.1239290013909340e-02" rms="1.8154820799827576e-01" purity="7.0844754576683044e-02" nType="-99"/>
            </Node>
          </Node>
          <Node pos="r" depth="2" NCoef="0" IVar="11" Cut="1.6931861639022827e+00" cType="1" res="5.5612693540751934e-03" rms="3.2375633716583252e-01" purity="4.7177228331565857e-01" nType="0">
            <Node pos="l" depth="3" NCoef="0" IVar="5" Cut="1.2510604687500000e+05" cType="1" res="-1.8592288251966238e-03" rms="3.4357234835624695e-01" purity="6.2230092287063599e-01" nType="0">
              <Node pos="l" depth="4" NCoef="0" IVar="-1" Cut="0.0000000000000000e+00" cType="1" res="6.9031361490488052e-03" rms="3.5350871086120605e-01" purity="6.5279996395111084e-01" nType="-99"/>
              <Node pos="r" depth="4" NCoef="0" IVar="-1" Cut="0.0000000000000000e+00" cType="1" res="-1.7072491347789764e-02" rms="3.2736885547637939e-01" purity="5.7638567686080933e-01" nType="-99"/>
            </Node>
            <Node pos="r" depth="3" NCoef="0" IVar="11" Cut="2.4895086288452148e+00" cType="1" res="1.6848929226398468e-02" rms="2.9067450761795044e-01" purity="2.4279627203941345e-01" nType="0">
              <Node pos="l" depth="4" NCoef="0" IVar="-1" Cut="0.0000000000000000e+00" cType="1" res="2.8233148157596588e-02" rms="3.3073738217353821e-01" purity="3.3834534883499146e-01" nType="-99"/>
              <Node pos="r" depth="4" NCoef="0" IVar="-1" Cut="0.0000000000000000e+00" cType="1" res="3.1458889134228230e-03" rms="2.4022620916366577e-01" purity="1.4164885878562927e-01" nType="-99"/>
            </Node>
          </Node>
        </Node>
      </Node>
    </BinaryTree>
    <BinaryTree type="DecisionTree" boostWeight="1.0000000000000000e+00" itree="168">
      <Node pos="s" depth="0" NCoef="0" IVar="15" Cut="1.0185593366622925e+00" cType="1" res="-1.5517005067522405e-06" rms="3.4039634466171265e-01" purity="5.0000000000000000e-01" nType="0">
        <Node pos="l" depth="1" NCoef="0" IVar="13" Cut="3.0177321434020996e+00" cType="1" res="-1.7021935200318694e-03" rms="3.6517438292503357e-01" purity="4.9199137091636658e-01" nType="0">
          <Node pos="l" depth="2" NCoef="0" IVar="18" Cut="6.7025984375000000e+04" cType="1" res="-5.4301354102790356e-03" rms="3.6207213997840881e-01" purity="4.6142250299453735e-01" nType="0">
            <Node pos="l" depth="3" NCoef="0" IVar="8" Cut="7.0025390625000000e+04" cType="1" res="-3.2242159359157085e-03" rms="3.6744034290313721e-01" purity="4.8239701986312866e-01" nType="0">
              <Node pos="l" depth="4" NCoef="0" IVar="-1" Cut="0.0000000000000000e+00" cType="1" res="-5.1327557303011417e-03" rms="3.8864657282829285e-01" purity="5.8125388622283936e-01" nType="-99"/>
              <Node pos="r" depth="4" NCoef="0" IVar="-1" Cut="0.0000000000000000e+00" cType="1" res="1.1660280637443066e-02" rms="2.9688018560409546e-01" purity="1.9495308399200439e-01" nType="-99"/>
            </Node>
            <Node pos="r" depth="3" NCoef="0" IVar="-1" Cut="0.0000000000000000e+00" cType="1" res="-2.6651637628674507e-02" rms="3.0533590912818909e-01" purity="2.6123806834220886e-01" nType="-99"/>
          </Node>
          <Node pos="r" depth="2" NCoef="0" IVar="9" Cut="1.2341616406250000e+05" cType="1" res="9.0142386034131050e-03" rms="3.7374174594879150e-01" purity="5.7986521720886230e-01" nType="0">
            <Node pos="l" depth="3" NCoef="0" IVar="-1" Cut="0.0000000000000000e+00" cType="1" res="1.3841319829225540e-02" rms="3.9611732959747314e-01" purity="6.4798516035079956e-01" nType="-99"/>
            <Node pos="r" depth="3" NCoef="0" IVar="-1" Cut="0.0000000000000000e+00" cType="1" res="-4.7397967427968979e-03" rms="3.4556999802589417e-01" purity="5.0132614374160767e-01" nType="-99"/>
          </Node>
        </Node>
        <Node pos="r" depth="1" NCoef="0" IVar="10" Cut="3.5086378125000000e+05" cType="1" res="3.1805419712327421e-04" rms="3.3553457260131836e-01" purity="5.0150507688522339e-01" nType="0">
          <Node pos="l" depth="2" NCoef="0" IVar="21" Cut="1.2784861718750000e+05" cType="1" res="5.1108165644109249e-04" rms="3.3745133876800537e-01" purity="5.0911295413970947e-01" nType="0">
            <Node pos="l" depth="3" NCoef="0" IVar="21" Cut="7.9144179687500000e+04" cType="1" res="-3.3756924676708877e-04" rms="3.4528511762619019e-01" purity="5.1627725362777710e-01" nType="0">
              <Node pos="l" depth="4" NCoef="0" IVar="-1" Cut="0.0000000000000000e+00" cType="1" res="1.3240814441815019e-03" rms="3.5909736156463623e-01" purity="5.7106453180313110e-01" nType="-99"/>
              <Node pos="r" depth="4" NCoef="0" IVar="-1" Cut="0.0000000000000000e+00" cType="1" res="-1.6826493665575981e-02" rms="2.5331598520278931e-01" purity="2.0720772445201874e-01" nType="-99"/>
            </Node>
            <Node pos="r" depth="3" NCoef="0" IVar="16" Cut="2.2530977725982666e+00" cType="1" res="8.2925166934728622e-03" rms="2.5449118018150330e-01" purity="4.4342237710952759e-01" nType="0">
              <Node pos="l" depth="4" NCoef="0" IVar="-1" Cut="0.0000000000000000e+00" cType="1" res="5.6615443900227547e-03" rms="2.4928832054138184e-01" purity="4.9429422616958618e-01" nType="-99"/>
              <Node pos="r" depth="4" NCoef="0" IVar="-1" Cut="0.0000000000000000e+00" cType="1" res="3.9972454309463501e-02" rms="2.7443727850914001e-01" purity="2.2905975580215454e-01" nType="-99"/>
            </Node>
          </Node>
          <Node pos="r" depth="2" NCoef="0" IVar="19" Cut="1.2900694531250000e+05" cType="1" res="-7.3305009864270687e-03" rms="2.4781113862991333e-01" purity="2.0004981756210327e-01" nType="0">
            <Node pos="l" depth="3" NCoef="0" IVar="-1" Cut="0.0000000000000000e+00" cType="1" res="-2.4677230045199394e-02" rms="2.6501321792602539e-01" purity="2.7489662170410156e-01" nType="-99"/>
            <Node pos="r" depth="3" NCoef="0" IVar="-1" Cut="0.0000000000000000e+00" cType="1" res="8.1340661272406578e-03" rms="2.2789144515991211e-01" purity="1.2199346721172333e-01" nType="-99"/>
          </Node>
        </Node>
      </Node>
    </BinaryTree>
    <BinaryTree type="DecisionTree" boostWeight="1.0000000000000000e+00" itree="169">
      <Node pos="s" depth="0" NCoef="0" IVar="5" Cut="2.2984054687500000e+05" cType="1" res="-2.3031102500681300e-06" rms="3.4033462405204773e-01" purity="5.0000000000000000e-01" nType="0">
        <Node pos="l" depth="1" NCoef="0" IVar="19" Cut="2.0904654687500000e+05" cType="1" res="-3.6848054151050746e-04" rms="3.4437507390975952e-01" purity="5.3397262096405029e-01" nType="0">
          <Node pos="l" depth="2" NCoef="0" IVar="19" Cut="1.4910979687500000e+05" cType="1" res="-6.2343504396267235e-05" rms="3.4482318162918091e-01" purity="5.4282140731811523e-01" nType="0">
            <Node pos="l" depth="3" NCoef="0" IVar="2" Cut="6.9643325000000000e+05" cType="1" res="3.6128173815086484e-04" rms="3.4468173980712891e-01" purity="5.5516964197158813e-01" nType="0">
              <Node pos="l" depth="4" NCoef="0" IVar="-1" Cut="0.0000000000000000e+00" cType="1" res="-1.2534730194602162e-04" rms="3.4625324606895447e-01" purity="5.6211417913436890e-01" nType="-99"/>
              <Node pos="r" depth="4" NCoef="0" IVar="-1" Cut="0.0000000000000000e+00" cType="1" res="1.3811863027513027e-02" rms="3.0295419692993164e-01" purity="3.8342127203941345e-01" nType="-99"/>
            </Node>
            <Node pos="r" depth="3" NCoef="0" IVar="12" Cut="3.0142781734466553e+00" cType="1" res="-8.2103181630373001e-03" rms="3.4743168950080872e-01" purity="3.0531743168830872e-01" nType="0">
              <Node pos="l" depth="4" NCoef="0" IVar="-1" Cut="0.0000000000000000e+00" cType="1" res="6.6498399246484041e-04" rms="3.5514986515045166e-01" purity="3.2433000206947327e-01" nType="-99"/>
              <Node pos="r" depth="4" NCoef="0" IVar="-1" Cut="0.0000000000000000e+00" cType="1" res="-2.7635097503662109e-02" rms="3.2609561085700989e-01" purity="2.5749868154525757e-01" nType="-99"/>
            </Node>
          </Node>
          <Node pos="r" depth="2" NCoef="0" IVar="14" Cut="1.4947742223739624e+00" cType="1" res="-9.5347575843334198e-03" rms="3.3054566383361816e-01" purity="2.6902425289154053e-01" nType="0">
            <Node pos="l" depth="3" NCoef="0" IVar="-1" Cut="0.0000000000000000e+00" cType="1" res="-2.3119958117604256e-02" rms="3.3868864178657532e-01" purity="2.3982508480548859e-01" nType="-99"/>
            <Node pos="r" depth="3" NCoef="0" IVar="-1" Cut="0.0000000000000000e+00" cType="1" res="2.0524351857602596e-03" rms="3.2440283894538879e-01" purity="2.8869488835334778e-01" nType="-99"/>
          </Node>
        </Node>
        <Node pos="r" depth="1" NCoef="0" IVar="11" Cut="6.9075554609298706e-01" cType="1" res="1.5237939078360796e-03" rms="3.2294711470603943e-01" purity="3.5841417312622070e-01" nType="0">
          <Node pos="l" depth="2" NCoef="0" IVar="16" Cut="1.2047272920608521e+00" cType="1" res="-3.7370210047811270e-03" rms="3.3437082171440125e-01" purity="4.8312690854072571e-01" nType="0">
            <Node pos="l" depth="3" NCoef="0" IVar="-1" Cut="0.0000000000000000e+00" cType="1" res="6.0522849671542645e-03" rms="3.1034713983535767e-01" purity="7.0884704589843750e-01" nType="-99"/>
            <Node pos="r" depth="3" NCoef="0" IVar="16" Cut="1.7362542152404785e+00" cType="1" res="-1.1615612544119358e-02" rms="3.5200995206832886e-01" purity="3.0463582277297974e-01" nType="0">
              <Node pos="l" depth="4" NCoef="0" IVar="-1" Cut="0.0000000000000000e+00" cType="1" res="-2.3044720292091370e-02" rms="3.4292545914649963e-01" purity="3.7494111061096191e-01" nType="-99"/>
              <Node pos="r" depth="4" NCoef="0" IVar="-1" Cut="0.0000000000000000e+00" cType="1" res="-2.4121033493429422e-03" rms="3.5569399595260620e-01" purity="2.7301636338233948e-01" nType="-99"/>
            </Node>
          </Node>
          <Node pos="r" depth="2" NCoef="0" IVar="16" Cut="7.7084559202194214e-01" cType="1" res="4.2894938960671425e-03" rms="3.1674125790596008e-01" purity="2.9285052418708801e-01" nType="0">
            <Node pos="l" depth="3" NCoef="0" IVar="-1" Cut="0.0000000000000000e+00" cType="1" res="-9.8200859501957893e-03" rms="3.2359904050827026e-01" purity="5.6218940019607544e-01" nType="-99"/>
            <Node pos="r" depth="3" NCoef="0" IVar="1" Cut="1.6731665625000000e+05" cType="1" res="6.9712344557046890e-03" rms="3.1540670990943909e-01" purity="2.4397861957550049e-01" nType="0">
              <Node pos="l" depth="4" NCoef="0" IVar="-1" Cut="0.0000000000000000e+00" cType="1" res="4.4264025054872036e-03" rms="3.1192433834075928e-01" purity="2.3525847494602203e-01" nType="-99"/>
              <Node pos="r" depth="4" NCoef="0" IVar="-1" Cut="0.0000000000000000e+00" cType="1" res="1.9545076414942741e-02" rms="3.3493018150329590e-01" purity="2.9572436213493347e-01" nType="-99"/>
            </Node>
          </Node>
        </Node>
      </Node>
    </BinaryTree>
    <BinaryTree type="DecisionTree" boostWeight="1.0000000000000000e+00" itree="170">
      <Node pos="s" depth="0" NCoef="0" IVar="11" Cut="4.9856403470039368e-01" cType="1" res="-2.3825025436963188e-06" rms="3.4029164910316467e-01" purity="5.0000000000000000e-01" nType="0">
        <Node pos="l" depth="1" NCoef="0" IVar="11" Cut="4.7580194473266602e-01" cType="1" res="1.9631644245237112e-03" rms="3.2056632637977600e-01" purity="7.0127981901168823e-01" nType="0">
          <Node pos="l" depth="2" NCoef="0" IVar="12" Cut="2.5023748874664307e+00" cType="1" res="3.3135404810309410e-03" rms="3.1981149315834045e-01" purity="7.0802140235900879e-01" nType="0">
            <Node pos="l" depth="3" NCoef="0" IVar="7" Cut="2.2867136718750000e+04" cType="1" res="8.7061598896980286e-03" rms="3.5227400064468384e-01" purity="5.2090120315551758e-01" nType="0">
              <Node pos="l" depth="4" NCoef="0" IVar="-1" Cut="0.0000000000000000e+00" cType="1" res="-7.0312023162841797e-03" rms="3.2379454374313354e-01" purity="5.8418524265289307e-01" nType="-99"/>
              <Node pos="r" depth="4" NCoef="0" IVar="-1" Cut="0.0000000000000000e+00" cType="1" res="1.4059036970138550e-02" rms="3.6821427941322327e-01" purity="4.8220470547676086e-01" nType="-99"/>
            </Node>
            <Node pos="r" depth="3" NCoef="0" IVar="12" Cut="2.9417622089385986e+00" cType="1" res="3.5759096499532461e-04" rms="3.0049201846122742e-01" purity="8.1059092283248901e-01" nType="0">
              <Node pos="l" depth="4" NCoef="0" IVar="-1" Cut="0.0000000000000000e+00" cType="1" res="-8.2686524838209152e-03" rms="2.9952055215835571e-01" purity="8.1061619520187378e-01" nType="-99"/>
              <Node pos="r" depth="4" NCoef="0" IVar="-1" Cut="0.0000000000000000e+00" cType="1" res="7.3235221207141876e-03" rms="3.0112197995185852e-01" purity="8.1057006120681763e-01" nType="-99"/>
            </Node>
          </Node>
          <Node pos="r" depth="2" NCoef="0" IVar="-1" Cut="0.0000000000000000e+00" cType="1" res="-9.7657255828380585e-03" rms="3.2752081751823425e-01" purity="6.3577204942703247e-01" nType="-99"/>
        </Node>
        <Node pos="r" depth="1" NCoef="0" IVar="19" Cut="3.8846715625000000e+05" cType="1" res="-3.5352807026356459e-04" rms="3.4369525313377380e-01" purity="4.6404129266738892e-01" nType="0">
          <Node pos="l" depth="2" NCoef="0" IVar="19" Cut="5.4875058593750000e+04" cType="1" res="-2.2391266247723252e-04" rms="3.4488952159881592e-01" purity="4.6901485323905945e-01" nType="0">
            <Node pos="l" depth="3" NCoef="0" IVar="15" Cut="9.1183429956436157e-01" cType="1" res="-1.3713506050407887e-03" rms="3.3982375264167786e-01" purity="5.4110705852508545e-01" nType="0">
              <Node pos="l" depth="4" NCoef="0" IVar="-1" Cut="0.0000000000000000e+00" cType="1" res="-8.0595482140779495e-03" rms="3.5600063204765320e-01" purity="4.8458775877952576e-01" nType="-99"/>
              <Node pos="r" depth="4" NCoef="0" IVar="-1" Cut="0.0000000000000000e+00" cType="1" res="-2.8491385819506831e-05" rms="3.3740353584289551e-01" purity="5.4926568269729614e-01" nType="-99"/>
            </Node>
            <Node pos="r" depth="3" NCoef="0" IVar="19" Cut="7.0760367187500000e+04" cType="1" res="8.4731151582673192e-04" rms="3.4954914450645447e-01" purity="4.0171107649803162e-01" nType="0">
              <Node pos="l" depth="4" NCoef="0" IVar="-1" Cut="0.0000000000000000e+00" cType="1" res="5.6232605129480362e-03" rms="3.5203638672828674e-01" purity="6.2258017063140869e-01" nType="-99"/>
              <Node pos="r" depth="4" NCoef="0" IVar="-1" Cut="0.0000000000000000e+00" cType="1" res="-9.3500787625089288e-04" rms="3.4873422980308533e-01" purity="3.3181968331336975e-01" nType="-99"/>
            </Node>
          </Node>
          <Node pos="r" depth="2" NCoef="0" IVar="-1" Cut="0.0000000000000000e+00" cType="1" res="-1.4011137187480927e-02" rms="2.4629372358322144e-01" purity="1.1699379235506058e-01" nType="-99"/>
        </Node>
      </Node>
    </BinaryTree>
    <BinaryTree type="DecisionTree" boostWeight="1.0000000000000000e+00" itree="171">
      <Node pos="s" depth="0" NCoef="0" IVar="15" Cut="1.5260878801345825e+00" cType="1" res="-1.4505250192087260e-06" rms="3.4026765823364258e-01" purity="5.0000000000000000e-01" nType="0">
        <Node pos="l" depth="1" NCoef="0" IVar="12" Cut="3.3794958591461182e+00" cType="1" res="1.2213485315442085e-03" rms="3.6058378219604492e-01" purity="4.8203909397125244e-01" nType="0">
          <Node pos="l" depth="2" NCoef="0" IVar="16" Cut="1.6397788524627686e+00" cType="1" res="2.3652652744203806e-03" rms="3.6323350667953491e-01" purity="4.9259844422340393e-01" nType="0">
            <Node pos="l" depth="3" NCoef="0" IVar="9" Cut="1.3040926562500000e+05" cType="1" res="-1.8483544699847698e-03" rms="3.4849435091018677e-01" purity="5.5300629138946533e-01" nType="0">
              <Node pos="l" depth="4" NCoef="0" IVar="-1" Cut="0.0000000000000000e+00" cType="1" res="-3.8879781495779753e-03" rms="3.6805447936058044e-01" purity="5.5417287349700928e-01" nType="-99"/>
              <Node pos="r" depth="4" NCoef="0" IVar="-1" Cut="0.0000000000000000e+00" cType="1" res="6.5669892355799675e-03" rms="3.0009087920188904e-01" purity="5.5040109157562256e-01" nType="-99"/>
            </Node>
            <Node pos="r" depth="3" NCoef="0" IVar="21" Cut="8.6333437500000000e+04" cType="1" res="7.7875228598713875e-03" rms="3.8129466772079468e-01" purity="4.1486313939094543e-01" nType="0">
              <Node pos="l" depth="4" NCoef="0" IVar="-1" Cut="0.0000000000000000e+00" cType="1" res="7.0790071040391922e-03" rms="4.0284296870231628e-01" purity="4.6337872743606567e-01" nType="-99"/>
              <Node pos="r" depth="4" NCoef="0" IVar="-1" Cut="0.0000000000000000e+00" cType="1" res="-1.1082877404987812e-02" rms="2.6894649863243103e-01" purity="2.0607200264930725e-01" nType="-99"/>
            </Node>
          </Node>
          <Node pos="r" depth="2" NCoef="0" IVar="16" Cut="1.7085096836090088e+00" cType="1" res="-1.1214606463909149e-02" rms="3.3015361428260803e-01" purity="3.6724448204040527e-01" nType="0">
            <Node pos="l" depth="3" NCoef="0" IVar="-1" Cut="0.0000000000000000e+00" cType="1" res="9.9500296637415886e-03" rms="3.3155634999275208e-01" purity="4.8809447884559631e-01" nType="-99"/>
            <Node pos="r" depth="3" NCoef="0" IVar="-1" Cut="0.0000000000000000e+00" cType="1" res="-2.9124634340405464e-02" rms="3.2713454961776733e-01" purity="2.4537527561187744e-01" nType="-99"/>
          </Node>
        </Node>
        <Node pos="r" depth="1" NCoef="0" IVar="13" Cut="3.8392155170440674e+00" cType="1" res="-6.2207336304709315e-04" rms="3.2947570085525513e-01" purity="5.0911593437194824e-01" nType="0">
          <Node pos="l" depth="2" NCoef="0" IVar="0" Cut="7.3333334922790527e+00" cType="1" res="-8.8549486827105284e-04" rms="3.2900384068489075e-01" purity="5.1062887907028198e-01" nType="0">
            <Node pos="l" depth="3" NCoef="0" IVar="11" Cut="1.9319025278091431e+00" cType="1" res="1.4133407967165112e-04" rms="3.2489940524101257e-01" purity="5.5767089128494263e-01" nType="0">
              <Node pos="l" depth="4" NCoef="0" IVar="-1" Cut="0.0000000000000000e+00" cType="1" res="1.2539823073893785e-03" rms="3.3177521824836731e-01" purity="6.1780667304992676e-01" nType="-99"/>
              <Node pos="r" depth="4" NCoef="0" IVar="-1" Cut="0.0000000000000000e+00" cType="1" res="-9.2194732278585434e-03" rms="2.7895393967628479e-01" purity="1.8917250633239746e-01" nType="-99"/>
            </Node>
            <Node pos="r" depth="3" NCoef="0" IVar="11" Cut="2.0177283287048340e+00" cType="1" res="0.0000000000000000e+00" rms="0.0000000000000000e+00" purity="3.4361484646797180e-01" nType="0">
              <Node pos="l" depth="4" NCoef="0" IVar="-1" Cut="0.0000000000000000e+00" cType="1" res="-5.5167512036859989e-03" rms="3.5627958178520203e-01" purity="3.8707792758941650e-01" nType="-99"/>
              <Node pos="r" depth="4" NCoef="0" IVar="-1" Cut="0.0000000000000000e+00" cType="1" res="1.5419474802911282e-02" rms="2.5995683670043945e-01" purity="1.0718972235918045e-01" nType="-99"/>
            </Node>
          </Node>
          <Node pos="r" depth="2" NCoef="0" IVar="-1" Cut="0.0000000000000000e+00" cType="1" res="8.7516335770487785e-03" rms="3.4910967946052551e-01" purity="4.4359046220779419e-01" nType="-99"/>
        </Node>
      </Node>
    </BinaryTree>
    <BinaryTree type="DecisionTree" boostWeight="1.0000000000000000e+00" itree="172">
      <Node pos="s" depth="0" NCoef="0" IVar="15" Cut="3.3024377822875977e+00" cType="1" res="-2.1267765077936929e-06" rms="3.4022602438926697e-01" purity="5.0000000000000000e-01" nType="0">
        <Node pos="l" depth="1" NCoef="0" IVar="14" Cut="7.3034286499023438e-01" cType="1" res="9.5236144261434674e-05" rms="3.4028521180152893e-01" purity="5.0177645683288574e-01" nType="0">
          <Node pos="l" depth="2" NCoef="0" IVar="11" Cut="1.9258494377136230e+00" cType="1" res="-3.3112266100943089e-03" rms="3.5347178578376770e-01" purity="4.4496139883995056e-01" nType="0">
            <Node pos="l" depth="3" NCoef="0" IVar="11" Cut="1.2187600135803223e+00" cType="1" res="1.8293762113898993e-03" rms="3.7341141700744629e-01" purity="5.2989012002944946e-01" nType="0">
              <Node pos="l" depth="4" NCoef="0" IVar="-1" Cut="0.0000000000000000e+00" cType="1" res="-5.5516897700726986e-03" rms="3.6238840222358704e-01" purity="5.8533018827438354e-01" nType="-99"/>
              <Node pos="r" depth="4" NCoef="0" IVar="-1" Cut="0.0000000000000000e+00" cType="1" res="1.2752370908856392e-02" rms="3.9192679524421692e-01" purity="4.2990240454673767e-01" nType="-99"/>
            </Node>
            <Node pos="r" depth="3" NCoef="0" IVar="-1" Cut="0.0000000000000000e+00" cType="1" res="-2.6758654043078423e-02" rms="2.6614347100257874e-01" purity="1.3059000670909882e-01" nType="-99"/>
          </Node>
          <Node pos="r" depth="2" NCoef="0" IVar="5" Cut="6.3952118750000000e+05" cType="1" res="3.7690479075536132e-04" rms="3.3917036652565002e-01" purity="5.0647437572479248e-01" nType="0">
            <Node pos="l" depth="3" NCoef="0" IVar="11" Cut="2.8506696224212646e-01" cType="1" res="2.0328885875642300e-04" rms="3.4033036231994629e-01" purity="5.1307767629623413e-01" nType="0">
              <Node pos="l" depth="4" NCoef="0" IVar="-1" Cut="0.0000000000000000e+00" cType="1" res="8.4471497684717178e-03" rms="3.0012494325637817e-01" purity="7.8084832429885864e-01" nType="-99"/>
              <Node pos="r" depth="4" NCoef="0" IVar="-1" Cut="0.0000000000000000e+00" cType="1" res="-2.1934365577180870e-05" rms="3.4140413999557495e-01" purity="5.0544542074203491e-01" nType="-99"/>
            </Node>
            <Node pos="r" depth="3" NCoef="0" IVar="-1" Cut="0.0000000000000000e+00" cType="1" res="1.5063722617924213e-02" rms="2.6576972007751465e-01" purity="1.3529737293720245e-01" nType="-99"/>
          </Node>
        </Node>
        <Node pos="r" depth="1" NCoef="0" IVar="-1" Cut="0.0000000000000000e+00" cType="1" res="-4.5261005870997906e-03" rms="3.3694851398468018e-01" purity="4.0335181355476379e-01" nType="-99"/>
      </Node>
    </BinaryTree>
    <BinaryTree type="DecisionTree" boostWeight="1.0000000000000000e+00" itree="173">
      <Node pos="s" depth="0" NCoef="0" IVar="15" Cut="1.5260878801345825e+00" cType="1" res="-2.4709338504180778e-06" rms="3.4021046757698059e-01" purity="5.0000000000000000e-01" nType="0">
        <Node pos="l" depth="1" NCoef="0" IVar="18" Cut="9.1171742187500000e+04" cType="1" res="1.0066948598250747e-03" rms="3.6048504710197449e-01" purity="4.8203909397125244e-01" nType="0">
          <Node pos="l" depth="2" NCoef="0" IVar="8" Cut="6.9612359375000000e+04" cType="1" res="2.2035313304513693e-03" rms="3.6615109443664551e-01" purity="5.0316733121871948e-01" nType="0">
            <Node pos="l" depth="3" NCoef="0" IVar="20" Cut="5.7275738281250000e+04" cType="1" res="-3.1684793066233397e-04" rms="3.8446319103240967e-01" purity="6.0438925027847290e-01" nType="0">
              <Node pos="l" depth="4" NCoef="0" IVar="-1" Cut="0.0000000000000000e+00" cType="1" res="1.7334091244265437e-03" rms="3.8114306330680847e-01" purity="6.1858099699020386e-01" nType="-99"/>
              <Node pos="r" depth="4" NCoef="0" IVar="-1" Cut="0.0000000000000000e+00" cType="1" res="-1.3036279007792473e-02" rms="4.0713745355606079e-01" purity="5.0126528739929199e-01" nType="-99"/>
            </Node>
            <Node pos="r" depth="3" NCoef="0" IVar="18" Cut="2.1462488281250000e+04" cType="1" res="9.9992258474230766e-03" rms="3.0244180560112000e-01" purity="1.9008146226406097e-01" nType="0">
              <Node pos="l" depth="4" NCoef="0" IVar="-1" Cut="0.0000000000000000e+00" cType="1" res="-7.3444736190140247e-03" rms="2.7673906087875366e-01" purity="1.6495710611343384e-01" nType="-99"/>
              <Node pos="r" depth="4" NCoef="0" IVar="-1" Cut="0.0000000000000000e+00" cType="1" res="2.4315498769283295e-02" rms="3.2028070092201233e-01" purity="2.0943205058574677e-01" nType="-99"/>
            </Node>
          </Node>
          <Node pos="r" depth="2" NCoef="0" IVar="6" Cut="2.1581750000000000e+05" cType="1" res="-9.1233877465128899e-03" rms="3.0819961428642273e-01" purity="3.0320850014686584e-01" nType="0">
            <Node pos="l" depth="3" NCoef="0" IVar="-1" Cut="0.0000000000000000e+00" cType="1" res="-1.7237365245819092e-02" rms="3.6627516150474548e-01" purity="3.7023717164993286e-01" nType="-99"/>
            <Node pos="r" depth="3" NCoef="0" IVar="0" Cut="5.3333334922790527e+00" cType="1" res="8.7444932432845235e-04" rms="2.5842675566673279e-01" purity="2.5535875558853149e-01" nType="0">
              <Node pos="l" depth="4" NCoef="0" IVar="-1" Cut="0.0000000000000000e+00" cType="1" res="1.7740925773978233e-02" rms="2.8252220153808594e-01" purity="3.5699531435966492e-01" nType="-99"/>
              <Node pos="r" depth="4" NCoef="0" IVar="-1" Cut="0.0000000000000000e+00" cType="1" res="-2.0065931603312492e-02" rms="2.3151354491710663e-01" purity="1.5556654334068298e-01" nType="-99"/>
            </Node>
          </Node>
        </Node>
        <Node pos="r" depth="1" NCoef="0" IVar="16" Cut="3.2300150394439697e+00" cType="1" res="-5.1466579316183925e-04" rms="3.2944205403327942e-01" purity="5.0911593437194824e-01" nType="0">
          <Node pos="l" depth="2" NCoef="0" IVar="16" Cut="1.0906040668487549e+00" cType="1" res="-7.6117599382996559e-04" rms="3.2928085327148438e-01" purity="5.1443803310394287e-01" nType="0">
            <Node pos="l" depth="3" NCoef="0" IVar="15" Cut="1.6806881427764893e+00" cType="1" res="1.6687426250427961e-03" rms="3.0215322971343994e-01" purity="7.3900175094604492e-01" nType="0">
              <Node pos="l" depth="4" NCoef="0" IVar="-1" Cut="0.0000000000000000e+00" cType="1" res="-1.0189692489802837e-02" rms="3.3154213428497314e-01" purity="6.3957154750823975e-01" nType="-99"/>
              <Node pos="r" depth="4" NCoef="0" IVar="-1" Cut="0.0000000000000000e+00" cType="1" res="2.8686784207820892e-03" rms="2.9949322342872620e-01" purity="7.4746298789978027e-01" nType="-99"/>
            </Node>
            <Node pos="r" depth="3" NCoef="0" IVar="13" Cut="2.1938374042510986e+00" cType="1" res="-2.4074462708085775e-03" rms="3.4644517302513123e-01" purity="3.6229607462882996e-01" nType="0">
              <Node pos="l" depth="4" NCoef="0" IVar="-1" Cut="0.0000000000000000e+00" cType="1" res="1.0769652435556054e-03" rms="3.2517382502555847e-01" purity="2.4008543789386749e-01" nType="-99"/>
              <Node pos="r" depth="4" NCoef="0" IVar="-1" Cut="0.0000000000000000e+00" cType="1" res="-4.1098371148109436e-03" rms="3.6451253294944763e-01" purity="4.7236919403076172e-01" nType="-99"/>
            </Node>
          </Node>
          <Node pos="r" depth="2" NCoef="0" IVar="-1" Cut="0.0000000000000000e+00" cType="1" res="9.5300422981381416e-03" rms="3.3673912286758423e-01" purity="2.5858071446418762e-01" nType="-99"/>
        </Node>
      </Node>
    </BinaryTree>
    <BinaryTree type="DecisionTree" boostWeight="1.0000000000000000e+00" itree="174">
      <Node pos="s" depth="0" NCoef="0" IVar="18" Cut="1.4775275000000000e+05" cType="1" res="-3.4186120956292143e-06" rms="3.4016123414039612e-01" purity="5.0000000000000000e-01" nType="0">
        <Node pos="l" depth="1" NCoef="0" IVar="18" Cut="2.7605058593750000e+04" cType="1" res="3.0679794144816697e-04" rms="3.4819284081459045e-01" purity="5.1551795005798340e-01" nType="0">
          <Node pos="l" depth="2" NCoef="0" IVar="5" Cut="1.1241382031250000e+05" cType="1" res="-3.1472495757043362e-03" rms="3.4098452329635620e-01" purity="4.8333203792572021e-01" nType="0">
            <Node pos="l" depth="3" NCoef="0" IVar="18" Cut="6.9071002197265625e+02" cType="1" res="5.9209979372099042e-04" rms="3.4633252024650574e-01" purity="5.0618654489517212e-01" nType="0">
              <Node pos="l" depth="4" NCoef="0" IVar="-1" Cut="0.0000000000000000e+00" cType="1" res="2.5794354733079672e-03" rms="3.4339386224746704e-01" purity="5.1092827320098877e-01" nType="-99"/>
              <Node pos="r" depth="4" NCoef="0" IVar="-1" Cut="0.0000000000000000e+00" cType="1" res="-2.7925152331590652e-02" rms="3.9126089215278625e-01" purity="4.2355301976203918e-01" nType="-99"/>
            </Node>
            <Node pos="r" depth="3" NCoef="0" IVar="1" Cut="8.4399750000000000e+04" cType="1" res="-2.0510016009211540e-02" rms="3.1438276171684265e-01" purity="3.7721270322799683e-01" nType="0">
              <Node pos="l" depth="4" NCoef="0" IVar="-1" Cut="0.0000000000000000e+00" cType="1" res="-3.1116364523768425e-02" rms="2.9780912399291992e-01" purity="3.0634126067161560e-01" nType="-99"/>
              <Node pos="r" depth="4" NCoef="0" IVar="-1" Cut="0.0000000000000000e+00" cType="1" res="1.0012068087235093e-03" rms="3.4125167131423950e-01" purity="5.0540363788604736e-01" nType="-99"/>
            </Node>
          </Node>
          <Node pos="r" depth="2" NCoef="0" IVar="9" Cut="1.6020118750000000e+05" cType="1" res="2.3304063361138105e-03" rms="3.5233169794082642e-01" purity="5.3437459468841553e-01" nType="0">
            <Node pos="l" depth="3" NCoef="0" IVar="7" Cut="2.7304982421875000e+04" cType="1" res="4.4579538516700268e-03" rms="3.6459314823150635e-01" purity="5.5397909879684448e-01" nType="0">
              <Node pos="l" depth="4" NCoef="0" IVar="-1" Cut="0.0000000000000000e+00" cType="1" res="-8.7996330112218857e-03" rms="3.2654795050621033e-01" purity="7.3175299167633057e-01" nType="-99"/>
              <Node pos="r" depth="4" NCoef="0" IVar="-1" Cut="0.0000000000000000e+00" cType="1" res="6.4007830806076527e-03" rms="3.7688389420509338e-01" purity="4.9172404408454895e-01" nType="-99"/>
            </Node>
            <Node pos="r" depth="3" NCoef="0" IVar="12" Cut="2.4959938526153564e+00" cType="1" res="-5.3079212084412575e-03" rms="3.0414348840713501e-01" purity="4.6399036049842834e-01" nType="0">
              <Node pos="l" depth="4" NCoef="0" IVar="-1" Cut="0.0000000000000000e+00" cType="1" res="-2.6100298389792442e-02" rms="3.0252286791801453e-01" purity="2.9971721768379211e-01" nType="-99"/>
              <Node pos="r" depth="4" NCoef="0" IVar="-1" Cut="0.0000000000000000e+00" cType="1" res="-2.5793032255023718e-03" rms="3.0428180098533630e-01" purity="4.8864299058914185e-01" nType="-99"/>
            </Node>
          </Node>
        </Node>
        <Node pos="r" depth="1" NCoef="0" IVar="14" Cut="2.0208415985107422e+00" cType="1" res="-1.3942921068519354e-03" rms="3.0152869224548340e-01" purity="4.3042436242103577e-01" nType="0">
          <Node pos="l" depth="2" NCoef="0" IVar="12" Cut="3.0730288028717041e+00" cType="1" res="6.3238660804927349e-03" rms="2.9359728097915649e-01" purity="2.9972711205482483e-01" nType="0">
            <Node pos="l" depth="3" NCoef="0" IVar="12" Cut="2.5460398197174072e+00" cType="1" res="1.2213788926601410e-02" rms="3.0533796548843384e-01" purity="3.2132169604301453e-01" nType="0">
              <Node pos="l" depth="4" NCoef="0" IVar="-1" Cut="0.0000000000000000e+00" cType="1" res="4.1384864598512650e-03" rms="3.0754125118255615e-01" purity="2.9975971579551697e-01" nType="-99"/>
              <Node pos="r" depth="4" NCoef="0" IVar="-1" Cut="0.0000000000000000e+00" cType="1" res="2.4801371619105339e-02" rms="3.0254653096199036e-01" purity="3.4579369425773621e-01" nType="-99"/>
            </Node>
            <Node pos="r" depth="3" NCoef="0" IVar="-1" Cut="0.0000000000000000e+00" cType="1" res="-2.0533341914415359e-02" rms="2.4568583071231842e-01" purity="2.2213876247406006e-01" nType="-99"/>
          </Node>
          <Node pos="r" depth="2" NCoef="0" IVar="13" Cut="2.1016228199005127e+00" cType="1" res="-5.2308794111013412e-03" rms="3.0532208085060120e-01" purity="4.9539211392402649e-01" nType="0">
            <Node pos="l" depth="3" NCoef="0" IVar="12" Cut="1.8059159517288208e+00" cType="1" res="-1.5260575339198112e-02" rms="3.0450108647346497e-01" purity="1.9626295566558838e-01" nType="0">
              <Node pos="l" depth="4" NCoef="0" IVar="-1" Cut="0.0000000000000000e+00" cType="1" res="-3.8890943396836519e-03" rms="3.1756302714347839e-01" purity="1.8826395273208618e-01" nType="-99"/>
              <Node pos="r" depth="4" NCoef="0" IVar="-1" Cut="0.0000000000000000e+00" cType="1" res="-3.3580515533685684e-02" rms="2.8539118170738220e-01" purity="2.0697352290153503e-01" nType="-99"/>
            </Node>
            <Node pos="r" depth="3" NCoef="0" IVar="5" Cut="3.7556200000000000e+05" cType="1" res="-9.6352159744128585e-04" rms="3.0557090044021606e-01" purity="6.2266331911087036e-01" nType="0">
              <Node pos="l" depth="4" NCoef="0" IVar="-1" Cut="0.0000000000000000e+00" cType="1" res="2.1544995252043009e-03" rms="3.0799055099487305e-01" purity="6.6297811269760132e-01" nType="-99"/>
              <Node pos="r" depth="4" NCoef="0" IVar="-1" Cut="0.0000000000000000e+00" cType="1" res="-2.1006621420383453e-02" rms="2.8935229778289795e-01" purity="3.7233829498291016e-01" nType="-99"/>
            </Node>
          </Node>
        </Node>
      </Node>
    </BinaryTree>
    <BinaryTree type="DecisionTree" boostWeight="1.0000000000000000e+00" itree="175">
      <Node pos="s" depth="0" NCoef="0" IVar="11" Cut="7.3745375871658325e-01" cType="1" res="-4.1237153709516861e-06" rms="3.4005269408226013e-01" purity="5.0000000000000000e-01" nType="0">
        <Node pos="l" depth="1" NCoef="0" IVar="11" Cut="6.3506704568862915e-01" cType="1" res="1.1555058881640434e-03" rms="3.2842889428138733e-01" purity="6.6764646768569946e-01" nType="0">
          <Node pos="l" depth="2" NCoef="0" IVar="4" Cut="5.3185218750000000e+05" cType="1" res="2.8241928666830063e-03" rms="3.2314547896385193e-01" purity="6.8256825208663940e-01" nType="0">
            <Node pos="l" depth="3" NCoef="0" IVar="21" Cut="2.9850728515625000e+04" cType="1" res="4.6078185550868511e-03" rms="3.2353734970092773e-01" purity="7.3503118753433228e-01" nType="0">
              <Node pos="l" depth="4" NCoef="0" IVar="-1" Cut="0.0000000000000000e+00" cType="1" res="-1.7564781592227519e-04" rms="3.2979473471641541e-01" purity="6.9176501035690308e-01" nType="-99"/>
              <Node pos="r" depth="4" NCoef="0" IVar="-1" Cut="0.0000000000000000e+00" cType="1" res="1.2283186428248882e-02" rms="3.1214669346809387e-01" purity="8.1049150228500366e-01" nType="-99"/>
            </Node>
            <Node pos="r" depth="3" NCoef="0" IVar="14" Cut="2.1115157604217529e+00" cType="1" res="-5.1530101336538792e-03" rms="3.2126575708389282e-01" purity="4.4792956113815308e-01" nType="0">
              <Node pos="l" depth="4" NCoef="0" IVar="-1" Cut="0.0000000000000000e+00" cType="1" res="7.0478203706443310e-03" rms="3.3925676345825195e-01" purity="4.3054017424583435e-01" nType="-99"/>
              <Node pos="r" depth="4" NCoef="0" IVar="-1" Cut="0.0000000000000000e+00" cType="1" res="-1.8368244171142578e-02" rms="3.0292785167694092e-01" purity="4.6418273448944092e-01" nType="-99"/>
            </Node>
          </Node>
          <Node pos="r" depth="2" NCoef="0" IVar="5" Cut="2.7141721875000000e+05" cType="1" res="-5.0525809638202190e-03" rms="3.4730970859527588e-01" purity="6.1213225126266479e-01" nType="0">
            <Node pos="l" depth="3" NCoef="0" IVar="5" Cut="1.5407475000000000e+05" cType="1" res="-1.0035011917352676e-02" rms="3.4907466173171997e-01" purity="6.5717715024948120e-01" nType="0">
              <Node pos="l" depth="4" NCoef="0" IVar="-1" Cut="0.0000000000000000e+00" cType="1" res="-1.7709400271996856e-03" rms="3.4890770912170410e-01" purity="6.7916798591613770e-01" nType="-99"/>
              <Node pos="r" depth="4" NCoef="0" IVar="-1" Cut="0.0000000000000000e+00" cType="1" res="-2.6879278942942619e-02" rms="3.4858670830726624e-01" purity="5.9496349096298218e-01" nType="-99"/>
            </Node>
            <Node pos="r" depth="3" NCoef="0" IVar="-1" Cut="0.0000000000000000e+00" cType="1" res="1.5878506004810333e-02" rms="3.3778807520866394e-01" purity="3.9795356988906860e-01" nType="-99"/>
          </Node>
        </Node>
        <Node pos="r" depth="1" NCoef="0" IVar="12" Cut="1.2315862178802490e+00" cType="1" res="-5.3475855384021997e-04" rms="3.4523981809616089e-01" purity="4.2328667640686035e-01" nType="0">
          <Node pos="l" depth="2" NCoef="0" IVar="-1" Cut="0.0000000000000000e+00" cType="1" res="7.7286972664296627e-03" rms="3.6485034227371216e-01" purity="2.8171971440315247e-01" nType="-99"/>
          <Node pos="r" depth="2" NCoef="0" IVar="12" Cut="1.6689033508300781e+00" cType="1" res="-7.4366352055221796e-04" rms="3.4484580159187317e-01" purity="4.2602759599685669e-01" nType="0">
            <Node pos="l" depth="3" NCoef="0" IVar="19" Cut="8.6648679687500000e+04" cType="1" res="-6.8821716122329235e-03" rms="3.5770133137702942e-01" purity="3.5647243261337280e-01" nType="0">
              <Node pos="l" depth="4" NCoef="0" IVar="-1" Cut="0.0000000000000000e+00" cType="1" res="-1.3378190807998180e-02" rms="3.7229833006858826e-01" purity="4.4955664873123169e-01" nType="-99"/>
              <Node pos="r" depth="4" NCoef="0" IVar="-1" Cut="0.0000000000000000e+00" cType="1" res="1.0009830817580223e-02" rms="3.3575704693794250e-01" purity="2.2869449853897095e-01" nType="-99"/>
            </Node>
            <Node pos="r" depth="3" NCoef="0" IVar="12" Cut="2.2623617649078369e+00" cType="1" res="-3.5123946145176888e-04" rms="3.4400391578674316e-01" purity="4.3047410249710083e-01" nType="0">
              <Node pos="l" depth="4" NCoef="0" IVar="-1" Cut="0.0000000000000000e+00" cType="1" res="2.7636322192847729e-03" rms="3.6453446745872498e-01" purity="4.4263839721679688e-01" nType="-99"/>
              <Node pos="r" depth="4" NCoef="0" IVar="-1" Cut="0.0000000000000000e+00" cType="1" res="-1.1650079395622015e-03" rms="3.3863037824630737e-01" purity="4.2741119861602783e-01" nType="-99"/>
            </Node>
          </Node>
        </Node>
      </Node>
    </BinaryTree>
    <BinaryTree type="DecisionTree" boostWeight="1.0000000000000000e+00" itree="176">
      <Node pos="s" depth="0" NCoef="0" IVar="5" Cut="4.3468087500000000e+05" cType="1" res="-2.3015495571598876e-06" rms="3.4000590443611145e-01" purity="5.0000000000000000e-01" nType="0">
        <Node pos="l" depth="1" NCoef="0" IVar="11" Cut="2.8506696224212646e-01" cType="1" res="-1.7132340872194618e-04" rms="3.4246897697448730e-01" purity="5.1539814472198486e-01" nType="0">
          <Node pos="l" depth="2" NCoef="0" IVar="-1" Cut="0.0000000000000000e+00" cType="1" res="7.9877618700265884e-03" rms="2.9856660962104797e-01" purity="7.9313409328460693e-01" nType="-99"/>
          <Node pos="r" depth="2" NCoef="0" IVar="5" Cut="1.2254311718750000e+05" cType="1" res="-3.8484053220599890e-04" rms="3.4357118606567383e-01" purity="5.0791871547698975e-01" nType="0">
            <Node pos="l" depth="3" NCoef="0" IVar="1" Cut="4.6727398437500000e+04" cType="1" res="-1.4030684251338243e-03" rms="3.4789708256721497e-01" purity="5.2280974388122559e-01" nType="0">
              <Node pos="l" depth="4" NCoef="0" IVar="-1" Cut="0.0000000000000000e+00" cType="1" res="-4.3402491137385368e-03" rms="3.4782975912094116e-01" purity="3.7415841221809387e-01" nType="-99"/>
              <Node pos="r" depth="4" NCoef="0" IVar="-1" Cut="0.0000000000000000e+00" cType="1" res="1.7684150952845812e-03" rms="3.4791627526283264e-01" purity="6.5514391660690308e-01" nType="-99"/>
            </Node>
            <Node pos="r" depth="3" NCoef="0" IVar="13" Cut="2.9487423896789551e+00" cType="1" res="9.8172749858349562e-04" rms="3.3767345547676086e-01" purity="4.8793327808380127e-01" nType="0">
              <Node pos="l" depth="4" NCoef="0" IVar="-1" Cut="0.0000000000000000e+00" cType="1" res="-2.2172033786773682e-03" rms="3.3870151638984680e-01" purity="4.3803179264068604e-01" nType="-99"/>
              <Node pos="r" depth="4" NCoef="0" IVar="-1" Cut="0.0000000000000000e+00" cType="1" res="9.7175370901823044e-03" rms="3.3455434441566467e-01" purity="6.2835502624511719e-01" nType="-99"/>
            </Node>
          </Node>
        </Node>
        <Node pos="r" depth="1" NCoef="0" IVar="13" Cut="2.6363556385040283e+00" cType="1" res="3.2034567557275295e-03" rms="2.8932812809944153e-01" purity="2.0795036852359772e-01" nType="0">
          <Node pos="l" depth="2" NCoef="0" IVar="18" Cut="1.4799370312500000e+05" cType="1" res="7.0845680311322212e-03" rms="2.8698238730430603e-01" purity="1.7606230080127716e-01" nType="0">
            <Node pos="l" depth="3" NCoef="0" IVar="-1" Cut="0.0000000000000000e+00" cType="1" res="-7.4453111737966537e-03" rms="2.9764464497566223e-01" purity="1.7966321110725403e-01" nType="-99"/>
            <Node pos="r" depth="3" NCoef="0" IVar="15" Cut="2.2136006355285645e+00" cType="1" res="1.4642850495874882e-02" rms="2.8093957901000977e-01" purity="1.7417582869529724e-01" nType="0">
              <Node pos="l" depth="4" NCoef="0" IVar="-1" Cut="0.0000000000000000e+00" cType="1" res="3.7574406713247299e-02" rms="2.9832655191421509e-01" purity="1.7831005156040192e-01" nType="-99"/>
              <Node pos="r" depth="4" NCoef="0" IVar="-1" Cut="0.0000000000000000e+00" cType="1" res="3.8198446854948997e-03" rms="2.6474770903587341e-01" purity="1.7067091166973114e-01" nType="-99"/>
            </Node>
          </Node>
          <Node pos="r" depth="2" NCoef="0" IVar="-1" Cut="0.0000000000000000e+00" cType="1" res="-6.5903337672352791e-03" rms="2.9486307501792908e-01" purity="2.8730565309524536e-01" nType="-99"/>
        </Node>
      </Node>
    </BinaryTree>
    <BinaryTree type="DecisionTree" boostWeight="1.0000000000000000e+00" itree="177">
      <Node pos="s" depth="0" NCoef="0" IVar="13" Cut="2.4682803153991699e+00" cType="1" res="-2.2929111764824484e-06" rms="3.3997943997383118e-01" purity="5.0000000000000000e-01" nType="0">
        <Node pos="l" depth="1" NCoef="0" IVar="10" Cut="1.6236025000000000e+05" cType="1" res="8.2179543096572161e-04" rms="3.3893343806266785e-01" purity="3.5427215695381165e-01" nType="0">
          <Node pos="l" depth="2" NCoef="0" IVar="1" Cut="5.2683695312500000e+04" cType="1" res="1.6564872348681092e-03" rms="3.4520998597145081e-01" purity="3.6696434020996094e-01" nType="0">
            <Node pos="l" depth="3" NCoef="0" IVar="3" Cut="1.0511728125000000e+05" cType="1" res="7.2482931427657604e-03" rms="3.2857167720794678e-01" purity="2.5235468149185181e-01" nType="0">
              <Node pos="l" depth="4" NCoef="0" IVar="-1" Cut="0.0000000000000000e+00" cType="1" res="-1.2895368272438645e-03" rms="3.4229075908660889e-01" purity="2.1143130958080292e-01" nType="-99"/>
              <Node pos="r" depth="4" NCoef="0" IVar="-1" Cut="0.0000000000000000e+00" cType="1" res="1.1585791595280170e-02" rms="3.2105058431625366e-01" purity="2.7379941940307617e-01" nType="-99"/>
            </Node>
            <Node pos="r" depth="3" NCoef="0" IVar="14" Cut="1.2050491571426392e+00" cType="1" res="-4.0211235173046589e-03" rms="3.6123201251029968e-01" purity="4.8333269357681274e-01" nType="0">
              <Node pos="l" depth="4" NCoef="0" IVar="-1" Cut="0.0000000000000000e+00" cType="1" res="-1.2264161370694637e-02" rms="3.6624163389205933e-01" purity="4.2492267489433289e-01" nType="-99"/>
              <Node pos="r" depth="4" NCoef="0" IVar="-1" Cut="0.0000000000000000e+00" cType="1" res="-2.0551284251268953e-04" rms="3.5972085595130920e-01" purity="4.9977272748947144e-01" nType="-99"/>
            </Node>
          </Node>
          <Node pos="r" depth="2" NCoef="0" IVar="2" Cut="8.1571706250000000e+05" cType="1" res="-8.3876885473728180e-03" rms="2.5962528586387634e-01" purity="2.1423429250717163e-01" nType="0">
            <Node pos="l" depth="3" NCoef="0" IVar="2" Cut="5.5394000000000000e+05" cType="1" res="-1.9947178661823273e-02" rms="2.8625109791755676e-01" purity="2.8071877360343933e-01" nType="0">
              <Node pos="l" depth="4" NCoef="0" IVar="-1" Cut="0.0000000000000000e+00" cType="1" res="-2.9383972287178040e-02" rms="3.0052661895751953e-01" purity="3.7300711870193481e-01" nType="-99"/>
              <Node pos="r" depth="4" NCoef="0" IVar="-1" Cut="0.0000000000000000e+00" cType="1" res="-1.4109375886619091e-02" rms="2.7093133330345154e-01" purity="1.8842266499996185e-01" nType="-99"/>
            </Node>
            <Node pos="r" depth="3" NCoef="0" IVar="-1" Cut="0.0000000000000000e+00" cType="1" res="1.4852137304842472e-02" rms="2.1620759367942810e-01" purity="1.2176401913166046e-01" nType="-99"/>
          </Node>
        </Node>
        <Node pos="r" depth="1" NCoef="0" IVar="12" Cut="2.1157755851745605e+00" cType="1" res="-6.7194981966167688e-04" rms="3.4082558751106262e-01" purity="6.1841893196105957e-01" nType="0">
          <Node pos="l" depth="2" NCoef="0" IVar="4" Cut="1.9243240625000000e+05" cType="1" res="6.1839176341891289e-03" rms="3.7140285968780518e-01" purity="5.4081708192825317e-01" nType="0">
            <Node pos="l" depth="3" NCoef="0" IVar="-1" Cut="0.0000000000000000e+00" cType="1" res="-1.1751194484531879e-02" rms="4.0758419036865234e-01" purity="5.3960800170898438e-01" nType="-99"/>
            <Node pos="r" depth="3" NCoef="0" IVar="9" Cut="6.5557062500000000e+04" cType="1" res="1.2861168943345547e-02" rms="3.6163014173507690e-01" purity="5.4111474752426147e-01" nType="0">
              <Node pos="l" depth="4" NCoef="0" IVar="-1" Cut="0.0000000000000000e+00" cType="1" res="2.2613249719142914e-02" rms="3.7335249781608582e-01" purity="7.4100053310394287e-01" nType="-99"/>
              <Node pos="r" depth="4" NCoef="0" IVar="-1" Cut="0.0000000000000000e+00" cType="1" res="-1.0153923649340868e-03" rms="3.5323670506477356e-01" purity="4.1387230157852173e-01" nType="-99"/>
            </Node>
          </Node>
          <Node pos="r" depth="2" NCoef="0" IVar="14" Cut="5.1808136701583862e-01" cType="1" res="-1.5142924385145307e-03" rms="3.3686771988868713e-01" purity="6.2795346975326538e-01" nType="0">
            <Node pos="l" depth="3" NCoef="0" IVar="-1" Cut="0.0000000000000000e+00" cType="1" res="-1.0507716797292233e-02" rms="3.5488671064376831e-01" purity="5.7862102985382080e-01" nType="-99"/>
            <Node pos="r" depth="3" NCoef="0" IVar="11" Cut="2.2541575431823730e+00" cType="1" res="-1.1605351464822888e-03" rms="3.3633187413215637e-01" purity="6.2936329841613770e-01" nType="0">
              <Node pos="l" depth="4" NCoef="0" IVar="-1" Cut="0.0000000000000000e+00" cType="1" res="-1.3769218930974603e-03" rms="3.3808499574661255e-01" purity="6.5494507551193237e-01" nType="-99"/>
              <Node pos="r" depth="4" NCoef="0" IVar="-1" Cut="0.0000000000000000e+00" cType="1" res="7.7773877419531345e-03" rms="3.0563700199127197e-01" purity="2.0450113713741302e-01" nType="-99"/>
            </Node>
          </Node>
        </Node>
      </Node>
    </BinaryTree>
    <BinaryTree type="DecisionTree" boostWeight="1.0000000000000000e+00" itree="178">
      <Node pos="s" depth="0" NCoef="0" IVar="15" Cut="1.5260878801345825e+00" cType="1" res="-1.9682856873259880e-06" rms="3.3991298079490662e-01" purity="5.0000000000000000e-01" nType="0">
        <Node pos="l" depth="1" NCoef="0" IVar="17" Cut="1.2276909375000000e+05" cType="1" res="1.1613572714850307e-03" rms="3.6009535193443298e-01" purity="4.8203909397125244e-01" nType="0">
          <Node pos="l" depth="2" NCoef="0" IVar="17" Cut="6.4046644531250000e+04" cType="1" res="2.4067263584583998e-03" rms="3.6871978640556335e-01" purity="5.1169705390930176e-01" nType="0">
            <Node pos="l" depth="3" NCoef="0" IVar="17" Cut="5.7893921875000000e+04" cType="1" res="4.8527908511459827e-03" rms="3.7078467011451721e-01" purity="5.3646069765090942e-01" nType="0">
              <Node pos="l" depth="4" NCoef="0" IVar="-1" Cut="0.0000000000000000e+00" cType="1" res="2.6437747292220592e-03" rms="3.6902379989624023e-01" purity="5.3666168451309204e-01" nType="-99"/>
              <Node pos="r" depth="4" NCoef="0" IVar="-1" Cut="0.0000000000000000e+00" cType="1" res="1.4022803865373135e-02" rms="3.9531937241554260e-01" purity="5.3351747989654541e-01" nType="-99"/>
            </Node>
            <Node pos="r" depth="3" NCoef="0" IVar="4" Cut="4.4530200000000000e+05" cType="1" res="-5.2394578233361244e-03" rms="3.6208274960517883e-01" purity="4.3428817391395569e-01" nType="0">
              <Node pos="l" depth="4" NCoef="0" IVar="-1" Cut="0.0000000000000000e+00" cType="1" res="-8.1304125487804413e-03" rms="3.7179955840110779e-01" purity="4.7644498944282532e-01" nType="-99"/>
              <Node pos="r" depth="4" NCoef="0" IVar="-1" Cut="0.0000000000000000e+00" cType="1" res="8.6240880191326141e-03" rms="3.3583012223243713e-01" purity="3.2786041498184204e-01" nType="-99"/>
            </Node>
          </Node>
          <Node pos="r" depth="2" NCoef="0" IVar="6" Cut="2.2215593750000000e+05" cType="1" res="-9.3325572088360786e-03" rms="2.7673199772834778e-01" purity="2.3213057219982147e-01" nType="0">
            <Node pos="l" depth="3" NCoef="0" IVar="-1" Cut="0.0000000000000000e+00" cType="1" res="-1.5388663858175278e-02" rms="3.2736459374427795e-01" purity="3.0948865413665771e-01" nType="-99"/>
            <Node pos="r" depth="3" NCoef="0" IVar="-1" Cut="0.0000000000000000e+00" cType="1" res="-2.5344504974782467e-03" rms="2.1873895823955536e-01" purity="1.5979084372520447e-01" nType="-99"/>
          </Node>
        </Node>
        <Node pos="r" depth="1" NCoef="0" IVar="12" Cut="3.4113523960113525e+00" cType="1" res="-5.9240579139441252e-04" rms="3.2919493317604065e-01" purity="5.0911593437194824e-01" nType="0">
          <Node pos="l" depth="2" NCoef="0" IVar="9" Cut="2.9434562500000000e+05" cType="1" res="-1.0341679444536567e-03" rms="3.2971024513244629e-01" purity="5.1235181093215942e-01" nType="0">
            <Node pos="l" depth="3" NCoef="0" IVar="6" Cut="1.2788790625000000e+05" cType="1" res="-6.0401932569220662e-04" rms="3.3256414532661438e-01" purity="5.2147632837295532e-01" nType="0">
              <Node pos="l" depth="4" NCoef="0" IVar="-1" Cut="0.0000000000000000e+00" cType="1" res="-4.5425314456224442e-03" rms="3.8163119554519653e-01" purity="4.6544122695922852e-01" nType="-99"/>
              <Node pos="r" depth="4" NCoef="0" IVar="-1" Cut="0.0000000000000000e+00" cType="1" res="1.7249097581952810e-03" rms="3.1206783652305603e-01" purity="5.4257035255432129e-01" nType="-99"/>
            </Node>
            <Node pos="r" depth="3" NCoef="0" IVar="5" Cut="1.7009098437500000e+05" cType="1" res="-1.3494156301021576e-02" rms="2.3194569349288940e-01" purity="2.4804528057575226e-01" nType="0">
              <Node pos="l" depth="4" NCoef="0" IVar="-1" Cut="0.0000000000000000e+00" cType="1" res="-3.8642581552267075e-02" rms="2.3771885037422180e-01" purity="2.9816532135009766e-01" nType="-99"/>
              <Node pos="r" depth="4" NCoef="0" IVar="-1" Cut="0.0000000000000000e+00" cType="1" res="-4.8597911372780800e-03" rms="2.2544181346893311e-01" purity="1.9741369783878326e-01" nType="-99"/>
            </Node>
          </Node>
          <Node pos="r" depth="2" NCoef="0" IVar="14" Cut="2.5702321529388428e+00" cType="1" res="4.5057102106511593e-03" rms="3.2314509153366089e-01" purity="4.7177228331565857e-01" nType="0">
            <Node pos="l" depth="3" NCoef="0" IVar="18" Cut="1.0096111718750000e+05" cType="1" res="-1.9533412996679544e-03" rms="3.1874051690101624e-01" purity="3.8769066333770752e-01" nType="0">
              <Node pos="l" depth="4" NCoef="0" IVar="-1" Cut="0.0000000000000000e+00" cType="1" res="8.3904992789030075e-03" rms="3.3546832203865051e-01" purity="4.2678210139274597e-01" nType="-99"/>
              <Node pos="r" depth="4" NCoef="0" IVar="-1" Cut="0.0000000000000000e+00" cType="1" res="-2.6131361722946167e-02" rms="2.8560611605644226e-01" purity="3.1862524151802063e-01" nType="-99"/>
            </Node>
            <Node pos="r" depth="3" NCoef="0" IVar="-1" Cut="0.0000000000000000e+00" cType="1" res="1.5258339233696461e-02" rms="3.3072766661643982e-01" purity="6.2564980983734131e-01" nType="-99"/>
          </Node>
        </Node>
      </Node>
    </BinaryTree>
    <BinaryTree type="DecisionTree" boostWeight="1.0000000000000000e+00" itree="179">
      <Node pos="s" depth="0" NCoef="0" IVar="18" Cut="1.4775275000000000e+05" cType="1" res="-1.3491049912772723e-06" rms="3.3986371755599976e-01" purity="5.0000000000000000e-01" nType="0">
        <Node pos="l" depth="1" NCoef="0" IVar="9" Cut="2.6200375000000000e+05" cType="1" res="3.7065788637846708e-04" rms="3.4791654348373413e-01" purity="5.1551795005798340e-01" nType="0">
          <Node pos="l" depth="2" NCoef="0" IVar="9" Cut="3.0985234375000000e+04" cType="1" res="9.6127955475822091e-04" rms="3.5266613960266113e-01" purity="5.3073918819427490e-01" nType="0">
            <Node pos="l" depth="3" NCoef="0" IVar="16" Cut="1.8013496398925781e+00" cType="1" res="-1.7149215564131737e-02" rms="3.7285375595092773e-01" purity="3.4191519021987915e-01" nType="0">
              <Node pos="l" depth="4" NCoef="0" IVar="-1" Cut="0.0000000000000000e+00" cType="1" res="-2.5807633064687252e-03" rms="3.8790297508239746e-01" purity="4.0098899602890015e-01" nType="-99"/>
              <Node pos="r" depth="4" NCoef="0" IVar="-1" Cut="0.0000000000000000e+00" cType="1" res="-2.0752245560288429e-02" rms="3.5464227199554443e-01" purity="2.7559953927993774e-01" nType="-99"/>
            </Node>
            <Node pos="r" depth="3" NCoef="0" IVar="9" Cut="5.2988710937500000e+04" cType="1" res="1.5396012458950281e-03" rms="3.5198706388473511e-01" purity="5.3676891326904297e-01" nType="0">
              <Node pos="l" depth="4" NCoef="0" IVar="-1" Cut="0.0000000000000000e+00" cType="1" res="6.4211823046207428e-03" rms="3.9472445845603943e-01" purity="5.0651234388351440e-01" nType="-99"/>
              <Node pos="r" depth="4" NCoef="0" IVar="-1" Cut="0.0000000000000000e+00" cType="1" res="1.0188420128542930e-04" rms="3.4465527534484863e-01" purity="5.4159772396087646e-01" nType="-99"/>
            </Node>
          </Node>
          <Node pos="r" depth="2" NCoef="0" IVar="15" Cut="1.5391080379486084e+00" cType="1" res="-9.1633675619959831e-03" rms="2.5929853320121765e-01" purity="2.6981157064437866e-01" nType="0">
            <Node pos="l" depth="3" NCoef="0" IVar="16" Cut="1.6534273624420166e+00" cType="1" res="7.6766213169321418e-04" rms="2.5863668322563171e-01" purity="2.4177923798561096e-01" nType="0">
              <Node pos="l" depth="4" NCoef="0" IVar="-1" Cut="0.0000000000000000e+00" cType="1" res="2.1305985748767853e-02" rms="2.6270529627799988e-01" purity="3.3820471167564392e-01" nType="-99"/>
              <Node pos="r" depth="4" NCoef="0" IVar="-1" Cut="0.0000000000000000e+00" cType="1" res="-1.7280871048569679e-02" rms="2.5426185131072998e-01" purity="1.5615907311439514e-01" nType="-99"/>
            </Node>
            <Node pos="r" depth="3" NCoef="0" IVar="8" Cut="9.2983148437500000e+04" cType="1" res="-1.8174055963754654e-02" rms="2.5956901907920837e-01" purity="2.9524603486061096e-01" nType="0">
              <Node pos="l" depth="4" NCoef="0" IVar="-1" Cut="0.0000000000000000e+00" cType="1" res="-2.3367280140519142e-02" rms="3.3677834272384644e-01" purity="5.0553178787231445e-01" nType="-99"/>
              <Node pos="r" depth="4" NCoef="0" IVar="-1" Cut="0.0000000000000000e+00" cType="1" res="-5.0856869667768478e-02" rms="6.7600198090076447e-02" purity="9.7224526107311249e-03" nType="-99"/>
            </Node>
          </Node>
        </Node>
        <Node pos="r" depth="1" NCoef="0" IVar="14" Cut="2.2635912895202637e+00" cType="1" res="-1.6692635836079717e-03" rms="3.0111703276634216e-01" purity="4.3042436242103577e-01" nType="0">
          <Node pos="l" depth="2" NCoef="0" IVar="4" Cut="8.0338362500000000e+05" cType="1" res="2.7980413287878036e-03" rms="2.9637670516967773e-01" purity="3.4227040410041809e-01" nType="0">
            <Node pos="l" depth="3" NCoef="0" IVar="15" Cut="2.2259633541107178e+00" cType="1" res="-2.7265559765510261e-04" rms="3.0539023876190186e-01" purity="3.8953739404678345e-01" nType="0">
              <Node pos="l" depth="4" NCoef="0" IVar="-1" Cut="0.0000000000000000e+00" cType="1" res="-1.2796109542250633e-02" rms="3.1532490253448486e-01" purity="4.0611347556114197e-01" nType="-99"/>
              <Node pos="r" depth="4" NCoef="0" IVar="-1" Cut="0.0000000000000000e+00" cType="1" res="8.4053166210651398e-03" rms="2.9842725396156311e-01" purity="3.7871080636978149e-01" nType="-99"/>
            </Node>
            <Node pos="r" depth="3" NCoef="0" IVar="-1" Cut="0.0000000000000000e+00" cType="1" res="2.7058137580752373e-02" rms="2.5291651487350464e-01" purity="1.3615858554840088e-01" nType="-99"/>
          </Node>
          <Node pos="r" depth="2" NCoef="0" IVar="15" Cut="2.6425147056579590e+00" cType="1" res="-5.3198109380900860e-03" rms="3.0488735437393188e-01" purity="5.0246113538742065e-01" nType="0">
            <Node pos="l" depth="3" NCoef="0" IVar="13" Cut="2.4027373790740967e+00" cType="1" res="-1.4326866716146469e-02" rms="2.8931850194931030e-01" purity="4.5059740543365479e-01" nType="0">
              <Node pos="l" depth="4" NCoef="0" IVar="-1" Cut="0.0000000000000000e+00" cType="1" res="-2.8640154749155045e-02" rms="2.8337568044662476e-01" purity="2.6056379079818726e-01" nType="-99"/>
              <Node pos="r" depth="4" NCoef="0" IVar="-1" Cut="0.0000000000000000e+00" cType="1" res="-6.0520097613334656e-03" rms="2.9296866059303284e-01" purity="5.7960891723632812e-01" nType="-99"/>
            </Node>
            <Node pos="r" depth="3" NCoef="0" IVar="3" Cut="3.2202934375000000e+05" cType="1" res="-1.0482914512977004e-04" rms="3.1343010067939758e-01" purity="5.3248965740203857e-01" nType="0">
              <Node pos="l" depth="4" NCoef="0" IVar="-1" Cut="0.0000000000000000e+00" cType="1" res="-3.2007719855755568e-03" rms="3.1943845748901367e-01" purity="5.5593055486679077e-01" nType="-99"/>
              <Node pos="r" depth="4" NCoef="0" IVar="-1" Cut="0.0000000000000000e+00" cType="1" res="2.0697360858321190e-02" rms="2.8172469139099121e-01" purity="4.1803741455078125e-01" nType="-99"/>
            </Node>
          </Node>
        </Node>
      </Node>
    </BinaryTree>
    <BinaryTree type="DecisionTree" boostWeight="1.0000000000000000e+00" itree="180">
      <Node pos="s" depth="0" NCoef="0" IVar="11" Cut="9.7634357213973999e-01" cType="1" res="-2.5589413326088106e-06" rms="3.3980983495712280e-01" purity="5.0000000000000000e-01" nType="0">
        <Node pos="l" depth="1" NCoef="0" IVar="13" Cut="2.1950891017913818e+00" cType="1" res="8.2970655057579279e-04" rms="3.3741807937622070e-01" purity="6.4255952835083008e-01" nType="0">
          <Node pos="l" depth="2" NCoef="0" IVar="10" Cut="5.4397218750000000e+04" cType="1" res="4.4637289829552174e-03" rms="3.6140865087509155e-01" purity="3.9124083518981934e-01" nType="0">
            <Node pos="l" depth="3" NCoef="0" IVar="15" Cut="2.0279538631439209e+00" cType="1" res="1.0340382345020771e-02" rms="3.8125315308570862e-01" purity="3.5627016425132751e-01" nType="0">
              <Node pos="l" depth="4" NCoef="0" IVar="-1" Cut="0.0000000000000000e+00" cType="1" res="1.5808155760169029e-02" rms="3.9136275649070740e-01" purity="3.8648650050163269e-01" nType="-99"/>
              <Node pos="r" depth="4" NCoef="0" IVar="-1" Cut="0.0000000000000000e+00" cType="1" res="-1.5871822834014893e-03" rms="3.7114715576171875e-01" purity="3.2814186811447144e-01" nType="-99"/>
            </Node>
            <Node pos="r" depth="3" NCoef="0" IVar="11" Cut="4.0659815073013306e-01" cType="1" res="6.9674119004048407e-05" rms="3.4576213359832764e-01" purity="4.1738891601562500e-01" nType="0">
              <Node pos="l" depth="4" NCoef="0" IVar="-1" Cut="0.0000000000000000e+00" cType="1" res="1.5913587063550949e-02" rms="3.4854376316070557e-01" purity="4.6558633446693420e-01" nType="-99"/>
              <Node pos="r" depth="4" NCoef="0" IVar="-1" Cut="0.0000000000000000e+00" cType="1" res="-3.6761322990059853e-03" rms="3.4495306015014648e-01" purity="4.0632918477058411e-01" nType="-99"/>
            </Node>
          </Node>
          <Node pos="r" depth="2" NCoef="0" IVar="1" Cut="7.9120460937500000e+04" cType="1" res="-5.5891834199428558e-04" rms="3.2777687907218933e-01" purity="7.3859286308288574e-01" nType="0">
            <Node pos="l" depth="3" NCoef="0" IVar="20" Cut="3.7437894531250000e+04" cType="1" res="-3.8755608256906271e-03" rms="3.3893558382987976e-01" purity="7.0236885547637939e-01" nType="0">
              <Node pos="l" depth="4" NCoef="0" IVar="-1" Cut="0.0000000000000000e+00" cType="1" res="-6.9242944009602070e-03" rms="3.4976771473884583e-01" purity="6.9728255271911621e-01" nType="-99"/>
              <Node pos="r" depth="4" NCoef="0" IVar="-1" Cut="0.0000000000000000e+00" cType="1" res="5.3293183445930481e-03" rms="3.1713101267814636e-01" purity="7.1202886104583740e-01" nType="-99"/>
            </Node>
            <Node pos="r" depth="3" NCoef="0" IVar="8" Cut="4.3658800781250000e+04" cType="1" res="5.0893020816147327e-03" rms="3.0776184797286987e-01" purity="8.0028206110000610e-01" nType="0">
              <Node pos="l" depth="4" NCoef="0" IVar="-1" Cut="0.0000000000000000e+00" cType="1" res="7.9632932320237160e-03" rms="3.0478206276893616e-01" purity="8.6178618669509888e-01" nType="-99"/>
              <Node pos="r" depth="4" NCoef="0" IVar="-1" Cut="0.0000000000000000e+00" cType="1" res="-1.6329686623066664e-03" rms="3.1507909297943115e-01" purity="6.4457833766937256e-01" nType="-99"/>
            </Node>
          </Node>
        </Node>
        <Node pos="r" depth="1" NCoef="0" IVar="14" Cut="2.0570728778839111e+00" cType="1" res="-7.0468988269567490e-04" rms="3.4181302785873413e-01" purity="3.7973135709762573e-01" nType="0">
          <Node pos="l" depth="2" NCoef="0" IVar="17" Cut="6.1270457031250000e+04" cType="1" res="-2.3028238210827112e-03" rms="3.4592586755752563e-01" purity="3.5345423221588135e-01" nType="0">
            <Node pos="l" depth="3" NCoef="0" IVar="17" Cut="3.4870906250000000e+04" cType="1" res="2.3613679222762585e-03" rms="3.6335316300392151e-01" purity="4.0601810812950134e-01" nType="0">
              <Node pos="l" depth="4" NCoef="0" IVar="-1" Cut="0.0000000000000000e+00" cType="1" res="-1.1992340441793203e-03" rms="3.5588967800140381e-01" purity="3.9854872226715088e-01" nType="-99"/>
              <Node pos="r" depth="4" NCoef="0" IVar="-1" Cut="0.0000000000000000e+00" cType="1" res="6.7078550346195698e-03" rms="3.7618908286094666e-01" purity="4.1933608055114746e-01" nType="-99"/>
            </Node>
            <Node pos="r" depth="3" NCoef="0" IVar="6" Cut="1.8321567187500000e+05" cType="1" res="-1.1541871353983879e-02" rms="3.0830398201942444e-01" purity="2.4933321774005890e-01" nType="0">
              <Node pos="l" depth="4" NCoef="0" IVar="-1" Cut="0.0000000000000000e+00" cType="1" res="-1.5952067449688911e-02" rms="3.6375331878662109e-01" purity="3.5770198702812195e-01" nType="-99"/>
              <Node pos="r" depth="4" NCoef="0" IVar="-1" Cut="0.0000000000000000e+00" cType="1" res="-1.3046254171058536e-03" rms="2.3700726032257080e-01" purity="1.3693711161613464e-01" nType="-99"/>
            </Node>
          </Node>
          <Node pos="r" depth="2" NCoef="0" IVar="15" Cut="2.2992093563079834e+00" cType="1" res="1.9082014914602041e-03" rms="3.3496353030204773e-01" purity="4.2269355058670044e-01" nType="0">
            <Node pos="l" depth="3" NCoef="0" IVar="11" Cut="1.3631566762924194e+00" cType="1" res="5.4353685118257999e-03" rms="3.4054917097091675e-01" purity="4.1059589385986328e-01" nType="0">
              <Node pos="l" depth="4" NCoef="0" IVar="-1" Cut="0.0000000000000000e+00" cType="1" res="1.1162207461893559e-02" rms="3.6046740412712097e-01" purity="5.5878835916519165e-01" nType="-99"/>
              <Node pos="r" depth="4" NCoef="0" IVar="-1" Cut="0.0000000000000000e+00" cType="1" res="5.7331618154421449e-04" rms="3.3041149377822876e-01" purity="3.3914718031883240e-01" nType="-99"/>
            </Node>
            <Node pos="r" depth="3" NCoef="0" IVar="9" Cut="9.9938312500000000e+04" cType="1" res="-3.2087990548461676e-03" rms="3.2662281394004822e-01" purity="4.4024410843849182e-01" nType="0">
              <Node pos="l" depth="4" NCoef="0" IVar="-1" Cut="0.0000000000000000e+00" cType="1" res="-1.0031369514763355e-02" rms="3.5302138328552246e-01" purity="4.8734787106513977e-01" nType="-99"/>
              <Node pos="r" depth="4" NCoef="0" IVar="-1" Cut="0.0000000000000000e+00" cType="1" res="7.2472002357244492e-03" rms="2.9939380288124084e-01" purity="3.9603146910667419e-01" nType="-99"/>
            </Node>
          </Node>
        </Node>
      </Node>
    </BinaryTree>
    <BinaryTree type="DecisionTree" boostWeight="1.0000000000000000e+00" itree="181">
      <Node pos="s" depth="0" NCoef="0" IVar="16" Cut="1.2465226650238037e+00" cType="1" res="-1.6578894701524405e-06" rms="3.3973807096481323e-01" purity="5.0000000000000000e-01" nType="0">
        <Node pos="l" depth="1" NCoef="0" IVar="18" Cut="2.8791834375000000e+05" cType="1" res="-8.5431133629754186e-04" rms="3.1752353906631470e-01" purity="6.7921566963195801e-01" nType="0">
          <Node pos="l" depth="2" NCoef="0" IVar="18" Cut="2.6814642578125000e+04" cType="1" res="-4.1304485057480633e-04" rms="3.1848913431167603e-01" purity="6.8585497140884399e-01" nType="0">
            <Node pos="l" depth="3" NCoef="0" IVar="1" Cut="4.1072664062500000e+04" cType="1" res="-6.1292634345591068e-03" rms="3.2152920961380005e-01" purity="6.3002997636795044e-01" nType="0">
              <Node pos="l" depth="4" NCoef="0" IVar="-1" Cut="0.0000000000000000e+00" cType="1" res="-1.5433386899530888e-02" rms="3.3911502361297607e-01" purity="4.5545426011085510e-01" nType="-99"/>
              <Node pos="r" depth="4" NCoef="0" IVar="-1" Cut="0.0000000000000000e+00" cType="1" res="6.7702366504818201e-04" rms="3.1099295616149902e-01" purity="7.2821956872940063e-01" nType="-99"/>
            </Node>
            <Node pos="r" depth="3" NCoef="0" IVar="16" Cut="1.1881605386734009e+00" cType="1" res="2.0331589039415121e-03" rms="3.1714776158332825e-01" purity="7.0974481105804443e-01" nType="0">
              <Node pos="l" depth="4" NCoef="0" IVar="-1" Cut="0.0000000000000000e+00" cType="1" res="2.9734300915151834e-03" rms="3.1426972150802612e-01" purity="7.1958023309707642e-01" nType="-99"/>
              <Node pos="r" depth="4" NCoef="0" IVar="-1" Cut="0.0000000000000000e+00" cType="1" res="-1.1739228852093220e-02" rms="3.6116364598274231e-01" purity="5.4635685682296753e-01" nType="-99"/>
            </Node>
          </Node>
          <Node pos="r" depth="2" NCoef="0" IVar="-1" Cut="0.0000000000000000e+00" cType="1" res="-1.8013978376984596e-02" rms="2.8274378180503845e-01" purity="4.5595884323120117e-01" nType="-99"/>
        </Node>
        <Node pos="r" depth="1" NCoef="0" IVar="2" Cut="3.7264334375000000e+05" cType="1" res="6.6008308203890920e-04" rms="3.5602325201034546e-01" purity="3.6091145873069763e-01" nType="0">
          <Node pos="l" depth="2" NCoef="0" IVar="1" Cut="6.1828992187500000e+04" cType="1" res="-2.2423763293772936e-03" rms="3.8290566205978394e-01" purity="4.3716737627983093e-01" nType="0">
            <Node pos="l" depth="3" NCoef="0" IVar="4" Cut="2.8263009375000000e+05" cType="1" res="3.9780805818736553e-03" rms="3.7316450476646423e-01" purity="3.4158778190612793e-01" nType="0">
              <Node pos="l" depth="4" NCoef="0" IVar="-1" Cut="0.0000000000000000e+00" cType="1" res="-2.1001622371841222e-04" rms="3.7178003787994385e-01" purity="3.3414140343666077e-01" nType="-99"/>
              <Node pos="r" depth="4" NCoef="0" IVar="-1" Cut="0.0000000000000000e+00" cType="1" res="2.5749754160642624e-02" rms="3.8194969296455383e-01" purity="3.9814877510070801e-01" nType="-99"/>
            </Node>
            <Node pos="r" depth="3" NCoef="0" IVar="17" Cut="4.0335308593750000e+04" cType="1" res="-1.3720820657908916e-02" rms="4.0000498294830322e-01" purity="6.1353784799575806e-01" nType="0">
              <Node pos="l" depth="4" NCoef="0" IVar="-1" Cut="0.0000000000000000e+00" cType="1" res="-1.7789284174796194e-04" rms="3.9607104659080505e-01" purity="6.3994044065475464e-01" nType="-99"/>
              <Node pos="r" depth="4" NCoef="0" IVar="-1" Cut="0.0000000000000000e+00" cType="1" res="-1.7314216122031212e-02" rms="4.0369716286659241e-01" purity="5.8512115478515625e-01" nType="-99"/>
            </Node>
          </Node>
          <Node pos="r" depth="2" NCoef="0" IVar="4" Cut="3.1558512500000000e+05" cType="1" res="3.2536324579268694e-03" rms="3.3013370633125305e-01" purity="2.9277148842811584e-01" nType="0">
            <Node pos="l" depth="3" NCoef="0" IVar="4" Cut="2.9384390625000000e+05" cType="1" res="1.2229013256728649e-02" rms="3.6113014817237854e-01" purity="3.9328464865684509e-01" nType="0">
              <Node pos="l" depth="4" NCoef="0" IVar="-1" Cut="0.0000000000000000e+00" cType="1" res="1.4686809852719307e-02" rms="3.6282995343208313e-01" purity="4.0651047229766846e-01" nType="-99"/>
              <Node pos="r" depth="4" NCoef="0" IVar="-1" Cut="0.0000000000000000e+00" cType="1" res="-1.6393477097153664e-02" rms="3.5222920775413513e-01" purity="3.3984953165054321e-01" nType="-99"/>
            </Node>
            <Node pos="r" depth="3" NCoef="0" IVar="20" Cut="7.4768953125000000e+04" cType="1" res="2.8110092898714356e-05" rms="3.1819599866867065e-01" purity="2.5664961338043213e-01" nType="0">
              <Node pos="l" depth="4" NCoef="0" IVar="-1" Cut="0.0000000000000000e+00" cType="1" res="-1.7789704725146294e-03" rms="3.8075381517410278e-01" purity="3.8400495052337646e-01" nType="-99"/>
              <Node pos="r" depth="4" NCoef="0" IVar="-1" Cut="0.0000000000000000e+00" cType="1" res="2.3562679067254066e-02" rms="1.5228870511054993e-01" purity="2.9403185471892357e-02" nType="-99"/>
            </Node>
          </Node>
        </Node>
      </Node>
    </BinaryTree>
    <BinaryTree type="DecisionTree" boostWeight="1.0000000000000000e+00" itree="182">
      <Node pos="s" depth="0" NCoef="0" IVar="11" Cut="7.3745375871658325e-01" cType="1" res="-2.4553792172810063e-06" rms="3.3963888883590698e-01" purity="5.0000000000000000e-01" nType="0">
        <Node pos="l" depth="1" NCoef="0" IVar="0" Cut="2.3333332538604736e+00" cType="1" res="1.0807495564222336e-03" rms="3.2797837257385254e-01" purity="6.6764646768569946e-01" nType="0">
          <Node pos="l" depth="2" NCoef="0" IVar="0" Cut="1.0476191043853760e+00" cType="1" res="-4.2335069738328457e-03" rms="3.6274132132530212e-01" purity="5.9382122755050659e-01" nType="0">
            <Node pos="l" depth="3" NCoef="0" IVar="4" Cut="4.1332031250000000e+05" cType="1" res="0.0000000000000000e+00" rms="0.0000000000000000e+00" purity="5.4396879673004150e-01" nType="0">
              <Node pos="l" depth="4" NCoef="0" IVar="-1" Cut="0.0000000000000000e+00" cType="1" res="-5.5782929994165897e-03" rms="3.7565711140632629e-01" purity="5.8336448669433594e-01" nType="-99"/>
              <Node pos="r" depth="4" NCoef="0" IVar="-1" Cut="0.0000000000000000e+00" cType="1" res="1.9335905089974403e-02" rms="3.6323601007461548e-01" purity="4.8561400175094604e-01" nType="-99"/>
            </Node>
            <Node pos="r" depth="3" NCoef="0" IVar="16" Cut="1.4072316884994507e+00" cType="1" res="0.0000000000000000e+00" rms="0.0000000000000000e+00" purity="6.3662815093994141e-01" nType="0">
              <Node pos="l" depth="4" NCoef="0" IVar="-1" Cut="0.0000000000000000e+00" cType="1" res="8.0270576290786266e-04" rms="3.1933122873306274e-01" purity="7.9103165864944458e-01" nType="-99"/>
              <Node pos="r" depth="4" NCoef="0" IVar="-1" Cut="0.0000000000000000e+00" cType="1" res="-1.8365191295742989e-02" rms="3.9862576127052307e-01" purity="4.2461565136909485e-01" nType="-99"/>
            </Node>
          </Node>
          <Node pos="r" depth="2" NCoef="0" IVar="0" Cut="5.1428570747375488e+00" cType="1" res="2.8242622502148151e-03" rms="3.1572106480598450e-01" purity="6.9186717271804810e-01" nType="0">
            <Node pos="l" depth="3" NCoef="0" IVar="1" Cut="5.1900917968750000e+04" cType="1" res="8.9957788586616516e-03" rms="2.4080465734004974e-01" purity="8.8853460550308228e-01" nType="0">
              <Node pos="l" depth="4" NCoef="0" IVar="-1" Cut="0.0000000000000000e+00" cType="1" res="2.2800024598836899e-02" rms="2.4230460822582245e-01" purity="8.5156422853469849e-01" nType="-99"/>
              <Node pos="r" depth="4" NCoef="0" IVar="-1" Cut="0.0000000000000000e+00" cType="1" res="7.5438763014972210e-03" rms="2.3987032473087311e-01" purity="9.0878766775131226e-01" nType="-99"/>
            </Node>
            <Node pos="r" depth="3" NCoef="0" IVar="16" Cut="1.8821898698806763e+00" cType="1" res="-6.8390712840482593e-04" rms="3.5120642185211182e-01" purity="5.8007258176803589e-01" nType="0">
              <Node pos="l" depth="4" NCoef="0" IVar="-1" Cut="0.0000000000000000e+00" cType="1" res="-3.8627353496849537e-03" rms="3.3633843064308167e-01" purity="6.7752945423126221e-01" nType="-99"/>
              <Node pos="r" depth="4" NCoef="0" IVar="-1" Cut="0.0000000000000000e+00" cType="1" res="5.8239181526005268e-03" rms="3.8405054807662964e-01" purity="3.4865018725395203e-01" nType="-99"/>
            </Node>
          </Node>
        </Node>
        <Node pos="r" depth="1" NCoef="0" IVar="15" Cut="3.0486736297607422e+00" cType="1" res="-4.9811904318630695e-04" rms="3.4484204649925232e-01" purity="4.2328667640686035e-01" nType="0">
          <Node pos="l" depth="2" NCoef="0" IVar="16" Cut="2.7263977527618408e+00" cType="1" res="-8.2736817421391606e-04" rms="3.4547477960586548e-01" purity="4.2497059702873230e-01" nType="0">
            <Node pos="l" depth="3" NCoef="0" IVar="16" Cut="2.3406257629394531e+00" cType="1" res="-2.0850219880230725e-04" rms="3.4681659936904907e-01" purity="4.4153878092765808e-01" nType="0">
              <Node pos="l" depth="4" NCoef="0" IVar="-1" Cut="0.0000000000000000e+00" cType="1" res="-7.9219212057068944e-04" rms="3.4663745760917664e-01" purity="4.5973324775695801e-01" nType="-99"/>
              <Node pos="r" depth="4" NCoef="0" IVar="-1" Cut="0.0000000000000000e+00" cType="1" res="4.9145678058266640e-03" rms="3.4820845723152161e-01" purity="2.9315468668937683e-01" nType="-99"/>
            </Node>
            <Node pos="r" depth="3" NCoef="0" IVar="8" Cut="7.4826734375000000e+04" cType="1" res="-7.4064428918063641e-03" rms="3.3080214262008667e-01" purity="2.4883688986301422e-01" nType="0">
              <Node pos="l" depth="4" NCoef="0" IVar="-1" Cut="0.0000000000000000e+00" cType="1" res="-8.0424817278981209e-03" rms="3.8400292396545410e-01" purity="3.5257500410079956e-01" nType="-99"/>
              <Node pos="r" depth="4" NCoef="0" IVar="-1" Cut="0.0000000000000000e+00" cType="1" res="9.2735905200242996e-03" rms="1.9120764732360840e-01" purity="5.0523694604635239e-02" nType="-99"/>
            </Node>
          </Node>
          <Node pos="r" depth="2" NCoef="0" IVar="12" Cut="2.8260147571563721e+00" cType="1" res="5.3869015537202358e-03" rms="3.3327513933181763e-01" purity="3.9318758249282837e-01" nType="0">
            <Node pos="l" depth="3" NCoef="0" IVar="10" Cut="9.8819351562500000e+04" cType="1" res="1.5194119885563850e-02" rms="3.4152662754058838e-01" purity="3.9276272058486938e-01" nType="0">
              <Node pos="l" depth="4" NCoef="0" IVar="-1" Cut="0.0000000000000000e+00" cType="1" res="1.8399601802229881e-02" rms="3.5666608810424805e-01" purity="3.6950367689132690e-01" nType="-99"/>
              <Node pos="r" depth="4" NCoef="0" IVar="-1" Cut="0.0000000000000000e+00" cType="1" res="5.6547587737441063e-03" rms="3.2468107342720032e-01" purity="4.1708645224571228e-01" nType="-99"/>
            </Node>
            <Node pos="r" depth="3" NCoef="0" IVar="-1" Cut="0.0000000000000000e+00" cType="1" res="-7.2336690500378609e-03" rms="3.2166382670402527e-01" purity="3.9374560117721558e-01" nType="-99"/>
          </Node>
        </Node>
      </Node>
    </BinaryTree>
    <BinaryTree type="DecisionTree" boostWeight="1.0000000000000000e+00" itree="183">
      <Node pos="s" depth="0" NCoef="0" IVar="18" Cut="1.4775275000000000e+05" cType="1" res="-1.3448635627355543e-06" rms="3.3959922194480896e-01" purity="5.0000000000000000e-01" nType="0">
        <Node pos="l" depth="1" NCoef="0" IVar="3" Cut="2.8090059375000000e+05" cType="1" res="3.3532877569086850e-04" rms="3.4767550230026245e-01" purity="5.1551795005798340e-01" nType="0">
          <Node pos="l" depth="2" NCoef="0" IVar="9" Cut="1.0679306250000000e+05" cType="1" res="1.2227623956277966e-03" rms="3.5727533698081970e-01" purity="5.3969496488571167e-01" nType="0">
            <Node pos="l" depth="3" NCoef="0" IVar="21" Cut="7.3237429687500000e+04" cType="1" res="-1.8529858207330108e-03" rms="3.7223839759826660e-01" purity="5.0852996110916138e-01" nType="0">
              <Node pos="l" depth="4" NCoef="0" IVar="-1" Cut="0.0000000000000000e+00" cType="1" res="1.0565473930910230e-03" rms="3.7674388289451599e-01" purity="5.4881393909454346e-01" nType="-99"/>
              <Node pos="r" depth="4" NCoef="0" IVar="-1" Cut="0.0000000000000000e+00" cType="1" res="-1.9340224564075470e-02" rms="3.4153354167938232e-01" purity="2.5340694189071655e-01" nType="-99"/>
            </Node>
            <Node pos="r" depth="3" NCoef="0" IVar="12" Cut="2.1349384784698486e+00" cType="1" res="5.6906118988990784e-03" rms="3.3429875969886780e-01" purity="5.8496546745300293e-01" nType="0">
              <Node pos="l" depth="4" NCoef="0" IVar="-1" Cut="0.0000000000000000e+00" cType="1" res="-2.2346587851643562e-02" rms="3.2130232453346252e-01" purity="2.6743653416633606e-01" nType="-99"/>
              <Node pos="r" depth="4" NCoef="0" IVar="-1" Cut="0.0000000000000000e+00" cType="1" res="7.2099626995623112e-03" rms="3.3522844314575195e-01" purity="6.1147409677505493e-01" nType="-99"/>
            </Node>
          </Node>
          <Node pos="r" depth="2" NCoef="0" IVar="14" Cut="1.8532412052154541e+00" cType="1" res="-5.4808235727250576e-03" rms="2.7656182646751404e-01" purity="3.5706415772438049e-01" nType="0">
            <Node pos="l" depth="3" NCoef="0" IVar="14" Cut="1.1566841602325439e+00" cType="1" res="7.1471330011263490e-04" rms="2.8529211878776550e-01" purity="3.4285908937454224e-01" nType="0">
              <Node pos="l" depth="4" NCoef="0" IVar="-1" Cut="0.0000000000000000e+00" cType="1" res="-9.6008647233247757e-03" rms="2.8974485397338867e-01" purity="3.2569968700408936e-01" nType="-99"/>
              <Node pos="r" depth="4" NCoef="0" IVar="-1" Cut="0.0000000000000000e+00" cType="1" res="1.0265856981277466e-02" rms="2.8110858798027039e-01" purity="3.5777309536933899e-01" nType="-99"/>
            </Node>
            <Node pos="r" depth="3" NCoef="0" IVar="20" Cut="7.7749429687500000e+04" cType="1" res="-1.3606804423034191e-02" rms="2.6445516943931580e-01" purity="3.7569534778594971e-01" nType="0">
              <Node pos="l" depth="4" NCoef="0" IVar="-1" Cut="0.0000000000000000e+00" cType="1" res="-1.7561670392751694e-02" rms="3.3315122127532959e-01" purity="6.4764577150344849e-01" nType="-99"/>
              <Node pos="r" depth="4" NCoef="0" IVar="-1" Cut="0.0000000000000000e+00" cType="1" res="-2.0593933761119843e-02" rms="1.3798917829990387e-01" purity="3.9403405040502548e-02" nType="-99"/>
            </Node>
          </Node>
        </Node>
        <Node pos="r" depth="1" NCoef="0" IVar="13" Cut="8.0896902084350586e-01" cType="1" res="-1.5108401421457529e-03" rms="3.0072957277297974e-01" purity="4.3042436242103577e-01" nType="0">
          <Node pos="l" depth="2" NCoef="0" IVar="-1" Cut="0.0000000000000000e+00" cType="1" res="1.6746195033192635e-02" rms="3.0549991130828857e-01" purity="1.3556958734989166e-01" nType="-99"/>
          <Node pos="r" depth="2" NCoef="0" IVar="16" Cut="2.2394375801086426e+00" cType="1" res="-2.4735762272030115e-03" rms="3.0040067434310913e-01" purity="4.4898733496665955e-01" nType="0">
            <Node pos="l" depth="3" NCoef="0" IVar="16" Cut="2.0280978679656982e+00" cType="1" res="-8.6527245002798736e-05" rms="3.0383920669555664e-01" purity="5.1351141929626465e-01" nType="0">
              <Node pos="l" depth="4" NCoef="0" IVar="-1" Cut="0.0000000000000000e+00" cType="1" res="-1.7101545818150043e-03" rms="3.0179813504219055e-01" purity="5.3642576932907104e-01" nType="-99"/>
              <Node pos="r" depth="4" NCoef="0" IVar="-1" Cut="0.0000000000000000e+00" cType="1" res="1.8838969990611076e-02" rms="3.2696694135665894e-01" purity="2.3601101338863373e-01" nType="-99"/>
            </Node>
            <Node pos="r" depth="3" NCoef="0" IVar="10" Cut="1.2134298437500000e+05" cType="1" res="-1.1344389989972115e-02" rms="2.8708791732788086e-01" purity="2.0920135080814362e-01" nType="0">
              <Node pos="l" depth="4" NCoef="0" IVar="-1" Cut="0.0000000000000000e+00" cType="1" res="-2.3490848019719124e-02" rms="3.0114683508872986e-01" purity="1.8783293664455414e-01" nType="-99"/>
              <Node pos="r" depth="4" NCoef="0" IVar="-1" Cut="0.0000000000000000e+00" cType="1" res="-1.1078687384724617e-03" rms="2.7575069665908813e-01" purity="2.2503320872783661e-01" nType="-99"/>
            </Node>
          </Node>
        </Node>
      </Node>
    </BinaryTree>
    <BinaryTree type="DecisionTree" boostWeight="1.0000000000000000e+00" itree="184">
      <Node pos="s" depth="0" NCoef="0" IVar="3" Cut="4.4626618750000000e+05" cType="1" res="-3.1178926747088553e-06" rms="3.3951842784881592e-01" purity="5.0000000000000000e-01" nType="0">
        <Node pos="l" depth="1" NCoef="0" IVar="1" Cut="2.5042070312500000e+05" cType="1" res="-1.5217115287669003e-04" rms="3.4353759884834290e-01" purity="5.1428800821304321e-01" nType="0">
          <Node pos="l" depth="2" NCoef="0" IVar="1" Cut="1.2055757812500000e+04" cType="1" res="1.4361143985297531e-04" rms="3.4374713897705078e-01" purity="5.1630812883377075e-01" nType="0">
            <Node pos="l" depth="3" NCoef="0" IVar="4" Cut="2.0304450000000000e+05" cType="1" res="-1.6780748963356018e-02" rms="3.1786844134330750e-01" purity="2.4798172712326050e-01" nType="0">
              <Node pos="l" depth="4" NCoef="0" IVar="-1" Cut="0.0000000000000000e+00" cType="1" res="-4.1820179671049118e-02" rms="2.9410797357559204e-01" purity="1.3723875582218170e-01" nType="-99"/>
              <Node pos="r" depth="4" NCoef="0" IVar="-1" Cut="0.0000000000000000e+00" cType="1" res="1.0608664160827175e-04" rms="3.2981818914413452e-01" purity="3.1281414628028870e-01" nType="-99"/>
            </Node>
            <Node pos="r" depth="3" NCoef="0" IVar="17" Cut="2.1153940625000000e+05" cType="1" res="1.0768705978989601e-03" rms="3.4509357810020447e-01" purity="5.3110444545745850e-01" nType="0">
              <Node pos="l" depth="4" NCoef="0" IVar="-1" Cut="0.0000000000000000e+00" cType="1" res="1.5053867828100920e-03" rms="3.4899216890335083e-01" purity="5.4248720407485962e-01" nType="-99"/>
              <Node pos="r" depth="4" NCoef="0" IVar="-1" Cut="0.0000000000000000e+00" cType="1" res="-1.2747079133987427e-02" rms="2.8374099731445312e-01" purity="3.6944630742073059e-01" nType="-99"/>
            </Node>
          </Node>
          <Node pos="r" depth="2" NCoef="0" IVar="-1" Cut="0.0000000000000000e+00" cType="1" res="-2.3070847615599632e-02" rms="3.2341736555099487e-01" purity="3.3575069904327393e-01" nType="-99"/>
        </Node>
        <Node pos="r" depth="1" NCoef="0" IVar="15" Cut="1.2492897510528564e+00" cType="1" res="3.6491337232291698e-03" rms="2.1906688809394836e-01" purity="1.4990006387233734e-01" nType="0">
          <Node pos="l" depth="2" NCoef="0" IVar="-1" Cut="0.0000000000000000e+00" cType="1" res="2.7486251667141914e-02" rms="2.3790018260478973e-01" purity="1.6210032999515533e-01" nType="-99"/>
          <Node pos="r" depth="2" NCoef="0" IVar="14" Cut="1.8363937139511108e+00" cType="1" res="-3.6883819848299026e-04" rms="2.1192212402820587e-01" purity="1.4562295377254486e-01" nType="0">
            <Node pos="l" depth="3" NCoef="0" IVar="-1" Cut="0.0000000000000000e+00" cType="1" res="-2.1509323269128799e-02" rms="1.7923805117607117e-01" purity="8.3971805870532990e-02" nType="-99"/>
            <Node pos="r" depth="3" NCoef="0" IVar="-1" Cut="0.0000000000000000e+00" cType="1" res="8.1773474812507629e-03" rms="2.3083284497261047e-01" purity="1.8631340563297272e-01" nType="-99"/>
          </Node>
        </Node>
      </Node>
    </BinaryTree>
    <BinaryTree type="DecisionTree" boostWeight="1.0000000000000000e+00" itree="185">
      <Node pos="s" depth="0" NCoef="0" IVar="5" Cut="2.2984054687500000e+05" cType="1" res="-6.0139395827718545e-06" rms="3.3946371078491211e-01" purity="5.0000000000000000e-01" nType="0">
        <Node pos="l" depth="1" NCoef="0" IVar="14" Cut="3.0833916664123535e+00" cType="1" res="-3.5902584204450250e-04" rms="3.4356468915939331e-01" purity="5.3397262096405029e-01" nType="0">
          <Node pos="l" depth="2" NCoef="0" IVar="18" Cut="9.3607757812500000e+04" cType="1" res="-2.6587560569169000e-05" rms="3.4417062997817993e-01" purity="5.3443223237991333e-01" nType="0">
            <Node pos="l" depth="3" NCoef="0" IVar="18" Cut="8.0140789062500000e+04" cType="1" res="1.3389341766014695e-03" rms="3.5427111387252808e-01" purity="5.2401012182235718e-01" nType="0">
              <Node pos="l" depth="4" NCoef="0" IVar="-1" Cut="0.0000000000000000e+00" cType="1" res="2.7266534743830562e-04" rms="3.5545691847801208e-01" purity="5.1678621768951416e-01" nType="-99"/>
              <Node pos="r" depth="4" NCoef="0" IVar="-1" Cut="0.0000000000000000e+00" cType="1" res="8.3941435441374779e-03" rms="3.4312188625335693e-01" purity="5.8998829126358032e-01" nType="-99"/>
            </Node>
            <Node pos="r" depth="3" NCoef="0" IVar="15" Cut="2.3211338520050049e+00" cType="1" res="-3.5800570622086525e-03" rms="3.1635093688964844e-01" purity="5.6155329942703247e-01" nType="0">
              <Node pos="l" depth="4" NCoef="0" IVar="-1" Cut="0.0000000000000000e+00" cType="1" res="-1.1262589134275913e-02" rms="3.2513052225112915e-01" purity="5.1567333936691284e-01" nType="-99"/>
              <Node pos="r" depth="4" NCoef="0" IVar="-1" Cut="0.0000000000000000e+00" cType="1" res="2.2177777718752623e-03" rms="3.1024280190467834e-01" purity="5.9203368425369263e-01" nType="-99"/>
            </Node>
          </Node>
          <Node pos="r" depth="2" NCoef="0" IVar="0" Cut="3.3333332538604736e+00" cType="1" res="-7.6448260806500912e-03" rms="3.2992151379585266e-01" purity="5.2390044927597046e-01" nType="0">
            <Node pos="l" depth="3" NCoef="0" IVar="-1" Cut="0.0000000000000000e+00" cType="1" res="-2.2972522303462029e-02" rms="3.2435670495033264e-01" purity="4.6412271261215210e-01" nType="-99"/>
            <Node pos="r" depth="3" NCoef="0" IVar="18" Cut="1.0911134375000000e+05" cType="1" res="4.2226177174597979e-04" rms="3.3184981346130371e-01" purity="5.4851514101028442e-01" nType="0">
              <Node pos="l" depth="4" NCoef="0" IVar="-1" Cut="0.0000000000000000e+00" cType="1" res="-7.8725041821599007e-03" rms="3.3323630690574646e-01" purity="5.0072216987609863e-01" nType="-99"/>
              <Node pos="r" depth="4" NCoef="0" IVar="-1" Cut="0.0000000000000000e+00" cType="1" res="9.2206951230764389e-03" rms="3.3017632365226746e-01" purity="5.9642958641052246e-01" nType="-99"/>
            </Node>
          </Node>
        </Node>
        <Node pos="r" depth="1" NCoef="0" IVar="6" Cut="4.7207703125000000e+05" cType="1" res="1.4652138343080878e-03" rms="3.2180577516555786e-01" purity="3.5841417312622070e-01" nType="0">
          <Node pos="l" depth="2" NCoef="0" IVar="21" Cut="1.5880596875000000e+05" cType="1" res="2.4326643906533718e-03" rms="3.3118841052055359e-01" purity="3.8052809238433838e-01" nType="0">
            <Node pos="l" depth="3" NCoef="0" IVar="7" Cut="1.5892588867187500e+04" cType="1" res="8.4938580403104424e-04" rms="3.3490824699401855e-01" purity="3.8255271315574646e-01" nType="0">
              <Node pos="l" depth="4" NCoef="0" IVar="-1" Cut="0.0000000000000000e+00" cType="1" res="-1.2189415283501148e-02" rms="3.3947995305061340e-01" purity="6.8770354986190796e-01" nType="-99"/>
              <Node pos="r" depth="4" NCoef="0" IVar="-1" Cut="0.0000000000000000e+00" cType="1" res="2.7553623076528311e-03" rms="3.3406686782836914e-01" purity="3.3080202341079712e-01" nType="-99"/>
            </Node>
            <Node pos="r" depth="3" NCoef="0" IVar="-1" Cut="0.0000000000000000e+00" cType="1" res="4.0664266794919968e-02" rms="2.6722398400306702e-01" purity="3.4975564479827881e-01" nType="-99"/>
          </Node>
          <Node pos="r" depth="2" NCoef="0" IVar="-1" Cut="0.0000000000000000e+00" cType="1" res="-4.2407087981700897e-02" rms="1.3472434878349304e-01" purity="5.0844032317399979e-02" nType="-99"/>
        </Node>
      </Node>
    </BinaryTree>
    <BinaryTree type="DecisionTree" boostWeight="1.0000000000000000e+00" itree="186">
      <Node pos="s" depth="0" NCoef="0" IVar="14" Cut="1.2873336076736450e+00" cType="1" res="-4.3565555642999243e-06" rms="3.3941608667373657e-01" purity="5.0000000000000000e-01" nType="0">
        <Node pos="l" depth="1" NCoef="0" IVar="20" Cut="6.9249031250000000e+04" cType="1" res="-1.2201527133584023e-03" rms="3.5176110267639160e-01" purity="4.4710662961006165e-01" nType="0">
          <Node pos="l" depth="2" NCoef="0" IVar="17" Cut="2.8010355468750000e+04" cType="1" res="-3.6224005743861198e-03" rms="3.8012871146202087e-01" purity="5.5751568078994751e-01" nType="0">
            <Node pos="l" depth="3" NCoef="0" IVar="10" Cut="6.0616265625000000e+04" cType="1" res="4.0398719720542431e-03" rms="3.6475801467895508e-01" purity="5.8847457170486450e-01" nType="0">
              <Node pos="l" depth="4" NCoef="0" IVar="-1" Cut="0.0000000000000000e+00" cType="1" res="-1.1738390661776066e-02" rms="3.6008116602897644e-01" purity="3.2866749167442322e-01" nType="-99"/>
              <Node pos="r" depth="4" NCoef="0" IVar="-1" Cut="0.0000000000000000e+00" cType="1" res="7.1989647112786770e-03" rms="3.6591100692749023e-01" purity="6.6655749082565308e-01" nType="-99"/>
            </Node>
            <Node pos="r" depth="3" NCoef="0" IVar="5" Cut="1.6404284375000000e+05" cType="1" res="-1.2566722929477692e-02" rms="3.9713281393051147e-01" purity="5.2137678861618042e-01" nType="0">
              <Node pos="l" depth="4" NCoef="0" IVar="-1" Cut="0.0000000000000000e+00" cType="1" res="-1.5971997752785683e-02" rms="4.0281346440315247e-01" purity="5.5730056762695312e-01" nType="-99"/>
              <Node pos="r" depth="4" NCoef="0" IVar="-1" Cut="0.0000000000000000e+00" cType="1" res="3.5306939389556646e-04" rms="3.9058712124824524e-01" purity="4.8325821757316589e-01" nType="-99"/>
            </Node>
          </Node>
          <Node pos="r" depth="2" NCoef="0" IVar="1" Cut="7.9088960937500000e+04" cType="1" res="5.9551284648478031e-03" rms="2.4830056726932526e-01" purity="1.1732556670904160e-01" nType="0">
            <Node pos="l" depth="3" NCoef="0" IVar="7" Cut="9.3226890625000000e+04" cType="1" res="1.2212169356644154e-02" rms="2.5547659397125244e-01" purity="1.2238181382417679e-01" nType="0">
              <Node pos="l" depth="4" NCoef="0" IVar="-1" Cut="0.0000000000000000e+00" cType="1" res="2.6015559211373329e-02" rms="3.3522567152976990e-01" purity="2.1799145638942719e-01" nType="-99"/>
              <Node pos="r" depth="4" NCoef="0" IVar="-1" Cut="0.0000000000000000e+00" cType="1" res="2.5682300329208374e-03" rms="1.6457907855510712e-01" purity="4.5485313981771469e-02" nType="-99"/>
            </Node>
            <Node pos="r" depth="3" NCoef="0" IVar="-1" Cut="0.0000000000000000e+00" cType="1" res="-1.4859234914183617e-02" rms="2.2935403883457184e-01" purity="1.0511930286884308e-01" nType="-99"/>
          </Node>
        </Node>
        <Node pos="r" depth="1" NCoef="0" IVar="13" Cut="2.4680671691894531e+00" cType="1" res="4.0894167614169419e-04" rms="3.3511498570442200e-01" purity="5.1798057556152344e-01" nType="0">
          <Node pos="l" depth="2" NCoef="0" IVar="14" Cut="1.4725400209426880e+00" cType="1" res="2.1908169146627188e-03" rms="3.3821323513984680e-01" purity="3.7176239490509033e-01" nType="0">
            <Node pos="l" depth="3" NCoef="0" IVar="15" Cut="1.5433163642883301e+00" cType="1" res="1.3027201406657696e-02" rms="3.5245674848556519e-01" purity="3.3625227212905884e-01" nType="0">
              <Node pos="l" depth="4" NCoef="0" IVar="-1" Cut="0.0000000000000000e+00" cType="1" res="-1.7169617349281907e-03" rms="3.5729616880416870e-01" purity="3.5769784450531006e-01" nType="-99"/>
              <Node pos="r" depth="4" NCoef="0" IVar="-1" Cut="0.0000000000000000e+00" cType="1" res="2.1706359460949898e-02" rms="3.4815269708633423e-01" purity="3.1945288181304932e-01" nType="-99"/>
            </Node>
            <Node pos="r" depth="3" NCoef="0" IVar="11" Cut="9.7634357213973999e-01" cType="1" res="9.6758990548551083e-04" rms="3.3654564619064331e-01" purity="3.7577083706855774e-01" nType="0">
              <Node pos="l" depth="4" NCoef="0" IVar="-1" Cut="0.0000000000000000e+00" cType="1" res="3.9510307833552361e-03" rms="3.5411942005157471e-01" purity="4.7346842288970947e-01" nType="-99"/>
              <Node pos="r" depth="4" NCoef="0" IVar="-1" Cut="0.0000000000000000e+00" cType="1" res="-2.0663503091782331e-03" rms="3.2214719057083130e-01" purity="2.9962790012359619e-01" nType="-99"/>
            </Node>
          </Node>
          <Node pos="r" depth="2" NCoef="0" IVar="0" Cut="5.3333334922790527e+00" cType="1" res="-1.0234207147732377e-03" rms="3.3259657025337219e-01" purity="6.3551825284957886e-01" nType="0">
            <Node pos="l" depth="3" NCoef="0" IVar="4" Cut="2.2286057812500000e+05" cType="1" res="1.9874745048582554e-03" rms="3.1167513132095337e-01" purity="7.2213363647460938e-01" nType="0">
              <Node pos="l" depth="4" NCoef="0" IVar="-1" Cut="0.0000000000000000e+00" cType="1" res="-4.6103247441351414e-03" rms="3.5468339920043945e-01" purity="6.8189263343811035e-01" nType="-99"/>
              <Node pos="r" depth="4" NCoef="0" IVar="-1" Cut="0.0000000000000000e+00" cType="1" res="4.8910630866885185e-03" rms="2.9712870717048645e-01" purity="7.3453164100646973e-01" nType="-99"/>
            </Node>
            <Node pos="r" depth="3" NCoef="0" IVar="18" Cut="1.2152491406250000e+05" cType="1" res="-4.1449829004704952e-03" rms="3.5295307636260986e-01" purity="5.4571926593780518e-01" nType="0">
              <Node pos="l" depth="4" NCoef="0" IVar="-1" Cut="0.0000000000000000e+00" cType="1" res="-5.1322062499821186e-03" rms="3.6587122082710266e-01" purity="5.4129010438919067e-01" nType="-99"/>
              <Node pos="r" depth="4" NCoef="0" IVar="-1" Cut="0.0000000000000000e+00" cType="1" res="2.3246491327881813e-03" rms="3.2237467169761658e-01" purity="5.5553758144378662e-01" nType="-99"/>
            </Node>
          </Node>
        </Node>
      </Node>
    </BinaryTree>
    <BinaryTree type="DecisionTree" boostWeight="1.0000000000000000e+00" itree="187">
      <Node pos="s" depth="0" NCoef="0" IVar="3" Cut="4.4626618750000000e+05" cType="1" res="-4.3505019675649237e-06" rms="3.3934804797172546e-01" purity="5.0000000000000000e-01" nType="0">
        <Node pos="l" depth="1" NCoef="0" IVar="10" Cut="3.1161009375000000e+05" cType="1" res="-1.3852826668880880e-04" rms="3.4337037801742554e-01" purity="5.1428800821304321e-01" nType="0">
          <Node pos="l" depth="2" NCoef="0" IVar="9" Cut="3.1054040625000000e+05" cType="1" res="1.8227029067929834e-04" rms="3.4386277198791504e-01" purity="5.1600414514541626e-01" nType="0">
            <Node pos="l" depth="3" NCoef="0" IVar="7" Cut="7.7365593750000000e+04" cType="1" res="4.7874794108793139e-04" rms="3.4473478794097900e-01" purity="5.1884388923645020e-01" nType="0">
              <Node pos="l" depth="4" NCoef="0" IVar="-1" Cut="0.0000000000000000e+00" cType="1" res="1.8497109413146973e-03" rms="3.6159503459930420e-01" purity="5.9864604473114014e-01" nType="-99"/>
              <Node pos="r" depth="4" NCoef="0" IVar="-1" Cut="0.0000000000000000e+00" cType="1" res="-3.8828819524496794e-03" rms="3.0652600526809692e-01" purity="3.5227721929550171e-01" nType="-99"/>
            </Node>
            <Node pos="r" depth="3" NCoef="0" IVar="-1" Cut="0.0000000000000000e+00" cType="1" res="-2.6785252615809441e-02" rms="2.7275118231773376e-01" purity="3.1083360314369202e-01" nType="-99"/>
          </Node>
          <Node pos="r" depth="2" NCoef="0" IVar="-1" Cut="0.0000000000000000e+00" cType="1" res="-2.3105841130018234e-02" rms="3.0465182662010193e-01" purity="3.8982468843460083e-01" nType="-99"/>
        </Node>
        <Node pos="r" depth="1" NCoef="0" IVar="9" Cut="4.5895303125000000e+05" cType="1" res="3.2834068406373262e-03" rms="2.1876379847526550e-01" purity="1.4990006387233734e-01" nType="0">
          <Node pos="l" depth="2" NCoef="0" IVar="11" Cut="9.3502217531204224e-01" cType="1" res="7.8170821070671082e-03" rms="2.3536714911460876e-01" purity="1.7648507654666901e-01" nType="0">
            <Node pos="l" depth="3" NCoef="0" IVar="-1" Cut="0.0000000000000000e+00" cType="1" res="2.3060448467731476e-02" rms="3.2530051469802856e-01" purity="3.7388861179351807e-01" nType="-99"/>
            <Node pos="r" depth="3" NCoef="0" IVar="-1" Cut="0.0000000000000000e+00" cType="1" res="-1.7471833154559135e-02" rms="1.3633400201797485e-01" purity="3.3648811280727386e-02" nType="-99"/>
          </Node>
          <Node pos="r" depth="2" NCoef="0" IVar="-1" Cut="0.0000000000000000e+00" cType="1" res="-1.5337891876697540e-02" rms="1.7936532199382782e-01" purity="9.5053188502788544e-02" nType="-99"/>
        </Node>
      </Node>
    </BinaryTree>
    <BinaryTree type="DecisionTree" boostWeight="1.0000000000000000e+00" itree="188">
      <Node pos="s" depth="0" NCoef="0" IVar="18" Cut="1.4775275000000000e+05" cType="1" res="-3.7769361824757652e-06" rms="3.3932223916053772e-01" purity="5.0000000000000000e-01" nType="0">
        <Node pos="l" depth="1" NCoef="0" IVar="2" Cut="3.3400731250000000e+05" cType="1" res="3.0499746208079159e-04" rms="3.4738999605178833e-01" purity="5.1551795005798340e-01" nType="0">
          <Node pos="l" depth="2" NCoef="0" IVar="5" Cut="1.3370848437500000e+05" cType="1" res="2.2665536962449551e-03" rms="3.6250892281532288e-01" purity="5.7041960954666138e-01" nType="0">
            <Node pos="l" depth="3" NCoef="0" IVar="7" Cut="7.6775273437500000e+04" cType="1" res="-7.0527684874832630e-04" rms="3.6060574650764465e-01" purity="5.5600452423095703e-01" nType="0">
              <Node pos="l" depth="4" NCoef="0" IVar="-1" Cut="0.0000000000000000e+00" cType="1" res="2.3641786538064480e-03" rms="3.6341255903244019e-01" purity="6.0577243566513062e-01" nType="-99"/>
              <Node pos="r" depth="4" NCoef="0" IVar="-1" Cut="0.0000000000000000e+00" cType="1" res="-9.1395564377307892e-03" rms="3.5252580046653748e-01" purity="4.1893935203552246e-01" nType="-99"/>
            </Node>
            <Node pos="r" depth="3" NCoef="0" IVar="7" Cut="6.5806367187500000e+04" cType="1" res="2.3386854678392410e-02" rms="3.7507927417755127e-01" purity="6.7286527156829834e-01" nType="0">
              <Node pos="l" depth="4" NCoef="0" IVar="-1" Cut="0.0000000000000000e+00" cType="1" res="8.5554243996739388e-03" rms="3.6816793680191040e-01" purity="6.9159060716629028e-01" nType="-99"/>
              <Node pos="r" depth="4" NCoef="0" IVar="-1" Cut="0.0000000000000000e+00" cType="1" res="3.5421885550022125e-02" rms="3.9200103282928467e-01" purity="6.2068223953247070e-01" nType="-99"/>
            </Node>
          </Node>
          <Node pos="r" depth="2" NCoef="0" IVar="16" Cut="1.5057002305984497e+00" cType="1" res="-1.7386287217959762e-03" rms="3.3089220523834229e-01" purity="4.5831930637359619e-01" nType="0">
            <Node pos="l" depth="3" NCoef="0" IVar="6" Cut="1.7050137500000000e+05" cType="1" res="-6.8745436146855354e-03" rms="3.1495437026023865e-01" purity="6.0166186094284058e-01" nType="0">
              <Node pos="l" depth="4" NCoef="0" IVar="-1" Cut="0.0000000000000000e+00" cType="1" res="-1.3215580955147743e-02" rms="3.6460718512535095e-01" purity="6.1051183938980103e-01" nType="-99"/>
              <Node pos="r" depth="4" NCoef="0" IVar="-1" Cut="0.0000000000000000e+00" cType="1" res="-1.9336937693879008e-03" rms="2.8872254490852356e-01" purity="5.9753042459487915e-01" nType="-99"/>
            </Node>
            <Node pos="r" depth="3" NCoef="0" IVar="3" Cut="2.8368018750000000e+05" cType="1" res="3.3900593407452106e-03" rms="3.4599992632865906e-01" purity="3.1517839431762695e-01" nType="0">
              <Node pos="l" depth="4" NCoef="0" IVar="-1" Cut="0.0000000000000000e+00" cType="1" res="4.6020671725273132e-03" rms="3.6714202165603638e-01" purity="3.5233369469642639e-01" nType="-99"/>
              <Node pos="r" depth="4" NCoef="0" IVar="-1" Cut="0.0000000000000000e+00" cType="1" res="-5.9957145713269711e-03" rms="2.7914175391197205e-01" purity="2.1241536736488342e-01" nType="-99"/>
            </Node>
          </Node>
        </Node>
        <Node pos="r" depth="1" NCoef="0" IVar="14" Cut="2.0208415985107422e+00" cType="1" res="-1.3881844934076071e-03" rms="3.0049517750740051e-01" purity="4.3042436242103577e-01" nType="0">
          <Node pos="l" depth="2" NCoef="0" IVar="12" Cut="3.0730288028717041e+00" cType="1" res="3.6848625168204308e-03" rms="2.9236498475074768e-01" purity="2.9972711205482483e-01" nType="0">
            <Node pos="l" depth="3" NCoef="0" IVar="10" Cut="9.7340054687500000e+04" cType="1" res="7.7836066484451294e-03" rms="3.0411773920059204e-01" purity="3.2132169604301453e-01" nType="0">
              <Node pos="l" depth="4" NCoef="0" IVar="-1" Cut="0.0000000000000000e+00" cType="1" res="2.1761054173111916e-02" rms="3.3324190974235535e-01" purity="2.6452362537384033e-01" nType="-99"/>
              <Node pos="r" depth="4" NCoef="0" IVar="-1" Cut="0.0000000000000000e+00" cType="1" res="2.8672257903963327e-03" rms="2.9244405031204224e-01" purity="3.4232249855995178e-01" nType="-99"/>
            </Node>
            <Node pos="r" depth="3" NCoef="0" IVar="-1" Cut="0.0000000000000000e+00" cType="1" res="-1.5368552878499031e-02" rms="2.4497400224208832e-01" purity="2.2213876247406006e-01" nType="-99"/>
          </Node>
          <Node pos="r" depth="2" NCoef="0" IVar="11" Cut="1.5513389110565186e+00" cType="1" res="-3.9099245332181454e-03" rms="3.0442437529563904e-01" purity="4.9539211392402649e-01" nType="0">
            <Node pos="l" depth="3" NCoef="0" IVar="16" Cut="1.9972239732742310e+00" cType="1" res="-1.9440958276391029e-03" rms="3.1271472573280334e-01" purity="5.4012811183929443e-01" nType="0">
              <Node pos="l" depth="4" NCoef="0" IVar="-1" Cut="0.0000000000000000e+00" cType="1" res="-5.4483488202095032e-03" rms="3.0306336283683777e-01" purity="6.5293657779693604e-01" nType="-99"/>
              <Node pos="r" depth="4" NCoef="0" IVar="-1" Cut="0.0000000000000000e+00" cType="1" res="5.3504747338593006e-03" rms="3.3462411165237427e-01" purity="2.6917865872383118e-01" nType="-99"/>
            </Node>
            <Node pos="r" depth="3" NCoef="0" IVar="-1" Cut="0.0000000000000000e+00" cType="1" res="-2.7871895581483841e-02" rms="2.2959762811660767e-01" purity="1.4829309284687042e-01" nType="-99"/>
          </Node>
        </Node>
      </Node>
    </BinaryTree>
    <BinaryTree type="DecisionTree" boostWeight="1.0000000000000000e+00" itree="189">
      <Node pos="s" depth="0" NCoef="0" IVar="12" Cut="2.8754057884216309e+00" cType="1" res="-2.6807460926647764e-06" rms="3.3924481272697449e-01" purity="5.0000000000000000e-01" nType="0">
        <Node pos="l" depth="1" NCoef="0" IVar="9" Cut="9.8558781250000000e+04" cType="1" res="-6.5858941525220871e-04" rms="3.4983292222023010e-01" purity="4.8231020569801331e-01" nType="0">
          <Node pos="l" depth="2" NCoef="0" IVar="11" Cut="1.9380258321762085e+00" cType="1" res="1.8610248807817698e-03" rms="3.7451139092445374e-01" purity="5.0125759840011597e-01" nType="0">
            <Node pos="l" depth="3" NCoef="0" IVar="19" Cut="1.8888293750000000e+05" cType="1" res="-1.8718512728810310e-04" rms="3.7432792782783508e-01" purity="5.2027404308319092e-01" nType="0">
              <Node pos="l" depth="4" NCoef="0" IVar="-1" Cut="0.0000000000000000e+00" cType="1" res="-1.0745496256276965e-03" rms="3.7455940246582031e-01" purity="5.3488081693649292e-01" nType="-99"/>
              <Node pos="r" depth="4" NCoef="0" IVar="-1" Cut="0.0000000000000000e+00" cType="1" res="1.7956143245100975e-02" rms="3.6959853768348694e-01" purity="2.7364128828048706e-01" nType="-99"/>
            </Node>
            <Node pos="r" depth="3" NCoef="0" IVar="13" Cut="2.5299232006072998e+00" cType="1" res="1.9251339137554169e-02" rms="3.7561574578285217e-01" purity="3.3979871869087219e-01" nType="0">
              <Node pos="l" depth="4" NCoef="0" IVar="-1" Cut="0.0000000000000000e+00" cType="1" res="4.4156252406537533e-03" rms="3.5480374097824097e-01" purity="2.6365923881530762e-01" nType="-99"/>
              <Node pos="r" depth="4" NCoef="0" IVar="-1" Cut="0.0000000000000000e+00" cType="1" res="2.7548167854547501e-02" rms="4.1054728627204895e-01" purity="4.8240086436271667e-01" nType="-99"/>
            </Node>
          </Node>
          <Node pos="r" depth="2" NCoef="0" IVar="16" Cut="2.4958214759826660e+00" cType="1" res="-3.9531663060188293e-03" rms="3.1462699174880981e-01" purity="4.5753508806228638e-01" nType="0">
            <Node pos="l" depth="3" NCoef="0" IVar="12" Cut="2.3977315425872803e+00" cType="1" res="-1.7446664860472083e-03" rms="3.1470653414726257e-01" purity="4.9498960375785828e-01" nType="0">
              <Node pos="l" depth="4" NCoef="0" IVar="-1" Cut="0.0000000000000000e+00" cType="1" res="-8.3655919879674911e-03" rms="3.1728649139404297e-01" purity="3.5674521327018738e-01" nType="-99"/>
              <Node pos="r" depth="4" NCoef="0" IVar="-1" Cut="0.0000000000000000e+00" cType="1" res="2.0837849006056786e-03" rms="3.1319689750671387e-01" purity="5.7178580760955811e-01" nType="-99"/>
            </Node>
            <Node pos="r" depth="3" NCoef="0" IVar="13" Cut="2.3538203239440918e+00" cType="1" res="-1.7598945647478104e-02" rms="3.1379058957099915e-01" purity="2.2611318528652191e-01" nType="0">
              <Node pos="l" depth="4" NCoef="0" IVar="-1" Cut="0.0000000000000000e+00" cType="1" res="-5.0443387590348721e-03" rms="2.7695754170417786e-01" purity="1.5476976335048676e-01" nType="-99"/>
              <Node pos="r" depth="4" NCoef="0" IVar="-1" Cut="0.0000000000000000e+00" cType="1" res="-2.5165850296616554e-02" rms="3.5151675343513489e-01" purity="3.0991747975349426e-01" nType="-99"/>
            </Node>
          </Node>
        </Node>
        <Node pos="r" depth="1" NCoef="0" IVar="19" Cut="1.2900694531250000e+05" cType="1" res="1.0185173014178872e-03" rms="3.2206517457962036e-01" purity="5.2754163742065430e-01" nType="0">
          <Node pos="l" depth="2" NCoef="0" IVar="13" Cut="1.3711484670639038e+00" cType="1" res="2.0756460726261139e-03" rms="3.2271608710289001e-01" purity="5.7451957464218140e-01" nType="0">
            <Node pos="l" depth="3" NCoef="0" IVar="7" Cut="8.4138523437500000e+04" cType="1" res="-9.0808151289820671e-03" rms="2.4459491670131683e-01" purity="1.2218993157148361e-01" nType="0">
              <Node pos="l" depth="4" NCoef="0" IVar="-1" Cut="0.0000000000000000e+00" cType="1" res="-2.5119634345173836e-02" rms="2.8294050693511963e-01" purity="1.7648681998252869e-01" nType="-99"/>
              <Node pos="r" depth="4" NCoef="0" IVar="-1" Cut="0.0000000000000000e+00" cType="1" res="2.9535260051488876e-02" rms="1.9038370251655579e-01" purity="6.0764908790588379e-02" nType="-99"/>
            </Node>
            <Node pos="r" depth="3" NCoef="0" IVar="13" Cut="2.2070014476776123e+00" cType="1" res="2.9961736872792244e-03" rms="3.2831594347953796e-01" purity="6.1184161901473999e-01" nType="0">
              <Node pos="l" depth="4" NCoef="0" IVar="-1" Cut="0.0000000000000000e+00" cType="1" res="8.3797806873917580e-03" rms="3.3624991774559021e-01" purity="3.5124123096466064e-01" nType="-99"/>
              <Node pos="r" depth="4" NCoef="0" IVar="-1" Cut="0.0000000000000000e+00" cType="1" res="1.3989349827170372e-03" rms="3.2661381363868713e-01" purity="6.6635221242904663e-01" nType="-99"/>
            </Node>
          </Node>
          <Node pos="r" depth="2" NCoef="0" IVar="6" Cut="1.9287276562500000e+05" cType="1" res="-4.9391114152967930e-03" rms="3.1830623745918274e-01" purity="2.6278930902481079e-01" nType="0">
            <Node pos="l" depth="3" NCoef="0" IVar="16" Cut="2.4969453811645508e+00" cType="1" res="-1.9549250602722168e-02" rms="3.6187088489532471e-01" purity="3.0047938227653503e-01" nType="0">
              <Node pos="l" depth="4" NCoef="0" IVar="-1" Cut="0.0000000000000000e+00" cType="1" res="-2.8076779097318649e-02" rms="3.5605749487876892e-01" purity="2.8434461355209351e-01" nType="-99"/>
              <Node pos="r" depth="4" NCoef="0" IVar="-1" Cut="0.0000000000000000e+00" cType="1" res="-6.6934525966644287e-04" rms="3.6595475673675537e-01" purity="3.1481057405471802e-01" nType="-99"/>
            </Node>
            <Node pos="r" depth="3" NCoef="0" IVar="9" Cut="2.1481954687500000e+05" cType="1" res="3.6963194143027067e-03" rms="2.8914374113082886e-01" purity="2.4051234126091003e-01" nType="0">
              <Node pos="l" depth="4" NCoef="0" IVar="-1" Cut="0.0000000000000000e+00" cType="1" res="1.8073666840791702e-02" rms="3.2834056019783020e-01" purity="3.3526384830474854e-01" nType="-99"/>
              <Node pos="r" depth="4" NCoef="0" IVar="-1" Cut="0.0000000000000000e+00" cType="1" res="-1.1702307499945164e-02" rms="2.5663334131240845e-01" purity="1.7232817411422729e-01" nType="-99"/>
            </Node>
          </Node>
        </Node>
      </Node>
    </BinaryTree>
    <BinaryTree type="DecisionTree" boostWeight="1.0000000000000000e+00" itree="190">
      <Node pos="s" depth="0" NCoef="0" IVar="12" Cut="1.2675663232803345e+00" cType="1" res="-4.6495524657075293e-06" rms="3.3916863799095154e-01" purity="5.0000000000000000e-01" nType="0">
        <Node pos="l" depth="1" NCoef="0" IVar="1" Cut="5.1487003906250000e+04" cType="1" res="-3.7822404410690069e-03" rms="3.4755650162696838e-01" purity="2.4588495492935181e-01" nType="0">
          <Node pos="l" depth="2" NCoef="0" IVar="17" Cut="8.0613039062500000e+04" cType="1" res="5.0123869441449642e-03" rms="3.1893974542617798e-01" purity="1.6166773438453674e-01" nType="0">
            <Node pos="l" depth="3" NCoef="0" IVar="-1" Cut="0.0000000000000000e+00" cType="1" res="-6.6105397418141365e-03" rms="3.0046680569648743e-01" purity="1.4567032456398010e-01" nType="-99"/>
            <Node pos="r" depth="3" NCoef="0" IVar="-1" Cut="0.0000000000000000e+00" cType="1" res="1.8174123018980026e-02" rms="3.3898895978927612e-01" purity="1.8062193691730499e-01" nType="-99"/>
          </Node>
          <Node pos="r" depth="2" NCoef="0" IVar="16" Cut="2.0455296039581299e+00" cType="1" res="-1.2427229434251785e-02" rms="3.7335401773452759e-01" purity="3.2866922020912170e-01" nType="0">
            <Node pos="l" depth="3" NCoef="0" IVar="-1" Cut="0.0000000000000000e+00" cType="1" res="-2.4445832241326571e-03" rms="3.8020488619804382e-01" purity="4.0585374832153320e-01" nType="-99"/>
            <Node pos="r" depth="3" NCoef="0" IVar="-1" Cut="0.0000000000000000e+00" cType="1" res="-1.4305544085800648e-02" rms="3.6647990345954895e-01" purity="2.5467377901077271e-01" nType="-99"/>
          </Node>
        </Node>
        <Node pos="r" depth="1" NCoef="0" IVar="11" Cut="7.3745375871658325e-01" cType="1" res="1.7456455680076033e-04" rms="3.3876448869705200e-01" purity="5.1205557584762573e-01" nType="0">
          <Node pos="l" depth="2" NCoef="0" IVar="2" Cut="3.1039903125000000e+05" cType="1" res="1.5575615689158440e-03" rms="3.2581353187561035e-01" purity="7.1425062417984009e-01" nType="0">
            <Node pos="l" depth="3" NCoef="0" IVar="6" Cut="9.4837148437500000e+04" cType="1" res="7.4074720032513142e-03" rms="3.3252725005149841e-01" purity="7.3836308717727661e-01" nType="0">
              <Node pos="l" depth="4" NCoef="0" IVar="-1" Cut="0.0000000000000000e+00" cType="1" res="2.4138817563652992e-02" rms="3.9225205779075623e-01" purity="4.4902962446212769e-01" nType="-99"/>
              <Node pos="r" depth="4" NCoef="0" IVar="-1" Cut="0.0000000000000000e+00" cType="1" res="1.8625601660460234e-03" rms="3.2080203294754028e-01" purity="7.8827041387557983e-01" nType="-99"/>
            </Node>
            <Node pos="r" depth="3" NCoef="0" IVar="0" Cut="2.3333332538604736e+00" cType="1" res="-8.5045886225998402e-04" rms="3.2297861576080322e-01" purity="7.0432507991790771e-01" nType="0">
              <Node pos="l" depth="4" NCoef="0" IVar="-1" Cut="0.0000000000000000e+00" cType="1" res="-7.6639107428491116e-03" rms="3.6257135868072510e-01" purity="6.2037146091461182e-01" nType="-99"/>
              <Node pos="r" depth="4" NCoef="0" IVar="-1" Cut="0.0000000000000000e+00" cType="1" res="2.2660500835627317e-03" rms="3.0875098705291748e-01" purity="7.3200291395187378e-01" nType="-99"/>
            </Node>
          </Node>
          <Node pos="r" depth="2" NCoef="0" IVar="14" Cut="2.0570728778839111e+00" cType="1" res="-4.1022495133802295e-04" rms="3.4409245848655701e-01" purity="4.2655897140502930e-01" nType="0">
            <Node pos="l" depth="3" NCoef="0" IVar="17" Cut="6.1270457031250000e+04" cType="1" res="-1.9210986793041229e-03" rms="3.4919467568397522e-01" purity="3.9693289995193481e-01" nType="0">
              <Node pos="l" depth="4" NCoef="0" IVar="-1" Cut="0.0000000000000000e+00" cType="1" res="3.4456263529136777e-04" rms="3.6370038986206055e-01" purity="4.4282209873199463e-01" nType="-99"/>
              <Node pos="r" depth="4" NCoef="0" IVar="-1" Cut="0.0000000000000000e+00" cType="1" res="-6.3255727291107178e-03" rms="3.1895887851715088e-01" purity="3.0743086338043213e-01" nType="-99"/>
            </Node>
            <Node pos="r" depth="3" NCoef="0" IVar="15" Cut="2.2992093563079834e+00" cType="1" res="1.9181651296094060e-03" rms="3.3606454730033875e-01" purity="4.7221535444259644e-01" nType="0">
              <Node pos="l" depth="4" NCoef="0" IVar="-1" Cut="0.0000000000000000e+00" cType="1" res="3.8868405390530825e-03" rms="3.4381410479545593e-01" purity="4.4289901852607727e-01" nType="-99"/>
              <Node pos="r" depth="4" NCoef="0" IVar="-1" Cut="0.0000000000000000e+00" cType="1" res="-1.2996128061786294e-03" rms="3.2663366198539734e-01" purity="5.0687175989151001e-01" nType="-99"/>
            </Node>
          </Node>
        </Node>
      </Node>
    </BinaryTree>
    <BinaryTree type="DecisionTree" boostWeight="1.0000000000000000e+00" itree="191">
      <Node pos="s" depth="0" NCoef="0" IVar="3" Cut="4.4626618750000000e+05" cType="1" res="-4.4281009650148917e-06" rms="3.3914211392402649e-01" purity="5.0000000000000000e-01" nType="0">
        <Node pos="l" depth="1" NCoef="0" IVar="3" Cut="9.8033531250000000e+04" cType="1" res="-1.4469365123659372e-04" rms="3.4316438436508179e-01" purity="5.1428800821304321e-01" nType="0">
          <Node pos="l" depth="2" NCoef="0" IVar="21" Cut="4.7606585937500000e+04" cType="1" res="-7.1212863549590111e-03" rms="3.7564295530319214e-01" purity="3.5506221652030945e-01" nType="0">
            <Node pos="l" depth="3" NCoef="0" IVar="3" Cut="7.1888453125000000e+04" cType="1" res="5.1433849148452282e-04" rms="3.8432484865188599e-01" purity="3.7965124845504761e-01" nType="0">
              <Node pos="l" depth="4" NCoef="0" IVar="-1" Cut="0.0000000000000000e+00" cType="1" res="6.6987797617912292e-03" rms="3.9959609508514404e-01" purity="3.9382842183113098e-01" nType="-99"/>
              <Node pos="r" depth="4" NCoef="0" IVar="-1" Cut="0.0000000000000000e+00" cType="1" res="-1.0393842123448849e-02" rms="3.5864168405532837e-01" purity="3.5756585001945496e-01" nType="-99"/>
            </Node>
            <Node pos="r" depth="3" NCoef="0" IVar="-1" Cut="0.0000000000000000e+00" cType="1" res="-4.0752265602350235e-02" rms="3.0808630585670471e-01" purity="1.9370383024215698e-01" nType="-99"/>
          </Node>
          <Node pos="r" depth="2" NCoef="0" IVar="10" Cut="4.1565871093750000e+04" cType="1" res="9.2779070837423205e-04" rms="3.3788207173347473e-01" purity="5.3876519203186035e-01" nType="0">
            <Node pos="l" depth="3" NCoef="0" IVar="11" Cut="2.2832143306732178e+00" cType="1" res="1.6217438504099846e-02" rms="3.1288430094718933e-01" purity="2.0723877847194672e-01" nType="0">
              <Node pos="l" depth="4" NCoef="0" IVar="-1" Cut="0.0000000000000000e+00" cType="1" res="3.0998334288597107e-02" rms="3.4730675816535950e-01" purity="2.8219601511955261e-01" nType="-99"/>
              <Node pos="r" depth="4" NCoef="0" IVar="-1" Cut="0.0000000000000000e+00" cType="1" res="-1.1875398457050323e-02" rms="2.5697484612464905e-01" purity="1.0549673438072205e-01" nType="-99"/>
            </Node>
            <Node pos="r" depth="3" NCoef="0" IVar="17" Cut="2.0780539062500000e+05" cType="1" res="3.5730766830965877e-04" rms="3.3876574039459229e-01" purity="5.5113506317138672e-01" nType="0">
              <Node pos="l" depth="4" NCoef="0" IVar="-1" Cut="0.0000000000000000e+00" cType="1" res="1.0560302762314677e-03" rms="3.4321451187133789e-01" purity="5.6536990404129028e-01" nType="-99"/>
              <Node pos="r" depth="4" NCoef="0" IVar="-1" Cut="0.0000000000000000e+00" cType="1" res="-1.3102572411298752e-02" rms="2.7951630949974060e-01" purity="3.7989872694015503e-01" nType="-99"/>
            </Node>
          </Node>
        </Node>
        <Node pos="r" depth="1" NCoef="0" IVar="16" Cut="1.4693115949630737e+00" cType="1" res="3.4324983134865761e-03" rms="2.1853668987751007e-01" purity="1.4990006387233734e-01" nType="0">
          <Node pos="l" depth="2" NCoef="0" IVar="-1" Cut="0.0000000000000000e+00" cType="1" res="1.6671493649482727e-02" rms="2.3934926092624664e-01" purity="2.4329586327075958e-01" nType="-99"/>
          <Node pos="r" depth="2" NCoef="0" IVar="10" Cut="3.5086378125000000e+05" cType="1" res="-1.6948882257565856e-03" rms="2.0109359920024872e-01" purity="7.8760415315628052e-02" nType="0">
            <Node pos="l" depth="3" NCoef="0" IVar="-1" Cut="0.0000000000000000e+00" cType="1" res="-2.5792622938752174e-02" rms="1.6742788255214691e-01" purity="5.2642431110143661e-02" nType="-99"/>
            <Node pos="r" depth="3" NCoef="0" IVar="-1" Cut="0.0000000000000000e+00" cType="1" res="8.0961957573890686e-03" rms="2.2715699672698975e-01" purity="1.0241413116455078e-01" nType="-99"/>
          </Node>
        </Node>
      </Node>
    </BinaryTree>
    <BinaryTree type="DecisionTree" boostWeight="1.0000000000000000e+00" itree="192">
      <Node pos="s" depth="0" NCoef="0" IVar="5" Cut="4.3468087500000000e+05" cType="1" res="-7.7011936809867620e-06" rms="3.3907040953636169e-01" purity="5.0000000000000000e-01" nType="0">
        <Node pos="l" depth="1" NCoef="0" IVar="5" Cut="6.4017382812500000e+04" cType="1" res="-1.8132737022824585e-04" rms="3.4154805541038513e-01" purity="5.1539814472198486e-01" nType="0">
          <Node pos="l" depth="2" NCoef="0" IVar="14" Cut="2.3136525154113770e+00" cType="1" res="1.8063538009300828e-03" rms="3.5223791003227234e-01" purity="4.9863106012344360e-01" nType="0">
            <Node pos="l" depth="3" NCoef="0" IVar="19" Cut="2.7324048828125000e+04" cType="1" res="4.6061202883720398e-03" rms="3.5271582007408142e-01" purity="4.9286085367202759e-01" nType="0">
              <Node pos="l" depth="4" NCoef="0" IVar="-1" Cut="0.0000000000000000e+00" cType="1" res="8.4280706942081451e-03" rms="3.5895040631294250e-01" purity="4.2134168744087219e-01" nType="-99"/>
              <Node pos="r" depth="4" NCoef="0" IVar="-1" Cut="0.0000000000000000e+00" cType="1" res="-1.6725348541513085e-03" rms="3.4613150358200073e-01" purity="5.6559145450592041e-01" nType="-99"/>
            </Node>
            <Node pos="r" depth="3" NCoef="0" IVar="5" Cut="3.9863222656250000e+04" cType="1" res="-7.1550193242728710e-03" rms="3.5055360198020935e-01" purity="5.1710015535354614e-01" nType="0">
              <Node pos="l" depth="4" NCoef="0" IVar="-1" Cut="0.0000000000000000e+00" cType="1" res="-1.5262738801538944e-02" rms="3.4658420085906982e-01" purity="4.8323121666908264e-01" nType="-99"/>
              <Node pos="r" depth="4" NCoef="0" IVar="-1" Cut="0.0000000000000000e+00" cType="1" res="3.6534024402499199e-03" rms="3.5381084680557251e-01" purity="5.4867142438888550e-01" nType="-99"/>
            </Node>
          </Node>
          <Node pos="r" depth="2" NCoef="0" IVar="14" Cut="1.9751118421554565e+00" cType="1" res="-9.6072669839486480e-04" rms="3.3726072311401367e-01" purity="5.2197277545928955e-01" nType="0">
            <Node pos="l" depth="3" NCoef="0" IVar="4" Cut="2.3845360937500000e+05" cType="1" res="-3.3741111401468515e-03" rms="3.5047087073326111e-01" purity="4.7188928723335266e-01" nType="0">
              <Node pos="l" depth="4" NCoef="0" IVar="-1" Cut="0.0000000000000000e+00" cType="1" res="-9.0216258540749550e-03" rms="3.8027840852737427e-01" purity="4.9333024024963379e-01" nType="-99"/>
              <Node pos="r" depth="4" NCoef="0" IVar="-1" Cut="0.0000000000000000e+00" cType="1" res="-4.1256743133999407e-04" rms="3.4179553389549255e-01" purity="4.6601560711860657e-01" nType="-99"/>
            </Node>
            <Node pos="r" depth="3" NCoef="0" IVar="19" Cut="1.5465681250000000e+05" cType="1" res="1.4610389480367303e-03" rms="3.2344475388526917e-01" purity="5.7223016023635864e-01" nType="0">
              <Node pos="l" depth="4" NCoef="0" IVar="-1" Cut="0.0000000000000000e+00" cType="1" res="2.5254224892705679e-03" rms="3.2459419965744019e-01" purity="6.1878848075866699e-01" nType="-99"/>
              <Node pos="r" depth="4" NCoef="0" IVar="-1" Cut="0.0000000000000000e+00" cType="1" res="-7.6456554234027863e-03" rms="3.1491753458976746e-01" purity="2.3874111473560333e-01" nType="-99"/>
            </Node>
          </Node>
        </Node>
        <Node pos="r" depth="1" NCoef="0" IVar="4" Cut="9.1772518750000000e+05" cType="1" res="3.2853849697858095e-03" rms="2.8805106878280640e-01" purity="2.0795036852359772e-01" nType="0">
          <Node pos="l" depth="2" NCoef="0" IVar="7" Cut="6.3117421875000000e+04" cType="1" res="8.6901001632213593e-03" rms="3.3190044760704041e-01" purity="3.0362138152122498e-01" nType="0">
            <Node pos="l" depth="3" NCoef="0" IVar="-1" Cut="0.0000000000000000e+00" cType="1" res="1.4479739591479301e-02" rms="3.9677667617797852e-01" purity="4.5679557323455811e-01" nType="-99"/>
            <Node pos="r" depth="3" NCoef="0" IVar="-1" Cut="0.0000000000000000e+00" cType="1" res="-5.7270801626145840e-03" rms="2.5888034701347351e-01" purity="1.6503907740116119e-01" nType="-99"/>
          </Node>
          <Node pos="r" depth="2" NCoef="0" IVar="0" Cut="6.3333334922790527e+00" cType="1" res="-4.0282248519361019e-03" rms="2.1469654142856598e-01" purity="7.8489303588867188e-02" nType="0">
            <Node pos="l" depth="3" NCoef="0" IVar="-1" Cut="0.0000000000000000e+00" cType="1" res="4.4217118993401527e-03" rms="2.5416177511215210e-01" purity="1.2204597145318985e-01" nType="-99"/>
            <Node pos="r" depth="3" NCoef="0" IVar="-1" Cut="0.0000000000000000e+00" cType="1" res="-3.3689517527818680e-02" rms="1.6204915940761566e-01" purity="3.2038345932960510e-02" nType="-99"/>
          </Node>
        </Node>
      </Node>
    </BinaryTree>
    <BinaryTree type="DecisionTree" boostWeight="1.0000000000000000e+00" itree="193">
      <Node pos="s" depth="0" NCoef="0" IVar="12" Cut="1.2675663232803345e+00" cType="1" res="-6.8195181484043133e-06" rms="3.3903160691261292e-01" purity="5.0000000000000000e-01" nType="0">
        <Node pos="l" depth="1" NCoef="0" IVar="1" Cut="5.1487003906250000e+04" cType="1" res="-3.5683310125023127e-03" rms="3.4732407331466675e-01" purity="2.4588495492935181e-01" nType="0">
          <Node pos="l" depth="2" NCoef="0" IVar="0" Cut="6.3333334922790527e+00" cType="1" res="3.7015306297689676e-03" rms="3.1854888796806335e-01" purity="1.6166773438453674e-01" nType="0">
            <Node pos="l" depth="3" NCoef="0" IVar="-1" Cut="0.0000000000000000e+00" cType="1" res="1.2360455468297005e-02" rms="3.4255990386009216e-01" purity="2.0888146758079529e-01" nType="-99"/>
            <Node pos="r" depth="3" NCoef="0" IVar="-1" Cut="0.0000000000000000e+00" cType="1" res="-1.1286118999123573e-02" rms="2.8532853722572327e-01" purity="1.0299941897392273e-01" nType="-99"/>
          </Node>
          <Node pos="r" depth="2" NCoef="0" IVar="12" Cut="1.0122381448745728e+00" cType="1" res="-1.0714497417211533e-02" rms="3.7331703305244446e-01" purity="3.2866922020912170e-01" nType="0">
            <Node pos="l" depth="3" NCoef="0" IVar="-1" Cut="0.0000000000000000e+00" cType="1" res="-1.2334851548075676e-02" rms="3.7637782096862793e-01" purity="2.8706175088882446e-01" nType="-99"/>
            <Node pos="r" depth="3" NCoef="0" IVar="-1" Cut="0.0000000000000000e+00" cType="1" res="-1.7362155485898256e-03" rms="3.6997586488723755e-01" purity="3.7135857343673706e-01" nType="-99"/>
          </Node>
        </Node>
        <Node pos="r" depth="1" NCoef="0" IVar="5" Cut="2.2984054687500000e+05" cType="1" res="1.6214347851928324e-04" rms="3.3863219618797302e-01" purity="5.1205557584762573e-01" nType="0">
          <Node pos="l" depth="2" NCoef="0" IVar="2" Cut="7.0797475000000000e+05" cType="1" res="-2.5177755742333829e-04" rms="3.4221801161766052e-01" purity="5.4137539863586426e-01" nType="0">
            <Node pos="l" depth="3" NCoef="0" IVar="2" Cut="1.4555821875000000e+05" cType="1" res="-6.7925528855994344e-04" rms="3.4471425414085388e-01" purity="5.5290371179580688e-01" nType="0">
              <Node pos="l" depth="4" NCoef="0" IVar="-1" Cut="0.0000000000000000e+00" cType="1" res="-1.1629570275545120e-02" rms="3.6721074581146240e-01" purity="3.2267731428146362e-01" nType="-99"/>
              <Node pos="r" depth="4" NCoef="0" IVar="-1" Cut="0.0000000000000000e+00" cType="1" res="-9.6595256763976067e-05" rms="3.4391185641288757e-01" purity="5.6070888042449951e-01" nType="-99"/>
            </Node>
            <Node pos="r" depth="3" NCoef="0" IVar="12" Cut="2.5692653656005859e+00" cType="1" res="7.6186917722225189e-03" rms="2.9236441850662231e-01" purity="3.2912281155586243e-01" nType="0">
              <Node pos="l" depth="4" NCoef="0" IVar="-1" Cut="0.0000000000000000e+00" cType="1" res="2.3382799699902534e-02" rms="3.2725986838340759e-01" purity="3.8337314128875732e-01" nType="-99"/>
              <Node pos="r" depth="4" NCoef="0" IVar="-1" Cut="0.0000000000000000e+00" cType="1" res="1.3442444615066051e-03" rms="2.7936905622482300e-01" purity="3.1090444326400757e-01" nType="-99"/>
            </Node>
          </Node>
          <Node pos="r" depth="2" NCoef="0" IVar="2" Cut="4.4071396875000000e+05" cType="1" res="2.0219567231833935e-03" rms="3.2202172279357910e-01" purity="3.8031697273254395e-01" nType="0">
            <Node pos="l" depth="3" NCoef="0" IVar="-1" Cut="0.0000000000000000e+00" cType="1" res="9.4599435105919838e-03" rms="3.8068777322769165e-01" purity="6.7038941383361816e-01" nType="-99"/>
            <Node pos="r" depth="3" NCoef="0" IVar="13" Cut="3.2911906242370605e+00" cType="1" res="1.0665082663763314e-04" rms="3.1128916144371033e-01" purity="3.3267390727996826e-01" nType="0">
              <Node pos="l" depth="4" NCoef="0" IVar="-1" Cut="0.0000000000000000e+00" cType="1" res="1.0597755899652839e-03" rms="3.1272482872009277e-01" purity="3.3361721038818359e-01" nType="-99"/>
              <Node pos="r" depth="4" NCoef="0" IVar="-1" Cut="0.0000000000000000e+00" cType="1" res="-1.1067355982959270e-02" rms="2.9420509934425354e-01" purity="3.2192495465278625e-01" nType="-99"/>
            </Node>
          </Node>
        </Node>
      </Node>
    </BinaryTree>
    <BinaryTree type="DecisionTree" boostWeight="1.0000000000000000e+00" itree="194">
      <Node pos="s" depth="0" NCoef="0" IVar="12" Cut="2.8754057884216309e+00" cType="1" res="-6.0369784478098154e-06" rms="3.3900868892669678e-01" purity="5.0000000000000000e-01" nType="0">
        <Node pos="l" depth="1" NCoef="0" IVar="9" Cut="9.8558781250000000e+04" cType="1" res="-5.3323333850130439e-04" rms="3.4959852695465088e-01" purity="4.8231020569801331e-01" nType="0">
          <Node pos="l" depth="2" NCoef="0" IVar="15" Cut="7.3969864845275879e-01" cType="1" res="1.6096259932965040e-03" rms="3.7421709299087524e-01" purity="5.0125759840011597e-01" nType="0">
            <Node pos="l" depth="3" NCoef="0" IVar="18" Cut="1.3036993164062500e+04" cType="1" res="1.8671799451112747e-02" rms="3.9190074801445007e-01" purity="5.7470196485519409e-01" nType="0">
              <Node pos="l" depth="4" NCoef="0" IVar="-1" Cut="0.0000000000000000e+00" cType="1" res="-3.5314736887812614e-03" rms="3.7886881828308105e-01" purity="5.0252890586853027e-01" nType="-99"/>
              <Node pos="r" depth="4" NCoef="0" IVar="-1" Cut="0.0000000000000000e+00" cType="1" res="2.1526247262954712e-02" rms="3.9970883727073669e-01" purity="6.2378180027008057e-01" nType="-99"/>
            </Node>
            <Node pos="r" depth="3" NCoef="0" IVar="7" Cut="3.6860367187500000e+04" cType="1" res="8.1761645560618490e-06" rms="3.7247410416603088e-01" purity="4.9436414241790771e-01" nType="0">
              <Node pos="l" depth="4" NCoef="0" IVar="-1" Cut="0.0000000000000000e+00" cType="1" res="-5.9664133004844189e-03" rms="3.5537058115005493e-01" purity="6.1609077453613281e-01" nType="-99"/>
              <Node pos="r" depth="4" NCoef="0" IVar="-1" Cut="0.0000000000000000e+00" cType="1" res="3.1539942137897015e-03" rms="3.8231822848320007e-01" purity="4.2111381888389587e-01" nType="-99"/>
            </Node>
          </Node>
          <Node pos="r" depth="2" NCoef="0" IVar="11" Cut="1.3788409233093262e+00" cType="1" res="-3.3351760357618332e-03" rms="3.1449204683303833e-01" purity="4.5753508806228638e-01" nType="0">
            <Node pos="l" depth="3" NCoef="0" IVar="12" Cut="1.6568297147750854e+00" cType="1" res="2.8682293486781418e-04" rms="3.2986879348754883e-01" purity="5.7330214977264404e-01" nType="0">
              <Node pos="l" depth="4" NCoef="0" IVar="-1" Cut="0.0000000000000000e+00" cType="1" res="-3.9781056344509125e-02" rms="1.9926679134368896e-01" purity="6.5447315573692322e-02" nType="-99"/>
              <Node pos="r" depth="4" NCoef="0" IVar="-1" Cut="0.0000000000000000e+00" cType="1" res="1.8839662661775947e-03" rms="3.3853378891944885e-01" purity="6.1621201038360596e-01" nType="-99"/>
            </Node>
            <Node pos="r" depth="3" NCoef="0" IVar="20" Cut="6.7526867187500000e+04" cType="1" res="-1.1995027773082256e-02" rms="2.7406090497970581e-01" purity="1.8074718117713928e-01" nType="0">
              <Node pos="l" depth="4" NCoef="0" IVar="-1" Cut="0.0000000000000000e+00" cType="1" res="-2.1205753087997437e-02" rms="3.8219842314720154e-01" purity="4.4336789846420288e-01" nType="-99"/>
              <Node pos="r" depth="4" NCoef="0" IVar="-1" Cut="0.0000000000000000e+00" cType="1" res="-7.2022341191768646e-03" rms="2.2218583524227142e-01" purity="8.6445637047290802e-02" nType="-99"/>
            </Node>
          </Node>
        </Node>
        <Node pos="r" depth="1" NCoef="0" IVar="15" Cut="3.0571193695068359e+00" cType="1" res="8.1476615741848946e-04" rms="3.2182660698890686e-01" purity="5.2754163742065430e-01" nType="0">
          <Node pos="l" depth="2" NCoef="0" IVar="15" Cut="2.9126322269439697e+00" cType="1" res="1.3299991842359304e-03" rms="3.2217273116111755e-01" purity="5.2830862998962402e-01" nType="0">
            <Node pos="l" depth="3" NCoef="0" IVar="11" Cut="1.2317653894424438e+00" cType="1" res="7.3613028507679701e-04" rms="3.2271814346313477e-01" purity="5.2474874258041382e-01" nType="0">
              <Node pos="l" depth="4" NCoef="0" IVar="-1" Cut="0.0000000000000000e+00" cType="1" res="2.8493988793343306e-03" rms="3.2913303375244141e-01" purity="7.2104638814926147e-01" nType="-99"/>
              <Node pos="r" depth="4" NCoef="0" IVar="-1" Cut="0.0000000000000000e+00" cType="1" res="-2.0944834686815739e-03" rms="3.1498914957046509e-01" purity="2.9412627220153809e-01" nType="-99"/>
            </Node>
            <Node pos="r" depth="3" NCoef="0" IVar="-1" Cut="0.0000000000000000e+00" cType="1" res="1.6087951138615608e-02" rms="3.0891913175582886e-01" purity="6.1095726490020752e-01" nType="-99"/>
          </Node>
          <Node pos="r" depth="2" NCoef="0" IVar="-1" Cut="0.0000000000000000e+00" cType="1" res="-8.3119403570890427e-03" rms="3.1545647978782654e-01" purity="5.1387870311737061e-01" nType="-99"/>
        </Node>
      </Node>
    </BinaryTree>
    <BinaryTree type="DecisionTree" boostWeight="1.0000000000000000e+00" itree="195">
      <Node pos="s" depth="0" NCoef="0" IVar="14" Cut="1.2873336076736450e+00" cType="1" res="-5.7618476603238378e-06" rms="3.3895531296730042e-01" purity="5.0000000000000000e-01" nType="0">
        <Node pos="l" depth="1" NCoef="0" IVar="20" Cut="6.9249031250000000e+04" cType="1" res="-1.2409618357196450e-03" rms="3.5111841559410095e-01" purity="4.4710662961006165e-01" nType="0">
          <Node pos="l" depth="2" NCoef="0" IVar="17" Cut="5.6186968750000000e+04" cType="1" res="-3.3604160416871309e-03" rms="3.7946727871894836e-01" purity="5.5751568078994751e-01" nType="0">
            <Node pos="l" depth="3" NCoef="0" IVar="17" Cut="2.5164484863281250e+03" cType="1" res="-3.9955263491719961e-04" rms="3.7699121236801147e-01" purity="5.7115709781646729e-01" nType="0">
              <Node pos="l" depth="4" NCoef="0" IVar="-1" Cut="0.0000000000000000e+00" cType="1" res="6.9848117418587208e-03" rms="3.5260546207427979e-01" purity="6.2368571758270264e-01" nType="-99"/>
              <Node pos="r" depth="4" NCoef="0" IVar="-1" Cut="0.0000000000000000e+00" cType="1" res="-5.5505004711449146e-03" rms="3.9624696969985962e-01" purity="5.2673417329788208e-01" nType="-99"/>
            </Node>
            <Node pos="r" depth="3" NCoef="0" IVar="4" Cut="4.4115037500000000e+05" cType="1" res="-1.9576130434870720e-02" rms="3.9235496520996094e-01" purity="4.8280572891235352e-01" nType="0">
              <Node pos="l" depth="4" NCoef="0" IVar="-1" Cut="0.0000000000000000e+00" cType="1" res="-2.7908593416213989e-02" rms="4.1432622075080872e-01" purity="5.4969865083694458e-01" nType="-99"/>
              <Node pos="r" depth="4" NCoef="0" IVar="-1" Cut="0.0000000000000000e+00" cType="1" res="2.0067766308784485e-03" rms="3.6933082342147827e-01" purity="4.2056587338447571e-01" nType="-99"/>
            </Node>
          </Node>
          <Node pos="r" depth="2" NCoef="0" IVar="11" Cut="2.2032213211059570e+00" cType="1" res="5.0896420143544674e-03" rms="2.4772579967975616e-01" purity="1.1732556670904160e-01" nType="0">
            <Node pos="l" depth="3" NCoef="0" IVar="20" Cut="1.0748280468750000e+05" cType="1" res="1.1520013213157654e-02" rms="2.8134620189666748e-01" purity="1.6232728958129883e-01" nType="0">
              <Node pos="l" depth="4" NCoef="0" IVar="-1" Cut="0.0000000000000000e+00" cType="1" res="1.8622174859046936e-02" rms="3.2684838771820068e-01" purity="2.1947216987609863e-01" nType="-99"/>
              <Node pos="r" depth="4" NCoef="0" IVar="-1" Cut="0.0000000000000000e+00" cType="1" res="-9.0287290513515472e-02" rms="2.9526019468903542e-02" purity="1.9133232999593019e-03" nType="-99"/>
            </Node>
            <Node pos="r" depth="3" NCoef="0" IVar="11" Cut="2.6239984035491943e+00" cType="1" res="-6.5888110548257828e-03" rms="1.6985818743705750e-01" purity="3.5596139729022980e-02" nType="0">
              <Node pos="l" depth="4" NCoef="0" IVar="-1" Cut="0.0000000000000000e+00" cType="1" res="-4.1958630084991455e-02" rms="1.7009912431240082e-01" purity="3.4204788506031036e-02" nType="-99"/>
              <Node pos="r" depth="4" NCoef="0" IVar="-1" Cut="0.0000000000000000e+00" cType="1" res="1.3680027797818184e-02" rms="1.6899582743644714e-01" purity="3.7188474088907242e-02" nType="-99"/>
            </Node>
          </Node>
        </Node>
        <Node pos="r" depth="1" NCoef="0" IVar="13" Cut="8.2268905639648438e-01" cType="1" res="4.1413254803046584e-04" rms="3.3471888303756714e-01" purity="5.1798057556152344e-01" nType="0">
          <Node pos="l" depth="2" NCoef="0" IVar="0" Cut="3.3333332538604736e+00" cType="1" res="-6.3851345330476761e-03" rms="3.1225922703742981e-01" purity="1.8005020916461945e-01" nType="0">
            <Node pos="l" depth="3" NCoef="0" IVar="-1" Cut="0.0000000000000000e+00" cType="1" res="-1.8880914896726608e-02" rms="3.0978828668594360e-01" purity="1.5349744260311127e-01" nType="-99"/>
            <Node pos="r" depth="3" NCoef="0" IVar="6" Cut="1.3247675000000000e+05" cType="1" res="1.0251700878143311e-03" rms="3.1330549716949463e-01" purity="1.9409886002540588e-01" nType="0">
              <Node pos="l" depth="4" NCoef="0" IVar="-1" Cut="0.0000000000000000e+00" cType="1" res="9.1766556724905968e-03" rms="3.4865316748619080e-01" purity="2.8302317857742310e-01" nType="-99"/>
              <Node pos="r" depth="4" NCoef="0" IVar="-1" Cut="0.0000000000000000e+00" cType="1" res="-1.1817961931228638e-02" rms="2.7730932831764221e-01" purity="1.1413760483264923e-01" nType="-99"/>
            </Node>
          </Node>
          <Node pos="r" depth="2" NCoef="0" IVar="12" Cut="2.2408330440521240e+00" cType="1" res="7.8731821849942207e-04" rms="3.3590415120124817e-01" purity="5.3652828931808472e-01" nType="0">
            <Node pos="l" depth="3" NCoef="0" IVar="15" Cut="1.2099006175994873e+00" cType="1" res="3.9222361519932747e-03" rms="3.6033985018730164e-01" purity="4.3578591942787170e-01" nType="0">
              <Node pos="l" depth="4" NCoef="0" IVar="-1" Cut="0.0000000000000000e+00" cType="1" res="1.2622446753084660e-02" rms="3.8184046745300293e-01" purity="4.9280086159706116e-01" nType="-99"/>
              <Node pos="r" depth="4" NCoef="0" IVar="-1" Cut="0.0000000000000000e+00" cType="1" res="1.2149512767791748e-03" rms="3.5681414604187012e-01" purity="4.2689242959022522e-01" nType="-99"/>
            </Node>
            <Node pos="r" depth="3" NCoef="0" IVar="15" Cut="1.0307458639144897e+00" cType="1" res="-2.8154315077699721e-04" rms="3.2714888453483582e-01" purity="5.7087677717208862e-01" nType="0">
              <Node pos="l" depth="4" NCoef="0" IVar="-1" Cut="0.0000000000000000e+00" cType="1" res="-6.5930946730077267e-03" rms="3.5102364420890808e-01" purity="3.9794093370437622e-01" nType="-99"/>
              <Node pos="r" depth="4" NCoef="0" IVar="-1" Cut="0.0000000000000000e+00" cType="1" res="5.2353460341691971e-04" rms="3.2446938753128052e-01" purity="5.8944386243820190e-01" nType="-99"/>
            </Node>
          </Node>
        </Node>
      </Node>
    </BinaryTree>
    <BinaryTree type="DecisionTree" boostWeight="1.0000000000000000e+00" itree="196">
      <Node pos="s" depth="0" NCoef="0" IVar="13" Cut="1.9197735786437988e+00" cType="1" res="-8.0670479292166419e-06" rms="3.3889296650886536e-01" purity="5.0000000000000000e-01" nType="0">
        <Node pos="l" depth="1" NCoef="0" IVar="15" Cut="7.4403738975524902e-01" cType="1" res="1.2321778340265155e-03" rms="3.2644963264465332e-01" purity="2.5426813960075378e-01" nType="0">
          <Node pos="l" depth="2" NCoef="0" IVar="-1" Cut="0.0000000000000000e+00" cType="1" res="1.1301025748252869e-02" rms="3.5725083947181702e-01" purity="3.1979778409004211e-01" nType="-99"/>
          <Node pos="r" depth="2" NCoef="0" IVar="9" Cut="1.0710858593750000e+05" cType="1" res="2.0220255828462541e-04" rms="3.2387685775756836e-01" purity="2.4910692870616913e-01" nType="0">
            <Node pos="l" depth="3" NCoef="0" IVar="10" Cut="3.2910855468750000e+04" cType="1" res="-2.8781406581401825e-03" rms="3.5174679756164551e-01" purity="2.8486746549606323e-01" nType="0">
              <Node pos="l" depth="4" NCoef="0" IVar="-1" Cut="0.0000000000000000e+00" cType="1" res="5.6841108016669750e-03" rms="3.5556796193122864e-01" purity="2.6964622735977173e-01" nType="-99"/>
              <Node pos="r" depth="4" NCoef="0" IVar="-1" Cut="0.0000000000000000e+00" cType="1" res="-6.0772281140089035e-03" rms="3.4980526566505432e-01" purity="2.9210653901100159e-01" nType="-99"/>
            </Node>
            <Node pos="r" depth="3" NCoef="0" IVar="4" Cut="5.3380650000000000e+05" cType="1" res="6.2703201547265053e-03" rms="2.6028326153755188e-01" purity="1.7866058647632599e-01" nType="0">
              <Node pos="l" depth="4" NCoef="0" IVar="-1" Cut="0.0000000000000000e+00" cType="1" res="1.3390614651143551e-02" rms="2.8817012906074524e-01" purity="2.2835026681423187e-01" nType="-99"/>
              <Node pos="r" depth="4" NCoef="0" IVar="-1" Cut="0.0000000000000000e+00" cType="1" res="-1.6281016170978546e-02" rms="1.7442530393600464e-01" purity="5.8123283088207245e-02" nType="-99"/>
            </Node>
          </Node>
        </Node>
        <Node pos="r" depth="1" NCoef="0" IVar="13" Cut="2.1026134490966797e+00" cType="1" res="-4.3714520870707929e-04" rms="3.4309178590774536e-01" purity="5.8501398563385010e-01" nType="0">
          <Node pos="l" depth="2" NCoef="0" IVar="16" Cut="1.3727654218673706e+00" cType="1" res="-5.3798030130565166e-03" rms="3.5178345441818237e-01" purity="4.2110654711723328e-01" nType="0">
            <Node pos="l" depth="3" NCoef="0" IVar="15" Cut="1.8467763662338257e+00" cType="1" res="-1.5625704079866409e-02" rms="3.4173244237899780e-01" purity="5.4934966564178467e-01" nType="0">
              <Node pos="l" depth="4" NCoef="0" IVar="-1" Cut="0.0000000000000000e+00" cType="1" res="-1.6735125333070755e-02" rms="3.4680402278900146e-01" purity="5.1359152793884277e-01" nType="-99"/>
              <Node pos="r" depth="4" NCoef="0" IVar="-1" Cut="0.0000000000000000e+00" cType="1" res="-8.1828301772475243e-03" rms="3.3686992526054382e-01" purity="5.8245122432708740e-01" nType="-99"/>
            </Node>
            <Node pos="r" depth="3" NCoef="0" IVar="13" Cut="1.9894160032272339e+00" cType="1" res="2.2989211138337851e-03" rms="3.5894006490707397e-01" purity="3.2499557733535767e-01" nType="0">
              <Node pos="l" depth="4" NCoef="0" IVar="-1" Cut="0.0000000000000000e+00" cType="1" res="1.2451325543224812e-02" rms="3.7901231646537781e-01" purity="3.1813657283782959e-01" nType="-99"/>
              <Node pos="r" depth="4" NCoef="0" IVar="-1" Cut="0.0000000000000000e+00" cType="1" res="-4.6574859879910946e-03" rms="3.4648928046226501e-01" purity="3.2897210121154785e-01" nType="-99"/>
            </Node>
          </Node>
          <Node pos="r" depth="2" NCoef="0" IVar="14" Cut="5.1808136701583862e-01" cType="1" res="-5.8674871979746968e-05" rms="3.4241420030593872e-01" purity="5.9756475687026978e-01" nType="0">
            <Node pos="l" depth="3" NCoef="0" IVar="-1" Cut="0.0000000000000000e+00" cType="1" res="-5.9360745362937450e-03" rms="3.5683086514472961e-01" purity="5.5897176265716553e-01" nType="-99"/>
            <Node pos="r" depth="3" NCoef="0" IVar="13" Cut="2.4508762359619141e+00" cType="1" res="1.6930495621636510e-04" rms="3.4198698401451111e-01" purity="5.9867709875106812e-01" nType="0">
              <Node pos="l" depth="4" NCoef="0" IVar="-1" Cut="0.0000000000000000e+00" cType="1" res="2.0306892693042755e-03" rms="3.5433912277221680e-01" purity="5.1265507936477661e-01" nType="-99"/>
              <Node pos="r" depth="4" NCoef="0" IVar="-1" Cut="0.0000000000000000e+00" cType="1" res="-3.3602342591620982e-04" rms="3.3903235197067261e-01" purity="6.1878371238708496e-01" nType="-99"/>
            </Node>
          </Node>
        </Node>
      </Node>
    </BinaryTree>
    <BinaryTree type="DecisionTree" boostWeight="1.0000000000000000e+00" itree="197">
      <Node pos="s" depth="0" NCoef="0" IVar="5" Cut="4.3468087500000000e+05" cType="1" res="-7.4010240496136248e-06" rms="3.3886080980300903e-01" purity="5.0000000000000000e-01" nType="0">
        <Node pos="l" depth="1" NCoef="0" IVar="11" Cut="2.8506696224212646e-01" cType="1" res="-1.7994677182286978e-04" rms="3.4133946895599365e-01" purity="5.1539814472198486e-01" nType="0">
          <Node pos="l" depth="2" NCoef="0" IVar="-1" Cut="0.0000000000000000e+00" cType="1" res="7.1678590029478073e-03" rms="2.9787388443946838e-01" purity="7.9313409328460693e-01" nType="-99"/>
          <Node pos="r" depth="2" NCoef="0" IVar="12" Cut="1.8783133029937744e+00" cType="1" res="-3.7131831049919128e-04" rms="3.4243169426918030e-01" purity="5.0791871547698975e-01" nType="0">
            <Node pos="l" depth="3" NCoef="0" IVar="9" Cut="8.4450437500000000e+04" cType="1" res="-3.2998425886034966e-03" rms="3.6676988005638123e-01" purity="3.7456724047660828e-01" nType="0">
              <Node pos="l" depth="4" NCoef="0" IVar="-1" Cut="0.0000000000000000e+00" cType="1" res="3.6243913928046823e-04" rms="3.8220509886741638e-01" purity="4.1343104839324951e-01" nType="-99"/>
              <Node pos="r" depth="4" NCoef="0" IVar="-1" Cut="0.0000000000000000e+00" cType="1" res="-2.4346796795725822e-02" rms="2.8016525506973267e-01" purity="1.8760934472084045e-01" nType="-99"/>
            </Node>
            <Node pos="r" depth="3" NCoef="0" IVar="5" Cut="1.2254311718750000e+05" cType="1" res="9.2505448265001178e-05" rms="3.3841413259506226e-01" purity="5.2903902530670166e-01" nType="0">
              <Node pos="l" depth="4" NCoef="0" IVar="-1" Cut="0.0000000000000000e+00" cType="1" res="-1.1055576615035534e-03" rms="3.4215644001960754e-01" purity="5.2980589866638184e-01" nType="-99"/>
              <Node pos="r" depth="4" NCoef="0" IVar="-1" Cut="0.0000000000000000e+00" cType="1" res="1.9659441895782948e-03" rms="3.3281075954437256e-01" purity="5.2790886163711548e-01" nType="-99"/>
            </Node>
          </Node>
        </Node>
        <Node pos="r" depth="1" NCoef="0" IVar="10" Cut="1.1646107812500000e+05" cType="1" res="3.2651931978762150e-03" rms="2.8781604766845703e-01" purity="2.0795036852359772e-01" nType="0">
          <Node pos="l" depth="2" NCoef="0" IVar="3" Cut="1.3966181250000000e+05" cType="1" res="9.5929196104407310e-03" rms="3.1904745101928711e-01" purity="2.4088796973228455e-01" nType="0">
            <Node pos="l" depth="3" NCoef="0" IVar="-1" Cut="0.0000000000000000e+00" cType="1" res="1.3265162706375122e-02" rms="3.7978830933570862e-01" purity="3.1260856986045837e-01" nType="-99"/>
            <Node pos="r" depth="3" NCoef="0" IVar="-1" Cut="0.0000000000000000e+00" cType="1" res="1.6194435302168131e-03" rms="2.4996916949748993e-01" purity="1.7472554743289948e-01" nType="-99"/>
          </Node>
          <Node pos="r" depth="2" NCoef="0" IVar="5" Cut="6.2002112500000000e+05" cType="1" res="-2.2717856336385012e-03" rms="2.5726965069770813e-01" purity="1.7912887036800385e-01" nType="0">
            <Node pos="l" depth="3" NCoef="0" IVar="-1" Cut="0.0000000000000000e+00" cType="1" res="7.4539659544825554e-03" rms="2.8570970892906189e-01" purity="2.3598395287990570e-01" nType="-99"/>
            <Node pos="r" depth="3" NCoef="0" IVar="-1" Cut="0.0000000000000000e+00" cType="1" res="-2.8774131089448929e-02" rms="2.0703202486038208e-01" purity="9.4288699328899384e-02" nType="-99"/>
          </Node>
        </Node>
      </Node>
    </BinaryTree>
    <BinaryTree type="DecisionTree" boostWeight="1.0000000000000000e+00" itree="198">
      <Node pos="s" depth="0" NCoef="0" IVar="5" Cut="2.2984054687500000e+05" cType="1" res="-6.9863026510574855e-06" rms="3.3884093165397644e-01" purity="5.0000000000000000e-01" nType="0">
        <Node pos="l" depth="1" NCoef="0" IVar="18" Cut="2.1841037500000000e+05" cType="1" res="-3.0067292391322553e-04" rms="3.4295856952667236e-01" purity="5.3397262096405029e-01" nType="0">
          <Node pos="l" depth="2" NCoef="0" IVar="19" Cut="1.5226435937500000e+05" cType="1" res="-3.2012187148211524e-05" rms="3.4410330653190613e-01" purity="5.3609532117843628e-01" nType="0">
            <Node pos="l" depth="3" NCoef="0" IVar="2" Cut="6.9643325000000000e+05" cType="1" res="5.0884723896160722e-04" rms="3.4419694542884827e-01" purity="5.5497586727142334e-01" nType="0">
              <Node pos="l" depth="4" NCoef="0" IVar="-1" Cut="0.0000000000000000e+00" cType="1" res="3.9954440580913797e-05" rms="3.4550464153289795e-01" purity="5.6091511249542236e-01" nType="-99"/>
              <Node pos="r" depth="4" NCoef="0" IVar="-1" Cut="0.0000000000000000e+00" cType="1" res="1.4361468143761158e-02" rms="3.0399313569068909e-01" purity="3.8455143570899963e-01" nType="-99"/>
            </Node>
            <Node pos="r" depth="3" NCoef="0" IVar="17" Cut="1.3274660937500000e+05" cType="1" res="-7.0127332583069801e-03" rms="3.4281590580940247e-01" purity="2.9240897297859192e-01" nType="0">
              <Node pos="l" depth="4" NCoef="0" IVar="-1" Cut="0.0000000000000000e+00" cType="1" res="-2.3519117385149002e-03" rms="3.5523363947868347e-01" purity="3.1404304504394531e-01" nType="-99"/>
              <Node pos="r" depth="4" NCoef="0" IVar="-1" Cut="0.0000000000000000e+00" cType="1" res="-2.6066420599818230e-02" rms="2.8141921758651733e-01" purity="1.9764500856399536e-01" nType="-99"/>
            </Node>
          </Node>
          <Node pos="r" depth="2" NCoef="0" IVar="0" Cut="4.3333334922790527e+00" cType="1" res="-8.4507577121257782e-03" rms="3.0609214305877686e-01" purity="4.6957886219024658e-01" nType="0">
            <Node pos="l" depth="3" NCoef="0" IVar="-1" Cut="0.0000000000000000e+00" cType="1" res="-2.3991085588932037e-02" rms="3.0045396089553833e-01" purity="4.8794245719909668e-01" nType="-99"/>
            <Node pos="r" depth="3" NCoef="0" IVar="-1" Cut="0.0000000000000000e+00" cType="1" res="2.3770517145749182e-04" rms="3.0937004089355469e-01" purity="4.5771428942680359e-01" nType="-99"/>
          </Node>
        </Node>
        <Node pos="r" depth="1" NCoef="0" IVar="11" Cut="6.9075554609298706e-01" cType="1" res="1.2169948313385248e-03" rms="3.2110911607742310e-01" purity="3.5841417312622070e-01" nType="0">
          <Node pos="l" depth="2" NCoef="0" IVar="14" Cut="1.1941317319869995e+00" cType="1" res="-3.0366731807589531e-03" rms="3.3268469572067261e-01" purity="4.8312690854072571e-01" nType="0">
            <Node pos="l" depth="3" NCoef="0" IVar="-1" Cut="0.0000000000000000e+00" cType="1" res="-1.7804622650146484e-02" rms="3.3670175075531006e-01" purity="3.8763019442558289e-01" nType="-99"/>
            <Node pos="r" depth="3" NCoef="0" IVar="14" Cut="1.8930996656417847e+00" cType="1" res="6.5999734215438366e-04" rms="3.3180683851242065e-01" purity="5.0072377920150757e-01" nType="0">
              <Node pos="l" depth="4" NCoef="0" IVar="-1" Cut="0.0000000000000000e+00" cType="1" res="1.4329609461128712e-02" rms="3.5738727450370789e-01" purity="4.8939785361289978e-01" nType="-99"/>
              <Node pos="r" depth="4" NCoef="0" IVar="-1" Cut="0.0000000000000000e+00" cType="1" res="-5.9647946618497372e-03" rms="3.2095244526863098e-01" purity="5.0515937805175781e-01" nType="-99"/>
            </Node>
          </Node>
          <Node pos="r" depth="2" NCoef="0" IVar="16" Cut="7.7084559202194214e-01" cType="1" res="3.4532204736024141e-03" rms="3.1482997536659241e-01" purity="2.9285052418708801e-01" nType="0">
            <Node pos="l" depth="3" NCoef="0" IVar="-1" Cut="0.0000000000000000e+00" cType="1" res="-8.3483476191759109e-03" rms="3.2189083099365234e-01" purity="5.6218940019607544e-01" nType="-99"/>
            <Node pos="r" depth="3" NCoef="0" IVar="1" Cut="1.6731665625000000e+05" cType="1" res="5.6934556923806667e-03" rms="3.1347963213920593e-01" purity="2.4397861957550049e-01" nType="0">
              <Node pos="l" depth="4" NCoef="0" IVar="-1" Cut="0.0000000000000000e+00" cType="1" res="3.4130474086850882e-03" rms="3.1014433503150940e-01" purity="2.3525847494602203e-01" nType="-99"/>
              <Node pos="r" depth="4" NCoef="0" IVar="-1" Cut="0.0000000000000000e+00" cType="1" res="1.7104040831327438e-02" rms="3.3225980401039124e-01" purity="2.9572436213493347e-01" nType="-99"/>
            </Node>
          </Node>
        </Node>
      </Node>
    </BinaryTree>
    <BinaryTree type="DecisionTree" boostWeight="1.0000000000000000e+00" itree="199">
      <Node pos="s" depth="0" NCoef="0" IVar="14" Cut="1.8004931211471558e+00" cType="1" res="-5.8579748838383239e-06" rms="3.3880692720413208e-01" purity="5.0000000000000000e-01" nType="0">
        <Node pos="l" depth="1" NCoef="0" IVar="17" Cut="1.0425562500000000e+05" cType="1" res="-7.1050989208742976e-04" rms="3.4917262196540833e-01" purity="4.5686691999435425e-01" nType="0">
          <Node pos="l" depth="2" NCoef="0" IVar="18" Cut="9.4523515625000000e+04" cType="1" res="4.5398189104162157e-04" rms="3.5610818862915039e-01" purity="4.7788515686988831e-01" nType="0">
            <Node pos="l" depth="3" NCoef="0" IVar="5" Cut="2.8406784375000000e+05" cType="1" res="2.0155906677246094e-03" rms="3.6354321241378784e-01" purity="5.0454223155975342e-01" nType="0">
              <Node pos="l" depth="4" NCoef="0" IVar="-1" Cut="0.0000000000000000e+00" cType="1" res="7.5597030809149146e-04" rms="3.6304506659507751e-01" purity="5.1098829507827759e-01" nType="-99"/>
              <Node pos="r" depth="4" NCoef="0" IVar="-1" Cut="0.0000000000000000e+00" cType="1" res="1.4188840053975582e-02" rms="3.7203752994537354e-01" purity="3.8720679283142090e-01" nType="-99"/>
            </Node>
            <Node pos="r" depth="3" NCoef="0" IVar="6" Cut="1.4663270312500000e+05" cType="1" res="-6.1670420691370964e-03" rms="3.2260328531265259e-01" purity="3.6486274003982544e-01" nType="0">
              <Node pos="l" depth="4" NCoef="0" IVar="-1" Cut="0.0000000000000000e+00" cType="1" res="-1.5599457547068596e-02" rms="3.6973676085472107e-01" purity="4.2481970787048340e-01" nType="-99"/>
              <Node pos="r" depth="4" NCoef="0" IVar="-1" Cut="0.0000000000000000e+00" cType="1" res="1.4637706335633993e-03" rms="2.9931211471557617e-01" purity="3.3859306573867798e-01" nType="-99"/>
            </Node>
          </Node>
          <Node pos="r" depth="2" NCoef="0" IVar="17" Cut="1.5158889062500000e+05" cType="1" res="-1.0654808022081852e-02" rms="2.8291219472885132e-01" purity="2.7737942337989807e-01" nType="0">
            <Node pos="l" depth="3" NCoef="0" IVar="4" Cut="4.1228846875000000e+05" cType="1" res="-2.2037604823708534e-02" rms="2.9540687799453735e-01" purity="3.0859869718551636e-01" nType="0">
              <Node pos="l" depth="4" NCoef="0" IVar="-1" Cut="0.0000000000000000e+00" cType="1" res="-3.9400864392518997e-02" rms="3.3060654997825623e-01" purity="3.7683695554733276e-01" nType="-99"/>
              <Node pos="r" depth="4" NCoef="0" IVar="-1" Cut="0.0000000000000000e+00" cType="1" res="-1.4196729287505150e-02" rms="2.7582073211669922e-01" purity="2.7481114864349365e-01" nType="-99"/>
            </Node>
            <Node pos="r" depth="3" NCoef="0" IVar="-1" Cut="0.0000000000000000e+00" cType="1" res="1.2750095687806606e-02" rms="2.5888031721115112e-01" purity="2.2374013066291809e-01" nType="-99"/>
          </Node>
        </Node>
        <Node pos="r" depth="1" NCoef="0" IVar="12" Cut="3.1433789730072021e+00" cType="1" res="5.9176876675337553e-04" rms="3.2975918054580688e-01" purity="5.3658187389373779e-01" nType="0">
          <Node pos="l" depth="2" NCoef="0" IVar="1" Cut="1.0840925781250000e+05" cType="1" res="-2.2705682204104960e-04" rms="3.3220106363296509e-01" purity="5.3176492452621460e-01" nType="0">
            <Node pos="l" depth="3" NCoef="0" IVar="1" Cut="3.1116037109375000e+04" cType="1" res="-1.3726400211453438e-03" rms="3.3474186062812805e-01" purity="5.0976973772048950e-01" nType="0">
              <Node pos="l" depth="4" NCoef="0" IVar="-1" Cut="0.0000000000000000e+00" cType="1" res="-1.3053158298134804e-02" rms="3.2540762424468994e-01" purity="3.2813218235969543e-01" nType="-99"/>
              <Node pos="r" depth="4" NCoef="0" IVar="-1" Cut="0.0000000000000000e+00" cType="1" res="3.2044148538261652e-03" rms="3.3814898133277893e-01" purity="5.8023893833160400e-01" nType="-99"/>
            </Node>
            <Node pos="r" depth="3" NCoef="0" IVar="20" Cut="5.6320472656250000e+04" cType="1" res="5.1342565566301346e-03" rms="3.1998762488365173e-01" purity="6.3470226526260376e-01" nType="0">
              <Node pos="l" depth="4" NCoef="0" IVar="-1" Cut="0.0000000000000000e+00" cType="1" res="1.1573353782296181e-02" rms="3.3067011833190918e-01" purity="7.7771306037902832e-01" nType="-99"/>
              <Node pos="r" depth="4" NCoef="0" IVar="-1" Cut="0.0000000000000000e+00" cType="1" res="-2.0270669832825661e-02" rms="2.8897687792778015e-01" purity="2.5985911488533020e-01" nType="-99"/>
            </Node>
          </Node>
          <Node pos="r" depth="2" NCoef="0" IVar="16" Cut="1.0328986644744873e+00" cType="1" res="4.1877874173223972e-03" rms="3.1878897547721863e-01" purity="5.5773621797561646e-01" nType="0">
            <Node pos="l" depth="3" NCoef="0" IVar="0" Cut="6.3333334922790527e+00" cType="1" res="-3.4084673970937729e-03" rms="2.8614097833633423e-01" purity="7.3384666442871094e-01" nType="0">
              <Node pos="l" depth="4" NCoef="0" IVar="-1" Cut="0.0000000000000000e+00" cType="1" res="4.1208979673683643e-03" rms="2.6242440938949585e-01" purity="7.9080796241760254e-01" nType="-99"/>
              <Node pos="r" depth="4" NCoef="0" IVar="-1" Cut="0.0000000000000000e+00" cType="1" res="-1.3607918284833431e-02" rms="3.2179671525955200e-01" purity="6.3811385631561279e-01" nType="-99"/>
            </Node>
            <Node pos="r" depth="3" NCoef="0" IVar="4" Cut="3.0031518750000000e+05" cType="1" res="9.8562715575098991e-03" rms="3.4101158380508423e-01" purity="4.2631891369819641e-01" nType="0">
              <Node pos="l" depth="4" NCoef="0" IVar="-1" Cut="0.0000000000000000e+00" cType="1" res="1.5650594606995583e-02" rms="3.6312109231948853e-01" purity="4.9146085977554321e-01" nType="-99"/>
              <Node pos="r" depth="4" NCoef="0" IVar="-1" Cut="0.0000000000000000e+00" cType="1" res="-7.9902419820427895e-03" rms="3.0294725298881531e-01" purity="3.2579860091209412e-01" nType="-99"/>
            </Node>
          </Node>
        </Node>
      </Node>
    </BinaryTree>
    <BinaryTree type="DecisionTree" boostWeight="1.0000000000000000e+00" itree="200">
      <Node pos="s" depth="0" NCoef="0" IVar="15" Cut="1.0185593366622925e+00" cType="1" res="-4.7494254431512672e-06" rms="3.3871671557426453e-01" purity="5.0000000000000000e-01" nType="0">
        <Node pos="l" depth="1" NCoef="0" IVar="1" Cut="5.9294402343750000e+04" cType="1" res="-1.5693365130573511e-03" rms="3.6284735798835754e-01" purity="4.9199137091636658e-01" nType="0">
          <Node pos="l" depth="2" NCoef="0" IVar="16" Cut="2.4034180641174316e+00" cType="1" res="3.3099884167313576e-03" rms="3.6129912734031677e-01" purity="4.0537840127944946e-01" nType="0">
            <Node pos="l" depth="3" NCoef="0" IVar="3" Cut="1.0653889843750000e+05" cType="1" res="-1.2580954935401678e-03" rms="3.5444507002830505e-01" purity="4.1546520590782166e-01" nType="0">
              <Node pos="l" depth="4" NCoef="0" IVar="-1" Cut="0.0000000000000000e+00" cType="1" res="-2.0105814561247826e-02" rms="3.5905724763870239e-01" purity="2.4928374588489532e-01" nType="-99"/>
              <Node pos="r" depth="4" NCoef="0" IVar="-1" Cut="0.0000000000000000e+00" cType="1" res="4.5412592589855194e-03" rms="3.5293334722518921e-01" purity="4.5689663290977478e-01" nType="-99"/>
            </Node>
            <Node pos="r" depth="3" NCoef="0" IVar="-1" Cut="0.0000000000000000e+00" cType="1" res="1.6421288251876831e-02" rms="3.9228025078773499e-01" purity="3.5614290833473206e-01" nType="-99"/>
          </Node>
          <Node pos="r" depth="2" NCoef="0" IVar="0" Cut="6.3333334922790527e+00" cType="1" res="-6.8757855333387852e-03" rms="3.6444950103759766e-01" purity="5.8618611097335815e-01" nType="0">
            <Node pos="l" depth="3" NCoef="0" IVar="16" Cut="1.4640809297561646e+00" cType="1" res="-1.4318570494651794e-02" rms="3.5543280839920044e-01" purity="6.3459694385528564e-01" nType="0">
              <Node pos="l" depth="4" NCoef="0" IVar="-1" Cut="0.0000000000000000e+00" cType="1" res="-1.7935526557266712e-03" rms="3.3453443646430969e-01" purity="6.9685107469558716e-01" nType="-99"/>
              <Node pos="r" depth="4" NCoef="0" IVar="-1" Cut="0.0000000000000000e+00" cType="1" res="-1.8568644300103188e-02" rms="3.7391370534896851e-01" purity="5.7516580820083618e-01" nType="-99"/>
            </Node>
            <Node pos="r" depth="3" NCoef="0" IVar="14" Cut="1.3424284458160400e+00" cType="1" res="4.9679554067552090e-03" rms="3.7805303931236267e-01" purity="5.0914978981018066e-01" nType="0">
              <Node pos="l" depth="4" NCoef="0" IVar="-1" Cut="0.0000000000000000e+00" cType="1" res="1.0423954576253891e-02" rms="3.8965564966201782e-01" purity="5.6883370876312256e-01" nType="-99"/>
              <Node pos="r" depth="4" NCoef="0" IVar="-1" Cut="0.0000000000000000e+00" cType="1" res="-1.0323802009224892e-02" rms="3.5673147439956665e-01" purity="4.0816113352775574e-01" nType="-99"/>
            </Node>
          </Node>
        </Node>
        <Node pos="r" depth="1" NCoef="0" IVar="0" Cut="7.3333334922790527e+00" cType="1" res="2.8928735991939902e-04" rms="3.3398643136024475e-01" purity="5.0150507688522339e-01" nType="0">
          <Node pos="l" depth="2" NCoef="0" IVar="14" Cut="5.0185221433639526e-01" cType="1" res="9.6494046738371253e-04" rms="3.3038827776908875e-01" purity="5.4751604795455933e-01" nType="0">
            <Node pos="l" depth="3" NCoef="0" IVar="-1" Cut="0.0000000000000000e+00" cType="1" res="1.3580246828496456e-02" rms="3.6192888021469116e-01" purity="4.0435692667961121e-01" nType="-99"/>
            <Node pos="r" depth="3" NCoef="0" IVar="14" Cut="7.2447431087493896e-01" cType="1" res="7.0338672958314419e-04" rms="3.2985055446624756e-01" purity="5.4981541633605957e-01" nType="0">
              <Node pos="l" depth="4" NCoef="0" IVar="-1" Cut="0.0000000000000000e+00" cType="1" res="-9.9174939095973969e-03" rms="3.3630105853080750e-01" purity="3.7935775518417358e-01" nType="-99"/>
              <Node pos="r" depth="4" NCoef="0" IVar="-1" Cut="0.0000000000000000e+00" cType="1" res="1.0090147843584418e-03" rms="3.2960680127143860e-01" purity="5.5595105886459351e-01" nType="-99"/>
            </Node>
          </Node>
          <Node pos="r" depth="2" NCoef="0" IVar="4" Cut="2.6443168750000000e+05" cType="1" res="0.0000000000000000e+00" rms="0.0000000000000000e+00" purity="3.4016627073287964e-01" nType="0">
            <Node pos="l" depth="3" NCoef="0" IVar="10" Cut="1.3857403125000000e+05" cType="1" res="0.0000000000000000e+00" rms="0.0000000000000000e+00" purity="3.4651535749435425e-01" nType="0">
              <Node pos="l" depth="4" NCoef="0" IVar="-1" Cut="0.0000000000000000e+00" cType="1" res="-2.8008697554469109e-03" rms="3.8045269250869751e-01" purity="3.4213739633560181e-01" nType="-99"/>
              <Node pos="r" depth="4" NCoef="0" IVar="-1" Cut="0.0000000000000000e+00" cType="1" res="-2.4412600323557854e-02" rms="3.6309397220611572e-01" purity="3.7364903092384338e-01" nType="-99"/>
            </Node>
            <Node pos="r" depth="3" NCoef="0" IVar="11" Cut="4.2432779073715210e-01" cType="1" res="0.0000000000000000e+00" rms="0.0000000000000000e+00" purity="3.3558771014213562e-01" nType="0">
              <Node pos="l" depth="4" NCoef="0" IVar="-1" Cut="0.0000000000000000e+00" cType="1" res="1.6095193102955818e-02" rms="3.5721585154533386e-01" purity="5.7684779167175293e-01" nType="-99"/>
              <Node pos="r" depth="4" NCoef="0" IVar="-1" Cut="0.0000000000000000e+00" cType="1" res="-7.8179567935876548e-05" rms="3.1567269563674927e-01" purity="3.0127248167991638e-01" nType="-99"/>
            </Node>
          </Node>
        </Node>
      </Node>
    </BinaryTree>
    <BinaryTree type="DecisionTree" boostWeight="1.0000000000000000e+00" itree="201">
      <Node pos="s" depth="0" NCoef="0" IVar="14" Cut="5.1759451627731323e-01" cType="1" res="-3.8712032619514503e-06" rms="3.3866432309150696e-01" purity="5.0000000000000000e-01" nType="0">
        <Node pos="l" depth="1" NCoef="0" IVar="16" Cut="1.7642971277236938e+00" cType="1" res="-3.7038009613752365e-03" rms="3.4873867034912109e-01" purity="4.6852934360504150e-01" nType="0">
          <Node pos="l" depth="2" NCoef="0" IVar="-1" Cut="0.0000000000000000e+00" cType="1" res="3.3358342479914427e-03" rms="3.3814665675163269e-01" purity="5.8861291408538818e-01" nType="-99"/>
          <Node pos="r" depth="2" NCoef="0" IVar="-1" Cut="0.0000000000000000e+00" cType="1" res="-9.3037839978933334e-03" rms="3.6011913418769836e-01" purity="3.3298677206039429e-01" nType="-99"/>
        </Node>
        <Node pos="r" depth="1" NCoef="0" IVar="14" Cut="2.3747518062591553e+00" cType="1" res="1.0148669389309362e-04" rms="3.3837246894836426e-01" purity="5.0089615583419800e-01" nType="0">
          <Node pos="l" depth="2" NCoef="0" IVar="9" Cut="3.7121506250000000e+05" cType="1" res="-4.1585587314330041e-04" rms="3.4445121884346008e-01" purity="4.7936967015266418e-01" nType="0">
            <Node pos="l" depth="3" NCoef="0" IVar="9" Cut="1.1081413281250000e+05" cType="1" res="-1.4728105452377349e-04" rms="3.4718367457389832e-01" purity="4.8808786273002625e-01" nType="0">
              <Node pos="l" depth="4" NCoef="0" IVar="-1" Cut="0.0000000000000000e+00" cType="1" res="-1.6968866111710668e-03" rms="3.6604869365692139e-01" purity="4.8956575989723206e-01" nType="-99"/>
              <Node pos="r" depth="4" NCoef="0" IVar="-1" Cut="0.0000000000000000e+00" cType="1" res="2.6342996861785650e-03" rms="3.2072949409484863e-01" purity="4.8614877462387085e-01" nType="-99"/>
            </Node>
            <Node pos="r" depth="3" NCoef="0" IVar="-1" Cut="0.0000000000000000e+00" cType="1" res="-2.6480818167328835e-02" rms="1.9320750236511230e-01" purity="1.0487134009599686e-01" nType="-99"/>
          </Node>
          <Node pos="r" depth="2" NCoef="0" IVar="14" Cut="2.5184659957885742e+00" cType="1" res="1.3221835251897573e-03" rms="3.2357379794120789e-01" purity="5.5168902873992920e-01" nType="0">
            <Node pos="l" depth="3" NCoef="0" IVar="12" Cut="2.4410827159881592e+00" cType="1" res="8.0544510856270790e-03" rms="3.2876324653625488e-01" purity="5.5851501226425171e-01" nType="0">
              <Node pos="l" depth="4" NCoef="0" IVar="-1" Cut="0.0000000000000000e+00" cType="1" res="1.4865497127175331e-02" rms="3.5540890693664551e-01" purity="4.6528336405754089e-01" nType="-99"/>
              <Node pos="r" depth="4" NCoef="0" IVar="-1" Cut="0.0000000000000000e+00" cType="1" res="8.0433732364326715e-04" rms="3.1046161055564880e-01" purity="6.1765903234481812e-01" nType="-99"/>
            </Node>
            <Node pos="r" depth="3" NCoef="0" IVar="11" Cut="1.9319025278091431e+00" cType="1" res="-5.0065456889569759e-04" rms="3.2213011384010315e-01" purity="5.4984074831008911e-01" nType="0">
              <Node pos="l" depth="4" NCoef="0" IVar="-1" Cut="0.0000000000000000e+00" cType="1" res="-1.7866232665255666e-03" rms="3.2484263181686401e-01" purity="5.8950328826904297e-01" nType="-99"/>
              <Node pos="r" depth="4" NCoef="0" IVar="-1" Cut="0.0000000000000000e+00" cType="1" res="1.1523518711328506e-02" rms="3.0094018578529358e-01" purity="2.5460994243621826e-01" nType="-99"/>
            </Node>
          </Node>
        </Node>
      </Node>
    </BinaryTree>
    <BinaryTree type="DecisionTree" boostWeight="1.0000000000000000e+00" itree="202">
      <Node pos="s" depth="0" NCoef="0" IVar="3" Cut="4.4626618750000000e+05" cType="1" res="-3.4436880014254712e-06" rms="3.3864846825599670e-01" purity="5.0000000000000000e-01" nType="0">
        <Node pos="l" depth="1" NCoef="0" IVar="1" Cut="2.5042070312500000e+05" cType="1" res="-1.3360237062443048e-04" rms="3.4266671538352966e-01" purity="5.1428800821304321e-01" nType="0">
          <Node pos="l" depth="2" NCoef="0" IVar="1" Cut="1.2055757812500000e+04" cType="1" res="1.2858225090894848e-04" rms="3.4288710355758667e-01" purity="5.1630812883377075e-01" nType="0">
            <Node pos="l" depth="3" NCoef="0" IVar="16" Cut="1.5231108665466309e+00" cType="1" res="-1.2312130071222782e-02" rms="3.1634509563446045e-01" purity="2.4798172712326050e-01" nType="0">
              <Node pos="l" depth="4" NCoef="0" IVar="-1" Cut="0.0000000000000000e+00" cType="1" res="-2.5609996169805527e-02" rms="3.2809144258499146e-01" purity="3.5349777340888977e-01" nType="-99"/>
              <Node pos="r" depth="4" NCoef="0" IVar="-1" Cut="0.0000000000000000e+00" cType="1" res="4.4250213541090488e-03" rms="3.0460897088050842e-01" purity="1.5440246462821960e-01" nType="-99"/>
            </Node>
            <Node pos="r" depth="3" NCoef="0" IVar="3" Cut="2.4142034375000000e+05" cType="1" res="8.1459985813125968e-04" rms="3.4427812695503235e-01" purity="5.3110444545745850e-01" nType="0">
              <Node pos="l" depth="4" NCoef="0" IVar="-1" Cut="0.0000000000000000e+00" cType="1" res="1.5762817347422242e-03" rms="3.5623818635940552e-01" purity="5.5136156082153320e-01" nType="-99"/>
              <Node pos="r" depth="4" NCoef="0" IVar="-1" Cut="0.0000000000000000e+00" cType="1" res="-4.6341069974005222e-03" rms="2.9297930002212524e-01" purity="4.5213937759399414e-01" nType="-99"/>
            </Node>
          </Node>
          <Node pos="r" depth="2" NCoef="0" IVar="-1" Cut="0.0000000000000000e+00" cType="1" res="-2.0569447427988052e-02" rms="3.2174938917160034e-01" purity="3.3575069904327393e-01" nType="-99"/>
        </Node>
        <Node pos="r" depth="1" NCoef="0" IVar="15" Cut="1.2492897510528564e+00" cType="1" res="3.1858345028012991e-03" rms="2.1815289556980133e-01" purity="1.4990006387233734e-01" nType="0">
          <Node pos="l" depth="2" NCoef="0" IVar="-1" Cut="0.0000000000000000e+00" cType="1" res="2.3643173277378082e-02" rms="2.3603813350200653e-01" purity="1.6210032999515533e-01" nType="-99"/>
          <Node pos="r" depth="2" NCoef="0" IVar="0" Cut="4.3333334922790527e+00" cType="1" res="-2.2675002401228994e-04" rms="2.1141897141933441e-01" purity="1.4562295377254486e-01" nType="0">
            <Node pos="l" depth="3" NCoef="0" IVar="-1" Cut="0.0000000000000000e+00" cType="1" res="-1.4024400152266026e-02" rms="2.2348198294639587e-01" purity="1.6972550749778748e-01" nType="-99"/>
            <Node pos="r" depth="3" NCoef="0" IVar="-1" Cut="0.0000000000000000e+00" cType="1" res="9.4901761040091515e-03" rms="2.0336866378784180e-01" purity="1.3053119182586670e-01" nType="-99"/>
          </Node>
        </Node>
      </Node>
    </BinaryTree>
    <BinaryTree type="DecisionTree" boostWeight="1.0000000000000000e+00" itree="203">
      <Node pos="s" depth="0" NCoef="0" IVar="15" Cut="1.0185593366622925e+00" cType="1" res="-3.3481019272585399e-06" rms="3.3861771225929260e-01" purity="5.0000000000000000e-01" nType="0">
        <Node pos="l" depth="1" NCoef="0" IVar="11" Cut="2.2608952522277832e+00" cType="1" res="-1.3361093588173389e-03" rms="3.6259159445762634e-01" purity="4.9199137091636658e-01" nType="0">
          <Node pos="l" depth="2" NCoef="0" IVar="19" Cut="1.6439064062500000e+05" cType="1" res="-3.0551794916391373e-03" rms="3.6891448497772217e-01" purity="5.2883499860763550e-01" nType="0">
            <Node pos="l" depth="3" NCoef="0" IVar="12" Cut="2.4330496788024902e+00" cType="1" res="-5.2031502127647400e-03" rms="3.6833649873733521e-01" purity="5.5736702680587769e-01" nType="0">
              <Node pos="l" depth="4" NCoef="0" IVar="-1" Cut="0.0000000000000000e+00" cType="1" res="2.1197600290179253e-03" rms="3.8247761130332947e-01" purity="5.0775921344757080e-01" nType="-99"/>
              <Node pos="r" depth="4" NCoef="0" IVar="-1" Cut="0.0000000000000000e+00" cType="1" res="-7.6090255752205849e-03" rms="3.5927227139472961e-01" purity="5.8785694837570190e-01" nType="-99"/>
            </Node>
            <Node pos="r" depth="3" NCoef="0" IVar="-1" Cut="0.0000000000000000e+00" cType="1" res="8.2544870674610138e-03" rms="3.7248185276985168e-01" purity="3.3545720577239990e-01" nType="-99"/>
          </Node>
          <Node pos="r" depth="2" NCoef="0" IVar="-1" Cut="0.0000000000000000e+00" cType="1" res="1.4611360616981983e-02" rms="3.0527725815773010e-01" purity="1.8885992467403412e-01" nType="-99"/>
        </Node>
        <Node pos="r" depth="1" NCoef="0" IVar="15" Cut="2.4565622806549072e+00" cType="1" res="2.4712106096558273e-04" rms="3.3391958475112915e-01" purity="5.0150507688522339e-01" nType="0">
          <Node pos="l" depth="2" NCoef="0" IVar="15" Cut="2.3880817890167236e+00" cType="1" res="-6.1295786872506142e-04" rms="3.4102290868759155e-01" purity="4.9159008264541626e-01" nType="0">
            <Node pos="l" depth="3" NCoef="0" IVar="0" Cut="2.3333332538604736e+00" cType="1" res="6.7545486672315747e-05" rms="3.4217277169227600e-01" purity="4.9073952436447144e-01" nType="0">
              <Node pos="l" depth="4" NCoef="0" IVar="-1" Cut="0.0000000000000000e+00" cType="1" res="-2.8319281991571188e-03" rms="3.5413342714309692e-01" purity="4.3347221612930298e-01" nType="-99"/>
              <Node pos="r" depth="4" NCoef="0" IVar="-1" Cut="0.0000000000000000e+00" cType="1" res="1.0682711144909263e-03" rms="3.3821359276771545e-01" purity="5.0922089815139771e-01" nType="-99"/>
            </Node>
            <Node pos="r" depth="3" NCoef="0" IVar="5" Cut="1.0752907812500000e+05" cType="1" res="-1.3374038040637970e-02" rms="3.1842359900474548e-01" purity="5.0754058361053467e-01" nType="0">
              <Node pos="l" depth="4" NCoef="0" IVar="-1" Cut="0.0000000000000000e+00" cType="1" res="-2.9434578493237495e-02" rms="3.2498452067375183e-01" purity="4.9406138062477112e-01" nType="-99"/>
              <Node pos="r" depth="4" NCoef="0" IVar="-1" Cut="0.0000000000000000e+00" cType="1" res="2.3283285554498434e-03" rms="3.1237030029296875e-01" purity="5.1789778470993042e-01" nType="-99"/>
            </Node>
          </Node>
          <Node pos="r" depth="2" NCoef="0" IVar="13" Cut="2.9652848243713379e+00" cType="1" res="2.0813334267586470e-03" rms="3.1823399662971497e-01" purity="5.2264988422393799e-01" nType="0">
            <Node pos="l" depth="3" NCoef="0" IVar="16" Cut="2.0021202564239502e+00" cType="1" res="4.4244891032576561e-03" rms="3.2007944583892822e-01" purity="4.6678584814071655e-01" nType="0">
              <Node pos="l" depth="4" NCoef="0" IVar="-1" Cut="0.0000000000000000e+00" cType="1" res="7.4948021210730076e-03" rms="3.1940764188766479e-01" purity="6.1296153068542480e-01" nType="-99"/>
              <Node pos="r" depth="4" NCoef="0" IVar="-1" Cut="0.0000000000000000e+00" cType="1" res="-1.8500477308407426e-03" rms="3.2113575935363770e-01" purity="2.1432362496852875e-01" nType="-99"/>
            </Node>
            <Node pos="r" depth="3" NCoef="0" IVar="1" Cut="7.7402046875000000e+04" cType="1" res="-4.1446122340857983e-03" rms="3.1319257616996765e-01" purity="6.7108488082885742e-01" nType="0">
              <Node pos="l" depth="4" NCoef="0" IVar="-1" Cut="0.0000000000000000e+00" cType="1" res="-9.8130106925964355e-03" rms="3.2941153645515442e-01" purity="6.1377233266830444e-01" nType="-99"/>
              <Node pos="r" depth="4" NCoef="0" IVar="-1" Cut="0.0000000000000000e+00" cType="1" res="9.2451917007565498e-03" rms="2.8090718388557434e-01" purity="7.7532273530960083e-01" nType="-99"/>
            </Node>
          </Node>
        </Node>
      </Node>
    </BinaryTree>
    <BinaryTree type="DecisionTree" boostWeight="1.0000000000000000e+00" itree="204">
      <Node pos="s" depth="0" NCoef="0" IVar="12" Cut="2.8754057884216309e+00" cType="1" res="-2.0393467821122613e-06" rms="3.3857569098472595e-01" purity="5.0000000000000000e-01" nType="0">
        <Node pos="l" depth="1" NCoef="0" IVar="21" Cut="8.6349187500000000e+04" cType="1" res="-5.1121832802891731e-04" rms="3.4913182258605957e-01" purity="4.8231020569801331e-01" nType="0">
          <Node pos="l" depth="2" NCoef="0" IVar="7" Cut="3.1903806640625000e+04" cType="1" res="4.8782239900901914e-04" rms="3.6571121215820312e-01" purity="5.2314192056655884e-01" nType="0">
            <Node pos="l" depth="3" NCoef="0" IVar="21" Cut="1.5191710205078125e+03" cType="1" res="-5.2398717962205410e-03" rms="3.3400920033454895e-01" purity="6.7725437879562378e-01" nType="0">
              <Node pos="l" depth="4" NCoef="0" IVar="-1" Cut="0.0000000000000000e+00" cType="1" res="4.8806769773364067e-03" rms="2.7922201156616211e-01" purity="8.7122380733489990e-01" nType="-99"/>
              <Node pos="r" depth="4" NCoef="0" IVar="-1" Cut="0.0000000000000000e+00" cType="1" res="-9.3940794467926025e-03" rms="3.8353082537651062e-01" purity="4.7104844450950623e-01" nType="-99"/>
            </Node>
            <Node pos="r" depth="3" NCoef="0" IVar="21" Cut="7.7892867187500000e+04" cType="1" res="3.3448168542236090e-03" rms="3.8050609827041626e-01" purity="4.4627007842063904e-01" nType="0">
              <Node pos="l" depth="4" NCoef="0" IVar="-1" Cut="0.0000000000000000e+00" cType="1" res="3.5940830130130053e-03" rms="3.8634681701660156e-01" purity="4.7160139679908752e-01" nType="-99"/>
              <Node pos="r" depth="4" NCoef="0" IVar="-1" Cut="0.0000000000000000e+00" cType="1" res="-2.3390412330627441e-02" rms="3.0159670114517212e-01" purity="1.4599715173244476e-01" nType="-99"/>
            </Node>
          </Node>
          <Node pos="r" depth="2" NCoef="0" IVar="13" Cut="2.2805821895599365e+00" cType="1" res="-5.4344544187188148e-03" rms="2.5191140174865723e-01" purity="2.8109297156333923e-01" nType="0">
            <Node pos="l" depth="3" NCoef="0" IVar="20" Cut="5.6570640625000000e+04" cType="1" res="2.5290846824645996e-03" rms="2.2865736484527588e-01" purity="1.5180234611034393e-01" nType="0">
              <Node pos="l" depth="4" NCoef="0" IVar="-1" Cut="0.0000000000000000e+00" cType="1" res="1.5784740447998047e-02" rms="3.7256842851638794e-01" purity="5.0640320777893066e-01" nType="-99"/>
              <Node pos="r" depth="4" NCoef="0" IVar="-1" Cut="0.0000000000000000e+00" cType="1" res="-1.3386075384914875e-02" rms="1.5845212340354919e-01" purity="4.1103109717369080e-02" nType="-99"/>
            </Node>
            <Node pos="r" depth="3" NCoef="0" IVar="9" Cut="1.1363016406250000e+05" cType="1" res="-1.1121916584670544e-02" rms="2.6713830232620239e-01" purity="3.7343075871467590e-01" nType="0">
              <Node pos="l" depth="4" NCoef="0" IVar="-1" Cut="0.0000000000000000e+00" cType="1" res="-2.1970020607113838e-02" rms="3.1202793121337891e-01" purity="3.2769292593002319e-01" nType="-99"/>
              <Node pos="r" depth="4" NCoef="0" IVar="-1" Cut="0.0000000000000000e+00" cType="1" res="-1.0747188702225685e-02" rms="2.5034734606742859e-01" purity="3.8858911395072937e-01" nType="-99"/>
            </Node>
          </Node>
        </Node>
        <Node pos="r" depth="1" NCoef="0" IVar="11" Cut="1.9320634603500366e+00" cType="1" res="7.9071213258430362e-04" rms="3.2144972681999207e-01" purity="5.2754163742065430e-01" nType="0">
          <Node pos="l" depth="2" NCoef="0" IVar="7" Cut="1.8259121875000000e+05" cType="1" res="1.9112707814201713e-03" rms="3.3560860157012939e-01" purity="6.4502841234207153e-01" nType="0">
            <Node pos="l" depth="3" NCoef="0" IVar="20" Cut="4.2918996093750000e+04" cType="1" res="1.0523571399971843e-03" rms="3.3757597208023071e-01" purity="6.4467602968215942e-01" nType="0">
              <Node pos="l" depth="4" NCoef="0" IVar="-1" Cut="0.0000000000000000e+00" cType="1" res="-2.7408413589000702e-03" rms="3.3770015835762024e-01" purity="7.3863059282302856e-01" nType="-99"/>
              <Node pos="r" depth="4" NCoef="0" IVar="-1" Cut="0.0000000000000000e+00" cType="1" res="5.2864938043057919e-03" rms="3.3735141158103943e-01" purity="5.3160166740417480e-01" nType="-99"/>
            </Node>
            <Node pos="r" depth="3" NCoef="0" IVar="-1" Cut="0.0000000000000000e+00" cType="1" res="1.8290696665644646e-02" rms="3.0086031556129456e-01" purity="6.5085542201995850e-01" nType="-99"/>
          </Node>
          <Node pos="r" depth="2" NCoef="0" IVar="15" Cut="2.8042936325073242e+00" cType="1" res="-2.6531105395406485e-03" rms="2.7335435152053833e-01" purity="1.6646850109100342e-01" nType="0">
            <Node pos="l" depth="3" NCoef="0" IVar="12" Cut="3.5543353557586670e+00" cType="1" res="-4.6177161857485771e-03" rms="2.7374279499053955e-01" purity="1.6578139364719391e-01" nType="0">
              <Node pos="l" depth="4" NCoef="0" IVar="-1" Cut="0.0000000000000000e+00" cType="1" res="-5.4025393910706043e-04" rms="2.7965480089187622e-01" purity="1.6807027161121368e-01" nType="-99"/>
              <Node pos="r" depth="4" NCoef="0" IVar="-1" Cut="0.0000000000000000e+00" cType="1" res="-2.8867186978459358e-02" rms="2.4767759442329407e-01" purity="1.5652216970920563e-01" nType="-99"/>
            </Node>
            <Node pos="r" depth="3" NCoef="0" IVar="-1" Cut="0.0000000000000000e+00" cType="1" res="1.7328403890132904e-02" rms="2.6981985569000244e-01" purity="1.7182132601737976e-01" nType="-99"/>
          </Node>
        </Node>
      </Node>
    </BinaryTree>
    <BinaryTree type="DecisionTree" boostWeight="1.0000000000000000e+00" itree="205">
      <Node pos="s" depth="0" NCoef="0" IVar="11" Cut="7.3745375871658325e-01" cType="1" res="-3.0310527563415235e-06" rms="3.3850356936454773e-01" purity="5.0000000000000000e-01" nType="0">
        <Node pos="l" depth="1" NCoef="0" IVar="11" Cut="6.3506704568862915e-01" cType="1" res="8.9214718900620937e-04" rms="3.2700577378273010e-01" purity="6.6764646768569946e-01" nType="0">
          <Node pos="l" depth="2" NCoef="0" IVar="0" Cut="6.3333334922790527e+00" cType="1" res="2.3122408892959356e-03" rms="3.2179436087608337e-01" purity="6.8256825208663940e-01" nType="0">
            <Node pos="l" depth="3" NCoef="0" IVar="14" Cut="1.6037721633911133e+00" cType="1" res="5.1893442869186401e-03" rms="3.0015593767166138e-01" purity="7.5639456510543823e-01" nType="0">
              <Node pos="l" depth="4" NCoef="0" IVar="-1" Cut="0.0000000000000000e+00" cType="1" res="9.9126147106289864e-03" rms="3.2548281550407410e-01" purity="7.2534728050231934e-01" nType="-99"/>
              <Node pos="r" depth="4" NCoef="0" IVar="-1" Cut="0.0000000000000000e+00" cType="1" res="2.6602530851960182e-03" rms="2.8782868385314941e-01" purity="7.7054715156555176e-01" nType="-99"/>
            </Node>
            <Node pos="r" depth="3" NCoef="0" IVar="8" Cut="2.3759050781250000e+04" cType="1" res="-2.7471710927784443e-03" rms="3.5661953687667847e-01" purity="5.5274403095245361e-01" nType="0">
              <Node pos="l" depth="4" NCoef="0" IVar="-1" Cut="0.0000000000000000e+00" cType="1" res="-7.1531245484948158e-03" rms="3.8680681586265564e-01" purity="4.7270911931991577e-01" nType="-99"/>
              <Node pos="r" depth="4" NCoef="0" IVar="-1" Cut="0.0000000000000000e+00" cType="1" res="4.1542737744748592e-03" rms="3.2646134495735168e-01" purity="6.2578660249710083e-01" nType="-99"/>
            </Node>
          </Node>
          <Node pos="r" depth="2" NCoef="0" IVar="2" Cut="2.6433212500000000e+05" cType="1" res="-4.3910881504416466e-03" rms="3.4565365314483643e-01" purity="6.1213225126266479e-01" nType="0">
            <Node pos="l" depth="3" NCoef="0" IVar="-1" Cut="0.0000000000000000e+00" cType="1" res="9.1110365465283394e-03" rms="3.6627233028411865e-01" purity="6.1670422554016113e-01" nType="-99"/>
            <Node pos="r" depth="3" NCoef="0" IVar="9" Cut="1.1085749218750000e+05" cType="1" res="-9.6025429666042328e-03" rms="3.3881264925003052e-01" purity="6.1070948839187622e-01" nType="0">
              <Node pos="l" depth="4" NCoef="0" IVar="-1" Cut="0.0000000000000000e+00" cType="1" res="-2.0375624299049377e-02" rms="3.4914633631706238e-01" purity="5.5070990324020386e-01" nType="-99"/>
              <Node pos="r" depth="4" NCoef="0" IVar="-1" Cut="0.0000000000000000e+00" cType="1" res="3.0485384631901979e-03" rms="3.2984620332717896e-01" purity="6.5814232826232910e-01" nType="-99"/>
            </Node>
          </Node>
        </Node>
        <Node pos="r" depth="1" NCoef="0" IVar="15" Cut="3.0486736297607422e+00" cType="1" res="-4.1265558684244752e-04" rms="3.4363576769828796e-01" purity="4.2328667640686035e-01" nType="0">
          <Node pos="l" depth="2" NCoef="0" IVar="15" Cut="5.8353388309478760e-01" cType="1" res="-7.3010486084967852e-04" rms="3.4428128600120544e-01" purity="4.2497059702873230e-01" nType="0">
            <Node pos="l" depth="3" NCoef="0" IVar="0" Cut="6.3333334922790527e+00" cType="1" res="6.6013387404382229e-03" rms="3.6670574545860291e-01" purity="4.5846211910247803e-01" nType="0">
              <Node pos="l" depth="4" NCoef="0" IVar="-1" Cut="0.0000000000000000e+00" cType="1" res="-6.6686370410025120e-03" rms="3.6288967728614807e-01" purity="4.8875737190246582e-01" nType="-99"/>
              <Node pos="r" depth="4" NCoef="0" IVar="-1" Cut="0.0000000000000000e+00" cType="1" res="1.8805187195539474e-02" rms="3.7069857120513916e-01" purity="4.1850221157073975e-01" nType="-99"/>
            </Node>
            <Node pos="r" depth="3" NCoef="0" IVar="15" Cut="8.1832456588745117e-01" cType="1" res="-1.0984871769323945e-03" rms="3.4311172366142273e-01" purity="4.2328777909278870e-01" nType="0">
              <Node pos="l" depth="4" NCoef="0" IVar="-1" Cut="0.0000000000000000e+00" cType="1" res="-5.9630987234413624e-03" rms="3.6551198363304138e-01" purity="4.4108730554580688e-01" nType="-99"/>
              <Node pos="r" depth="4" NCoef="0" IVar="-1" Cut="0.0000000000000000e+00" cType="1" res="-4.6360603300854564e-04" rms="3.4139901399612427e-01" purity="4.2197775840759277e-01" nType="-99"/>
            </Node>
          </Node>
          <Node pos="r" depth="2" NCoef="0" IVar="20" Cut="5.8231339843750000e+04" cType="1" res="5.2614542655646801e-03" rms="3.3183488249778748e-01" purity="3.9318758249282837e-01" nType="0">
            <Node pos="l" depth="3" NCoef="0" IVar="-1" Cut="0.0000000000000000e+00" cType="1" res="-2.2493354044854641e-03" rms="3.7270948290824890e-01" purity="5.6153678894042969e-01" nType="-99"/>
            <Node pos="r" depth="3" NCoef="0" IVar="-1" Cut="0.0000000000000000e+00" cType="1" res="1.8484851345419884e-02" rms="2.8167501091957092e-01" purity="2.1421156823635101e-01" nType="-99"/>
          </Node>
        </Node>
      </Node>
    </BinaryTree>
    <BinaryTree type="DecisionTree" boostWeight="1.0000000000000000e+00" itree="206">
      <Node pos="s" depth="0" NCoef="0" IVar="0" Cut="7.3333334922790527e+00" cType="1" res="-2.1237506189208943e-06" rms="3.3846941590309143e-01" purity="5.0000000000000000e-01" nType="0">
        <Node pos="l" depth="1" NCoef="0" IVar="15" Cut="5.1103079319000244e-01" cType="1" res="2.9339021421037614e-04" rms="3.3512276411056519e-01" purity="5.4426568746566772e-01" nType="0">
          <Node pos="l" depth="2" NCoef="0" IVar="-1" Cut="0.0000000000000000e+00" cType="1" res="-5.9128315187990665e-03" rms="3.4994733333587646e-01" purity="5.3279775381088257e-01" nType="-99"/>
          <Node pos="r" depth="2" NCoef="0" IVar="12" Cut="3.8427419662475586e+00" cType="1" res="5.1097525283694267e-04" rms="3.3470511436462402e-01" purity="5.4457956552505493e-01" nType="0">
            <Node pos="l" depth="3" NCoef="0" IVar="13" Cut="3.2168099880218506e+00" cType="1" res="7.0193916326388717e-04" rms="3.3551752567291260e-01" purity="5.4728490114212036e-01" nType="0">
              <Node pos="l" depth="4" NCoef="0" IVar="-1" Cut="0.0000000000000000e+00" cType="1" res="3.9287744584726170e-05" rms="3.3386647701263428e-01" purity="5.4051542282104492e-01" nType="-99"/>
              <Node pos="r" depth="4" NCoef="0" IVar="-1" Cut="0.0000000000000000e+00" cType="1" res="4.8849498853087425e-03" rms="3.4855517745018005e-01" purity="6.0210704803466797e-01" nType="-99"/>
            </Node>
            <Node pos="r" depth="3" NCoef="0" IVar="-1" Cut="0.0000000000000000e+00" cType="1" res="-7.6418062672019005e-03" rms="2.9646351933479309e-01" purity="4.2501994967460632e-01" nType="-99"/>
          </Node>
        </Node>
        <Node pos="r" depth="1" NCoef="0" IVar="14" Cut="3.0833916664123535e+00" cType="1" res="0.0000000000000000e+00" rms="0.0000000000000000e+00" purity="3.4550502896308899e-01" nType="0">
          <Node pos="l" depth="2" NCoef="0" IVar="17" Cut="1.8388959375000000e+05" cType="1" res="0.0000000000000000e+00" rms="0.0000000000000000e+00" purity="3.4510493278503418e-01" nType="0">
            <Node pos="l" depth="3" NCoef="0" IVar="4" Cut="2.2453564062500000e+05" cType="1" res="0.0000000000000000e+00" rms="0.0000000000000000e+00" purity="3.6007714271545410e-01" nType="0">
              <Node pos="l" depth="4" NCoef="0" IVar="-1" Cut="0.0000000000000000e+00" cType="1" res="-5.1912292838096619e-03" rms="3.8428205251693726e-01" purity="3.2602950930595398e-01" nType="-99"/>
              <Node pos="r" depth="4" NCoef="0" IVar="-1" Cut="0.0000000000000000e+00" cType="1" res="2.9436163604259491e-03" rms="3.4408268332481384e-01" purity="3.7798491120338440e-01" nType="-99"/>
            </Node>
            <Node pos="r" depth="3" NCoef="0" IVar="15" Cut="2.3597629070281982e+00" cType="1" res="0.0000000000000000e+00" rms="0.0000000000000000e+00" purity="2.1229395270347595e-01" nType="0">
              <Node pos="l" depth="4" NCoef="0" IVar="-1" Cut="0.0000000000000000e+00" cType="1" res="-4.2810555547475815e-02" rms="2.2244031727313995e-01" purity="1.4345365762710571e-01" nType="-99"/>
              <Node pos="r" depth="4" NCoef="0" IVar="-1" Cut="0.0000000000000000e+00" cType="1" res="-3.4533941652625799e-03" rms="2.8171920776367188e-01" purity="2.8238576650619507e-01" nType="-99"/>
            </Node>
          </Node>
          <Node pos="r" depth="2" NCoef="0" IVar="-1" Cut="0.0000000000000000e+00" cType="1" res="1.1521249078214169e-02" rms="3.5932266712188721e-01" purity="3.5268619656562805e-01" nType="-99"/>
        </Node>
      </Node>
    </BinaryTree>
    <BinaryTree type="DecisionTree" boostWeight="1.0000000000000000e+00" itree="207">
      <Node pos="s" depth="0" NCoef="0" IVar="12" Cut="3.9472987651824951e+00" cType="1" res="-2.2430192530009663e-06" rms="3.3844941854476929e-01" purity="5.0000000000000000e-01" nType="0">
        <Node pos="l" depth="1" NCoef="0" IVar="12" Cut="3.7686367034912109e+00" cType="1" res="-9.5150076958816499e-05" rms="3.3894011378288269e-01" purity="5.0248736143112183e-01" nType="0">
          <Node pos="l" depth="2" NCoef="0" IVar="11" Cut="5.4787307977676392e-01" cType="1" res="5.6071698054438457e-05" rms="3.3938866853713989e-01" purity="5.0348585844039917e-01" nType="0">
            <Node pos="l" depth="3" NCoef="0" IVar="13" Cut="1.0142939090728760e+00" cType="1" res="2.4692183360457420e-03" rms="3.1873533129692078e-01" purity="6.9596135616302490e-01" nType="0">
              <Node pos="l" depth="4" NCoef="0" IVar="-1" Cut="0.0000000000000000e+00" cType="1" res="-9.7985984757542610e-03" rms="3.3292153477668762e-01" purity="2.0505082607269287e-01" nType="-99"/>
              <Node pos="r" depth="4" NCoef="0" IVar="-1" Cut="0.0000000000000000e+00" cType="1" res="3.3150762319564819e-03" rms="3.1764218211174011e-01" purity="7.3200285434722900e-01" nType="-99"/>
            </Node>
            <Node pos="r" depth="3" NCoef="0" IVar="11" Cut="2.9574213027954102e+00" cType="1" res="-5.0762941827997565e-04" rms="3.4403213858604431e-01" purity="4.5852440595626831e-01" nType="0">
              <Node pos="l" depth="4" NCoef="0" IVar="-1" Cut="0.0000000000000000e+00" cType="1" res="-5.3062639199197292e-04" rms="3.4521678090095520e-01" purity="4.6357554197311401e-01" nType="-99"/>
              <Node pos="r" depth="4" NCoef="0" IVar="-1" Cut="0.0000000000000000e+00" cType="1" res="1.7628673464059830e-02" rms="2.4929335713386536e-01" purity="1.1145134270191193e-01" nType="-99"/>
            </Node>
          </Node>
          <Node pos="r" depth="2" NCoef="0" IVar="-1" Cut="0.0000000000000000e+00" cType="1" res="-1.2218373827636242e-02" rms="2.9772144556045532e-01" purity="4.1692295670509338e-01" nType="-99"/>
        </Node>
        <Node pos="r" depth="1" NCoef="0" IVar="-1" Cut="0.0000000000000000e+00" cType="1" res="4.8932554200291634e-03" rms="3.1039935350418091e-01" purity="3.6399823427200317e-01" nType="-99"/>
      </Node>
    </BinaryTree>
    <BinaryTree type="DecisionTree" boostWeight="1.0000000000000000e+00" itree="208">
      <Node pos="s" depth="0" NCoef="0" IVar="13" Cut="1.9197735786437988e+00" cType="1" res="-1.9567607978387969e-06" rms="3.3844649791717529e-01" purity="5.0000000000000000e-01" nType="0">
        <Node pos="l" depth="1" NCoef="0" IVar="15" Cut="7.4403738975524902e-01" cType="1" res="9.9414470605552197e-04" rms="3.2608804106712341e-01" purity="2.5426813960075378e-01" nType="0">
          <Node pos="l" depth="2" NCoef="0" IVar="-1" Cut="0.0000000000000000e+00" cType="1" res="1.0125386528670788e-02" rms="3.5686030983924866e-01" purity="3.1979778409004211e-01" nType="-99"/>
          <Node pos="r" depth="2" NCoef="0" IVar="10" Cut="4.7164730468750000e+04" cType="1" res="6.2795916164759547e-05" rms="3.2352170348167419e-01" purity="2.4910692870616913e-01" nType="0">
            <Node pos="l" depth="3" NCoef="0" IVar="10" Cut="3.8039859375000000e+04" cType="1" res="4.1070803999900818e-03" rms="3.4874528646469116e-01" purity="2.7280026674270630e-01" nType="0">
              <Node pos="l" depth="4" NCoef="0" IVar="-1" Cut="0.0000000000000000e+00" cType="1" res="7.2277840226888657e-03" rms="3.5031214356422424e-01" purity="2.6417732238769531e-01" nType="-99"/>
              <Node pos="r" depth="4" NCoef="0" IVar="-1" Cut="0.0000000000000000e+00" cType="1" res="-7.2651882655918598e-03" rms="3.4422111511230469e-01" purity="2.9555520415306091e-01" nType="-99"/>
            </Node>
            <Node pos="r" depth="3" NCoef="0" IVar="15" Cut="2.6352558135986328e+00" cType="1" res="-3.0348827131092548e-03" rms="3.0274763703346252e-01" purity="2.3095929622650146e-01" nType="0">
              <Node pos="l" depth="4" NCoef="0" IVar="-1" Cut="0.0000000000000000e+00" cType="1" res="-6.4894002862274647e-03" rms="3.0368223786354065e-01" purity="2.4364571273326874e-01" nType="-99"/>
              <Node pos="r" depth="4" NCoef="0" IVar="-1" Cut="0.0000000000000000e+00" cType="1" res="8.8429441675543785e-03" rms="2.9949837923049927e-01" purity="1.9070783257484436e-01" nType="-99"/>
            </Node>
          </Node>
        </Node>
        <Node pos="r" depth="1" NCoef="0" IVar="13" Cut="2.6511194705963135e+00" cType="1" res="-3.4657047945074737e-04" rms="3.4261760115623474e-01" purity="5.8501398563385010e-01" nType="0">
          <Node pos="l" depth="2" NCoef="0" IVar="16" Cut="2.9831619262695312e+00" cType="1" res="-1.9382856553420424e-03" rms="3.4882783889770508e-01" purity="5.2051687240600586e-01" nType="0">
            <Node pos="l" depth="3" NCoef="0" IVar="2" Cut="3.1040890625000000e+05" cType="1" res="-1.0902716312557459e-03" rms="3.4937408566474915e-01" purity="5.2939766645431519e-01" nType="0">
              <Node pos="l" depth="4" NCoef="0" IVar="-1" Cut="0.0000000000000000e+00" cType="1" res="3.3651664853096008e-03" rms="3.6661052703857422e-01" purity="6.0815566778182983e-01" nType="-99"/>
              <Node pos="r" depth="4" NCoef="0" IVar="-1" Cut="0.0000000000000000e+00" cType="1" res="-4.3296054936945438e-03" rms="3.3707916736602783e-01" purity="4.7578614950180054e-01" nType="-99"/>
            </Node>
            <Node pos="r" depth="3" NCoef="0" IVar="-1" Cut="0.0000000000000000e+00" cType="1" res="-1.8804308027029037e-02" rms="3.3327662944793701e-01" purity="2.8566762804985046e-01" nType="-99"/>
          </Node>
          <Node pos="r" depth="2" NCoef="0" IVar="12" Cut="2.4036755561828613e+00" cType="1" res="6.1263452516868711e-04" rms="3.3881658315658569e-01" purity="6.2388145923614502e-01" nType="0">
            <Node pos="l" depth="3" NCoef="0" IVar="1" Cut="4.6070687500000000e+04" cType="1" res="5.6737195700407028e-03" rms="3.6864650249481201e-01" purity="5.6591725349426270e-01" nType="0">
              <Node pos="l" depth="4" NCoef="0" IVar="-1" Cut="0.0000000000000000e+00" cType="1" res="-6.3666612841188908e-03" rms="3.8021218776702881e-01" purity="4.2406895756721497e-01" nType="-99"/>
              <Node pos="r" depth="4" NCoef="0" IVar="-1" Cut="0.0000000000000000e+00" cType="1" res="1.1005204170942307e-02" rms="3.6114796996116638e-01" purity="6.5187525749206543e-01" nType="-99"/>
            </Node>
            <Node pos="r" depth="3" NCoef="0" IVar="11" Cut="2.4260652065277100e+00" cType="1" res="-7.8191095963120461e-04" rms="3.3011019229888916e-01" purity="6.3985311985015869e-01" nType="0">
              <Node pos="l" depth="4" NCoef="0" IVar="-1" Cut="0.0000000000000000e+00" cType="1" res="-1.2738599907606840e-03" rms="3.3139505982398987e-01" purity="6.6004514694213867e-01" nType="-99"/>
              <Node pos="r" depth="4" NCoef="0" IVar="-1" Cut="0.0000000000000000e+00" cType="1" res="1.7065864056348801e-02" rms="3.0019497871398926e-01" purity="1.9755581021308899e-01" nType="-99"/>
            </Node>
          </Node>
        </Node>
      </Node>
    </BinaryTree>
    <BinaryTree type="DecisionTree" boostWeight="1.0000000000000000e+00" itree="209">
      <Node pos="s" depth="0" NCoef="0" IVar="13" Cut="8.2276010513305664e-01" cType="1" res="-2.0678403416241053e-06" rms="3.3840644359588623e-01" purity="5.0000000000000000e-01" nType="0">
        <Node pos="l" depth="1" NCoef="0" IVar="11" Cut="1.9618577957153320e+00" cType="1" res="-2.7105314657092094e-03" rms="3.1039515137672424e-01" purity="1.7843550443649292e-01" nType="0">
          <Node pos="l" depth="2" NCoef="0" IVar="16" Cut="1.7475382089614868e+00" cType="1" res="-8.7972655892372131e-03" rms="3.3072867989540100e-01" purity="2.0151440799236298e-01" nType="0">
            <Node pos="l" depth="3" NCoef="0" IVar="-1" Cut="0.0000000000000000e+00" cType="1" res="-2.2388843819499016e-02" rms="3.2393938302993774e-01" purity="2.3495607078075409e-01" nType="-99"/>
            <Node pos="r" depth="3" NCoef="0" IVar="13" Cut="5.8796072006225586e-01" cType="1" res="1.3393159024417400e-03" rms="3.3375424146652222e-01" purity="1.8412818014621735e-01" nType="0">
              <Node pos="l" depth="4" NCoef="0" IVar="-1" Cut="0.0000000000000000e+00" cType="1" res="8.8938977569341660e-03" rms="3.4289410710334778e-01" purity="1.9072613120079041e-01" nType="-99"/>
              <Node pos="r" depth="4" NCoef="0" IVar="-1" Cut="0.0000000000000000e+00" cType="1" res="-6.2288083136081696e-03" rms="3.2451975345611572e-01" purity="1.7779485881328583e-01" nType="-99"/>
            </Node>
          </Node>
          <Node pos="r" depth="2" NCoef="0" IVar="-1" Cut="0.0000000000000000e+00" cType="1" res="1.3287318870425224e-02" rms="2.6534828543663025e-01" purity="1.3290520012378693e-01" nType="-99"/>
        </Node>
        <Node pos="r" depth="1" NCoef="0" IVar="12" Cut="1.1998608112335205e+00" cType="1" res="1.4827420818619430e-04" rms="3.3989304304122925e-01" purity="5.1784950494766235e-01" nType="0">
          <Node pos="l" depth="2" NCoef="0" IVar="9" Cut="3.8725636718750000e+04" cType="1" res="9.8642213270068169e-03" rms="3.5790047049522400e-01" purity="2.8269097208976746e-01" nType="0">
            <Node pos="l" depth="3" NCoef="0" IVar="-1" Cut="0.0000000000000000e+00" cType="1" res="1.6366159543395042e-02" rms="3.9657428860664368e-01" purity="3.7296301126480103e-01" nType="-99"/>
            <Node pos="r" depth="3" NCoef="0" IVar="-1" Cut="0.0000000000000000e+00" cType="1" res="-7.0657781325280666e-03" rms="3.1116923689842224e-01" purity="1.8772675096988678e-01" nType="-99"/>
          </Node>
          <Node pos="r" depth="2" NCoef="0" IVar="12" Cut="1.4200311899185181e+00" cType="1" res="-8.8545421021990478e-05" rms="3.3943870663642883e-01" purity="5.2358126640319824e-01" nType="0">
            <Node pos="l" depth="3" NCoef="0" IVar="-1" Cut="0.0000000000000000e+00" cType="1" res="-1.0112538002431393e-02" rms="3.5032859444618225e-01" purity="3.2367926836013794e-01" nType="-99"/>
            <Node pos="r" depth="3" NCoef="0" IVar="11" Cut="2.0306975841522217e+00" cType="1" res="2.0314785069786012e-04" rms="3.3919364213943481e-01" purity="5.2790057659149170e-01" nType="0">
              <Node pos="l" depth="4" NCoef="0" IVar="-1" Cut="0.0000000000000000e+00" cType="1" res="6.2116293702274561e-04" rms="3.4704613685607910e-01" purity="5.8317750692367554e-01" nType="-99"/>
              <Node pos="r" depth="4" NCoef="0" IVar="-1" Cut="0.0000000000000000e+00" cType="1" res="-4.0085385553538799e-03" rms="2.8475373983383179e-01" purity="1.7962008714675903e-01" nType="-99"/>
            </Node>
          </Node>
        </Node>
      </Node>
    </BinaryTree>
    <BinaryTree type="DecisionTree" boostWeight="1.0000000000000000e+00" itree="210">
      <Node pos="s" depth="0" NCoef="0" IVar="5" Cut="6.3952118750000000e+05" cType="1" res="-2.7016678814106854e-06" rms="3.3839088678359985e-01" purity="5.0000000000000000e-01" nType="0">
        <Node pos="l" depth="1" NCoef="0" IVar="5" Cut="5.2246915625000000e+05" cType="1" res="-8.0223609984386712e-05" rms="3.3965936303138733e-01" purity="5.0660079717636108e-01" nType="0">
          <Node pos="l" depth="2" NCoef="0" IVar="5" Cut="4.2767703125000000e+05" cType="1" res="8.2963808381464332e-05" rms="3.4029325842857361e-01" purity="5.1083183288574219e-01" nType="0">
            <Node pos="l" depth="3" NCoef="0" IVar="5" Cut="6.3350117187500000e+04" cType="1" res="-1.7433823086321354e-04" rms="3.4088611602783203e-01" purity="5.1588958501815796e-01" nType="0">
              <Node pos="l" depth="4" NCoef="0" IVar="-1" Cut="0.0000000000000000e+00" cType="1" res="1.3325243489816785e-03" rms="3.5169935226440430e-01" purity="4.9737039208412170e-01" nType="-99"/>
              <Node pos="r" depth="4" NCoef="0" IVar="-1" Cut="0.0000000000000000e+00" cType="1" res="-7.5926596764475107e-04" rms="3.3662575483322144e-01" purity="5.2302259206771851e-01" nType="-99"/>
            </Node>
            <Node pos="r" depth="3" NCoef="0" IVar="13" Cut="2.1584000587463379e+00" cType="1" res="1.1449319310486317e-02" rms="3.1277298927307129e-01" purity="2.8740394115447998e-01" nType="0">
              <Node pos="l" depth="4" NCoef="0" IVar="-1" Cut="0.0000000000000000e+00" cType="1" res="1.6502307262271643e-03" rms="2.8999042510986328e-01" purity="1.7366120219230652e-01" nType="-99"/>
              <Node pos="r" depth="4" NCoef="0" IVar="-1" Cut="0.0000000000000000e+00" cType="1" res="1.8095353618264198e-02" rms="3.3312287926673889e-01" purity="3.9783617854118347e-01" nType="-99"/>
            </Node>
          </Node>
          <Node pos="r" depth="2" NCoef="0" IVar="-1" Cut="0.0000000000000000e+00" cType="1" res="-1.3026925735175610e-02" rms="2.8953248262405396e-01" purity="1.9839386641979218e-01" nType="-99"/>
        </Node>
        <Node pos="r" depth="1" NCoef="0" IVar="-1" Cut="0.0000000000000000e+00" cType="1" res="6.6439546644687653e-03" rms="2.5689065456390381e-01" purity="1.2781611084938049e-01" nType="-99"/>
      </Node>
    </BinaryTree>
    <BinaryTree type="DecisionTree" boostWeight="1.0000000000000000e+00" itree="211">
      <Node pos="s" depth="0" NCoef="0" IVar="13" Cut="1.9197735786437988e+00" cType="1" res="-2.3062391392159043e-06" rms="3.3838316798210144e-01" purity="5.0000000000000000e-01" nType="0">
        <Node pos="l" depth="1" NCoef="0" IVar="0" Cut="6.3333334922790527e+00" cType="1" res="9.9281163420528173e-04" rms="3.2595887780189514e-01" purity="2.5426813960075378e-01" nType="0">
          <Node pos="l" depth="2" NCoef="0" IVar="10" Cut="8.5257968750000000e+04" cType="1" res="3.6479902919381857e-03" rms="3.3450347185134888e-01" purity="3.0444964766502380e-01" nType="0">
            <Node pos="l" depth="3" NCoef="0" IVar="13" Cut="1.7369064092636108e+00" cType="1" res="6.6932123154401779e-03" rms="3.5122975707054138e-01" purity="3.3682993054389954e-01" nType="0">
              <Node pos="l" depth="4" NCoef="0" IVar="-1" Cut="0.0000000000000000e+00" cType="1" res="3.1627989374101162e-03" rms="3.4694433212280273e-01" purity="3.0707728862762451e-01" nType="-99"/>
              <Node pos="r" depth="4" NCoef="0" IVar="-1" Cut="0.0000000000000000e+00" cType="1" res="1.6144219785928726e-02" rms="3.7683248519897461e-01" purity="5.2562141418457031e-01" nType="-99"/>
            </Node>
            <Node pos="r" depth="3" NCoef="0" IVar="5" Cut="1.4239510937500000e+05" cType="1" res="-6.5279514528810978e-03" rms="2.7098062634468079e-01" purity="1.9624732434749603e-01" nType="0">
              <Node pos="l" depth="4" NCoef="0" IVar="-1" Cut="0.0000000000000000e+00" cType="1" res="-2.5474047288298607e-02" rms="2.6568329334259033e-01" purity="2.4420164525508881e-01" nType="-99"/>
              <Node pos="r" depth="4" NCoef="0" IVar="-1" Cut="0.0000000000000000e+00" cType="1" res="1.2090472737327218e-03" rms="2.7316716313362122e-01" purity="1.7327128350734711e-01" nType="-99"/>
            </Node>
          </Node>
          <Node pos="r" depth="2" NCoef="0" IVar="15" Cut="1.2461407184600830e+00" cType="1" res="-2.6275336276739836e-03" rms="3.1389760971069336e-01" purity="1.8584547936916351e-01" nType="0">
            <Node pos="l" depth="3" NCoef="0" IVar="13" Cut="1.2492624521255493e+00" cType="1" res="9.4782169908285141e-03" rms="3.3662521839141846e-01" purity="2.4293701350688934e-01" nType="0">
              <Node pos="l" depth="4" NCoef="0" IVar="-1" Cut="0.0000000000000000e+00" cType="1" res="2.0655512809753418e-02" rms="3.2433596253395081e-01" purity="2.3250894248485565e-01" nType="-99"/>
              <Node pos="r" depth="4" NCoef="0" IVar="-1" Cut="0.0000000000000000e+00" cType="1" res="-1.0148297296836972e-03" rms="3.4589853882789612e-01" purity="2.5139328837394714e-01" nType="-99"/>
            </Node>
            <Node pos="r" depth="3" NCoef="0" IVar="14" Cut="2.8076152801513672e+00" cType="1" res="-5.7999035343527794e-03" rms="3.0758547782897949e-01" purity="1.7088438570499420e-01" nType="0">
              <Node pos="l" depth="4" NCoef="0" IVar="-1" Cut="0.0000000000000000e+00" cType="1" res="-9.2613510787487030e-03" rms="3.0150163173675537e-01" purity="1.6319979727268219e-01" nType="-99"/>
              <Node pos="r" depth="4" NCoef="0" IVar="-1" Cut="0.0000000000000000e+00" cType="1" res="1.1080840602517128e-02" rms="3.3889076113700867e-01" purity="2.1363753080368042e-01" nType="-99"/>
            </Node>
          </Node>
        </Node>
        <Node pos="r" depth="1" NCoef="0" IVar="15" Cut="7.6479506492614746e-01" cType="1" res="-3.4657967626117170e-04" rms="3.4257590770721436e-01" purity="5.8501398563385010e-01" nType="0">
          <Node pos="l" depth="2" NCoef="0" IVar="17" Cut="7.7244804687500000e+04" cType="1" res="-4.3079149909317493e-03" rms="3.6655604839324951e-01" purity="5.5589151382446289e-01" nType="0">
            <Node pos="l" depth="3" NCoef="0" IVar="18" Cut="2.6844734375000000e+04" cType="1" res="7.7288143802434206e-04" rms="3.7500959634780884e-01" purity="6.0741370916366577e-01" nType="0">
              <Node pos="l" depth="4" NCoef="0" IVar="-1" Cut="0.0000000000000000e+00" cType="1" res="-6.8393703550100327e-03" rms="3.6244204640388489e-01" purity="5.8081781864166260e-01" nType="-99"/>
              <Node pos="r" depth="4" NCoef="0" IVar="-1" Cut="0.0000000000000000e+00" cType="1" res="1.2219661846756935e-02" rms="3.9523297548294067e-01" purity="6.5357524156570435e-01" nType="-99"/>
            </Node>
            <Node pos="r" depth="3" NCoef="0" IVar="-1" Cut="0.0000000000000000e+00" cType="1" res="-2.8039922937750816e-02" rms="3.1704390048980713e-01" purity="2.8471007943153381e-01" nType="-99"/>
          </Node>
          <Node pos="r" depth="2" NCoef="0" IVar="5" Cut="5.6784493750000000e+05" cType="1" res="3.5350873076822609e-05" rms="3.4017211198806763e-01" purity="5.8782184123992920e-01" nType="0">
            <Node pos="l" depth="3" NCoef="0" IVar="5" Cut="2.5764354687500000e+05" cType="1" res="2.7069923817180097e-04" rms="3.4106543660163879e-01" purity="5.9470105171203613e-01" nType="0">
              <Node pos="l" depth="4" NCoef="0" IVar="-1" Cut="0.0000000000000000e+00" cType="1" res="-3.4433568362146616e-04" rms="3.4203594923019409e-01" purity="6.1002129316329956e-01" nType="-99"/>
              <Node pos="r" depth="4" NCoef="0" IVar="-1" Cut="0.0000000000000000e+00" cType="1" res="4.6213450841605663e-03" rms="3.3369824290275574e-01" purity="4.8051872849464417e-01" nType="-99"/>
            </Node>
            <Node pos="r" depth="3" NCoef="0" IVar="-1" Cut="0.0000000000000000e+00" cType="1" res="-1.6962058842182159e-02" rms="2.8142157196998596e-01" purity="1.7728658020496368e-01" nType="-99"/>
          </Node>
        </Node>
      </Node>
    </BinaryTree>
    <BinaryTree type="DecisionTree" boostWeight="1.0000000000000000e+00" itree="212">
      <Node pos="s" depth="0" NCoef="0" IVar="5" Cut="6.3952118750000000e+05" cType="1" res="-2.8250460673007183e-06" rms="3.3833518624305725e-01" purity="5.0000000000000000e-01" nType="0">
        <Node pos="l" depth="1" NCoef="0" IVar="5" Cut="5.2246915625000000e+05" cType="1" res="-8.6797983385622501e-05" rms="3.3960476517677307e-01" purity="5.0660079717636108e-01" nType="0">
          <Node pos="l" depth="2" NCoef="0" IVar="5" Cut="4.2767703125000000e+05" cType="1" res="3.6091569199925289e-05" rms="3.4024101495742798e-01" purity="5.1083183288574219e-01" nType="0">
            <Node pos="l" depth="3" NCoef="0" IVar="5" Cut="6.3350117187500000e+04" cType="1" res="-1.5828336472623050e-04" rms="3.4083905816078186e-01" purity="5.1588958501815796e-01" nType="0">
              <Node pos="l" depth="4" NCoef="0" IVar="-1" Cut="0.0000000000000000e+00" cType="1" res="1.1821453226730227e-03" rms="3.5166957974433899e-01" purity="4.9737039208412170e-01" nType="-99"/>
              <Node pos="r" depth="4" NCoef="0" IVar="-1" Cut="0.0000000000000000e+00" cType="1" res="-6.7791837500408292e-04" rms="3.3657231926918030e-01" purity="5.2302259206771851e-01" nType="-99"/>
            </Node>
            <Node pos="r" depth="3" NCoef="0" IVar="5" Cut="4.6378781250000000e+05" cType="1" res="8.6226323619484901e-03" rms="3.1256169080734253e-01" purity="2.8740394115447998e-01" nType="0">
              <Node pos="l" depth="4" NCoef="0" IVar="-1" Cut="0.0000000000000000e+00" cType="1" res="1.6362540423870087e-02" rms="3.2255178689956665e-01" purity="3.1313753128051758e-01" nType="-99"/>
              <Node pos="r" depth="4" NCoef="0" IVar="-1" Cut="0.0000000000000000e+00" cType="1" res="3.6192504921928048e-04" rms="3.0308762192726135e-01" purity="2.6433277130126953e-01" nType="-99"/>
            </Node>
          </Node>
          <Node pos="r" depth="2" NCoef="0" IVar="-1" Cut="0.0000000000000000e+00" cType="1" res="-9.9181383848190308e-03" rms="2.8937998414039612e-01" purity="1.9839386641979218e-01" nType="-99"/>
        </Node>
        <Node pos="r" depth="1" NCoef="0" IVar="-1" Cut="0.0000000000000000e+00" cType="1" res="7.2015696205198765e-03" rms="2.5674438476562500e-01" purity="1.2781611084938049e-01" nType="-99"/>
      </Node>
    </BinaryTree>
    <BinaryTree type="DecisionTree" boostWeight="1.0000000000000000e+00" itree="213">
      <Node pos="s" depth="0" NCoef="0" IVar="13" Cut="5.4850673675537109e-01" cType="1" res="-2.4350042622245383e-06" rms="3.3832868933677673e-01" purity="5.0000000000000000e-01" nType="0">
        <Node pos="l" depth="1" NCoef="0" IVar="12" Cut="1.5903397798538208e+00" cType="1" res="-4.2936215177178383e-03" rms="3.1237205862998962e-01" purity="1.6937981545925140e-01" nType="0">
          <Node pos="l" depth="2" NCoef="0" IVar="-1" Cut="0.0000000000000000e+00" cType="1" res="-1.3173727318644524e-02" rms="3.3014425635337830e-01" purity="1.7174468934535980e-01" nType="-99"/>
          <Node pos="r" depth="2" NCoef="0" IVar="-1" Cut="0.0000000000000000e+00" cType="1" res="7.2054741904139519e-03" rms="2.9410308599472046e-01" purity="1.6713199019432068e-01" nType="-99"/>
        </Node>
        <Node pos="r" depth="1" NCoef="0" IVar="13" Cut="4.0223908424377441e+00" cType="1" res="8.8266446255147457e-05" rms="3.3885529637336731e-01" purity="5.0698822736740112e-01" nType="0">
          <Node pos="l" depth="2" NCoef="0" IVar="13" Cut="3.6914982795715332e+00" cType="1" res="1.8747309513855726e-04" rms="3.3898293972015381e-01" purity="5.0862210988998413e-01" nType="0">
            <Node pos="l" depth="3" NCoef="0" IVar="11" Cut="2.6485717296600342e+00" cType="1" res="2.3941900508361869e-05" rms="3.3857440948486328e-01" purity="5.0926810503005981e-01" nType="0">
              <Node pos="l" depth="4" NCoef="0" IVar="-1" Cut="0.0000000000000000e+00" cType="1" res="1.7539947293698788e-04" rms="3.4195992350578308e-01" purity="5.2524954080581665e-01" nType="-99"/>
              <Node pos="r" depth="4" NCoef="0" IVar="-1" Cut="0.0000000000000000e+00" cType="1" res="-8.1321401521563530e-03" rms="2.3708604276180267e-01" purity="1.0418654233217239e-01" nType="-99"/>
            </Node>
            <Node pos="r" depth="3" NCoef="0" IVar="-1" Cut="0.0000000000000000e+00" cType="1" res="6.6983154974877834e-03" rms="3.5928598046302795e-01" purity="4.7536632418632507e-01" nType="-99"/>
          </Node>
          <Node pos="r" depth="2" NCoef="0" IVar="-1" Cut="0.0000000000000000e+00" cType="1" res="-6.8951514549553394e-03" rms="3.2798680663108826e-01" purity="3.7140727043151855e-01" nType="-99"/>
        </Node>
      </Node>
    </BinaryTree>
    <BinaryTree type="DecisionTree" boostWeight="1.0000000000000000e+00" itree="214">
      <Node pos="s" depth="0" NCoef="0" IVar="14" Cut="1.2873336076736450e+00" cType="1" res="-2.2610511223319918e-06" rms="3.3832347393035889e-01" purity="5.0000000000000000e-01" nType="0">
        <Node pos="l" depth="1" NCoef="0" IVar="0" Cut="1.3333333730697632e+00" cType="1" res="-1.0244519216939807e-03" rms="3.5033795237541199e-01" purity="4.4710662961006165e-01" nType="0">
          <Node pos="l" depth="2" NCoef="0" IVar="14" Cut="1.0479865074157715e+00" cType="1" res="0.0000000000000000e+00" rms="0.0000000000000000e+00" purity="3.6027288436889648e-01" nType="0">
            <Node pos="l" depth="3" NCoef="0" IVar="17" Cut="2.4532785156250000e+04" cType="1" res="0.0000000000000000e+00" rms="0.0000000000000000e+00" purity="3.7207418680191040e-01" nType="0">
              <Node pos="l" depth="4" NCoef="0" IVar="-1" Cut="0.0000000000000000e+00" cType="1" res="4.8686615627957508e-05" rms="3.5788035392761230e-01" purity="3.8740432262420654e-01" nType="-99"/>
              <Node pos="r" depth="4" NCoef="0" IVar="-1" Cut="0.0000000000000000e+00" cType="1" res="2.5829436257481575e-02" rms="3.6246666312217712e-01" purity="3.5817974805831909e-01" nType="-99"/>
            </Node>
            <Node pos="r" depth="3" NCoef="0" IVar="-1" Cut="0.0000000000000000e+00" cType="1" res="-1.0438281111419201e-02" rms="3.3835557103157043e-01" purity="3.3580607175827026e-01" nType="-99"/>
          </Node>
          <Node pos="r" depth="2" NCoef="0" IVar="17" Cut="3.9079890625000000e+04" cType="1" res="-2.2741928696632385e-03" rms="3.4979233145713806e-01" purity="4.6010413765907288e-01" nType="0">
            <Node pos="l" depth="3" NCoef="0" IVar="14" Cut="9.8187792301177979e-01" cType="1" res="1.5137643786147237e-03" rms="3.5343459248542786e-01" purity="5.1439023017883301e-01" nType="0">
              <Node pos="l" depth="4" NCoef="0" IVar="-1" Cut="0.0000000000000000e+00" cType="1" res="-3.2955622300505638e-03" rms="3.5468751192092896e-01" purity="5.0077104568481445e-01" nType="-99"/>
              <Node pos="r" depth="4" NCoef="0" IVar="-1" Cut="0.0000000000000000e+00" cType="1" res="9.9396752193570137e-03" rms="3.5065379738807678e-01" purity="5.4127651453018188e-01" nType="-99"/>
            </Node>
            <Node pos="r" depth="3" NCoef="0" IVar="9" Cut="1.1243625781250000e+05" cType="1" res="-8.7268520146608353e-03" rms="3.4340271353721619e-01" purity="3.6762946844100952e-01" nType="0">
              <Node pos="l" depth="4" NCoef="0" IVar="-1" Cut="0.0000000000000000e+00" cType="1" res="-1.8204381689429283e-02" rms="3.6455145478248596e-01" purity="3.8842076063156128e-01" nType="-99"/>
              <Node pos="r" depth="4" NCoef="0" IVar="-1" Cut="0.0000000000000000e+00" cType="1" res="2.1243584342300892e-03" rms="3.2768240571022034e-01" purity="3.5338553786277771e-01" nType="-99"/>
            </Node>
          </Node>
        </Node>
        <Node pos="r" depth="1" NCoef="0" IVar="13" Cut="8.2268905639648438e-01" cType="1" res="3.4522294299677014e-04" rms="3.3414018154144287e-01" purity="5.1798057556152344e-01" nType="0">
          <Node pos="l" depth="2" NCoef="0" IVar="14" Cut="2.3452348709106445e+00" cType="1" res="-6.0998788103461266e-03" rms="3.1146165728569031e-01" purity="1.8005020916461945e-01" nType="0">
            <Node pos="l" depth="3" NCoef="0" IVar="6" Cut="1.2827828125000000e+05" cType="1" res="-1.3661349192261696e-02" rms="2.9802161455154419e-01" purity="1.6173918545246124e-01" nType="0">
              <Node pos="l" depth="4" NCoef="0" IVar="-1" Cut="0.0000000000000000e+00" cType="1" res="-1.7077174037694931e-02" rms="3.2847800850868225e-01" purity="2.2348141670227051e-01" nType="-99"/>
              <Node pos="r" depth="4" NCoef="0" IVar="-1" Cut="0.0000000000000000e+00" cType="1" res="-8.3788605406880379e-03" rms="2.6922434568405151e-01" purity="1.0926163196563721e-01" nType="-99"/>
            </Node>
            <Node pos="r" depth="3" NCoef="0" IVar="-1" Cut="0.0000000000000000e+00" cType="1" res="4.0866979397833347e-03" rms="3.2914882898330688e-01" purity="2.0581109821796417e-01" nType="-99"/>
          </Node>
          <Node pos="r" depth="2" NCoef="0" IVar="13" Cut="2.4680840969085693e+00" cType="1" res="6.9896981585770845e-04" rms="3.3533692359924316e-01" purity="5.3652828931808472e-01" nType="0">
            <Node pos="l" depth="3" NCoef="0" IVar="10" Cut="6.6634414062500000e+04" cType="1" res="2.6543645653873682e-03" rms="3.4038600325584412e-01" purity="3.9710503816604614e-01" nType="0">
              <Node pos="l" depth="4" NCoef="0" IVar="-1" Cut="0.0000000000000000e+00" cType="1" res="5.1711071282625198e-03" rms="3.6601346731185913e-01" purity="3.8198453187942505e-01" nType="-99"/>
              <Node pos="r" depth="4" NCoef="0" IVar="-1" Cut="0.0000000000000000e+00" cType="1" res="-2.3578906257171184e-04" rms="3.2301184535026550e-01" purity="4.0671375393867493e-01" nType="-99"/>
            </Node>
            <Node pos="r" depth="3" NCoef="0" IVar="12" Cut="3.6423256397247314e+00" cType="1" res="-6.8935268791392446e-04" rms="3.3169844746589661e-01" purity="6.3551825284957886e-01" nType="0">
              <Node pos="l" depth="4" NCoef="0" IVar="-1" Cut="0.0000000000000000e+00" cType="1" res="-1.3208081945776939e-03" rms="3.3207780122756958e-01" purity="6.4470994472503662e-01" nType="-99"/>
              <Node pos="r" depth="4" NCoef="0" IVar="-1" Cut="0.0000000000000000e+00" cType="1" res="9.7753107547760010e-03" rms="3.2594877481460571e-01" purity="5.0308352708816528e-01" nType="-99"/>
            </Node>
          </Node>
        </Node>
      </Node>
    </BinaryTree>
    <BinaryTree type="DecisionTree" boostWeight="1.0000000000000000e+00" itree="215">
      <Node pos="s" depth="0" NCoef="0" IVar="5" Cut="6.3952118750000000e+05" cType="1" res="-2.3775892259436660e-06" rms="3.3828005194664001e-01" purity="5.0000000000000000e-01" nType="0">
        <Node pos="l" depth="1" NCoef="0" IVar="11" Cut="2.6612682342529297e+00" cType="1" res="-7.4484894867055118e-05" rms="3.3954885601997375e-01" purity="5.0660079717636108e-01" nType="0">
          <Node pos="l" depth="2" NCoef="0" IVar="11" Cut="4.2084598541259766e-01" cType="1" res="9.8358934337738901e-05" rms="3.4310698509216309e-01" purity="5.2335023880004883e-01" nType="0">
            <Node pos="l" depth="3" NCoef="0" IVar="16" Cut="2.3172054290771484e+00" cType="1" res="3.5999007523059845e-03" rms="3.1540641188621521e-01" purity="7.3657745122909546e-01" nType="0">
              <Node pos="l" depth="4" NCoef="0" IVar="-1" Cut="0.0000000000000000e+00" cType="1" res="2.8473173733800650e-04" rms="3.0027094483375549e-01" purity="7.8053748607635498e-01" nType="-99"/>
              <Node pos="r" depth="4" NCoef="0" IVar="-1" Cut="0.0000000000000000e+00" cType="1" res="1.6110878437757492e-02" rms="3.9629167318344116e-01" purity="4.6266958117485046e-01" nType="-99"/>
            </Node>
            <Node pos="r" depth="3" NCoef="0" IVar="12" Cut="1.4508122205734253e+00" cType="1" res="-3.0302649247460067e-04" rms="3.4613847732543945e-01" purity="4.9890771508216858e-01" nType="0">
              <Node pos="l" depth="4" NCoef="0" IVar="-1" Cut="0.0000000000000000e+00" cType="1" res="-3.9257225580513477e-03" rms="3.5453435778617859e-01" purity="2.8567406535148621e-01" nType="-99"/>
              <Node pos="r" depth="4" NCoef="0" IVar="-1" Cut="0.0000000000000000e+00" cType="1" res="2.2262824131757952e-05" rms="3.4556791186332703e-01" purity="5.1314997673034668e-01" nType="-99"/>
            </Node>
          </Node>
          <Node pos="r" depth="2" NCoef="0" IVar="11" Cut="2.7744281291961670e+00" cType="1" res="-4.2330203577876091e-03" rms="2.3840163648128510e-01" purity="1.0361893475055695e-01" nType="0">
            <Node pos="l" depth="3" NCoef="0" IVar="-1" Cut="0.0000000000000000e+00" cType="1" res="-3.4003548324108124e-02" rms="2.3251134157180786e-01" purity="8.6238838732242584e-02" nType="-99"/>
            <Node pos="r" depth="3" NCoef="0" IVar="13" Cut="1.3311104774475098e+00" cType="1" res="1.7626418266445398e-03" rms="2.4024741351604462e-01" purity="1.0999391973018646e-01" nType="0">
              <Node pos="l" depth="4" NCoef="0" IVar="-1" Cut="0.0000000000000000e+00" cType="1" res="-1.7937541007995605e-02" rms="2.0224003493785858e-01" purity="6.4481109380722046e-02" nType="-99"/>
              <Node pos="r" depth="4" NCoef="0" IVar="-1" Cut="0.0000000000000000e+00" cType="1" res="1.2345918454229832e-02" rms="2.6054492592811584e-01" purity="1.3777935504913330e-01" nType="-99"/>
            </Node>
          </Node>
        </Node>
        <Node pos="r" depth="1" NCoef="0" IVar="-1" Cut="0.0000000000000000e+00" cType="1" res="6.1624059453606606e-03" rms="2.5675687193870544e-01" purity="1.2781611084938049e-01" nType="-99"/>
      </Node>
    </BinaryTree>
    <BinaryTree type="DecisionTree" boostWeight="1.0000000000000000e+00" itree="216">
      <Node pos="s" depth="0" NCoef="0" IVar="13" Cut="1.9197735786437988e+00" cType="1" res="-3.0217424864531495e-06" rms="3.3826529979705811e-01" purity="5.0000000000000000e-01" nType="0">
        <Node pos="l" depth="1" NCoef="0" IVar="5" Cut="5.7202431250000000e+05" cType="1" res="9.3723135069012642e-04" rms="3.2574793696403503e-01" purity="2.5426813960075378e-01" nType="0">
          <Node pos="l" depth="2" NCoef="0" IVar="5" Cut="7.7093296875000000e+04" cType="1" res="3.2923682010732591e-04" rms="3.2884559035301208e-01" purity="2.6127323508262634e-01" nType="0">
            <Node pos="l" depth="3" NCoef="0" IVar="12" Cut="2.3229436874389648e+00" cType="1" res="6.7024873569607735e-03" rms="3.3026432991027832e-01" purity="2.8203478455543518e-01" nType="0">
              <Node pos="l" depth="4" NCoef="0" IVar="-1" Cut="0.0000000000000000e+00" cType="1" res="1.6302837058901787e-02" rms="3.9034262299537659e-01" purity="4.1931489109992981e-01" nType="-99"/>
              <Node pos="r" depth="4" NCoef="0" IVar="-1" Cut="0.0000000000000000e+00" cType="1" res="-2.3176101967692375e-03" rms="2.9495605826377869e-01" purity="2.1279042959213257e-01" nType="-99"/>
            </Node>
            <Node pos="r" depth="3" NCoef="0" IVar="17" Cut="8.6224742187500000e+04" cType="1" res="-2.3372794967144728e-03" rms="3.2821345329284668e-01" purity="2.5258672237396240e-01" nType="0">
              <Node pos="l" depth="4" NCoef="0" IVar="-1" Cut="0.0000000000000000e+00" cType="1" res="-7.9380339011549950e-03" rms="3.4065672755241394e-01" purity="2.6082894206047058e-01" nType="-99"/>
              <Node pos="r" depth="4" NCoef="0" IVar="-1" Cut="0.0000000000000000e+00" cType="1" res="5.3392532281577587e-03" rms="3.1439509987831116e-01" purity="2.4391175806522369e-01" nType="-99"/>
            </Node>
          </Node>
          <Node pos="r" depth="2" NCoef="0" IVar="-1" Cut="0.0000000000000000e+00" cType="1" res="2.2216996178030968e-02" rms="2.5307101011276245e-01" purity="1.0951153188943863e-01" nType="-99"/>
        </Node>
        <Node pos="r" depth="1" NCoef="0" IVar="13" Cut="2.1026134490966797e+00" cType="1" res="-3.2831399585120380e-04" rms="3.4248873591423035e-01" purity="5.8501398563385010e-01" nType="0">
          <Node pos="l" depth="2" NCoef="0" IVar="4" Cut="2.3087917187500000e+05" cType="1" res="-4.2820563539862633e-03" rms="3.5119101405143738e-01" purity="4.2110654711723328e-01" nType="0">
            <Node pos="l" depth="3" NCoef="0" IVar="-1" Cut="0.0000000000000000e+00" cType="1" res="4.7098645009100437e-03" rms="3.7762346863746643e-01" purity="4.5928439497947693e-01" nType="-99"/>
            <Node pos="r" depth="3" NCoef="0" IVar="12" Cut="2.5282757282257080e+00" cType="1" res="-1.0123082436621189e-02" rms="3.3684372901916504e-01" purity="4.0174442529678345e-01" nType="0">
              <Node pos="l" depth="4" NCoef="0" IVar="-1" Cut="0.0000000000000000e+00" cType="1" res="-1.8627030774950981e-02" rms="3.4561505913734436e-01" purity="4.2951828241348267e-01" nType="-99"/>
              <Node pos="r" depth="4" NCoef="0" IVar="-1" Cut="0.0000000000000000e+00" cType="1" res="2.2818874567747116e-03" rms="3.2819220423698425e-01" purity="3.7659546732902527e-01" nType="-99"/>
            </Node>
          </Node>
          <Node pos="r" depth="2" NCoef="0" IVar="13" Cut="3.1473908424377441e+00" cType="1" res="-2.5567152988514863e-05" rms="3.4181135892868042e-01" purity="5.9756475687026978e-01" nType="0">
            <Node pos="l" depth="3" NCoef="0" IVar="13" Cut="3.0976333618164062e+00" cType="1" res="6.0551386559382081e-04" rms="3.4096753597259521e-01" purity="6.0747569799423218e-01" nType="0">
              <Node pos="l" depth="4" NCoef="0" IVar="-1" Cut="0.0000000000000000e+00" cType="1" res="-1.8584594363346696e-04" rms="3.4167364239692688e-01" purity="6.0173118114471436e-01" nType="-99"/>
              <Node pos="r" depth="4" NCoef="0" IVar="-1" Cut="0.0000000000000000e+00" cType="1" res="1.0559960268437862e-02" rms="3.3063355088233948e-01" purity="6.8843400478363037e-01" nType="-99"/>
            </Node>
            <Node pos="r" depth="3" NCoef="0" IVar="10" Cut="1.4790687500000000e+05" cType="1" res="-2.2671718616038561e-03" rms="3.4478262066841125e-01" purity="5.6236118078231812e-01" nType="0">
              <Node pos="l" depth="4" NCoef="0" IVar="-1" Cut="0.0000000000000000e+00" cType="1" res="3.8261199370026588e-03" rms="3.6740300059318542e-01" purity="6.5987515449523926e-01" nType="-99"/>
              <Node pos="r" depth="4" NCoef="0" IVar="-1" Cut="0.0000000000000000e+00" cType="1" res="-7.3928572237491608e-03" rms="3.2577574253082275e-01" purity="4.8570260405540466e-01" nType="-99"/>
            </Node>
          </Node>
        </Node>
      </Node>
    </BinaryTree>
    <BinaryTree type="DecisionTree" boostWeight="1.0000000000000000e+00" itree="217">
      <Node pos="s" depth="0" NCoef="0" IVar="15" Cut="2.5411450862884521e+00" cType="1" res="-3.0591631912102457e-06" rms="3.3822742104530334e-01" purity="5.0000000000000000e-01" nType="0">
        <Node pos="l" depth="1" NCoef="0" IVar="15" Cut="2.4203004837036133e+00" cType="1" res="3.0292972223833203e-04" rms="3.4434023499488831e-01" purity="4.9447363615036011e-01" nType="0">
          <Node pos="l" depth="2" NCoef="0" IVar="11" Cut="2.6589043140411377e+00" cType="1" res="-1.5272067685145885e-04" rms="3.4604313969612122e-01" purity="4.9117550253868103e-01" nType="0">
            <Node pos="l" depth="3" NCoef="0" IVar="11" Cut="2.1605339050292969e+00" cType="1" res="1.6732487711124122e-04" rms="3.5012853145599365e-01" purity="5.0850063562393188e-01" nType="0">
              <Node pos="l" depth="4" NCoef="0" IVar="-1" Cut="0.0000000000000000e+00" cType="1" res="-2.7925622998736799e-04" rms="3.5402923822402954e-01" purity="5.3640407323837280e-01" nType="-99"/>
              <Node pos="r" depth="4" NCoef="0" IVar="-1" Cut="0.0000000000000000e+00" cType="1" res="6.6062021069228649e-03" rms="3.0344593524932861e-01" purity="1.9893509149551392e-01" nType="-99"/>
            </Node>
            <Node pos="r" depth="3" NCoef="0" IVar="14" Cut="1.4269181489944458e+00" cType="1" res="-7.4625858105719090e-03" rms="2.3394331336021423e-01" purity="9.5468536019325256e-02" nType="0">
              <Node pos="l" depth="4" NCoef="0" IVar="-1" Cut="0.0000000000000000e+00" cType="1" res="7.3892599903047085e-03" rms="2.4308012425899506e-01" purity="8.7291531264781952e-02" nType="-99"/>
              <Node pos="r" depth="4" NCoef="0" IVar="-1" Cut="0.0000000000000000e+00" cType="1" res="-2.4351444095373154e-02" rms="2.2793358564376831e-01" purity="1.0043090581893921e-01" nType="-99"/>
            </Node>
          </Node>
          <Node pos="r" depth="2" NCoef="0" IVar="7" Cut="6.2902105468750000e+04" cType="1" res="6.4583253115415573e-03" rms="3.2038658857345581e-01" purity="5.3902858495712280e-01" nType="0">
            <Node pos="l" depth="3" NCoef="0" IVar="-1" Cut="0.0000000000000000e+00" cType="1" res="1.4401561580598354e-02" rms="3.3857497572898865e-01" purity="6.9258493185043335e-01" nType="-99"/>
            <Node pos="r" depth="3" NCoef="0" IVar="0" Cut="3.3333332538604736e+00" cType="1" res="-6.1645018868148327e-03" rms="2.9764527082443237e-01" purity="3.6277914047241211e-01" nType="0">
              <Node pos="l" depth="4" NCoef="0" IVar="-1" Cut="0.0000000000000000e+00" cType="1" res="1.5093807131052017e-02" rms="3.1106182932853699e-01" purity="4.2100772261619568e-01" nType="-99"/>
              <Node pos="r" depth="4" NCoef="0" IVar="-1" Cut="0.0000000000000000e+00" cType="1" res="-2.2755801677703857e-02" rms="2.8679415583610535e-01" purity="3.2147806882858276e-01" nType="-99"/>
            </Node>
          </Node>
        </Node>
        <Node pos="r" depth="1" NCoef="0" IVar="2" Cut="9.0896331250000000e+05" cType="1" res="-1.0208431631326675e-03" rms="3.1704601645469666e-01" purity="5.1838177442550659e-01" nType="0">
          <Node pos="l" depth="2" NCoef="0" IVar="3" Cut="9.7061656250000000e+04" cType="1" res="-2.2191298194229603e-03" rms="3.2265654206275940e-01" purity="5.4961377382278442e-01" nType="0">
            <Node pos="l" depth="3" NCoef="0" IVar="7" Cut="4.3696136718750000e+04" cType="1" res="-1.7160760238766670e-02" rms="3.6889114975929260e-01" purity="3.0398160219192505e-01" nType="0">
              <Node pos="l" depth="4" NCoef="0" IVar="-1" Cut="0.0000000000000000e+00" cType="1" res="-1.2142719933763146e-03" rms="3.9470991492271423e-01" purity="3.8400682806968689e-01" nType="-99"/>
              <Node pos="r" depth="4" NCoef="0" IVar="-1" Cut="0.0000000000000000e+00" cType="1" res="-3.5187441855669022e-02" rms="3.1631106138229370e-01" purity="1.6232649981975555e-01" nType="-99"/>
            </Node>
            <Node pos="r" depth="3" NCoef="0" IVar="2" Cut="5.0064984375000000e+05" cType="1" res="1.3734659296460450e-04" rms="3.1468060612678528e-01" purity="5.8835303783416748e-01" nType="0">
              <Node pos="l" depth="4" NCoef="0" IVar="-1" Cut="0.0000000000000000e+00" cType="1" res="4.8941979184746742e-03" rms="3.1723189353942871e-01" purity="6.5756887197494507e-01" nType="-99"/>
              <Node pos="r" depth="4" NCoef="0" IVar="-1" Cut="0.0000000000000000e+00" cType="1" res="-9.9927848204970360e-03" rms="3.0943611264228821e-01" purity="4.5397430658340454e-01" nType="-99"/>
            </Node>
          </Node>
          <Node pos="r" depth="2" NCoef="0" IVar="6" Cut="3.3476340625000000e+05" cType="1" res="9.1013675555586815e-03" rms="2.6473739743232727e-01" purity="2.5455719232559204e-01" nType="0">
            <Node pos="l" depth="3" NCoef="0" IVar="-1" Cut="0.0000000000000000e+00" cType="1" res="2.3027747869491577e-02" rms="3.2361888885498047e-01" purity="3.7862300872802734e-01" nType="-99"/>
            <Node pos="r" depth="3" NCoef="0" IVar="-1" Cut="0.0000000000000000e+00" cType="1" res="-2.4851029738783836e-02" rms="1.6580690443515778e-01" purity="1.0435085743665695e-01" nType="-99"/>
          </Node>
        </Node>
      </Node>
    </BinaryTree>
    <BinaryTree type="DecisionTree" boostWeight="1.0000000000000000e+00" itree="218">
      <Node pos="s" depth="0" NCoef="0" IVar="13" Cut="1.9197735786437988e+00" cType="1" res="-4.3670611376001034e-06" rms="3.3817529678344727e-01" purity="5.0000000000000000e-01" nType="0">
        <Node pos="l" depth="1" NCoef="0" IVar="1" Cut="1.0835192968750000e+05" cType="1" res="8.6001784075051546e-04" rms="3.2557865977287292e-01" purity="2.5426813960075378e-01" nType="0">
          <Node pos="l" depth="2" NCoef="0" IVar="1" Cut="4.1361703125000000e+04" cType="1" res="2.0106297452002764e-03" rms="3.2146400213241577e-01" purity="2.3935043811798096e-01" nType="0">
            <Node pos="l" depth="3" NCoef="0" IVar="11" Cut="1.8192882537841797e+00" cType="1" res="6.6110556945204735e-03" rms="2.8689238429069519e-01" purity="1.4273707568645477e-01" nType="0">
              <Node pos="l" depth="4" NCoef="0" IVar="-1" Cut="0.0000000000000000e+00" cType="1" res="1.3924661092460155e-02" rms="3.1786495447158813e-01" purity="1.8453224003314972e-01" nType="-99"/>
              <Node pos="r" depth="4" NCoef="0" IVar="-1" Cut="0.0000000000000000e+00" cType="1" res="-1.0322362184524536e-02" rms="2.2686199843883514e-01" purity="7.4465215206146240e-02" nType="-99"/>
            </Node>
            <Node pos="r" depth="3" NCoef="0" IVar="7" Cut="8.6333437500000000e+04" cType="1" res="-2.3421735968440771e-03" rms="3.5099846124649048e-01" purity="3.3076348900794983e-01" nType="0">
              <Node pos="l" depth="4" NCoef="0" IVar="-1" Cut="0.0000000000000000e+00" cType="1" res="-4.6402523294091225e-03" rms="3.8279846310615540e-01" purity="4.0203085541725159e-01" nType="-99"/>
              <Node pos="r" depth="4" NCoef="0" IVar="-1" Cut="0.0000000000000000e+00" cType="1" res="1.7180299386382103e-02" rms="2.4803146719932556e-01" purity="1.4312805235385895e-01" nType="-99"/>
            </Node>
          </Node>
          <Node pos="r" depth="2" NCoef="0" IVar="2" Cut="6.4824350000000000e+05" cType="1" res="-5.7711438275873661e-03" rms="3.4827223420143127e-01" purity="3.4024125337600708e-01" nType="0">
            <Node pos="l" depth="3" NCoef="0" IVar="12" Cut="2.3104627132415771e+00" cType="1" res="-1.5270206145942211e-02" rms="3.7784403562545776e-01" purity="4.3995028734207153e-01" nType="0">
              <Node pos="l" depth="4" NCoef="0" IVar="-1" Cut="0.0000000000000000e+00" cType="1" res="-1.8405651673674583e-02" rms="4.0234419703483582e-01" purity="4.8508515954017639e-01" nType="-99"/>
              <Node pos="r" depth="4" NCoef="0" IVar="-1" Cut="0.0000000000000000e+00" cType="1" res="4.4577877270057797e-04" rms="3.5009646415710449e-01" purity="3.9342013001441956e-01" nType="-99"/>
            </Node>
            <Node pos="r" depth="3" NCoef="0" IVar="-1" Cut="0.0000000000000000e+00" cType="1" res="1.2180843390524387e-02" rms="2.9029536247253418e-01" purity="1.7025893926620483e-01" nType="-99"/>
          </Node>
        </Node>
        <Node pos="r" depth="1" NCoef="0" IVar="15" Cut="7.6479506492614746e-01" cType="1" res="-3.0341179808601737e-04" rms="3.4242486953735352e-01" purity="5.8501398563385010e-01" nType="0">
          <Node pos="l" depth="2" NCoef="0" IVar="1" Cut="5.9294402343750000e+04" cType="1" res="-3.5543469712138176e-03" rms="3.6616727709770203e-01" purity="5.5589151382446289e-01" nType="0">
            <Node pos="l" depth="3" NCoef="0" IVar="15" Cut="6.5600305795669556e-01" cType="1" res="5.5702887475490570e-03" rms="3.7162283062934875e-01" purity="4.8521170020103455e-01" nType="0">
              <Node pos="l" depth="4" NCoef="0" IVar="-1" Cut="0.0000000000000000e+00" cType="1" res="1.1454021558165550e-02" rms="3.7738025188446045e-01" purity="5.0076645612716675e-01" nType="-99"/>
              <Node pos="r" depth="4" NCoef="0" IVar="-1" Cut="0.0000000000000000e+00" cType="1" res="-1.4162404462695122e-02" rms="3.5656061768531799e-01" purity="4.4919791817665100e-01" nType="-99"/>
            </Node>
            <Node pos="r" depth="3" NCoef="0" IVar="0" Cut="6.3333334922790527e+00" cType="1" res="-1.3329497538506985e-02" rms="3.5997462272644043e-01" purity="6.3161021471023560e-01" nType="0">
              <Node pos="l" depth="4" NCoef="0" IVar="-1" Cut="0.0000000000000000e+00" cType="1" res="-2.0675787702202797e-02" rms="3.4477072954177856e-01" purity="6.7934942245483398e-01" nType="-99"/>
              <Node pos="r" depth="4" NCoef="0" IVar="-1" Cut="0.0000000000000000e+00" cType="1" res="2.7867378666996956e-03" rms="3.8181528449058533e-01" purity="5.5718195438385010e-01" nType="-99"/>
            </Node>
          </Node>
          <Node pos="r" depth="2" NCoef="0" IVar="5" Cut="5.6784493750000000e+05" cType="1" res="1.0025816663983278e-05" rms="3.4004649519920349e-01" purity="5.8782184123992920e-01" nType="0">
            <Node pos="l" depth="3" NCoef="0" IVar="5" Cut="2.5764354687500000e+05" cType="1" res="2.0701529865618795e-04" rms="3.4093841910362244e-01" purity="5.9470105171203613e-01" nType="0">
              <Node pos="l" depth="4" NCoef="0" IVar="-1" Cut="0.0000000000000000e+00" cType="1" res="-3.2490119338035583e-04" rms="3.4192025661468506e-01" purity="6.1002129316329956e-01" nType="-99"/>
              <Node pos="r" depth="4" NCoef="0" IVar="-1" Cut="0.0000000000000000e+00" cType="1" res="4.0148855186998844e-03" rms="3.3349540829658508e-01" purity="4.8051872849464417e-01" nType="-99"/>
            </Node>
            <Node pos="r" depth="3" NCoef="0" IVar="-1" Cut="0.0000000000000000e+00" cType="1" res="-1.4329784549772739e-02" rms="2.8150328993797302e-01" purity="1.7728658020496368e-01" nType="-99"/>
          </Node>
        </Node>
      </Node>
    </BinaryTree>
    <BinaryTree type="DecisionTree" boostWeight="1.0000000000000000e+00" itree="219">
      <Node pos="s" depth="0" NCoef="0" IVar="18" Cut="1.4775275000000000e+05" cType="1" res="-4.8837896429176908e-06" rms="3.3811712265014648e-01" purity="5.0000000000000000e-01" nType="0">
        <Node pos="l" depth="1" NCoef="0" IVar="18" Cut="3.4672468750000000e+04" cType="1" res="2.4787755683064461e-04" rms="3.4616026282310486e-01" purity="5.1551795005798340e-01" nType="0">
          <Node pos="l" depth="2" NCoef="0" IVar="5" Cut="1.9982709375000000e+05" cType="1" res="-2.5069955736398697e-03" rms="3.4276974201202393e-01" purity="4.8500958085060120e-01" nType="0">
            <Node pos="l" depth="3" NCoef="0" IVar="15" Cut="2.0944604873657227e+00" cType="1" res="-1.1036685900762677e-03" rms="3.4475943446159363e-01" purity="4.9833691120147705e-01" nType="0">
              <Node pos="l" depth="4" NCoef="0" IVar="-1" Cut="0.0000000000000000e+00" cType="1" res="1.6690535703673959e-03" rms="3.4891009330749512e-01" purity="5.0964945554733276e-01" nType="-99"/>
              <Node pos="r" depth="4" NCoef="0" IVar="-1" Cut="0.0000000000000000e+00" cType="1" res="-8.7032038718461990e-03" rms="3.3288124203681946e-01" purity="4.6714526414871216e-01" nType="-99"/>
            </Node>
            <Node pos="r" depth="3" NCoef="0" IVar="-1" Cut="0.0000000000000000e+00" cType="1" res="-2.5811607018113136e-02" rms="3.0600959062576294e-01" purity="2.5852972269058228e-01" nType="-99"/>
          </Node>
          <Node pos="r" depth="2" NCoef="0" IVar="3" Cut="1.7168339062500000e+05" cType="1" res="2.0597632974386215e-03" rms="3.4836032986640930e-01" purity="5.3558337688446045e-01" nType="0">
            <Node pos="l" depth="3" NCoef="0" IVar="7" Cut="1.0586750781250000e+05" cType="1" res="5.5052516981959343e-03" rms="3.7263363599777222e-01" purity="5.6035530567169189e-01" nType="0">
              <Node pos="l" depth="4" NCoef="0" IVar="-1" Cut="0.0000000000000000e+00" cType="1" res="1.3253587530925870e-03" rms="3.7265878915786743e-01" purity="5.5722218751907349e-01" nType="-99"/>
              <Node pos="r" depth="4" NCoef="0" IVar="-1" Cut="0.0000000000000000e+00" cType="1" res="2.5944121181964874e-02" rms="3.7103614211082458e-01" purity="5.8684104681015015e-01" nType="-99"/>
            </Node>
            <Node pos="r" depth="3" NCoef="0" IVar="4" Cut="3.6398484375000000e+05" cType="1" res="-2.1567333023995161e-03" rms="3.1607827544212341e-01" purity="5.0526821613311768e-01" nType="0">
              <Node pos="l" depth="4" NCoef="0" IVar="-1" Cut="0.0000000000000000e+00" cType="1" res="-6.1655598692595959e-03" rms="3.2454347610473633e-01" purity="5.6221336126327515e-01" nType="-99"/>
              <Node pos="r" depth="4" NCoef="0" IVar="-1" Cut="0.0000000000000000e+00" cType="1" res="3.4054548013955355e-03" rms="3.0573993921279907e-01" purity="4.3833363056182861e-01" nType="-99"/>
            </Node>
          </Node>
        </Node>
        <Node pos="r" depth="1" NCoef="0" IVar="14" Cut="2.0208415985107422e+00" cType="1" res="-1.1381536023691297e-03" rms="2.9940822720527649e-01" purity="4.3042436242103577e-01" nType="0">
          <Node pos="l" depth="2" NCoef="0" IVar="16" Cut="1.4398158788681030e+00" cType="1" res="3.5183785948902369e-03" rms="2.9141500592231750e-01" purity="2.9972711205482483e-01" nType="0">
            <Node pos="l" depth="3" NCoef="0" IVar="17" Cut="1.0064770312500000e+05" cType="1" res="1.2039804831147194e-02" rms="3.1357398629188538e-01" purity="4.6843877434730530e-01" nType="0">
              <Node pos="l" depth="4" NCoef="0" IVar="-1" Cut="0.0000000000000000e+00" cType="1" res="2.0721934735774994e-02" rms="3.3498850464820862e-01" purity="5.3592950105667114e-01" nType="-99"/>
              <Node pos="r" depth="4" NCoef="0" IVar="-1" Cut="0.0000000000000000e+00" cType="1" res="-1.3787583447992802e-03" rms="2.8669092059135437e-01" purity="3.9161115884780884e-01" nType="-99"/>
            </Node>
            <Node pos="r" depth="3" NCoef="0" IVar="14" Cut="1.6560722589492798e+00" cType="1" res="-3.4557026810944080e-03" rms="2.7174064517021179e-01" purity="1.6165061295032501e-01" nType="0">
              <Node pos="l" depth="4" NCoef="0" IVar="-1" Cut="0.0000000000000000e+00" cType="1" res="-2.2888768464326859e-02" rms="2.3639562726020813e-01" purity="1.0788615047931671e-01" nType="-99"/>
              <Node pos="r" depth="4" NCoef="0" IVar="-1" Cut="0.0000000000000000e+00" cType="1" res="1.5907419845461845e-02" rms="3.2026681303977966e-01" purity="2.4937330186367035e-01" nType="-99"/>
            </Node>
          </Node>
          <Node pos="r" depth="2" NCoef="0" IVar="13" Cut="2.1016228199005127e+00" cType="1" res="-3.4528498072177172e-03" rms="3.0327656865119934e-01" purity="4.9539211392402649e-01" nType="0">
            <Node pos="l" depth="3" NCoef="0" IVar="11" Cut="1.1268976926803589e+00" cType="1" res="-1.1320531368255615e-02" rms="3.0186823010444641e-01" purity="1.9626295566558838e-01" nType="0">
              <Node pos="l" depth="4" NCoef="0" IVar="-1" Cut="0.0000000000000000e+00" cType="1" res="-3.6954588722437620e-03" rms="3.3207544684410095e-01" purity="2.4478781223297119e-01" nType="-99"/>
              <Node pos="r" depth="4" NCoef="0" IVar="-1" Cut="0.0000000000000000e+00" cType="1" res="-4.9898505210876465e-02" rms="2.0449052751064301e-01" purity="7.2502002120018005e-02" nType="-99"/>
            </Node>
            <Node pos="r" depth="3" NCoef="0" IVar="16" Cut="1.9972239732742310e+00" cType="1" res="-1.0536919580772519e-04" rms="3.0381202697753906e-01" purity="6.2266331911087036e-01" nType="0">
              <Node pos="l" depth="4" NCoef="0" IVar="-1" Cut="0.0000000000000000e+00" cType="1" res="-3.1738514080643654e-03" rms="2.9573372006416321e-01" purity="6.6728460788726807e-01" nType="-99"/>
              <Node pos="r" depth="4" NCoef="0" IVar="-1" Cut="0.0000000000000000e+00" cType="1" res="1.1348684318363667e-02" rms="3.4210720658302307e-01" purity="3.9244362711906433e-01" nType="-99"/>
            </Node>
          </Node>
        </Node>
      </Node>
    </BinaryTree>
    <BinaryTree type="DecisionTree" boostWeight="1.0000000000000000e+00" itree="220">
      <Node pos="s" depth="0" NCoef="0" IVar="12" Cut="2.8754057884216309e+00" cType="1" res="-5.3908315749140456e-06" rms="3.3804023265838623e-01" purity="5.0000000000000000e-01" nType="0">
        <Node pos="l" depth="1" NCoef="0" IVar="9" Cut="9.8558781250000000e+04" cType="1" res="-4.5004923595115542e-04" rms="3.4858220815658569e-01" purity="4.8231020569801331e-01" nType="0">
          <Node pos="l" depth="2" NCoef="0" IVar="16" Cut="2.2162315845489502e+00" cType="1" res="1.4890916645526886e-03" rms="3.7311217188835144e-01" purity="5.0125759840011597e-01" nType="0">
            <Node pos="l" depth="3" NCoef="0" IVar="7" Cut="7.9597968750000000e+04" cType="1" res="-1.3257454847916961e-03" rms="3.7053859233856201e-01" purity="5.4663074016571045e-01" nType="0">
              <Node pos="l" depth="4" NCoef="0" IVar="-1" Cut="0.0000000000000000e+00" cType="1" res="-1.0078534978674725e-04" rms="3.7340515851974487e-01" purity="5.7005465030670166e-01" nType="-99"/>
              <Node pos="r" depth="4" NCoef="0" IVar="-1" Cut="0.0000000000000000e+00" cType="1" res="-1.7122488468885422e-02" rms="3.2352027297019958e-01" purity="1.9191737473011017e-01" nType="-99"/>
            </Node>
            <Node pos="r" depth="3" NCoef="0" IVar="10" Cut="8.0948070312500000e+04" cType="1" res="1.0364034213125706e-02" rms="3.8097661733627319e-01" purity="3.5819992423057556e-01" nType="0">
              <Node pos="l" depth="4" NCoef="0" IVar="-1" Cut="0.0000000000000000e+00" cType="1" res="4.5742015936411917e-04" rms="3.7462410330772400e-01" purity="2.7992209792137146e-01" nType="-99"/>
              <Node pos="r" depth="4" NCoef="0" IVar="-1" Cut="0.0000000000000000e+00" cType="1" res="1.4697071164846420e-02" rms="3.8878792524337769e-01" purity="4.6093103289604187e-01" nType="-99"/>
            </Node>
          </Node>
          <Node pos="r" depth="2" NCoef="0" IVar="12" Cut="2.3879704475402832e+00" cType="1" res="-2.9856152832508087e-03" rms="3.1360813975334167e-01" purity="4.5753508806228638e-01" nType="0">
            <Node pos="l" depth="3" NCoef="0" IVar="11" Cut="1.0386849641799927e+00" cType="1" res="-9.0733757242560387e-03" rms="3.1006678938865662e-01" purity="3.1678235530853271e-01" nType="0">
              <Node pos="l" depth="4" NCoef="0" IVar="-1" Cut="0.0000000000000000e+00" cType="1" res="-4.9873767420649529e-04" rms="3.3349007368087769e-01" purity="4.1830059885978699e-01" nType="-99"/>
              <Node pos="r" depth="4" NCoef="0" IVar="-1" Cut="0.0000000000000000e+00" cType="1" res="-2.2066565230488777e-02" rms="2.7985426783561707e-01" purity="1.9799038767814636e-01" nType="-99"/>
            </Node>
            <Node pos="r" depth="3" NCoef="0" IVar="0" Cut="7.3333334922790527e+00" cType="1" res="5.9104594402015209e-04" rms="3.1561547517776489e-01" purity="5.4022967815399170e-01" nType="0">
              <Node pos="l" depth="4" NCoef="0" IVar="-1" Cut="0.0000000000000000e+00" cType="1" res="3.6624502390623093e-03" rms="3.1270185112953186e-01" purity="5.8408063650131226e-01" nType="-99"/>
              <Node pos="r" depth="4" NCoef="0" IVar="-1" Cut="0.0000000000000000e+00" cType="1" res="-1.0075522586703300e-02" rms="3.2605063915252686e-01" purity="3.7565886974334717e-01" nType="-99"/>
            </Node>
          </Node>
        </Node>
        <Node pos="r" depth="1" NCoef="0" IVar="15" Cut="3.0571193695068359e+00" cType="1" res="6.8690715124830604e-04" rms="3.2093745470046997e-01" purity="5.2754163742065430e-01" nType="0">
          <Node pos="l" depth="2" NCoef="0" IVar="15" Cut="1.1789784431457520e+00" cType="1" res="1.1573968222364783e-03" rms="3.2128971815109253e-01" purity="5.2830862998962402e-01" nType="0">
            <Node pos="l" depth="3" NCoef="0" IVar="11" Cut="9.5311790704727173e-01" cType="1" res="-3.1051328405737877e-03" rms="3.4473246335983276e-01" purity="4.7653681039810181e-01" nType="0">
              <Node pos="l" depth="4" NCoef="0" IVar="-1" Cut="0.0000000000000000e+00" cType="1" res="5.1340204663574696e-03" rms="3.4820821881294250e-01" purity="6.9930052757263184e-01" nType="-99"/>
              <Node pos="r" depth="4" NCoef="0" IVar="-1" Cut="0.0000000000000000e+00" cType="1" res="-7.7610188163816929e-03" rms="3.4228503704071045e-01" purity="3.3038532733917236e-01" nType="-99"/>
            </Node>
            <Node pos="r" depth="3" NCoef="0" IVar="10" Cut="1.1677993750000000e+05" cType="1" res="2.3732658009976149e-03" rms="3.1427180767059326e-01" purity="5.4307633638381958e-01" nType="0">
              <Node pos="l" depth="4" NCoef="0" IVar="-1" Cut="0.0000000000000000e+00" cType="1" res="4.8231878317892551e-03" rms="3.2638111710548401e-01" purity="5.1656103134155273e-01" nType="-99"/>
              <Node pos="r" depth="4" NCoef="0" IVar="-1" Cut="0.0000000000000000e+00" cType="1" res="-6.2589405570179224e-04" rms="3.0210357904434204e-01" purity="5.6864929199218750e-01" nType="-99"/>
            </Node>
          </Node>
          <Node pos="r" depth="2" NCoef="0" IVar="-1" Cut="0.0000000000000000e+00" cType="1" res="-7.6265390962362289e-03" rms="3.1447884440422058e-01" purity="5.1387870311737061e-01" nType="-99"/>
        </Node>
      </Node>
    </BinaryTree>
    <BinaryTree type="DecisionTree" boostWeight="1.0000000000000000e+00" itree="221">
      <Node pos="s" depth="0" NCoef="0" IVar="12" Cut="3.9472987651824951e+00" cType="1" res="-5.3937051234242972e-06" rms="3.3798953890800476e-01" purity="5.0000000000000000e-01" nType="0">
        <Node pos="l" depth="1" NCoef="0" IVar="12" Cut="3.7686367034912109e+00" cType="1" res="-7.8047058195807040e-05" rms="3.3847928047180176e-01" purity="5.0248736143112183e-01" nType="0">
          <Node pos="l" depth="2" NCoef="0" IVar="13" Cut="3.7529449462890625e+00" cType="1" res="4.5861106627853587e-05" rms="3.3892691135406494e-01" purity="5.0348585844039917e-01" nType="0">
            <Node pos="l" depth="3" NCoef="0" IVar="14" Cut="3.3399713039398193e+00" cType="1" res="-1.1090045882156119e-04" rms="3.3867764472961426e-01" purity="5.0488686561584473e-01" nType="0">
              <Node pos="l" depth="4" NCoef="0" IVar="-1" Cut="0.0000000000000000e+00" cType="1" res="2.2874903152114712e-05" rms="3.3870705962181091e-01" purity="5.0663030147552490e-01" nType="-99"/>
              <Node pos="r" depth="4" NCoef="0" IVar="-1" Cut="0.0000000000000000e+00" cType="1" res="-8.4757767617702484e-03" rms="3.3649963140487671e-01" purity="3.8434073328971863e-01" nType="-99"/>
            </Node>
            <Node pos="r" depth="3" NCoef="0" IVar="-1" Cut="0.0000000000000000e+00" cType="1" res="6.4921099692583084e-03" rms="3.5147768259048462e-01" purity="4.3105566501617432e-01" nType="-99"/>
          </Node>
          <Node pos="r" depth="2" NCoef="0" IVar="-1" Cut="0.0000000000000000e+00" cType="1" res="-1.0034775361418724e-02" rms="2.9743859171867371e-01" purity="4.1692295670509338e-01" nType="-99"/>
        </Node>
        <Node pos="r" depth="1" NCoef="0" IVar="-1" Cut="0.0000000000000000e+00" cType="1" res="3.8318829610943794e-03" rms="3.1001192331314087e-01" purity="3.6399823427200317e-01" nType="-99"/>
      </Node>
    </BinaryTree>
    <BinaryTree type="DecisionTree" boostWeight="1.0000000000000000e+00" itree="222">
      <Node pos="s" depth="0" NCoef="0" IVar="14" Cut="1.2873336076736450e+00" cType="1" res="-4.3215891309955623e-06" rms="3.3798563480377197e-01" purity="5.0000000000000000e-01" nType="0">
        <Node pos="l" depth="1" NCoef="0" IVar="20" Cut="6.9249031250000000e+04" cType="1" res="-8.6049688979983330e-04" rms="3.4993952512741089e-01" purity="4.4710662961006165e-01" nType="0">
          <Node pos="l" depth="2" NCoef="0" IVar="17" Cut="5.6186968750000000e+04" cType="1" res="-2.7321078814566135e-03" rms="3.7823784351348877e-01" purity="5.5751568078994751e-01" nType="0">
            <Node pos="l" depth="3" NCoef="0" IVar="2" Cut="4.7338871875000000e+05" cType="1" res="-3.6282892688177526e-04" rms="3.7588265538215637e-01" purity="5.7115709781646729e-01" nType="0">
              <Node pos="l" depth="4" NCoef="0" IVar="-1" Cut="0.0000000000000000e+00" cType="1" res="1.5787342563271523e-03" rms="3.7590578198432922e-01" purity="5.9042203426361084e-01" nType="-99"/>
              <Node pos="r" depth="4" NCoef="0" IVar="-1" Cut="0.0000000000000000e+00" cType="1" res="-1.2290230952203274e-02" rms="3.7519353628158569e-01" purity="4.3867427110671997e-01" nType="-99"/>
            </Node>
            <Node pos="r" depth="3" NCoef="0" IVar="20" Cut="4.8580792968750000e+04" cType="1" res="-1.5707900747656822e-02" rms="3.9063006639480591e-01" purity="4.8280572891235352e-01" nType="0">
              <Node pos="l" depth="4" NCoef="0" IVar="-1" Cut="0.0000000000000000e+00" cType="1" res="-2.1743169054389000e-02" rms="3.8397818803787231e-01" purity="5.1148283481597900e-01" nType="-99"/>
              <Node pos="r" depth="4" NCoef="0" IVar="-1" Cut="0.0000000000000000e+00" cType="1" res="7.7059860341250896e-03" rms="4.0003451704978943e-01" purity="4.3469512462615967e-01" nType="-99"/>
            </Node>
          </Node>
          <Node pos="r" depth="2" NCoef="0" IVar="14" Cut="1.1040519475936890e+00" cType="1" res="4.7298232093453407e-03" rms="2.4671287834644318e-01" purity="1.1732556670904160e-01" nType="0">
            <Node pos="l" depth="3" NCoef="0" IVar="1" Cut="7.9088960937500000e+04" cType="1" res="9.6097122877836227e-03" rms="2.5587832927703857e-01" purity="1.2679840624332428e-01" nType="0">
              <Node pos="l" depth="4" NCoef="0" IVar="-1" Cut="0.0000000000000000e+00" cType="1" res="2.3810775950551033e-02" rms="2.6080307364463806e-01" purity="1.3514213263988495e-01" nType="-99"/>
              <Node pos="r" depth="4" NCoef="0" IVar="-1" Cut="0.0000000000000000e+00" cType="1" res="-6.2544052489101887e-03" rms="2.4320784211158752e-01" purity="1.0690661519765854e-01" nType="-99"/>
            </Node>
            <Node pos="r" depth="3" NCoef="0" IVar="-1" Cut="0.0000000000000000e+00" cType="1" res="-1.7748601734638214e-02" rms="2.1643441915512085e-01" purity="8.9069388806819916e-02" nType="-99"/>
          </Node>
        </Node>
        <Node pos="r" depth="1" NCoef="0" IVar="0" Cut="1.3333333730697632e+00" cType="1" res="2.8672700864262879e-04" rms="3.3382403850555420e-01" purity="5.1798057556152344e-01" nType="0">
          <Node pos="l" depth="2" NCoef="0" IVar="4" Cut="2.4117856250000000e+05" cType="1" res="0.0000000000000000e+00" rms="0.0000000000000000e+00" purity="3.8739576935768127e-01" nType="0">
            <Node pos="l" depth="3" NCoef="0" IVar="4" Cut="1.7872981250000000e+05" cType="1" res="0.0000000000000000e+00" rms="0.0000000000000000e+00" purity="3.5871684551239014e-01" nType="0">
              <Node pos="l" depth="4" NCoef="0" IVar="-1" Cut="0.0000000000000000e+00" cType="1" res="3.6763777025043964e-03" rms="3.9656227827072144e-01" purity="3.0963203310966492e-01" nType="-99"/>
              <Node pos="r" depth="4" NCoef="0" IVar="-1" Cut="0.0000000000000000e+00" cType="1" res="-1.8868457525968552e-02" rms="3.7327292561531067e-01" purity="3.9617499709129333e-01" nType="-99"/>
            </Node>
            <Node pos="r" depth="3" NCoef="0" IVar="6" Cut="1.5792426562500000e+05" cType="1" res="0.0000000000000000e+00" rms="0.0000000000000000e+00" purity="3.9960139989852905e-01" nType="0">
              <Node pos="l" depth="4" NCoef="0" IVar="-1" Cut="0.0000000000000000e+00" cType="1" res="-1.1825157329440117e-02" rms="3.7759315967559814e-01" purity="4.3225592374801636e-01" nType="-99"/>
              <Node pos="r" depth="4" NCoef="0" IVar="-1" Cut="0.0000000000000000e+00" cType="1" res="6.0845850966870785e-03" rms="3.1132709980010986e-01" purity="3.9087048172950745e-01" nType="-99"/>
            </Node>
          </Node>
          <Node pos="r" depth="2" NCoef="0" IVar="12" Cut="2.0714859962463379e+00" cType="1" res="7.8450737055391073e-04" rms="3.3236873149871826e-01" purity="5.3500711917877197e-01" nType="0">
            <Node pos="l" depth="3" NCoef="0" IVar="14" Cut="2.5213878154754639e+00" cType="1" res="3.6663759965449572e-03" rms="3.5695153474807739e-01" purity="3.9172238111495972e-01" nType="0">
              <Node pos="l" depth="4" NCoef="0" IVar="-1" Cut="0.0000000000000000e+00" cType="1" res="6.1051514931023121e-03" rms="3.6191281676292419e-01" purity="4.2211559414863586e-01" nType="-99"/>
              <Node pos="r" depth="4" NCoef="0" IVar="-1" Cut="0.0000000000000000e+00" cType="1" res="-4.7357524745166302e-03" rms="3.4617286920547485e-01" purity="3.2833287119865417e-01" nType="-99"/>
            </Node>
            <Node pos="r" depth="3" NCoef="0" IVar="0" Cut="2.2857143878936768e+00" cType="1" res="5.2906502787664067e-06" rms="3.2539871335029602e-01" purity="5.7374930381774902e-01" nType="0">
              <Node pos="l" depth="4" NCoef="0" IVar="-1" Cut="0.0000000000000000e+00" cType="1" res="4.9573257565498352e-03" rms="3.4336104989051819e-01" purity="5.7102543115615845e-01" nType="-99"/>
              <Node pos="r" depth="4" NCoef="0" IVar="-1" Cut="0.0000000000000000e+00" cType="1" res="-9.3992386246100068e-04" rms="3.2229197025299072e-01" purity="5.7420384883880615e-01" nType="-99"/>
            </Node>
          </Node>
        </Node>
      </Node>
    </BinaryTree>
    <BinaryTree type="DecisionTree" boostWeight="1.0000000000000000e+00" itree="223">
      <Node pos="s" depth="0" NCoef="0" IVar="0" Cut="4.3333334922790527e+00" cType="1" res="-4.7364087549794931e-06" rms="3.3793357014656067e-01" purity="5.0000000000000000e-01" nType="0">
        <Node pos="l" depth="1" NCoef="0" IVar="17" Cut="3.0076831250000000e+05" cType="1" res="-6.6095660440623760e-04" rms="3.3620715141296387e-01" purity="5.4931610822677612e-01" nType="0">
          <Node pos="l" depth="2" NCoef="0" IVar="17" Cut="2.8207181640625000e+04" cType="1" res="-1.4566161553375423e-04" rms="3.3810472488403320e-01" purity="5.5828541517257690e-01" nType="0">
            <Node pos="l" depth="3" NCoef="0" IVar="5" Cut="1.1241382812500000e+05" cType="1" res="-4.9600666388869286e-03" rms="3.4091952443122864e-01" purity="5.4657638072967529e-01" nType="0">
              <Node pos="l" depth="4" NCoef="0" IVar="-1" Cut="0.0000000000000000e+00" cType="1" res="-1.0219094110652804e-03" rms="3.4436637163162231e-01" purity="5.6899750232696533e-01" nType="-99"/>
              <Node pos="r" depth="4" NCoef="0" IVar="-1" Cut="0.0000000000000000e+00" cType="1" res="-1.8660541623830795e-02" rms="3.2464122772216797e-01" purity="4.4685477018356323e-01" nType="-99"/>
            </Node>
            <Node pos="r" depth="3" NCoef="0" IVar="13" Cut="3.2176606655120850e+00" cType="1" res="2.0341211929917336e-03" rms="3.3679991960525513e-01" purity="5.6358683109283447e-01" nType="0">
              <Node pos="l" depth="4" NCoef="0" IVar="-1" Cut="0.0000000000000000e+00" cType="1" res="4.1317674913443625e-04" rms="3.3595964312553406e-01" purity="5.5581080913543701e-01" nType="-99"/>
              <Node pos="r" depth="4" NCoef="0" IVar="-1" Cut="0.0000000000000000e+00" cType="1" res="1.1831256560981274e-02" rms="3.4302964806556702e-01" purity="6.2410581111907959e-01" nType="-99"/>
            </Node>
          </Node>
          <Node pos="r" depth="2" NCoef="0" IVar="-1" Cut="0.0000000000000000e+00" cType="1" res="-3.0732041224837303e-02" rms="2.5401836633682251e-01" purity="2.1197748184204102e-01" nType="-99"/>
        </Node>
        <Node pos="r" depth="1" NCoef="0" IVar="0" Cut="5.1428570747375488e+00" cType="1" res="4.7186549636535347e-04" rms="3.3918112516403198e-01" purity="4.6418255567550659e-01" nType="0">
          <Node pos="l" depth="2" NCoef="0" IVar="11" Cut="1.1744242906570435e+00" cType="1" res="0.0000000000000000e+00" rms="0.0000000000000000e+00" purity="8.6771208047866821e-01" nType="0">
            <Node pos="l" depth="3" NCoef="0" IVar="-1" Cut="0.0000000000000000e+00" cType="1" res="1.8338011577725410e-02" rms="2.1816098690032959e-01" purity="9.3934237957000732e-01" nType="-99"/>
            <Node pos="r" depth="3" NCoef="0" IVar="-1" Cut="0.0000000000000000e+00" cType="1" res="-3.5709345247596502e-03" rms="3.3069232106208801e-01" purity="7.3409742116928101e-01" nType="-99"/>
          </Node>
          <Node pos="r" depth="2" NCoef="0" IVar="12" Cut="3.4113523960113525e+00" cType="1" res="-1.2385830632410944e-04" rms="3.4778407216072083e-01" purity="4.1214406490325928e-01" nType="0">
            <Node pos="l" depth="3" NCoef="0" IVar="21" Cut="1.3343881250000000e+05" cType="1" res="-8.2321825902909040e-04" rms="3.4925878047943115e-01" purity="4.1604068875312805e-01" nType="0">
              <Node pos="l" depth="4" NCoef="0" IVar="-1" Cut="0.0000000000000000e+00" cType="1" res="-1.1659490410238504e-03" rms="3.5742011666297913e-01" purity="4.1880261898040771e-01" nType="-99"/>
              <Node pos="r" depth="4" NCoef="0" IVar="-1" Cut="0.0000000000000000e+00" cType="1" res="1.1852339841425419e-02" rms="2.4846471846103668e-01" purity="3.8722163438796997e-01" nType="-99"/>
            </Node>
            <Node pos="r" depth="3" NCoef="0" IVar="12" Cut="3.7559113502502441e+00" cType="1" res="7.4128271080553532e-03" rms="3.3138218522071838e-01" purity="3.7015232443809509e-01" nType="0">
              <Node pos="l" depth="4" NCoef="0" IVar="-1" Cut="0.0000000000000000e+00" cType="1" res="1.3033946044743061e-02" rms="3.4274184703826904e-01" purity="4.1225376725196838e-01" nType="-99"/>
              <Node pos="r" depth="4" NCoef="0" IVar="-1" Cut="0.0000000000000000e+00" cType="1" res="-4.5846179127693176e-03" rms="3.1251055002212524e-01" purity="3.0470556020736694e-01" nType="-99"/>
            </Node>
          </Node>
        </Node>
      </Node>
    </BinaryTree>
    <BinaryTree type="DecisionTree" boostWeight="1.0000000000000000e+00" itree="224">
      <Node pos="s" depth="0" NCoef="0" IVar="13" Cut="1.9197735786437988e+00" cType="1" res="-2.4744770144025097e-06" rms="3.3789658546447754e-01" purity="5.0000000000000000e-01" nType="0">
        <Node pos="l" depth="1" NCoef="0" IVar="15" Cut="7.4403738975524902e-01" cType="1" res="9.1063964646309614e-04" rms="3.2523015141487122e-01" purity="2.5426813960075378e-01" nType="0">
          <Node pos="l" depth="2" NCoef="0" IVar="-1" Cut="0.0000000000000000e+00" cType="1" res="9.2577282339334488e-03" rms="3.5593146085739136e-01" purity="3.1979778409004211e-01" nType="-99"/>
          <Node pos="r" depth="2" NCoef="0" IVar="10" Cut="4.7164730468750000e+04" cType="1" res="5.7656427088659257e-05" rms="3.2267254590988159e-01" purity="2.4910692870616913e-01" nType="0">
            <Node pos="l" depth="3" NCoef="0" IVar="6" Cut="1.1146248437500000e+05" cType="1" res="3.7377888802438974e-03" rms="3.4775358438491821e-01" purity="2.7280026674270630e-01" nType="0">
              <Node pos="l" depth="4" NCoef="0" IVar="-1" Cut="0.0000000000000000e+00" cType="1" res="-2.7944440953433514e-03" rms="3.6026456952095032e-01" purity="3.0180335044860840e-01" nType="-99"/>
              <Node pos="r" depth="4" NCoef="0" IVar="-1" Cut="0.0000000000000000e+00" cType="1" res="1.1303894221782684e-02" rms="3.3301135897636414e-01" purity="2.4040023982524872e-01" nType="-99"/>
            </Node>
            <Node pos="r" depth="3" NCoef="0" IVar="1" Cut="1.0835192968750000e+05" cType="1" res="-2.7611034456640482e-03" rms="3.0202648043632507e-01" purity="2.3095929622650146e-01" nType="0">
              <Node pos="l" depth="4" NCoef="0" IVar="-1" Cut="0.0000000000000000e+00" cType="1" res="-1.8040424038190395e-04" rms="2.9931265115737915e-01" purity="2.2301095724105835e-01" nType="-99"/>
              <Node pos="r" depth="4" NCoef="0" IVar="-1" Cut="0.0000000000000000e+00" cType="1" res="-1.5087021514773369e-02" rms="3.1481543183326721e-01" purity="2.7034386992454529e-01" nType="-99"/>
            </Node>
          </Node>
        </Node>
        <Node pos="r" depth="1" NCoef="0" IVar="0" Cut="6.3333334922790527e+00" cType="1" res="-3.1837768619880080e-04" rms="3.4216898679733276e-01" purity="5.8501398563385010e-01" nType="0">
          <Node pos="l" depth="2" NCoef="0" IVar="6" Cut="1.7834171875000000e+05" cType="1" res="-1.1573915835469961e-03" rms="3.2995364069938660e-01" purity="6.5647989511489868e-01" nType="0">
            <Node pos="l" depth="3" NCoef="0" IVar="21" Cut="1.1101292968750000e+05" cType="1" res="-4.4418079778552055e-03" rms="3.5723000764846802e-01" purity="6.6639888286590576e-01" nType="0">
              <Node pos="l" depth="4" NCoef="0" IVar="-1" Cut="0.0000000000000000e+00" cType="1" res="-5.1089515909552574e-03" rms="3.5790401697158813e-01" purity="6.6699689626693726e-01" nType="-99"/>
              <Node pos="r" depth="4" NCoef="0" IVar="-1" Cut="0.0000000000000000e+00" cType="1" res="1.4388937503099442e-02" rms="3.4997704625129700e-01" purity="6.6073715686798096e-01" nType="-99"/>
            </Node>
            <Node pos="r" depth="3" NCoef="0" IVar="12" Cut="1.8574373722076416e+00" cType="1" res="2.6813342701643705e-03" rms="2.9484707117080688e-01" purity="6.4488685131072998e-01" nType="0">
              <Node pos="l" depth="4" NCoef="0" IVar="-1" Cut="0.0000000000000000e+00" cType="1" res="-2.0843226462602615e-02" rms="3.1254449486732483e-01" purity="3.8840532302856445e-01" nType="-99"/>
              <Node pos="r" depth="4" NCoef="0" IVar="-1" Cut="0.0000000000000000e+00" cType="1" res="4.5231026597321033e-03" rms="2.9385411739349365e-01" purity="6.5793836116790771e-01" nType="-99"/>
            </Node>
          </Node>
          <Node pos="r" depth="2" NCoef="0" IVar="11" Cut="8.5603642463684082e-01" cType="1" res="1.0562750976532698e-03" rms="3.6128699779510498e-01" purity="4.6792325377464294e-01" nType="0">
            <Node pos="l" depth="3" NCoef="0" IVar="7" Cut="5.5484273437500000e+04" cType="1" res="-3.6510741338133812e-03" rms="3.6487376689910889e-01" purity="6.1488461494445801e-01" nType="0">
              <Node pos="l" depth="4" NCoef="0" IVar="-1" Cut="0.0000000000000000e+00" cType="1" res="1.1815872276201844e-03" rms="3.6695140600204468e-01" purity="6.8556046485900879e-01" nType="-99"/>
              <Node pos="r" depth="4" NCoef="0" IVar="-1" Cut="0.0000000000000000e+00" cType="1" res="-9.0844267979264259e-03" rms="3.6138615012168884e-01" purity="5.0259649753570557e-01" nType="-99"/>
            </Node>
            <Node pos="r" depth="3" NCoef="0" IVar="12" Cut="3.5102229118347168e+00" cType="1" res="4.0714936330914497e-03" rms="3.5893830657005310e-01" purity="3.7378945946693420e-01" nType="0">
              <Node pos="l" depth="4" NCoef="0" IVar="-1" Cut="0.0000000000000000e+00" cType="1" res="4.3912208639085293e-03" rms="3.6375740170478821e-01" purity="3.8701638579368591e-01" nType="-99"/>
              <Node pos="r" depth="4" NCoef="0" IVar="-1" Cut="0.0000000000000000e+00" cType="1" res="-1.2782308273017406e-02" rms="3.1252208352088928e-01" purity="2.5676006078720093e-01" nType="-99"/>
            </Node>
          </Node>
        </Node>
      </Node>
    </BinaryTree>
    <BinaryTree type="DecisionTree" boostWeight="1.0000000000000000e+00" itree="225">
      <Node pos="s" depth="0" NCoef="0" IVar="12" Cut="3.9472987651824951e+00" cType="1" res="-1.8672076294024009e-06" rms="3.3784765005111694e-01" purity="5.0000000000000000e-01" nType="0">
        <Node pos="l" depth="1" NCoef="0" IVar="11" Cut="5.6725192070007324e-01" cType="1" res="-8.2507736806292087e-05" rms="3.3833795785903931e-01" purity="5.0248736143112183e-01" nType="0">
          <Node pos="l" depth="2" NCoef="0" IVar="14" Cut="1.9831290245056152e+00" cType="1" res="1.7132683424279094e-03" rms="3.1933912634849548e-01" purity="6.9193804264068604e-01" nType="0">
            <Node pos="l" depth="3" NCoef="0" IVar="16" Cut="2.2265455722808838e+00" cType="1" res="6.3872463069856167e-03" rms="3.3808705210685730e-01" purity="6.7252016067504883e-01" nType="0">
              <Node pos="l" depth="4" NCoef="0" IVar="-1" Cut="0.0000000000000000e+00" cType="1" res="2.6643867604434490e-03" rms="3.2451137900352478e-01" purity="7.0238083600997925e-01" nType="-99"/>
              <Node pos="r" depth="4" NCoef="0" IVar="-1" Cut="0.0000000000000000e+00" cType="1" res="1.4436786063015461e-02" rms="3.9725336432456970e-01" purity="5.2702373266220093e-01" nType="-99"/>
            </Node>
            <Node pos="r" depth="3" NCoef="0" IVar="16" Cut="2.3435478210449219e+00" cType="1" res="-2.3057470098137856e-03" rms="3.0223220586776733e-01" purity="7.0863497257232666e-01" nType="0">
              <Node pos="l" depth="4" NCoef="0" IVar="-1" Cut="0.0000000000000000e+00" cType="1" res="1.4542599674314260e-03" rms="2.9379165172576904e-01" purity="7.7666950225830078e-01" nType="-99"/>
              <Node pos="r" depth="4" NCoef="0" IVar="-1" Cut="0.0000000000000000e+00" cType="1" res="-1.8515678122639656e-02" rms="3.4858107566833496e-01" purity="2.9291519522666931e-01" nType="-99"/>
            </Node>
          </Node>
          <Node pos="r" depth="2" NCoef="0" IVar="12" Cut="1.2153432369232178e+00" cType="1" res="-5.3694797679781914e-04" rms="3.4297749400138855e-01" purity="4.5454487204551697e-01" nType="0">
            <Node pos="l" depth="3" NCoef="0" IVar="11" Cut="7.8021246194839478e-01" cType="1" res="8.7766069918870926e-03" rms="3.5805615782737732e-01" purity="2.6370429992675781e-01" nType="0">
              <Node pos="l" depth="4" NCoef="0" IVar="-1" Cut="0.0000000000000000e+00" cType="1" res="-8.9356413809582591e-04" rms="3.4710627794265747e-01" purity="2.3439913988113403e-01" nType="-99"/>
              <Node pos="r" depth="4" NCoef="0" IVar="-1" Cut="0.0000000000000000e+00" cType="1" res="1.5248766168951988e-02" rms="3.7019822001457214e-01" purity="2.9821699857711792e-01" nType="-99"/>
            </Node>
            <Node pos="r" depth="3" NCoef="0" IVar="12" Cut="1.8658341169357300e+00" cType="1" res="-8.0958363832905889e-04" rms="3.4252226352691650e-01" purity="4.6013134717941284e-01" nType="0">
              <Node pos="l" depth="4" NCoef="0" IVar="-1" Cut="0.0000000000000000e+00" cType="1" res="-3.5814654547721148e-03" rms="3.5722976922988892e-01" purity="3.7884548306465149e-01" nType="-99"/>
              <Node pos="r" depth="4" NCoef="0" IVar="-1" Cut="0.0000000000000000e+00" cType="1" res="-2.5074472068808973e-04" rms="3.4062227606773376e-01" purity="4.7036492824554443e-01" nType="-99"/>
            </Node>
          </Node>
        </Node>
        <Node pos="r" depth="1" NCoef="0" IVar="-1" Cut="0.0000000000000000e+00" cType="1" res="4.2705307714641094e-03" rms="3.0982938408851624e-01" purity="3.6399823427200317e-01" nType="-99"/>
      </Node>
    </BinaryTree>
    <BinaryTree type="DecisionTree" boostWeight="1.0000000000000000e+00" itree="226">
      <Node pos="s" depth="0" NCoef="0" IVar="13" Cut="2.7425336837768555e+00" cType="1" res="-1.9361436898179818e-06" rms="3.3783224225044250e-01" purity="5.0000000000000000e-01" nType="0">
        <Node pos="l" depth="1" NCoef="0" IVar="10" Cut="1.7524593750000000e+05" cType="1" res="4.5735074672847986e-04" rms="3.3744290471076965e-01" purity="4.1426411271095276e-01" nType="0">
          <Node pos="l" depth="2" NCoef="0" IVar="9" Cut="1.7430968750000000e+05" cType="1" res="1.3296887045726180e-03" rms="3.4318128228187561e-01" purity="4.2466828227043152e-01" nType="0">
            <Node pos="l" depth="3" NCoef="0" IVar="20" Cut="5.3272171875000000e+04" cType="1" res="5.1137636182829738e-04" rms="3.5063523054122925e-01" purity="4.3754026293754578e-01" nType="0">
              <Node pos="l" depth="4" NCoef="0" IVar="-1" Cut="0.0000000000000000e+00" cType="1" res="2.2111202124506235e-03" rms="3.6902293562889099e-01" purity="5.2954697608947754e-01" nType="-99"/>
              <Node pos="r" depth="4" NCoef="0" IVar="-1" Cut="0.0000000000000000e+00" cType="1" res="-4.6262782998383045e-03" rms="3.1139570474624634e-01" purity="2.5720754265785217e-01" nType="-99"/>
            </Node>
            <Node pos="r" depth="3" NCoef="0" IVar="14" Cut="1.7135117053985596e+00" cType="1" res="7.4928747490048409e-03" rms="2.8067699074745178e-01" purity="3.2772186398506165e-01" nType="0">
              <Node pos="l" depth="4" NCoef="0" IVar="-1" Cut="0.0000000000000000e+00" cType="1" res="1.9851559773087502e-02" rms="2.9267206788063049e-01" purity="2.9238408803939819e-01" nType="-99"/>
              <Node pos="r" depth="4" NCoef="0" IVar="-1" Cut="0.0000000000000000e+00" cType="1" res="1.3811008539050817e-03" rms="2.7100914716720581e-01" purity="3.5463315248489380e-01" nType="-99"/>
            </Node>
          </Node>
          <Node pos="r" depth="2" NCoef="0" IVar="2" Cut="8.2697550000000000e+05" cType="1" res="-8.0048553645610809e-03" rms="2.7550175786018372e-01" purity="3.1333717703819275e-01" nType="0">
            <Node pos="l" depth="3" NCoef="0" IVar="13" Cut="2.3692548274993896e+00" cType="1" res="-1.4131779782474041e-02" rms="2.9782542586326599e-01" purity="4.0293070673942566e-01" nType="0">
              <Node pos="l" depth="4" NCoef="0" IVar="-1" Cut="0.0000000000000000e+00" cType="1" res="-4.3872587382793427e-02" rms="2.6085644960403442e-01" purity="1.9252224266529083e-01" nType="-99"/>
              <Node pos="r" depth="4" NCoef="0" IVar="-1" Cut="0.0000000000000000e+00" cType="1" res="-5.7303071953356266e-03" rms="3.1328797340393066e-01" purity="5.0140428543090820e-01" nType="-99"/>
            </Node>
            <Node pos="r" depth="3" NCoef="0" IVar="-1" Cut="0.0000000000000000e+00" cType="1" res="7.1362447924911976e-03" rms="2.2540737688541412e-01" purity="1.3918761909008026e-01" nType="-99"/>
          </Node>
        </Node>
        <Node pos="r" depth="1" NCoef="0" IVar="12" Cut="2.4422659873962402e+00" cType="1" res="-6.5768457716330886e-04" rms="3.3838626742362976e-01" purity="6.2240970134735107e-01" nType="0">
          <Node pos="l" depth="2" NCoef="0" IVar="4" Cut="2.0391698437500000e+05" cType="1" res="4.2563746683299541e-03" rms="3.6736032366752625e-01" purity="5.6570661067962646e-01" nType="0">
            <Node pos="l" depth="3" NCoef="0" IVar="5" Cut="4.2509226562500000e+04" cType="1" res="-1.5706190839409828e-02" rms="4.0521049499511719e-01" purity="5.5780905485153198e-01" nType="0">
              <Node pos="l" depth="4" NCoef="0" IVar="-1" Cut="0.0000000000000000e+00" cType="1" res="-1.2788546271622181e-02" rms="3.9733299612998962e-01" purity="5.1321613788604736e-01" nType="-99"/>
              <Node pos="r" depth="4" NCoef="0" IVar="-1" Cut="0.0000000000000000e+00" cType="1" res="-6.1642145738005638e-03" rms="4.1175696253776550e-01" purity="5.9593987464904785e-01" nType="-99"/>
            </Node>
            <Node pos="r" depth="3" NCoef="0" IVar="13" Cut="3.1246924400329590e+00" cType="1" res="1.0520908981561661e-02" rms="3.5441893339157104e-01" purity="5.6818503141403198e-01" nType="0">
              <Node pos="l" depth="4" NCoef="0" IVar="-1" Cut="0.0000000000000000e+00" cType="1" res="1.3801106251776218e-03" rms="3.5044485330581665e-01" purity="5.8322447538375854e-01" nType="-99"/>
              <Node pos="r" depth="4" NCoef="0" IVar="-1" Cut="0.0000000000000000e+00" cType="1" res="2.3104803636670113e-02" rms="3.6255484819412231e-01" purity="5.3377425670623779e-01" nType="-99"/>
            </Node>
          </Node>
          <Node pos="r" depth="2" NCoef="0" IVar="11" Cut="2.4260652065277100e+00" cType="1" res="-2.1067552734166384e-03" rms="3.2934206724166870e-01" purity="6.3913047313690186e-01" nType="0">
            <Node pos="l" depth="3" NCoef="0" IVar="11" Cut="2.0824062824249268e+00" cType="1" res="-2.7714888565242290e-03" rms="3.3076643943786621e-01" purity="6.6001421213150024e-01" nType="0">
              <Node pos="l" depth="4" NCoef="0" IVar="-1" Cut="0.0000000000000000e+00" cType="1" res="-1.7914307536557317e-03" rms="3.3150961995124817e-01" purity="6.7757856845855713e-01" nType="-99"/>
              <Node pos="r" depth="4" NCoef="0" IVar="-1" Cut="0.0000000000000000e+00" cType="1" res="-1.8899140879511833e-02" rms="3.1204423308372498e-01" purity="2.4119558930397034e-01" nType="-99"/>
            </Node>
            <Node pos="r" depth="3" NCoef="0" IVar="-1" Cut="0.0000000000000000e+00" cType="1" res="1.4395416714251041e-02" rms="2.9716002941131592e-01" purity="1.9593858718872070e-01" nType="-99"/>
          </Node>
        </Node>
      </Node>
    </BinaryTree>
    <BinaryTree type="DecisionTree" boostWeight="1.0000000000000000e+00" itree="227">
      <Node pos="s" depth="0" NCoef="0" IVar="14" Cut="2.3136525154113770e+00" cType="1" res="-2.3883872017904650e-06" rms="3.3777299523353577e-01" purity="5.0000000000000000e-01" nType="0">
        <Node pos="l" depth="1" NCoef="0" IVar="3" Cut="5.6822931250000000e+05" cType="1" res="-3.8186926394701004e-04" rms="3.4446731209754944e-01" purity="4.7672402858734131e-01" nType="0">
          <Node pos="l" depth="2" NCoef="0" IVar="3" Cut="6.8672132812500000e+04" cType="1" res="-1.5986873768270016e-04" rms="3.4683215618133545e-01" purity="4.8413401842117310e-01" nType="0">
            <Node pos="l" depth="3" NCoef="0" IVar="9" Cut="3.1068353515625000e+04" cType="1" res="1.6927994787693024e-02" rms="4.0093514323234558e-01" purity="3.9693111181259155e-01" nType="0">
              <Node pos="l" depth="4" NCoef="0" IVar="-1" Cut="0.0000000000000000e+00" cType="1" res="-3.2088428270071745e-03" rms="3.7760776281356812e-01" purity="3.3023649454116821e-01" nType="-99"/>
              <Node pos="r" depth="4" NCoef="0" IVar="-1" Cut="0.0000000000000000e+00" cType="1" res="1.7882864922285080e-02" rms="4.1333997249603271e-01" purity="4.3565073609352112e-01" nType="-99"/>
            </Node>
            <Node pos="r" depth="3" NCoef="0" IVar="3" Cut="9.2457789062500000e+04" cType="1" res="-1.2393725337460637e-03" rms="3.4309932589530945e-01" purity="4.8964291810989380e-01" nType="0">
              <Node pos="l" depth="4" NCoef="0" IVar="-1" Cut="0.0000000000000000e+00" cType="1" res="-1.0355927981436253e-02" rms="3.4801703691482544e-01" purity="3.2835856080055237e-01" nType="-99"/>
              <Node pos="r" depth="4" NCoef="0" IVar="-1" Cut="0.0000000000000000e+00" cType="1" res="-3.9863371057435870e-05" rms="3.4264883399009705e-01" purity="5.0344866514205933e-01" nType="-99"/>
            </Node>
          </Node>
          <Node pos="r" depth="2" NCoef="0" IVar="-1" Cut="0.0000000000000000e+00" cType="1" res="-3.4379072487354279e-02" rms="1.7186084389686584e-01" purity="7.3445126414299011e-02" nType="-99"/>
        </Node>
        <Node pos="r" depth="1" NCoef="0" IVar="15" Cut="1.5711262226104736e+00" cType="1" res="8.2199758617207408e-04" rms="3.2275062799453735e-01" purity="5.5056482553482056e-01" nType="0">
          <Node pos="l" depth="2" NCoef="0" IVar="10" Cut="7.0754992187500000e+04" cType="1" res="-9.4462940469384193e-03" rms="3.3006346225738525e-01" purity="3.4066218137741089e-01" nType="0">
            <Node pos="l" depth="3" NCoef="0" IVar="-1" Cut="0.0000000000000000e+00" cType="1" res="4.6671205200254917e-03" rms="3.4351053833961487e-01" purity="3.7594020366668701e-01" nType="-99"/>
            <Node pos="r" depth="3" NCoef="0" IVar="-1" Cut="0.0000000000000000e+00" cType="1" res="-1.7538120970129967e-02" rms="3.2116281986236572e-01" purity="3.1902003288269043e-01" nType="-99"/>
          </Node>
          <Node pos="r" depth="2" NCoef="0" IVar="12" Cut="3.1433789730072021e+00" cType="1" res="2.0126111339777708e-03" rms="3.2187074422836304e-01" purity="5.7490307092666626e-01" nType="0">
            <Node pos="l" depth="3" NCoef="0" IVar="16" Cut="7.7194941043853760e-01" cType="1" res="3.6932603688910604e-04" rms="3.2327121496200562e-01" purity="5.5808985233306885e-01" nType="0">
              <Node pos="l" depth="4" NCoef="0" IVar="-1" Cut="0.0000000000000000e+00" cType="1" res="9.4537129625678062e-03" rms="2.6241853833198547e-01" purity="8.3600676059722900e-01" nType="-99"/>
              <Node pos="r" depth="4" NCoef="0" IVar="-1" Cut="0.0000000000000000e+00" cType="1" res="-1.6195821808651090e-03" rms="3.4220620989799500e-01" purity="4.5966324210166931e-01" nType="-99"/>
            </Node>
            <Node pos="r" depth="3" NCoef="0" IVar="0" Cut="7.3333334922790527e+00" cType="1" res="9.2104692012071609e-03" rms="3.1556242704391479e-01" purity="6.4854753017425537e-01" nType="0">
              <Node pos="l" depth="4" NCoef="0" IVar="-1" Cut="0.0000000000000000e+00" cType="1" res="3.8121284451335669e-03" rms="3.0128681659698486e-01" purity="6.8782812356948853e-01" nType="-99"/>
              <Node pos="r" depth="4" NCoef="0" IVar="-1" Cut="0.0000000000000000e+00" cType="1" res="2.2992009297013283e-02" rms="3.5871538519859314e-01" purity="5.1673161983489990e-01" nType="-99"/>
            </Node>
          </Node>
        </Node>
      </Node>
    </BinaryTree>
    <BinaryTree type="DecisionTree" boostWeight="1.0000000000000000e+00" itree="228">
      <Node pos="s" depth="0" NCoef="0" IVar="12" Cut="1.2675663232803345e+00" cType="1" res="-2.2451638415077468e-06" rms="3.3773729205131531e-01" purity="5.0000000000000000e-01" nType="0">
        <Node pos="l" depth="1" NCoef="0" IVar="13" Cut="1.3194642066955566e+00" cType="1" res="-2.5346451438963413e-03" rms="3.4548881649971008e-01" purity="2.4588495492935181e-01" nType="0">
          <Node pos="l" depth="2" NCoef="0" IVar="16" Cut="2.5476078987121582e+00" cType="1" res="2.0992124918848276e-03" rms="3.4285819530487061e-01" purity="2.2353658080101013e-01" nType="0">
            <Node pos="l" depth="3" NCoef="0" IVar="12" Cut="9.6973466873168945e-01" cType="1" res="-5.6111924350261688e-03" rms="3.3823165297508240e-01" purity="2.3004804551601410e-01" nType="0">
              <Node pos="l" depth="4" NCoef="0" IVar="-1" Cut="0.0000000000000000e+00" cType="1" res="1.9125458784401417e-03" rms="3.4524634480476379e-01" purity="2.2182929515838623e-01" nType="-99"/>
              <Node pos="r" depth="4" NCoef="0" IVar="-1" Cut="0.0000000000000000e+00" cType="1" res="-1.1861824430525303e-02" rms="3.2949492335319519e-01" purity="2.3976656794548035e-01" nType="-99"/>
            </Node>
            <Node pos="r" depth="3" NCoef="0" IVar="-1" Cut="0.0000000000000000e+00" cType="1" res="1.5212683938443661e-02" rms="3.5178419947624207e-01" purity="2.0993095636367798e-01" nType="-99"/>
          </Node>
          <Node pos="r" depth="2" NCoef="0" IVar="-1" Cut="0.0000000000000000e+00" cType="1" res="-1.0536407120525837e-02" rms="3.5179322957992554e-01" purity="3.0251210927963257e-01" nType="-99"/>
        </Node>
        <Node pos="r" depth="1" NCoef="0" IVar="16" Cut="1.2447643280029297e+00" cType="1" res="1.1789537529693916e-04" rms="3.3736464381217957e-01" purity="5.1205557584762573e-01" nType="0">
          <Node pos="l" depth="2" NCoef="0" IVar="16" Cut="1.0683033466339111e+00" cType="1" res="-6.1934662517160177e-04" rms="3.1475216150283813e-01" purity="6.8605780601501465e-01" nType="0">
            <Node pos="l" depth="3" NCoef="0" IVar="19" Cut="5.0146652343750000e+04" cType="1" res="6.4685568213462830e-04" rms="3.0685067176818848e-01" purity="7.1508359909057617e-01" nType="0">
              <Node pos="l" depth="4" NCoef="0" IVar="-1" Cut="0.0000000000000000e+00" cType="1" res="-1.9486071541905403e-03" rms="3.1346341967582703e-01" purity="7.1202969551086426e-01" nType="-99"/>
              <Node pos="r" depth="4" NCoef="0" IVar="-1" Cut="0.0000000000000000e+00" cType="1" res="6.2233912758529186e-03" rms="2.9344075918197632e-01" purity="7.2104674577713013e-01" nType="-99"/>
            </Node>
            <Node pos="r" depth="3" NCoef="0" IVar="15" Cut="1.0978788137435913e+00" cType="1" res="-6.4213434234261513e-03" rms="3.4861701726913452e-01" purity="5.5305546522140503e-01" nType="0">
              <Node pos="l" depth="4" NCoef="0" IVar="-1" Cut="0.0000000000000000e+00" cType="1" res="6.0649765655398369e-03" rms="3.6350157856941223e-01" purity="5.2871298789978027e-01" nType="-99"/>
              <Node pos="r" depth="4" NCoef="0" IVar="-1" Cut="0.0000000000000000e+00" cType="1" res="-7.7996668405830860e-03" rms="3.4502491354942322e-01" purity="5.5864089727401733e-01" nType="-99"/>
            </Node>
          </Node>
          <Node pos="r" depth="2" NCoef="0" IVar="11" Cut="1.4543087482452393e+00" cType="1" res="7.1745831519365311e-04" rms="3.5469180345535278e-01" purity="3.7054806947708130e-01" nType="0">
            <Node pos="l" depth="3" NCoef="0" IVar="8" Cut="4.7883664062500000e+04" cType="1" res="2.4459089618176222e-03" rms="3.7869596481323242e-01" purity="4.6925520896911621e-01" nType="0">
              <Node pos="l" depth="4" NCoef="0" IVar="-1" Cut="0.0000000000000000e+00" cType="1" res="9.4575392722617835e-05" rms="3.9638417959213257e-01" purity="5.4106050729751587e-01" nType="-99"/>
              <Node pos="r" depth="4" NCoef="0" IVar="-1" Cut="0.0000000000000000e+00" cType="1" res="6.0124555602669716e-03" rms="3.3975836634635925e-01" purity="3.2290652394294739e-01" nType="-99"/>
            </Node>
            <Node pos="r" depth="3" NCoef="0" IVar="11" Cut="1.6249403953552246e+00" cType="1" res="-1.8869894556701183e-03" rms="3.1506916880607605e-01" purity="2.2181513905525208e-01" nType="0">
              <Node pos="l" depth="4" NCoef="0" IVar="-1" Cut="0.0000000000000000e+00" cType="1" res="-1.0015849024057388e-02" rms="3.6082169413566589e-01" purity="3.1517270207405090e-01" nType="-99"/>
              <Node pos="r" depth="4" NCoef="0" IVar="-1" Cut="0.0000000000000000e+00" cType="1" res="6.5230182372033596e-04" rms="3.0450767278671265e-01" purity="2.0217032730579376e-01" nType="-99"/>
            </Node>
          </Node>
        </Node>
      </Node>
    </BinaryTree>
    <BinaryTree type="DecisionTree" boostWeight="1.0000000000000000e+00" itree="229">
      <Node pos="s" depth="0" NCoef="0" IVar="14" Cut="5.1759451627731323e-01" cType="1" res="-1.8941946109407581e-06" rms="3.3770895004272461e-01" purity="5.0000000000000000e-01" nType="0">
        <Node pos="l" depth="1" NCoef="0" IVar="0" Cut="6.3333334922790527e+00" cType="1" res="-2.9040565714240074e-03" rms="3.4797814488410950e-01" purity="4.6852934360504150e-01" nType="0">
          <Node pos="l" depth="2" NCoef="0" IVar="-1" Cut="0.0000000000000000e+00" cType="1" res="-7.7639427036046982e-03" rms="3.4560704231262207e-01" purity="5.2258580923080444e-01" nType="-99"/>
          <Node pos="r" depth="2" NCoef="0" IVar="-1" Cut="0.0000000000000000e+00" cType="1" res="5.0377361476421356e-03" rms="3.5125994682312012e-01" purity="3.8789689540863037e-01" nType="-99"/>
        </Node>
        <Node pos="r" depth="1" NCoef="0" IVar="14" Cut="2.3747518062591553e+00" cType="1" res="8.0746758612804115e-05" rms="3.3741158246994019e-01" purity="5.0089615583419800e-01" nType="0">
          <Node pos="l" depth="2" NCoef="0" IVar="14" Cut="2.2863020896911621e+00" cType="1" res="-3.7327961763367057e-04" rms="3.4348371624946594e-01" purity="4.7936967015266418e-01" nType="0">
            <Node pos="l" depth="3" NCoef="0" IVar="15" Cut="2.7118341922760010e+00" cType="1" res="1.7594482415006496e-05" rms="3.4450542926788330e-01" purity="4.7614035010337830e-01" nType="0">
              <Node pos="l" depth="4" NCoef="0" IVar="-1" Cut="0.0000000000000000e+00" cType="1" res="3.9068397018127143e-04" rms="3.4691041707992554e-01" purity="4.8701944947242737e-01" nType="-99"/>
              <Node pos="r" depth="4" NCoef="0" IVar="-1" Cut="0.0000000000000000e+00" cType="1" res="-5.7478523813188076e-03" rms="3.1284207105636597e-01" purity="3.4021210670471191e-01" nType="-99"/>
            </Node>
            <Node pos="r" depth="3" NCoef="0" IVar="12" Cut="2.4911448955535889e+00" cType="1" res="-7.1061737835407257e-03" rms="3.2530745863914490e-01" purity="5.3499615192413330e-01" nType="0">
              <Node pos="l" depth="4" NCoef="0" IVar="-1" Cut="0.0000000000000000e+00" cType="1" res="-1.4353210106492043e-02" rms="3.3732196688652039e-01" purity="4.2576426267623901e-01" nType="-99"/>
              <Node pos="r" depth="4" NCoef="0" IVar="-1" Cut="0.0000000000000000e+00" cType="1" res="-6.7385546572040766e-05" rms="3.1734463572502136e-01" purity="6.0344654321670532e-01" nType="-99"/>
            </Node>
          </Node>
          <Node pos="r" depth="2" NCoef="0" IVar="14" Cut="2.5184659957885742e+00" cType="1" res="1.1520457919687033e-03" rms="3.2262885570526123e-01" purity="5.5168902873992920e-01" nType="0">
            <Node pos="l" depth="3" NCoef="0" IVar="12" Cut="2.4410827159881592e+00" cType="1" res="6.4770388416945934e-03" rms="3.2775002717971802e-01" purity="5.5851501226425171e-01" nType="0">
              <Node pos="l" depth="4" NCoef="0" IVar="-1" Cut="0.0000000000000000e+00" cType="1" res="1.1999002657830715e-02" rms="3.5462725162506104e-01" purity="4.6528336405754089e-01" nType="-99"/>
              <Node pos="r" depth="4" NCoef="0" IVar="-1" Cut="0.0000000000000000e+00" cType="1" res="6.6539400722831488e-04" rms="3.0935278534889221e-01" purity="6.1765903234481812e-01" nType="-99"/>
            </Node>
            <Node pos="r" depth="3" NCoef="0" IVar="5" Cut="3.1517759375000000e+05" cType="1" res="-2.8975668828934431e-04" rms="3.2121303677558899e-01" purity="5.4984074831008911e-01" nType="0">
              <Node pos="l" depth="4" NCoef="0" IVar="-1" Cut="0.0000000000000000e+00" cType="1" res="1.0349587537348270e-03" rms="3.2510888576507568e-01" purity="5.8279705047607422e-01" nType="-99"/>
              <Node pos="r" depth="4" NCoef="0" IVar="-1" Cut="0.0000000000000000e+00" cType="1" res="-1.3791787438094616e-02" rms="2.8708913922309875e-01" purity="2.8019776940345764e-01" nType="-99"/>
            </Node>
          </Node>
        </Node>
      </Node>
    </BinaryTree>
    <BinaryTree type="DecisionTree" boostWeight="1.0000000000000000e+00" itree="230">
      <Node pos="s" depth="0" NCoef="0" IVar="13" Cut="2.7425336837768555e+00" cType="1" res="-1.6597300600551534e-06" rms="3.3769753575325012e-01" purity="5.0000000000000000e-01" nType="0">
        <Node pos="l" depth="1" NCoef="0" IVar="10" Cut="1.7524593750000000e+05" cType="1" res="4.2322883382439613e-04" rms="3.3732116222381592e-01" purity="4.1426411271095276e-01" nType="0">
          <Node pos="l" depth="2" NCoef="0" IVar="15" Cut="2.4409508705139160e+00" cType="1" res="1.1400072835385799e-03" rms="3.4307962656021118e-01" purity="4.2466828227043152e-01" nType="0">
            <Node pos="l" depth="3" NCoef="0" IVar="1" Cut="1.4024484375000000e+05" cType="1" res="-1.2785931176040322e-04" rms="3.4872254729270935e-01" purity="4.2498716711997986e-01" nType="0">
              <Node pos="l" depth="4" NCoef="0" IVar="-1" Cut="0.0000000000000000e+00" cType="1" res="-7.5108732562512159e-04" rms="3.4822013974189758e-01" purity="4.1744011640548706e-01" nType="-99"/>
              <Node pos="r" depth="4" NCoef="0" IVar="-1" Cut="0.0000000000000000e+00" cType="1" res="7.6190079562366009e-03" rms="3.5437917709350586e-01" purity="5.1290255784988403e-01" nType="-99"/>
            </Node>
            <Node pos="r" depth="3" NCoef="0" IVar="12" Cut="1.7941137552261353e+00" cType="1" res="4.4356994330883026e-03" rms="3.2793453335762024e-01" purity="4.2383939027786255e-01" nType="0">
              <Node pos="l" depth="4" NCoef="0" IVar="-1" Cut="0.0000000000000000e+00" cType="1" res="-2.8358756098896265e-03" rms="3.4663408994674683e-01" purity="2.8325670957565308e-01" nType="-99"/>
              <Node pos="r" depth="4" NCoef="0" IVar="-1" Cut="0.0000000000000000e+00" cType="1" res="6.5460535697638988e-03" rms="3.2130402326583862e-01" purity="4.7149169445037842e-01" nType="-99"/>
            </Node>
          </Node>
          <Node pos="r" depth="2" NCoef="0" IVar="20" Cut="7.1506710937500000e+04" cType="1" res="-6.5299570560455322e-03" rms="2.7518123388290405e-01" purity="3.1333717703819275e-01" nType="0">
            <Node pos="l" depth="3" NCoef="0" IVar="20" Cut="4.7705335937500000e+04" cType="1" res="-1.3528914190828800e-02" rms="3.4935244917869568e-01" purity="5.5870217084884644e-01" nType="0">
              <Node pos="l" depth="4" NCoef="0" IVar="-1" Cut="0.0000000000000000e+00" cType="1" res="-2.8875281568616629e-03" rms="3.5264056921005249e-01" purity="6.4000463485717773e-01" nType="-99"/>
              <Node pos="r" depth="4" NCoef="0" IVar="-1" Cut="0.0000000000000000e+00" cType="1" res="-2.2284576669335365e-02" rms="3.4352469444274902e-01" purity="4.3047511577606201e-01" nType="-99"/>
            </Node>
            <Node pos="r" depth="3" NCoef="0" IVar="0" Cut="4.3333334922790527e+00" cType="1" res="1.0888815158978105e-03" rms="1.5870808064937592e-01" purity="4.6240873634815216e-02" nType="0">
              <Node pos="l" depth="4" NCoef="0" IVar="-1" Cut="0.0000000000000000e+00" cType="1" res="-2.2162856534123421e-02" rms="1.5026907622814178e-01" purity="4.1198227554559708e-02" nType="-99"/>
              <Node pos="r" depth="4" NCoef="0" IVar="-1" Cut="0.0000000000000000e+00" cType="1" res="2.2342117503285408e-02" rms="1.6391199827194214e-01" purity="4.9595616757869720e-02" nType="-99"/>
            </Node>
          </Node>
        </Node>
        <Node pos="r" depth="1" NCoef="0" IVar="12" Cut="2.4422659873962402e+00" cType="1" res="-6.0829584253951907e-04" rms="3.3823326230049133e-01" purity="6.2240970134735107e-01" nType="0">
          <Node pos="l" depth="2" NCoef="0" IVar="19" Cut="1.2535684375000000e+05" cType="1" res="3.7116589955985546e-03" rms="3.6709958314895630e-01" purity="5.6570661067962646e-01" nType="0">
            <Node pos="l" depth="3" NCoef="0" IVar="1" Cut="3.7821125000000000e+04" cType="1" res="-7.5335433939471841e-04" rms="3.6601653695106506e-01" purity="6.0696446895599365e-01" nType="0">
              <Node pos="l" depth="4" NCoef="0" IVar="-1" Cut="0.0000000000000000e+00" cType="1" res="-1.1923891492187977e-02" rms="3.7618824839591980e-01" purity="4.3283486366271973e-01" nType="-99"/>
              <Node pos="r" depth="4" NCoef="0" IVar="-1" Cut="0.0000000000000000e+00" cType="1" res="5.0105582922697067e-03" rms="3.6130672693252563e-01" purity="6.8170452117919922e-01" nType="-99"/>
            </Node>
            <Node pos="r" depth="3" NCoef="0" IVar="-1" Cut="0.0000000000000000e+00" cType="1" res="1.8242191523313522e-02" rms="3.7154003977775574e-01" purity="3.6598709225654602e-01" nType="-99"/>
          </Node>
          <Node pos="r" depth="2" NCoef="0" IVar="11" Cut="2.4260652065277100e+00" cType="1" res="-1.8821755656972528e-03" rms="3.2922741770744324e-01" purity="6.3913047313690186e-01" nType="0">
            <Node pos="l" depth="3" NCoef="0" IVar="12" Cut="2.7642576694488525e+00" cType="1" res="-2.4322234094142914e-03" rms="3.3066117763519287e-01" purity="6.6001421213150024e-01" nType="0">
              <Node pos="l" depth="4" NCoef="0" IVar="-1" Cut="0.0000000000000000e+00" cType="1" res="-6.0758749023079872e-03" rms="3.3868107199668884e-01" purity="6.3895028829574585e-01" nType="-99"/>
              <Node pos="r" depth="4" NCoef="0" IVar="-1" Cut="0.0000000000000000e+00" cType="1" res="-6.5224367426708341e-04" rms="3.2777684926986694e-01" purity="6.6742300987243652e-01" nType="-99"/>
            </Node>
            <Node pos="r" depth="3" NCoef="0" IVar="-1" Cut="0.0000000000000000e+00" cType="1" res="1.1664251796901226e-02" rms="2.9693374037742615e-01" purity="1.9593858718872070e-01" nType="-99"/>
          </Node>
        </Node>
      </Node>
    </BinaryTree>
    <BinaryTree type="DecisionTree" boostWeight="1.0000000000000000e+00" itree="231">
      <Node pos="s" depth="0" NCoef="0" IVar="3" Cut="4.4626618750000000e+05" cType="1" res="-1.7481012264397577e-06" rms="3.3765947818756104e-01" purity="5.0000000000000000e-01" nType="0">
        <Node pos="l" depth="1" NCoef="0" IVar="9" Cut="2.0924948437500000e+05" cType="1" res="-9.9722747108899057e-05" rms="3.4167569875717163e-01" purity="5.1428800821304321e-01" nType="0">
          <Node pos="l" depth="2" NCoef="0" IVar="20" Cut="1.4484097656250000e+04" cType="1" res="6.1503646429628134e-04" rms="3.4612891077995300e-01" purity="5.2250623703002930e-01" nType="0">
            <Node pos="l" depth="3" NCoef="0" IVar="11" Cut="4.7925236821174622e-01" cType="1" res="-1.3125070370733738e-02" rms="3.5620129108428955e-01" purity="4.3301531672477722e-01" nType="0">
              <Node pos="l" depth="4" NCoef="0" IVar="-1" Cut="0.0000000000000000e+00" cType="1" res="-1.3458261964842677e-03" rms="3.5974377393722534e-01" purity="5.2890580892562866e-01" nType="-99"/>
              <Node pos="r" depth="4" NCoef="0" IVar="-1" Cut="0.0000000000000000e+00" cType="1" res="-1.9774844869971275e-02" rms="3.5115233063697815e-01" purity="3.1175908446311951e-01" nType="-99"/>
            </Node>
            <Node pos="r" depth="3" NCoef="0" IVar="3" Cut="6.3410656250000000e+04" cType="1" res="1.1892573675140738e-03" rms="3.4568968415260315e-01" purity="5.2624624967575073e-01" nType="0">
              <Node pos="l" depth="4" NCoef="0" IVar="-1" Cut="0.0000000000000000e+00" cType="1" res="8.2615008577704430e-03" rms="4.0815308690071106e-01" purity="3.9356377720832825e-01" nType="-99"/>
              <Node pos="r" depth="4" NCoef="0" IVar="-1" Cut="0.0000000000000000e+00" cType="1" res="5.4343754891306162e-04" rms="3.4287795424461365e-01" purity="5.3168237209320068e-01" nType="-99"/>
            </Node>
          </Node>
          <Node pos="r" depth="2" NCoef="0" IVar="6" Cut="3.4216221875000000e+05" cType="1" res="-7.2831362485885620e-03" rms="2.9309162497520447e-01" purity="4.3169397115707397e-01" nType="0">
            <Node pos="l" depth="3" NCoef="0" IVar="20" Cut="8.0168898437500000e+04" cType="1" res="-1.3028030283749104e-02" rms="3.0068013072013855e-01" purity="4.4751125574111938e-01" nType="0">
              <Node pos="l" depth="4" NCoef="0" IVar="-1" Cut="0.0000000000000000e+00" cType="1" res="-1.6625657677650452e-02" rms="3.4487354755401611e-01" purity="6.2667393684387207e-01" nType="-99"/>
              <Node pos="r" depth="4" NCoef="0" IVar="-1" Cut="0.0000000000000000e+00" cType="1" res="8.8728982955217361e-03" rms="1.6255673766136169e-01" purity="4.7853104770183563e-02" nType="-99"/>
            </Node>
            <Node pos="r" depth="3" NCoef="0" IVar="7" Cut="8.0457890625000000e+04" cType="1" res="1.0197071358561516e-02" rms="2.6793023943901062e-01" purity="3.8356608152389526e-01" nType="0">
              <Node pos="l" depth="4" NCoef="0" IVar="-1" Cut="0.0000000000000000e+00" cType="1" res="1.7638226971030235e-02" rms="3.3289897441864014e-01" purity="5.3327184915542603e-01" nType="-99"/>
              <Node pos="r" depth="4" NCoef="0" IVar="-1" Cut="0.0000000000000000e+00" cType="1" res="-6.6150474594905972e-04" rms="1.7476108670234680e-01" purity="2.2619608044624329e-01" nType="-99"/>
            </Node>
          </Node>
        </Node>
        <Node pos="r" depth="1" NCoef="0" IVar="16" Cut="1.7091932296752930e+00" cType="1" res="2.3989244364202023e-03" rms="2.1715234220027924e-01" purity="1.4990006387233734e-01" nType="0">
          <Node pos="l" depth="2" NCoef="0" IVar="-1" Cut="0.0000000000000000e+00" cType="1" res="1.2106041423976421e-02" rms="2.3327721655368805e-01" purity="2.1672813594341278e-01" nType="-99"/>
          <Node pos="r" depth="2" NCoef="0" IVar="-1" Cut="0.0000000000000000e+00" cType="1" res="-5.7608918286859989e-03" rms="1.9833745062351227e-01" purity="7.8391358256340027e-02" nType="-99"/>
        </Node>
      </Node>
    </BinaryTree>
    <BinaryTree type="DecisionTree" boostWeight="1.0000000000000000e+00" itree="232">
      <Node pos="s" depth="0" NCoef="0" IVar="12" Cut="3.9472987651824951e+00" cType="1" res="-1.5007340152806137e-06" rms="3.3762383460998535e-01" purity="5.0000000000000000e-01" nType="0">
        <Node pos="l" depth="1" NCoef="0" IVar="11" Cut="5.6725192070007324e-01" cType="1" res="-7.3707698902580887e-05" rms="3.3811709284782410e-01" purity="5.0248736143112183e-01" nType="0">
          <Node pos="l" depth="2" NCoef="0" IVar="4" Cut="5.3185218750000000e+05" cType="1" res="1.4603434829041362e-03" rms="3.1914013624191284e-01" purity="6.9193804264068604e-01" nType="0">
            <Node pos="l" depth="3" NCoef="0" IVar="5" Cut="6.5231660156250000e+04" cType="1" res="3.4712953492999077e-03" rms="3.1897690892219543e-01" purity="7.4429094791412354e-01" nType="0">
              <Node pos="l" depth="4" NCoef="0" IVar="-1" Cut="0.0000000000000000e+00" cType="1" res="1.2116703204810619e-02" rms="3.2754737138748169e-01" purity="7.7386915683746338e-01" nType="-99"/>
              <Node pos="r" depth="4" NCoef="0" IVar="-1" Cut="0.0000000000000000e+00" cType="1" res="-6.1126404034439474e-05" rms="3.1587097048759460e-01" purity="7.3402452468872070e-01" nType="-99"/>
            </Node>
            <Node pos="r" depth="3" NCoef="0" IVar="12" Cut="2.5158872604370117e+00" cType="1" res="-6.9931261241436005e-03" rms="3.1968715786933899e-01" purity="4.7186142206192017e-01" nType="0">
              <Node pos="l" depth="4" NCoef="0" IVar="-1" Cut="0.0000000000000000e+00" cType="1" res="3.1878403387963772e-03" rms="3.1938657164573669e-01" purity="3.1122890114784241e-01" nType="-99"/>
              <Node pos="r" depth="4" NCoef="0" IVar="-1" Cut="0.0000000000000000e+00" cType="1" res="-1.6132639721035957e-02" rms="3.1965038180351257e-01" purity="6.2531226873397827e-01" nType="-99"/>
            </Node>
          </Node>
          <Node pos="r" depth="2" NCoef="0" IVar="12" Cut="1.2153432369232178e+00" cType="1" res="-4.6191565343178809e-04" rms="3.4275177121162415e-01" purity="4.5454487204551697e-01" nType="0">
            <Node pos="l" depth="3" NCoef="0" IVar="11" Cut="7.8021246194839478e-01" cType="1" res="7.3972763493657112e-03" rms="3.5777065157890320e-01" purity="2.6370429992675781e-01" nType="0">
              <Node pos="l" depth="4" NCoef="0" IVar="-1" Cut="0.0000000000000000e+00" cType="1" res="-8.4801355842500925e-04" rms="3.4686243534088135e-01" purity="2.3439913988113403e-01" nType="-99"/>
              <Node pos="r" depth="4" NCoef="0" IVar="-1" Cut="0.0000000000000000e+00" cType="1" res="1.2896582484245300e-02" rms="3.6995756626129150e-01" purity="2.9821699857711792e-01" nType="-99"/>
            </Node>
            <Node pos="r" depth="3" NCoef="0" IVar="5" Cut="2.2984070312500000e+05" cType="1" res="-6.9197779521346092e-04" rms="3.4229946136474609e-01" purity="4.6013134717941284e-01" nType="0">
              <Node pos="l" depth="4" NCoef="0" IVar="-1" Cut="0.0000000000000000e+00" cType="1" res="-1.0034295264631510e-03" rms="3.4749892354011536e-01" purity="4.8980906605720520e-01" nType="-99"/>
              <Node pos="r" depth="4" NCoef="0" IVar="-1" Cut="0.0000000000000000e+00" cType="1" res="1.9086160464212298e-03" rms="3.1675896048545837e-01" purity="3.2091867923736572e-01" nType="-99"/>
            </Node>
          </Node>
        </Node>
        <Node pos="r" depth="1" NCoef="0" IVar="-1" Cut="0.0000000000000000e+00" cType="1" res="3.8247779011726379e-03" rms="3.0943450331687927e-01" purity="3.6399823427200317e-01" nType="-99"/>
      </Node>
    </BinaryTree>
    <BinaryTree type="DecisionTree" boostWeight="1.0000000000000000e+00" itree="233">
      <Node pos="s" depth="0" NCoef="0" IVar="12" Cut="1.2675663232803345e+00" cType="1" res="-7.2588539978823974e-07" rms="3.3760789036750793e-01" purity="5.0000000000000000e-01" nType="0">
        <Node pos="l" depth="1" NCoef="0" IVar="12" Cut="1.1144330501556396e+00" cType="1" res="-3.1369752250611782e-03" rms="3.4528210759162903e-01" purity="2.4588495492935181e-01" nType="0">
          <Node pos="l" depth="2" NCoef="0" IVar="8" Cut="2.2430992187500000e+04" cType="1" res="1.1205914197489619e-03" rms="3.5001459717750549e-01" purity="2.3806543648242950e-01" nType="0">
            <Node pos="l" depth="3" NCoef="0" IVar="-1" Cut="0.0000000000000000e+00" cType="1" res="-8.4823891520500183e-03" rms="3.4407779574394226e-01" purity="2.2152668237686157e-01" nType="-99"/>
            <Node pos="r" depth="3" NCoef="0" IVar="-1" Cut="0.0000000000000000e+00" cType="1" res="1.0205773636698723e-02" rms="3.5508915781974792e-01" purity="2.5350791215896606e-01" nType="-99"/>
          </Node>
          <Node pos="r" depth="2" NCoef="0" IVar="-1" Cut="0.0000000000000000e+00" cType="1" res="-1.0141042992472649e-02" rms="3.3387285470962524e-01" purity="2.6396879553794861e-01" nType="-99"/>
        </Node>
        <Node pos="r" depth="1" NCoef="0" IVar="18" Cut="1.4775275000000000e+05" cType="1" res="1.4806208491791040e-04" rms="3.3723875880241394e-01" purity="5.1205557584762573e-01" nType="0">
          <Node pos="l" depth="2" NCoef="0" IVar="18" Cut="3.4672468750000000e+04" cType="1" res="4.5543813030235469e-04" rms="3.4547695517539978e-01" purity="5.2538180351257324e-01" nType="0">
            <Node pos="l" depth="3" NCoef="0" IVar="5" Cut="1.5715320312500000e+05" cType="1" res="-1.7170190112665296e-03" rms="3.4269636869430542e-01" purity="4.9399366974830627e-01" nType="0">
              <Node pos="l" depth="4" NCoef="0" IVar="-1" Cut="0.0000000000000000e+00" cType="1" res="-2.5518622715026140e-04" rms="3.4472176432609558e-01" purity="5.0705718994140625e-01" nType="-99"/>
              <Node pos="r" depth="4" NCoef="0" IVar="-1" Cut="0.0000000000000000e+00" cType="1" res="-1.3683157972991467e-02" rms="3.2178437709808350e-01" purity="3.6556136608123779e-01" nType="-99"/>
            </Node>
            <Node pos="r" depth="3" NCoef="0" IVar="3" Cut="1.7993726562500000e+05" cType="1" res="1.8933289684355259e-03" rms="3.4729760885238647e-01" purity="5.4615676403045654e-01" nType="0">
              <Node pos="l" depth="4" NCoef="0" IVar="-1" Cut="0.0000000000000000e+00" cType="1" res="3.4316757228225470e-03" rms="3.7108662724494934e-01" purity="5.8151757717132568e-01" nType="-99"/>
              <Node pos="r" depth="4" NCoef="0" IVar="-1" Cut="0.0000000000000000e+00" cType="1" res="-2.0658064167946577e-03" rms="3.1247773766517639e-01" purity="4.9867939949035645e-01" nType="-99"/>
            </Node>
          </Node>
          <Node pos="r" depth="2" NCoef="0" IVar="0" Cut="2.3333332538604736e+00" cType="1" res="-1.2794984504580498e-03" rms="2.9598334431648254e-01" purity="4.5016396045684814e-01" nType="0">
            <Node pos="l" depth="3" NCoef="0" IVar="16" Cut="2.0278456211090088e+00" cType="1" res="-9.0759675949811935e-03" rms="3.0147480964660645e-01" purity="3.7817770242691040e-01" nType="0">
              <Node pos="l" depth="4" NCoef="0" IVar="-1" Cut="0.0000000000000000e+00" cType="1" res="-1.2363047571852803e-03" rms="3.1760382652282715e-01" purity="4.7090393304824829e-01" nType="-99"/>
              <Node pos="r" depth="4" NCoef="0" IVar="-1" Cut="0.0000000000000000e+00" cType="1" res="-3.5344511270523071e-02" rms="2.5321722030639648e-01" purity="1.3496172428131104e-01" nType="-99"/>
            </Node>
            <Node pos="r" depth="3" NCoef="0" IVar="15" Cut="1.7576540708541870e+00" cType="1" res="1.4395602047443390e-03" rms="2.9399541020393372e-01" purity="4.7526949644088745e-01" nType="0">
              <Node pos="l" depth="4" NCoef="0" IVar="-1" Cut="0.0000000000000000e+00" cType="1" res="1.9240129739046097e-02" rms="2.9924294352531433e-01" purity="2.8822550177574158e-01" nType="-99"/>
              <Node pos="r" depth="4" NCoef="0" IVar="-1" Cut="0.0000000000000000e+00" cType="1" res="8.5003826825413853e-05" rms="2.9344221949577332e-01" purity="4.9354481697082520e-01" nType="-99"/>
            </Node>
          </Node>
        </Node>
      </Node>
    </BinaryTree>
    <BinaryTree type="DecisionTree" boostWeight="1.0000000000000000e+00" itree="234">
      <Node pos="s" depth="0" NCoef="0" IVar="12" Cut="1.2675663232803345e+00" cType="1" res="-1.5568833759971312e-06" rms="3.3758339285850525e-01" purity="5.0000000000000000e-01" nType="0">
        <Node pos="l" depth="1" NCoef="0" IVar="13" Cut="1.3194642066955566e+00" cType="1" res="-2.5162408128380775e-03" rms="3.4521189332008362e-01" purity="2.4588495492935181e-01" nType="0">
          <Node pos="l" depth="2" NCoef="0" IVar="13" Cut="9.4294267892837524e-01" cType="1" res="1.2593492865562439e-03" rms="3.4262168407440186e-01" purity="2.2353658080101013e-01" nType="0">
            <Node pos="l" depth="3" NCoef="0" IVar="16" Cut="2.3153805732727051e+00" cType="1" res="-5.6094694882631302e-03" rms="3.3749017119407654e-01" purity="2.0081120729446411e-01" nType="0">
              <Node pos="l" depth="4" NCoef="0" IVar="-1" Cut="0.0000000000000000e+00" cType="1" res="-1.2605410069227219e-02" rms="3.2963851094245911e-01" purity="2.0106035470962524e-01" nType="-99"/>
              <Node pos="r" depth="4" NCoef="0" IVar="-1" Cut="0.0000000000000000e+00" cType="1" res="4.3184082023799419e-03" rms="3.4588950872421265e-01" purity="2.0052756369113922e-01" nType="-99"/>
            </Node>
            <Node pos="r" depth="3" NCoef="0" IVar="-1" Cut="0.0000000000000000e+00" cType="1" res="1.1859118007123470e-02" rms="3.5241729021072388e-01" purity="2.6976600289344788e-01" nType="-99"/>
          </Node>
          <Node pos="r" depth="2" NCoef="0" IVar="-1" Cut="0.0000000000000000e+00" cType="1" res="-8.9609064161777496e-03" rms="3.5150811076164246e-01" purity="3.0251210927963257e-01" nType="-99"/>
        </Node>
        <Node pos="r" depth="1" NCoef="0" IVar="13" Cut="1.0970134735107422e+00" cType="1" res="1.1774317681556568e-04" rms="3.3721673488616943e-01" purity="5.1205557584762573e-01" nType="0">
          <Node pos="l" depth="2" NCoef="0" IVar="10" Cut="4.2374191406250000e+04" cType="1" res="-2.0156963728368282e-03" rms="2.9592579603195190e-01" purity="1.7520242929458618e-01" nType="0">
            <Node pos="l" depth="3" NCoef="0" IVar="14" Cut="1.3661161661148071e+00" cType="1" res="3.5270976368337870e-03" rms="3.2557910680770874e-01" purity="2.2043831646442413e-01" nType="0">
              <Node pos="l" depth="4" NCoef="0" IVar="-1" Cut="0.0000000000000000e+00" cType="1" res="1.7738936468958855e-02" rms="3.3368599414825439e-01" purity="2.2213894128799438e-01" nType="-99"/>
              <Node pos="r" depth="4" NCoef="0" IVar="-1" Cut="0.0000000000000000e+00" cType="1" res="-3.7454126868396997e-03" rms="3.2113352417945862e-01" purity="2.1957959234714508e-01" nType="-99"/>
            </Node>
            <Node pos="r" depth="3" NCoef="0" IVar="-1" Cut="0.0000000000000000e+00" cType="1" res="-3.0987860634922981e-02" rms="2.0378090441226959e-01" purity="6.2836013734340668e-02" nType="-99"/>
          </Node>
          <Node pos="r" depth="2" NCoef="0" IVar="11" Cut="2.9239923954010010e+00" cType="1" res="2.7112977113574743e-04" rms="3.3999171853065491e-01" purity="5.3627407550811768e-01" nType="0">
            <Node pos="l" depth="3" NCoef="0" IVar="11" Cut="2.0944495201110840e+00" cType="1" res="1.5179680485744029e-04" rms="3.4107336401939392e-01" purity="5.4186582565307617e-01" nType="0">
              <Node pos="l" depth="4" NCoef="0" IVar="-1" Cut="0.0000000000000000e+00" cType="1" res="4.0828075725585222e-04" rms="3.4651976823806763e-01" purity="5.8179086446762085e-01" nType="-99"/>
              <Node pos="r" depth="4" NCoef="0" IVar="-1" Cut="0.0000000000000000e+00" cType="1" res="-3.5014923196285963e-03" rms="2.8778037428855896e-01" purity="1.8469731509685516e-01" nType="-99"/>
            </Node>
            <Node pos="r" depth="3" NCoef="0" IVar="-1" Cut="0.0000000000000000e+00" cType="1" res="1.4871154911816120e-02" rms="2.4993261694908142e-01" purity="1.3356918096542358e-01" nType="-99"/>
          </Node>
        </Node>
      </Node>
    </BinaryTree>
    <BinaryTree type="DecisionTree" boostWeight="1.0000000000000000e+00" itree="235">
      <Node pos="s" depth="0" NCoef="0" IVar="13" Cut="5.4850673675537109e-01" cType="1" res="-2.9598122637253255e-06" rms="3.3756712079048157e-01" purity="5.0000000000000000e-01" nType="0">
        <Node pos="l" depth="1" NCoef="0" IVar="12" Cut="1.5903397798538208e+00" cType="1" res="-3.6605335772037506e-03" rms="3.1131824851036072e-01" purity="1.6937981545925140e-01" nType="0">
          <Node pos="l" depth="2" NCoef="0" IVar="-1" Cut="0.0000000000000000e+00" cType="1" res="-1.2149780988693237e-02" rms="3.2868587970733643e-01" purity="1.7174468934535980e-01" nType="-99"/>
          <Node pos="r" depth="2" NCoef="0" IVar="-1" Cut="0.0000000000000000e+00" cType="1" res="7.2445450350642204e-03" rms="2.9352003335952759e-01" purity="1.6713199019432068e-01" nType="-99"/>
        </Node>
        <Node pos="r" depth="1" NCoef="0" IVar="20" Cut="1.2483096093750000e+05" cType="1" res="7.4349169153720140e-05" rms="3.3809950947761536e-01" purity="5.0698822736740112e-01" nType="0">
          <Node pos="l" depth="2" NCoef="0" IVar="20" Cut="3.3337792968750000e+04" cType="1" res="2.2196784266270697e-04" rms="3.4581676125526428e-01" purity="5.3067040443420410e-01" nType="0">
            <Node pos="l" depth="3" NCoef="0" IVar="1" Cut="1.5782528125000000e+05" cType="1" res="-3.1766698230057955e-03" rms="3.5738655924797058e-01" purity="6.1660569906234741e-01" nType="0">
              <Node pos="l" depth="4" NCoef="0" IVar="-1" Cut="0.0000000000000000e+00" cType="1" res="-3.5846012178808451e-03" rms="3.5736536979675293e-01" purity="6.0838401317596436e-01" nType="-99"/>
              <Node pos="r" depth="4" NCoef="0" IVar="-1" Cut="0.0000000000000000e+00" cType="1" res="1.7169600352644920e-02" rms="3.5674595832824707e-01" purity="7.4301940202713013e-01" nType="-99"/>
            </Node>
            <Node pos="r" depth="3" NCoef="0" IVar="1" Cut="1.6699337500000000e+05" cType="1" res="2.0274587441235781e-03" rms="3.3949628472328186e-01" purity="4.8501822352409363e-01" nType="0">
              <Node pos="l" depth="4" NCoef="0" IVar="-1" Cut="0.0000000000000000e+00" cType="1" res="2.2910179104655981e-03" rms="3.4027421474456787e-01" purity="4.8746365308761597e-01" nType="-99"/>
              <Node pos="r" depth="4" NCoef="0" IVar="-1" Cut="0.0000000000000000e+00" cType="1" res="-1.0886745527386665e-02" rms="3.2384371757507324e-01" purity="4.3796911835670471e-01" nType="-99"/>
            </Node>
          </Node>
          <Node pos="r" depth="2" NCoef="0" IVar="12" Cut="3.2815062999725342e+00" cType="1" res="-3.0741463415324688e-03" rms="4.1588630527257919e-02" purity="1.8809210741892457e-03" nType="0">
            <Node pos="l" depth="3" NCoef="0" IVar="8" Cut="1.8179082812500000e+05" cType="1" res="-4.0473840199410915e-03" rms="2.5921536609530449e-02" purity="6.3327077077701688e-04" nType="0">
              <Node pos="l" depth="4" NCoef="0" IVar="-1" Cut="0.0000000000000000e+00" cType="1" res="-1.0182536393404007e-01" rms="8.2186451181769371e-03" purity="0.0000000000000000e+00" nType="-99"/>
              <Node pos="r" depth="4" NCoef="0" IVar="-1" Cut="0.0000000000000000e+00" cType="1" res="-5.9321057051420212e-02" rms="3.8940917700529099e-02" purity="1.5244728419929743e-03" nType="-99"/>
            </Node>
            <Node pos="r" depth="3" NCoef="0" IVar="-1" Cut="0.0000000000000000e+00" cType="1" res="-4.7700633294880390e-03" rms="6.9061674177646637e-02" purity="5.4793073795735836e-03" nType="-99"/>
          </Node>
        </Node>
      </Node>
    </BinaryTree>
    <BinaryTree type="DecisionTree" boostWeight="1.0000000000000000e+00" itree="236">
      <Node pos="s" depth="0" NCoef="0" IVar="3" Cut="4.4626618750000000e+05" cType="1" res="-4.2472570385143626e-06" rms="3.3753913640975952e-01" purity="5.0000000000000000e-01" nType="0">
        <Node pos="l" depth="1" NCoef="0" IVar="6" Cut="1.2778257812500000e+05" cType="1" res="-1.0652434866642579e-04" rms="3.4155556559562683e-01" purity="5.1428800821304321e-01" nType="0">
          <Node pos="l" depth="2" NCoef="0" IVar="19" Cut="3.9295835937500000e+04" cType="1" res="-3.4214048646390438e-03" rms="3.8499766588211060e-01" purity="4.7790190577507019e-01" nType="0">
            <Node pos="l" depth="3" NCoef="0" IVar="16" Cut="1.1491554975509644e+00" cType="1" res="2.4640131741762161e-03" rms="3.7574526667594910e-01" purity="4.6961110830307007e-01" nType="0">
              <Node pos="l" depth="4" NCoef="0" IVar="-1" Cut="0.0000000000000000e+00" cType="1" res="-3.4561282955110073e-03" rms="3.7206274271011353e-01" purity="5.8101260662078857e-01" nType="-99"/>
              <Node pos="r" depth="4" NCoef="0" IVar="-1" Cut="0.0000000000000000e+00" cType="1" res="7.1069370023906231e-03" rms="3.7950560450553894e-01" purity="3.4962940216064453e-01" nType="-99"/>
            </Node>
            <Node pos="r" depth="3" NCoef="0" IVar="3" Cut="1.5988495312500000e+05" cType="1" res="-7.9477494582533836e-03" rms="3.9190480113029480e-01" purity="4.8427811264991760e-01" nType="0">
              <Node pos="l" depth="4" NCoef="0" IVar="-1" Cut="0.0000000000000000e+00" cType="1" res="-2.7946722693741322e-03" rms="3.9275753498077393e-01" purity="4.8594942688941956e-01" nType="-99"/>
              <Node pos="r" depth="4" NCoef="0" IVar="-1" Cut="0.0000000000000000e+00" cType="1" res="-2.1804245188832283e-02" rms="3.8461095094680786e-01" purity="4.7192567586898804e-01" nType="-99"/>
            </Node>
          </Node>
          <Node pos="r" depth="2" NCoef="0" IVar="7" Cut="8.0457890625000000e+04" cType="1" res="1.2674548197537661e-03" rms="3.2182490825653076e-01" purity="5.2936971187591553e-01" nType="0">
            <Node pos="l" depth="3" NCoef="0" IVar="21" Cut="3.4481800781250000e+04" cType="1" res="3.5592215135693550e-03" rms="3.4175586700439453e-01" purity="6.1674851179122925e-01" nType="0">
              <Node pos="l" depth="4" NCoef="0" IVar="-1" Cut="0.0000000000000000e+00" cType="1" res="-2.0360467024147511e-03" rms="3.1436029076576233e-01" purity="7.4569010734558105e-01" nType="-99"/>
              <Node pos="r" depth="4" NCoef="0" IVar="-1" Cut="0.0000000000000000e+00" cType="1" res="6.1006098985671997e-03" rms="3.6378785967826843e-01" purity="5.0487023591995239e-01" nType="-99"/>
            </Node>
            <Node pos="r" depth="3" NCoef="0" IVar="7" Cut="9.6741125000000000e+04" cType="1" res="-2.9718205332756042e-03" rms="2.8120937943458557e-01" purity="3.6773768067359924e-01" nType="0">
              <Node pos="l" depth="4" NCoef="0" IVar="-1" Cut="0.0000000000000000e+00" cType="1" res="-2.8950108215212822e-02" rms="2.9335245490074158e-01" purity="1.4596161246299744e-01" nType="-99"/>
              <Node pos="r" depth="4" NCoef="0" IVar="-1" Cut="0.0000000000000000e+00" cType="1" res="-2.0626478362828493e-03" rms="2.8051716089248657e-01" purity="3.7906900048255920e-01" nType="-99"/>
            </Node>
          </Node>
        </Node>
        <Node pos="r" depth="1" NCoef="0" IVar="15" Cut="1.2492897510528564e+00" cType="1" res="2.5018481537699699e-03" rms="2.1701028943061829e-01" purity="1.4990006387233734e-01" nType="0">
          <Node pos="l" depth="2" NCoef="0" IVar="-1" Cut="0.0000000000000000e+00" cType="1" res="1.9334338605403900e-02" rms="2.3413664102554321e-01" purity="1.6210032999515533e-01" nType="-99"/>
          <Node pos="r" depth="2" NCoef="0" IVar="0" Cut="4.3333334922790527e+00" cType="1" res="-3.3069297205656767e-04" rms="2.1060349047183990e-01" purity="1.4562295377254486e-01" nType="0">
            <Node pos="l" depth="3" NCoef="0" IVar="-1" Cut="0.0000000000000000e+00" cType="1" res="-1.1343774385750294e-02" rms="2.2304728627204895e-01" purity="1.6972550749778748e-01" nType="-99"/>
            <Node pos="r" depth="3" NCoef="0" IVar="-1" Cut="0.0000000000000000e+00" cType="1" res="7.0600854232907295e-03" rms="2.0234215259552002e-01" purity="1.3053119182586670e-01" nType="-99"/>
          </Node>
        </Node>
      </Node>
    </BinaryTree>
    <BinaryTree type="DecisionTree" boostWeight="1.0000000000000000e+00" itree="237">
      <Node pos="s" depth="0" NCoef="0" IVar="12" Cut="3.6793255805969238e+00" cType="1" res="-4.1880884964484721e-06" rms="3.3748769760131836e-01" purity="5.0000000000000000e-01" nType="0">
        <Node pos="l" depth="1" NCoef="0" IVar="14" Cut="3.3399713039398193e+00" cType="1" res="-1.1955331137869507e-04" rms="3.3842256665229797e-01" purity="5.0389510393142700e-01" nType="0">
          <Node pos="l" depth="2" NCoef="0" IVar="11" Cut="3.6754199862480164e-01" cType="1" res="1.4026468306838069e-05" rms="3.3846649527549744e-01" purity="5.0568026304244995e-01" nType="0">
            <Node pos="l" depth="3" NCoef="0" IVar="15" Cut="1.7646948099136353e+00" cType="1" res="3.7755081430077553e-03" rms="3.0752757191658020e-01" purity="7.3870378732681274e-01" nType="0">
              <Node pos="l" depth="4" NCoef="0" IVar="-1" Cut="0.0000000000000000e+00" cType="1" res="-4.0258457884192467e-03" rms="3.2348373532295227e-01" purity="7.0037782192230225e-01" nType="-99"/>
              <Node pos="r" depth="4" NCoef="0" IVar="-1" Cut="0.0000000000000000e+00" cType="1" res="8.8957631960511208e-03" rms="2.9830402135848999e-01" purity="7.5974512100219727e-01" nType="-99"/>
            </Node>
            <Node pos="r" depth="3" NCoef="0" IVar="12" Cut="8.4830921888351440e-01" cType="1" res="-2.6444304967299104e-04" rms="3.4064361453056335e-01" purity="4.8842915892601013e-01" nType="0">
              <Node pos="l" depth="4" NCoef="0" IVar="-1" Cut="0.0000000000000000e+00" cType="1" res="9.7791431471705437e-03" rms="3.4904587268829346e-01" purity="2.2780157625675201e-01" nType="-99"/>
              <Node pos="r" depth="4" NCoef="0" IVar="-1" Cut="0.0000000000000000e+00" cType="1" res="-3.3725076355040073e-04" rms="3.4054216742515564e-01" purity="4.9145606160163879e-01" nType="-99"/>
            </Node>
          </Node>
          <Node pos="r" depth="2" NCoef="0" IVar="-1" Cut="0.0000000000000000e+00" cType="1" res="-8.3433790132403374e-03" rms="3.3520179986953735e-01" purity="3.7893399596214294e-01" nType="-99"/>
        </Node>
        <Node pos="r" depth="1" NCoef="0" IVar="0" Cut="6.3333334922790527e+00" cType="1" res="2.9281419701874256e-03" rms="3.1277409195899963e-01" purity="4.0099611878395081e-01" nType="0">
          <Node pos="l" depth="2" NCoef="0" IVar="-1" Cut="0.0000000000000000e+00" cType="1" res="1.1211841367185116e-02" rms="3.1172829866409302e-01" purity="5.0973355770111084e-01" nType="-99"/>
          <Node pos="r" depth="2" NCoef="0" IVar="-1" Cut="0.0000000000000000e+00" cType="1" res="-6.8707079626619816e-03" rms="3.1363070011138916e-01" purity="2.7882751822471619e-01" nType="-99"/>
        </Node>
      </Node>
    </BinaryTree>
    <BinaryTree type="DecisionTree" boostWeight="1.0000000000000000e+00" itree="238">
      <Node pos="s" depth="0" NCoef="0" IVar="14" Cut="1.2873336076736450e+00" cType="1" res="-3.2288455713569419e-06" rms="3.3747825026512146e-01" purity="5.0000000000000000e-01" nType="0">
        <Node pos="l" depth="1" NCoef="0" IVar="0" Cut="1.3333333730697632e+00" cType="1" res="-8.3066988736391068e-04" rms="3.4941673278808594e-01" purity="4.4710662961006165e-01" nType="0">
          <Node pos="l" depth="2" NCoef="0" IVar="4" Cut="2.4556973437500000e+05" cType="1" res="0.0000000000000000e+00" rms="0.0000000000000000e+00" purity="3.6027288436889648e-01" nType="0">
            <Node pos="l" depth="3" NCoef="0" IVar="-1" Cut="0.0000000000000000e+00" cType="1" res="-5.5802850984036922e-03" rms="3.7884575128555298e-01" purity="3.5639917850494385e-01" nType="-99"/>
            <Node pos="r" depth="3" NCoef="0" IVar="-1" Cut="0.0000000000000000e+00" cType="1" res="1.3039951212704182e-02" rms="3.3701395988464355e-01" purity="3.6251062154769897e-01" nType="-99"/>
          </Node>
          <Node pos="r" depth="2" NCoef="0" IVar="0" Cut="4.2857141494750977e+00" cType="1" res="-1.9709870684891939e-03" rms="3.4884846210479736e-01" purity="4.6010413765907288e-01" nType="0">
            <Node pos="l" depth="3" NCoef="0" IVar="1" Cut="6.8606585937500000e+04" cType="1" res="-7.7728633768856525e-03" rms="3.4853264689445496e-01" purity="5.4770886898040771e-01" nType="0">
              <Node pos="l" depth="4" NCoef="0" IVar="-1" Cut="0.0000000000000000e+00" cType="1" res="5.6191760813817382e-04" rms="3.5110259056091309e-01" purity="5.0425440073013306e-01" nType="-99"/>
              <Node pos="r" depth="4" NCoef="0" IVar="-1" Cut="0.0000000000000000e+00" cType="1" res="-1.6686456277966499e-02" rms="3.4443715214729309e-01" purity="6.1017549037933350e-01" nType="-99"/>
            </Node>
            <Node pos="r" depth="3" NCoef="0" IVar="12" Cut="2.8238723278045654e+00" cType="1" res="1.0394600685685873e-03" rms="3.4897419810295105e-01" purity="4.1464823484420776e-01" nType="0">
              <Node pos="l" depth="4" NCoef="0" IVar="-1" Cut="0.0000000000000000e+00" cType="1" res="-3.7048722151666880e-03" rms="3.5888856649398804e-01" purity="4.2022082209587097e-01" nType="-99"/>
              <Node pos="r" depth="4" NCoef="0" IVar="-1" Cut="0.0000000000000000e+00" cType="1" res="6.9145346060395241e-03" rms="3.3673268556594849e-01" purity="4.0805765986442566e-01" nType="-99"/>
            </Node>
          </Node>
        </Node>
        <Node pos="r" depth="1" NCoef="0" IVar="13" Cut="8.2268905639648438e-01" cType="1" res="2.7805179706774652e-04" rms="3.3332201838493347e-01" purity="5.1798057556152344e-01" nType="0">
          <Node pos="l" depth="2" NCoef="0" IVar="0" Cut="3.3333332538604736e+00" cType="1" res="-5.0936639308929443e-03" rms="3.1053110957145691e-01" purity="1.8005020916461945e-01" nType="0">
            <Node pos="l" depth="3" NCoef="0" IVar="-1" Cut="0.0000000000000000e+00" cType="1" res="-1.5457269735634327e-02" rms="3.0749732255935669e-01" purity="1.5349744260311127e-01" nType="-99"/>
            <Node pos="r" depth="3" NCoef="0" IVar="12" Cut="1.4903177022933960e+00" cType="1" res="8.6243706755340099e-04" rms="3.1196004152297974e-01" purity="1.9409886002540588e-01" nType="0">
              <Node pos="l" depth="4" NCoef="0" IVar="-1" Cut="0.0000000000000000e+00" cType="1" res="1.0507253929972649e-02" rms="3.4343937039375305e-01" purity="2.2806829214096069e-01" nType="-99"/>
              <Node pos="r" depth="4" NCoef="0" IVar="-1" Cut="0.0000000000000000e+00" cType="1" res="-1.1480593122541904e-02" rms="2.7923125028610229e-01" purity="1.6265162825584412e-01" nType="-99"/>
            </Node>
          </Node>
          <Node pos="r" depth="2" NCoef="0" IVar="0" Cut="5.3333334922790527e+00" cType="1" res="5.7288462994620204e-04" rms="3.3452549576759338e-01" purity="5.3652828931808472e-01" nType="0">
            <Node pos="l" depth="3" NCoef="0" IVar="14" Cut="3.1393623352050781e+00" cType="1" res="1.9921220373362303e-03" rms="3.2072505354881287e-01" purity="6.3172632455825806e-01" nType="0">
              <Node pos="l" depth="4" NCoef="0" IVar="-1" Cut="0.0000000000000000e+00" cType="1" res="2.3565422743558884e-03" rms="3.2169085741043091e-01" purity="6.3417994976043701e-01" nType="-99"/>
              <Node pos="r" depth="4" NCoef="0" IVar="-1" Cut="0.0000000000000000e+00" cType="1" res="-1.0949644260108471e-02" rms="2.9686573147773743e-01" purity="5.7411545515060425e-01" nType="-99"/>
            </Node>
            <Node pos="r" depth="3" NCoef="0" IVar="13" Cut="2.4680943489074707e+00" cType="1" res="-7.9608912346884608e-04" rms="3.4731251001358032e-01" purity="4.4470182061195374e-01" nType="0">
              <Node pos="l" depth="4" NCoef="0" IVar="-1" Cut="0.0000000000000000e+00" cType="1" res="1.6743212472647429e-03" rms="3.4223932027816772e-01" purity="3.1398817896842957e-01" nType="-99"/>
              <Node pos="r" depth="4" NCoef="0" IVar="-1" Cut="0.0000000000000000e+00" cType="1" res="-2.3107642773538828e-03" rms="3.5116702318191528e-01" purity="5.4571926593780518e-01" nType="-99"/>
            </Node>
          </Node>
        </Node>
      </Node>
    </BinaryTree>
    <BinaryTree type="DecisionTree" boostWeight="1.0000000000000000e+00" itree="239">
      <Node pos="s" depth="0" NCoef="0" IVar="14" Cut="2.8268120288848877e+00" cType="1" res="-2.4642147309350548e-06" rms="3.3744373917579651e-01" purity="5.0000000000000000e-01" nType="0">
        <Node pos="l" depth="1" NCoef="0" IVar="14" Cut="2.6924118995666504e+00" cType="1" res="-1.9948021508753300e-04" rms="3.3957549929618835e-01" purity="4.9454963207244873e-01" nType="0">
          <Node pos="l" depth="2" NCoef="0" IVar="14" Cut="2.5644016265869141e+00" cType="1" res="1.2606293603312224e-04" rms="3.4093049168586731e-01" purity="4.9117803573608398e-01" nType="0">
            <Node pos="l" depth="3" NCoef="0" IVar="11" Cut="2.6589043140411377e+00" cType="1" res="-2.3451296146959066e-04" rms="3.4164887666702271e-01" purity="4.8657175898551941e-01" nType="0">
              <Node pos="l" depth="4" NCoef="0" IVar="-1" Cut="0.0000000000000000e+00" cType="1" res="6.1775353970006108e-05" rms="3.4587737917900085e-01" purity="5.0431287288665771e-01" nType="-99"/>
              <Node pos="r" depth="4" NCoef="0" IVar="-1" Cut="0.0000000000000000e+00" cType="1" res="-1.3091160915791988e-02" rms="2.2631523013114929e-01" purity="8.7138250470161438e-02" nType="-99"/>
            </Node>
            <Node pos="r" depth="3" NCoef="0" IVar="16" Cut="1.2353849411010742e+00" cType="1" res="5.9590134769678116e-03" rms="3.2903632521629333e-01" purity="5.6569314002990723e-01" nType="0">
              <Node pos="l" depth="4" NCoef="0" IVar="-1" Cut="0.0000000000000000e+00" cType="1" res="-3.5438165068626404e-03" rms="3.0010426044464111e-01" purity="7.3631036281585693e-01" nType="-99"/>
              <Node pos="r" depth="4" NCoef="0" IVar="-1" Cut="0.0000000000000000e+00" cType="1" res="1.2148843146860600e-02" rms="3.5674327611923218e-01" purity="3.8586416840553284e-01" nType="-99"/>
            </Node>
          </Node>
          <Node pos="r" depth="2" NCoef="0" IVar="16" Cut="1.2130849361419678e+00" cType="1" res="-6.2324069440364838e-03" rms="3.1334528326988220e-01" purity="5.5703276395797729e-01" nType="0">
            <Node pos="l" depth="3" NCoef="0" IVar="-1" Cut="0.0000000000000000e+00" cType="1" res="5.3297588601708412e-03" rms="2.8845587372779846e-01" purity="7.5566703081130981e-01" nType="-99"/>
            <Node pos="r" depth="3" NCoef="0" IVar="14" Cut="2.7564425468444824e+00" cType="1" res="-1.8388606607913971e-02" rms="3.3843526244163513e-01" purity="3.3644422888755798e-01" nType="0">
              <Node pos="l" depth="4" NCoef="0" IVar="-1" Cut="0.0000000000000000e+00" cType="1" res="-2.1804369986057281e-02" rms="3.3480006456375122e-01" purity="3.2856333255767822e-01" nType="-99"/>
              <Node pos="r" depth="4" NCoef="0" IVar="-1" Cut="0.0000000000000000e+00" cType="1" res="-7.3500149883329868e-03" rms="3.4170943498611450e-01" purity="3.4415176510810852e-01" nType="-99"/>
            </Node>
          </Node>
        </Node>
        <Node pos="r" depth="1" NCoef="0" IVar="18" Cut="1.4800792187500000e+05" cType="1" res="1.5050139045342803e-03" rms="3.2065966725349426e-01" purity="5.4170334339141846e-01" nType="0">
          <Node pos="l" depth="2" NCoef="0" IVar="18" Cut="5.6135863281250000e+04" cType="1" res="5.3033703006803989e-03" rms="3.2666903734207153e-01" purity="5.7157325744628906e-01" nType="0">
            <Node pos="l" depth="3" NCoef="0" IVar="13" Cut="2.4450664520263672e+00" cType="1" res="-7.1579436771571636e-03" rms="3.3338898420333862e-01" purity="4.6835303306579590e-01" nType="0">
              <Node pos="l" depth="4" NCoef="0" IVar="-1" Cut="0.0000000000000000e+00" cType="1" res="9.2615662142634392e-03" rms="3.2720926403999329e-01" purity="3.7385267019271851e-01" nType="-99"/>
              <Node pos="r" depth="4" NCoef="0" IVar="-1" Cut="0.0000000000000000e+00" cType="1" res="-1.7770843580365181e-02" rms="3.3755123615264893e-01" purity="5.4402267932891846e-01" nType="-99"/>
            </Node>
            <Node pos="r" depth="3" NCoef="0" IVar="8" Cut="4.0364246093750000e+04" cType="1" res="1.2014729902148247e-02" rms="3.2279264926910400e-01" purity="6.2716525793075562e-01" nType="0">
              <Node pos="l" depth="4" NCoef="0" IVar="-1" Cut="0.0000000000000000e+00" cType="1" res="3.7158548366278410e-03" rms="3.2044205069541931e-01" purity="7.0534151792526245e-01" nType="-99"/>
              <Node pos="r" depth="4" NCoef="0" IVar="-1" Cut="0.0000000000000000e+00" cType="1" res="1.7735293135046959e-02" rms="3.2477915287017822e-01" purity="5.5492043495178223e-01" nType="-99"/>
            </Node>
          </Node>
          <Node pos="r" depth="2" NCoef="0" IVar="0" Cut="3.3333332538604736e+00" cType="1" res="-5.1823281683027744e-03" rms="3.0968332290649414e-01" purity="4.8911461234092712e-01" nType="0">
            <Node pos="l" depth="3" NCoef="0" IVar="-1" Cut="0.0000000000000000e+00" cType="1" res="-2.2613825276494026e-02" rms="3.0883041024208069e-01" purity="4.3085485696792603e-01" nType="-99"/>
            <Node pos="r" depth="3" NCoef="0" IVar="14" Cut="3.0501446723937988e+00" cType="1" res="2.5392330717295408e-03" rms="3.0973896384239197e-01" purity="5.1457309722900391e-01" nType="0">
              <Node pos="l" depth="4" NCoef="0" IVar="-1" Cut="0.0000000000000000e+00" cType="1" res="-1.0712410323321819e-02" rms="2.8847184777259827e-01" purity="5.4416173696517944e-01" nType="-99"/>
              <Node pos="r" depth="4" NCoef="0" IVar="-1" Cut="0.0000000000000000e+00" cType="1" res="1.3072382658720016e-02" rms="3.2712882757186890e-01" purity="4.8824313282966614e-01" nType="-99"/>
            </Node>
          </Node>
        </Node>
      </Node>
    </BinaryTree>
    <BinaryTree type="DecisionTree" boostWeight="1.0000000000000000e+00" itree="240">
      <Node pos="s" depth="0" NCoef="0" IVar="11" Cut="1.9319025278091431e+00" cType="1" res="-2.0398374545038678e-06" rms="3.3740189671516418e-01" purity="5.0000000000000000e-01" nType="0">
        <Node pos="l" depth="1" NCoef="0" IVar="12" Cut="3.6793255805969238e+00" cType="1" res="-2.5500101037323475e-04" rms="3.4594470262527466e-01" purity="5.6063216924667358e-01" nType="0">
          <Node pos="l" depth="2" NCoef="0" IVar="14" Cut="3.3401763439178467e+00" cType="1" res="-4.7488595009781420e-04" rms="3.4605726599693298e-01" purity="5.6125664710998535e-01" nType="0">
            <Node pos="l" depth="3" NCoef="0" IVar="15" Cut="2.0286698341369629e+00" cType="1" res="-2.9277187422849238e-04" rms="3.4609881043434143e-01" purity="5.6320887804031372e-01" nType="0">
              <Node pos="l" depth="4" NCoef="0" IVar="-1" Cut="0.0000000000000000e+00" cType="1" res="-1.1291999835520983e-03" rms="3.6065530776977539e-01" purity="5.4861074686050415e-01" nType="-99"/>
              <Node pos="r" depth="4" NCoef="0" IVar="-1" Cut="0.0000000000000000e+00" cType="1" res="1.0268636979162693e-03" rms="3.2818892598152161e-01" purity="5.8033931255340576e-01" nType="-99"/>
            </Node>
            <Node pos="r" depth="3" NCoef="0" IVar="-1" Cut="0.0000000000000000e+00" cType="1" res="-1.1628887616097927e-02" rms="3.4270212054252625e-01" purity="4.1687467694282532e-01" nType="-99"/>
          </Node>
          <Node pos="r" depth="2" NCoef="0" IVar="13" Cut="3.4743013381958008e+00" cType="1" res="7.4065304361283779e-03" rms="3.4191146492958069e-01" purity="5.3887361288070679e-01" nType="0">
            <Node pos="l" depth="3" NCoef="0" IVar="-1" Cut="0.0000000000000000e+00" cType="1" res="1.0485292412340641e-02" rms="3.4828910231590271e-01" purity="5.5591219663619995e-01" nType="-99"/>
            <Node pos="r" depth="3" NCoef="0" IVar="-1" Cut="0.0000000000000000e+00" cType="1" res="6.9856725167483091e-04" rms="3.3459210395812988e-01" purity="5.2002155780792236e-01" nType="-99"/>
          </Node>
        </Node>
        <Node pos="r" depth="1" NCoef="0" IVar="12" Cut="2.6607019901275635e+00" cType="1" res="1.2820089468732476e-03" rms="2.9018193483352661e-01" purity="1.9222681224346161e-01" nType="0">
          <Node pos="l" depth="2" NCoef="0" IVar="9" Cut="8.4562593750000000e+04" cType="1" res="1.0070080868899822e-02" rms="3.2515767216682434e-01" purity="2.5561109185218811e-01" nType="0">
            <Node pos="l" depth="3" NCoef="0" IVar="18" Cut="5.1227234375000000e+04" cType="1" res="3.1630083918571472e-02" rms="3.8691499829292297e-01" purity="3.7744182348251343e-01" nType="0">
              <Node pos="l" depth="4" NCoef="0" IVar="-1" Cut="0.0000000000000000e+00" cType="1" res="3.0530499294400215e-02" rms="3.9456236362457275e-01" purity="4.0872511267662048e-01" nType="-99"/>
              <Node pos="r" depth="4" NCoef="0" IVar="-1" Cut="0.0000000000000000e+00" cType="1" res="1.1316146701574326e-02" rms="3.7769567966461182e-01" purity="3.4312200546264648e-01" nType="-99"/>
            </Node>
            <Node pos="r" depth="3" NCoef="0" IVar="-1" Cut="0.0000000000000000e+00" cType="1" res="-2.3572273552417755e-02" rms="2.3190006613731384e-01" purity="1.1489407718181610e-01" nType="-99"/>
          </Node>
          <Node pos="r" depth="2" NCoef="0" IVar="14" Cut="7.4057900905609131e-01" cType="1" res="-1.6707231989130378e-03" rms="2.7737998962402344e-01" purity="1.7093008756637573e-01" nType="0">
            <Node pos="l" depth="3" NCoef="0" IVar="-1" Cut="0.0000000000000000e+00" cType="1" res="-1.8197223544120789e-02" rms="2.5422373414039612e-01" purity="1.1004354804754257e-01" nType="-99"/>
            <Node pos="r" depth="3" NCoef="0" IVar="16" Cut="2.4858298301696777e+00" cType="1" res="-3.6465006996877491e-04" rms="2.7985727787017822e-01" purity="1.7784067988395691e-01" nType="0">
              <Node pos="l" depth="4" NCoef="0" IVar="-1" Cut="0.0000000000000000e+00" cType="1" res="-3.1828903593122959e-03" rms="2.8201156854629517e-01" purity="1.8779604136943817e-01" nType="-99"/>
              <Node pos="r" depth="4" NCoef="0" IVar="-1" Cut="0.0000000000000000e+00" cType="1" res="1.4165127649903297e-02" rms="2.6978734135627747e-01" purity="1.3340961933135986e-01" nType="-99"/>
            </Node>
          </Node>
        </Node>
      </Node>
    </BinaryTree>
    <BinaryTree type="DecisionTree" boostWeight="1.0000000000000000e+00" itree="241">
      <Node pos="s" depth="0" NCoef="0" IVar="15" Cut="1.5260878801345825e+00" cType="1" res="-3.0159799280227162e-06" rms="3.3736932277679443e-01" purity="5.0000000000000000e-01" nType="0">
        <Node pos="l" depth="1" NCoef="0" IVar="1" Cut="1.6699770312500000e+05" cType="1" res="8.1518123624846339e-04" rms="3.5730212926864624e-01" purity="4.8203909397125244e-01" nType="0">
          <Node pos="l" depth="2" NCoef="0" IVar="1" Cut="2.3979626953125000e+04" cType="1" res="1.5697905328124762e-03" rms="3.5896989703178406e-01" purity="4.8457232117652893e-01" nType="0">
            <Node pos="l" depth="3" NCoef="0" IVar="6" Cut="1.1667536718750000e+05" cType="1" res="-5.0270729698240757e-03" rms="3.2668522000312805e-01" purity="2.7001395821571350e-01" nType="0">
              <Node pos="l" depth="4" NCoef="0" IVar="-1" Cut="0.0000000000000000e+00" cType="1" res="-2.4314027279615402e-02" rms="3.0453121662139893e-01" purity="1.7990559339523315e-01" nType="-99"/>
              <Node pos="r" depth="4" NCoef="0" IVar="-1" Cut="0.0000000000000000e+00" cType="1" res="5.1745367236435413e-03" rms="3.3560463786125183e-01" purity="3.1056877970695496e-01" nType="-99"/>
            </Node>
            <Node pos="r" depth="3" NCoef="0" IVar="15" Cut="1.4535570144653320e+00" cType="1" res="2.9094663914293051e-03" rms="3.6516314744949341e-01" purity="5.2814435958862305e-01" nType="0">
              <Node pos="l" depth="4" NCoef="0" IVar="-1" Cut="0.0000000000000000e+00" cType="1" res="1.2970430543646216e-03" rms="3.6493441462516785e-01" purity="5.2738505601882935e-01" nType="-99"/>
              <Node pos="r" depth="4" NCoef="0" IVar="-1" Cut="0.0000000000000000e+00" cType="1" res="1.1527380906045437e-02" rms="3.6745411157608032e-01" purity="5.3655523061752319e-01" nType="-99"/>
            </Node>
          </Node>
          <Node pos="r" depth="2" NCoef="0" IVar="-1" Cut="0.0000000000000000e+00" cType="1" res="-1.1474390514194965e-02" rms="3.2447320222854614e-01" purity="4.3501490354537964e-01" nType="-99"/>
        </Node>
        <Node pos="r" depth="1" NCoef="0" IVar="13" Cut="3.8392155170440674e+00" cType="1" res="-4.1828607209026814e-04" rms="3.2678699493408203e-01" purity="5.0911593437194824e-01" nType="0">
          <Node pos="l" depth="2" NCoef="0" IVar="5" Cut="6.0535506250000000e+05" cType="1" res="-7.0414604851976037e-04" rms="3.2633662223815918e-01" purity="5.1062887907028198e-01" nType="0">
            <Node pos="l" depth="3" NCoef="0" IVar="16" Cut="3.2300150394439697e+00" cType="1" res="-9.7033515339717269e-04" rms="3.2727006077766418e-01" purity="5.1780170202255249e-01" nType="0">
              <Node pos="l" depth="4" NCoef="0" IVar="-1" Cut="0.0000000000000000e+00" cType="1" res="-1.1206038761883974e-03" rms="3.2707619667053223e-01" purity="5.2304220199584961e-01" nType="-99"/>
              <Node pos="r" depth="4" NCoef="0" IVar="-1" Cut="0.0000000000000000e+00" cType="1" res="1.1351345106959343e-02" rms="3.3614838123321533e-01" purity="2.6593720912933350e-01" nType="-99"/>
            </Node>
            <Node pos="r" depth="3" NCoef="0" IVar="-1" Cut="0.0000000000000000e+00" cType="1" res="1.7188709229230881e-02" rms="2.7644202113151550e-01" purity="1.5908037126064301e-01" nType="-99"/>
          </Node>
          <Node pos="r" depth="2" NCoef="0" IVar="-1" Cut="0.0000000000000000e+00" cType="1" res="9.8250871524214745e-03" rms="3.4550181031227112e-01" purity="4.4359046220779419e-01" nType="-99"/>
        </Node>
      </Node>
    </BinaryTree>
    <BinaryTree type="DecisionTree" boostWeight="1.0000000000000000e+00" itree="242">
      <Node pos="s" depth="0" NCoef="0" IVar="0" Cut="5.3333334922790527e+00" cType="1" res="-3.5527100408216938e-06" rms="3.3734521269798279e-01" purity="5.0000000000000000e-01" nType="0">
        <Node pos="l" depth="1" NCoef="0" IVar="12" Cut="3.3343746662139893e+00" cType="1" res="5.1491532940417528e-04" rms="3.2663914561271667e-01" purity="5.9258693456649780e-01" nType="0">
          <Node pos="l" depth="2" NCoef="0" IVar="2" Cut="5.9644443750000000e+05" cType="1" res="1.2635870371013880e-03" rms="3.2825550436973572e-01" purity="5.9925371408462524e-01" nType="0">
            <Node pos="l" depth="3" NCoef="0" IVar="2" Cut="1.9877070312500000e+05" cType="1" res="-2.6904765400104225e-04" rms="3.3195471763610840e-01" purity="6.4507627487182617e-01" nType="0">
              <Node pos="l" depth="4" NCoef="0" IVar="-1" Cut="0.0000000000000000e+00" cType="1" res="9.8311379551887512e-03" rms="3.6805173754692078e-01" purity="5.8109688758850098e-01" nType="-99"/>
              <Node pos="r" depth="4" NCoef="0" IVar="-1" Cut="0.0000000000000000e+00" cType="1" res="-2.0571104250848293e-03" rms="3.2661920785903931e-01" purity="6.5388947725296021e-01" nType="-99"/>
            </Node>
            <Node pos="r" depth="3" NCoef="0" IVar="17" Cut="1.5025273437500000e+05" cType="1" res="8.2770343869924545e-03" rms="3.1067001819610596e-01" purity="3.8956651091575623e-01" nType="0">
              <Node pos="l" depth="4" NCoef="0" IVar="-1" Cut="0.0000000000000000e+00" cType="1" res="1.3544400222599506e-02" rms="3.2910111546516418e-01" purity="4.1319823265075684e-01" nType="-99"/>
              <Node pos="r" depth="4" NCoef="0" IVar="-1" Cut="0.0000000000000000e+00" cType="1" res="1.0716079850681126e-04" rms="2.8625342249870300e-01" purity="3.6060076951980591e-01" nType="-99"/>
            </Node>
          </Node>
          <Node pos="r" depth="2" NCoef="0" IVar="16" Cut="1.6939322948455811e+00" cType="1" res="-6.8940063938498497e-03" rms="3.1009203195571899e-01" purity="5.2661186456680298e-01" nType="0">
            <Node pos="l" depth="3" NCoef="0" IVar="-1" Cut="0.0000000000000000e+00" cType="1" res="4.1112527251243591e-03" rms="3.0490913987159729e-01" purity="6.5909284353256226e-01" nType="-99"/>
            <Node pos="r" depth="3" NCoef="0" IVar="-1" Cut="0.0000000000000000e+00" cType="1" res="-2.0099379122257233e-02" rms="3.1689006090164185e-01" purity="3.3180168271064758e-01" nType="-99"/>
          </Node>
        </Node>
        <Node pos="r" depth="1" NCoef="0" IVar="12" Cut="3.4113523960113525e+00" cType="1" res="-4.9552810378372669e-04" rms="3.4719839692115784e-01" purity="4.1214406490325928e-01" nType="0">
          <Node pos="l" depth="2" NCoef="0" IVar="15" Cut="3.1936867237091064e+00" cType="1" res="-1.1354135349392891e-03" rms="3.4870463609695435e-01" purity="4.1604068875312805e-01" nType="0">
            <Node pos="l" depth="3" NCoef="0" IVar="18" Cut="3.0302253125000000e+05" cType="1" res="-7.3740567313507199e-04" rms="3.4915772080421448e-01" purity="4.1916662454605103e-01" nType="0">
              <Node pos="l" depth="4" NCoef="0" IVar="-1" Cut="0.0000000000000000e+00" cType="1" res="-2.0341134222690016e-04" rms="3.5211032629013062e-01" purity="4.2705705761909485e-01" nType="-99"/>
              <Node pos="r" depth="4" NCoef="0" IVar="-1" Cut="0.0000000000000000e+00" cType="1" res="-2.4487596005201340e-02" rms="2.3500975966453552e-01" purity="1.6595967113971710e-01" nType="-99"/>
            </Node>
            <Node pos="r" depth="3" NCoef="0" IVar="-1" Cut="0.0000000000000000e+00" cType="1" res="-1.2344009242951870e-02" rms="3.3223003149032593e-01" purity="3.0708894133567810e-01" nType="-99"/>
          </Node>
          <Node pos="r" depth="2" NCoef="0" IVar="19" Cut="8.0989664062500000e+04" cType="1" res="6.4002275466918945e-03" rms="3.3045229315757751e-01" purity="3.7015232443809509e-01" nType="0">
            <Node pos="l" depth="3" NCoef="0" IVar="16" Cut="1.5673465728759766e+00" cType="1" res="1.3114244677126408e-02" rms="3.4700214862823486e-01" purity="4.6946412324905396e-01" nType="0">
              <Node pos="l" depth="4" NCoef="0" IVar="-1" Cut="0.0000000000000000e+00" cType="1" res="1.9293826771900058e-03" rms="3.4325340390205383e-01" purity="5.7638758420944214e-01" nType="-99"/>
              <Node pos="r" depth="4" NCoef="0" IVar="-1" Cut="0.0000000000000000e+00" cType="1" res="2.6360109448432922e-02" rms="3.5260081291198730e-01" purity="2.8520247340202332e-01" nType="-99"/>
            </Node>
            <Node pos="r" depth="3" NCoef="0" IVar="-1" Cut="0.0000000000000000e+00" cType="1" res="-6.6820099018514156e-03" rms="2.9602244496345520e-01" purity="1.8129715323448181e-01" nType="-99"/>
          </Node>
        </Node>
      </Node>
    </BinaryTree>
    <BinaryTree type="DecisionTree" boostWeight="1.0000000000000000e+00" itree="243">
      <Node pos="s" depth="0" NCoef="0" IVar="15" Cut="3.0486736297607422e+00" cType="1" res="-3.3587693906156346e-06" rms="3.3730626106262207e-01" purity="5.0000000000000000e-01" nType="0">
        <Node pos="l" depth="1" NCoef="0" IVar="18" Cut="3.6590390625000000e+05" cType="1" res="-1.4744146028533578e-04" rms="3.3785116672515869e-01" purity="5.0211989879608154e-01" nType="0">
          <Node pos="l" depth="2" NCoef="0" IVar="19" Cut="2.0238096875000000e+05" cType="1" res="-2.4599352036602795e-04" rms="3.3895856142044067e-01" purity="5.0657433271408081e-01" nType="0">
            <Node pos="l" depth="3" NCoef="0" IVar="19" Cut="1.7336357812500000e+05" cType="1" res="1.2755680654663593e-04" rms="3.4131109714508057e-01" purity="5.2809524536132812e-01" nType="0">
              <Node pos="l" depth="4" NCoef="0" IVar="-1" Cut="0.0000000000000000e+00" cType="1" res="-2.1557082072831690e-04" rms="3.4109836816787720e-01" purity="5.3511506319046021e-01" nType="-99"/>
              <Node pos="r" depth="4" NCoef="0" IVar="-1" Cut="0.0000000000000000e+00" cType="1" res="1.0945336893200874e-02" rms="3.4813719987869263e-01" purity="2.9194205999374390e-01" nType="-99"/>
            </Node>
            <Node pos="r" depth="3" NCoef="0" IVar="6" Cut="2.0151935937500000e+05" cType="1" res="-5.3148991428315639e-03" rms="3.0520364642143250e-01" purity="2.1454536914825439e-01" nType="0">
              <Node pos="l" depth="4" NCoef="0" IVar="-1" Cut="0.0000000000000000e+00" cType="1" res="-1.3542107306420803e-02" rms="3.6206117272377014e-01" purity="2.7379471063613892e-01" nType="-99"/>
              <Node pos="r" depth="4" NCoef="0" IVar="-1" Cut="0.0000000000000000e+00" cType="1" res="9.5492042601108551e-04" rms="2.7722463011741638e-01" purity="1.8929158151149750e-01" nType="-99"/>
            </Node>
          </Node>
          <Node pos="r" depth="2" NCoef="0" IVar="-1" Cut="0.0000000000000000e+00" cType="1" res="1.1150672100484371e-02" rms="2.4592071771621704e-01" purity="1.8347585201263428e-01" nType="-99"/>
        </Node>
        <Node pos="r" depth="1" NCoef="0" IVar="1" Cut="4.6042863281250000e+04" cType="1" res="2.5105159729719162e-03" rms="3.2764327526092529e-01" purity="4.6301230788230896e-01" nType="0">
          <Node pos="l" depth="2" NCoef="0" IVar="13" Cut="2.4276838302612305e+00" cType="1" res="-6.6889673471450806e-03" rms="3.2276803255081177e-01" purity="3.2553791999816895e-01" nType="0">
            <Node pos="l" depth="3" NCoef="0" IVar="-1" Cut="0.0000000000000000e+00" cType="1" res="7.7550751157104969e-03" rms="3.0190923810005188e-01" purity="1.9359233975410461e-01" nType="-99"/>
            <Node pos="r" depth="3" NCoef="0" IVar="-1" Cut="0.0000000000000000e+00" cType="1" res="-1.6814818605780602e-02" rms="3.4195351600646973e-01" purity="4.5859694480895996e-01" nType="-99"/>
          </Node>
          <Node pos="r" depth="2" NCoef="0" IVar="12" Cut="2.5153579711914062e+00" cType="1" res="9.0335803106427193e-03" rms="3.3090174198150635e-01" purity="5.6049108505249023e-01" nType="0">
            <Node pos="l" depth="3" NCoef="0" IVar="-1" Cut="0.0000000000000000e+00" cType="1" res="1.6038399189710617e-02" rms="3.5959035158157349e-01" purity="4.7715410590171814e-01" nType="-99"/>
            <Node pos="r" depth="3" NCoef="0" IVar="-1" Cut="0.0000000000000000e+00" cType="1" res="1.2921922607347369e-03" rms="3.1000933051109314e-01" purity="6.1619645357131958e-01" nType="-99"/>
          </Node>
        </Node>
      </Node>
    </BinaryTree>
    <BinaryTree type="DecisionTree" boostWeight="1.0000000000000000e+00" itree="244">
      <Node pos="s" depth="0" NCoef="0" IVar="14" Cut="2.8268120288848877e+00" cType="1" res="-3.1017345918371575e-06" rms="3.3728900551795959e-01" purity="5.0000000000000000e-01" nType="0">
        <Node pos="l" depth="1" NCoef="0" IVar="14" Cut="2.6924118995666504e+00" cType="1" res="-1.9330499344505370e-04" rms="3.3944597840309143e-01" purity="4.9454963207244873e-01" nType="0">
          <Node pos="l" depth="2" NCoef="0" IVar="14" Cut="2.5644016265869141e+00" cType="1" res="6.9595618697348982e-05" rms="3.4080931544303894e-01" purity="4.9117803573608398e-01" nType="0">
            <Node pos="l" depth="3" NCoef="0" IVar="11" Cut="2.8033944964408875e-01" cType="1" res="-2.1561712492257357e-04" rms="3.4153649210929871e-01" purity="4.8657175898551941e-01" nType="0">
              <Node pos="l" depth="4" NCoef="0" IVar="-1" Cut="0.0000000000000000e+00" cType="1" res="8.5088536143302917e-03" rms="3.1018972396850586e-01" purity="7.5460869073867798e-01" nType="-99"/>
              <Node pos="r" depth="4" NCoef="0" IVar="-1" Cut="0.0000000000000000e+00" cType="1" res="-3.4628622233867645e-04" rms="3.4223157167434692e-01" purity="4.8031091690063477e-01" nType="-99"/>
            </Node>
            <Node pos="r" depth="3" NCoef="0" IVar="16" Cut="1.2353849411010742e+00" cType="1" res="4.6834144741296768e-03" rms="3.2878804206848145e-01" purity="5.6569314002990723e-01" nType="0">
              <Node pos="l" depth="4" NCoef="0" IVar="-1" Cut="0.0000000000000000e+00" cType="1" res="-2.6976510416716337e-03" rms="3.0012464523315430e-01" purity="7.3631036281585693e-01" nType="-99"/>
              <Node pos="r" depth="4" NCoef="0" IVar="-1" Cut="0.0000000000000000e+00" cType="1" res="9.4680869951844215e-03" rms="3.5635676980018616e-01" purity="3.8586416840553284e-01" nType="-99"/>
            </Node>
          </Node>
          <Node pos="r" depth="2" NCoef="0" IVar="16" Cut="1.2130849361419678e+00" cType="1" res="-5.0653475336730480e-03" rms="3.1306868791580200e-01" purity="5.5703276395797729e-01" nType="0">
            <Node pos="l" depth="3" NCoef="0" IVar="-1" Cut="0.0000000000000000e+00" cType="1" res="4.4058496132493019e-03" rms="2.8834885358810425e-01" purity="7.5566703081130981e-01" nType="-99"/>
            <Node pos="r" depth="3" NCoef="0" IVar="14" Cut="2.7564425468444824e+00" cType="1" res="-1.5005035325884819e-02" rms="3.3813369274139404e-01" purity="3.3644422888755798e-01" nType="0">
              <Node pos="l" depth="4" NCoef="0" IVar="-1" Cut="0.0000000000000000e+00" cType="1" res="-1.7841845750808716e-02" rms="3.3439981937408447e-01" purity="3.2856333255767822e-01" nType="-99"/>
              <Node pos="r" depth="4" NCoef="0" IVar="-1" Cut="0.0000000000000000e+00" cType="1" res="-6.0385270044207573e-03" rms="3.4158557653427124e-01" purity="3.4415176510810852e-01" nType="-99"/>
            </Node>
          </Node>
        </Node>
        <Node pos="r" depth="1" NCoef="0" IVar="9" Cut="9.8890570312500000e+04" cType="1" res="1.4522483106702566e-03" rms="3.2030045986175537e-01" purity="5.4170334339141846e-01" nType="0">
          <Node pos="l" depth="2" NCoef="0" IVar="9" Cut="6.4251871093750000e+04" cType="1" res="-4.0441118180751801e-03" rms="3.6101448535919189e-01" purity="5.0402575731277466e-01" nType="0">
            <Node pos="l" depth="3" NCoef="0" IVar="13" Cut="1.7497515678405762e+00" cType="1" res="-1.8690545111894608e-02" rms="3.8342362642288208e-01" purity="4.3560960888862610e-01" nType="0">
              <Node pos="l" depth="4" NCoef="0" IVar="-1" Cut="0.0000000000000000e+00" cType="1" res="-1.0849791578948498e-03" rms="3.8943350315093994e-01" purity="3.0442923307418823e-01" nType="-99"/>
              <Node pos="r" depth="4" NCoef="0" IVar="-1" Cut="0.0000000000000000e+00" cType="1" res="-2.2601421922445297e-02" rms="3.7721526622772217e-01" purity="5.5475646257400513e-01" nType="-99"/>
            </Node>
            <Node pos="r" depth="3" NCoef="0" IVar="-1" Cut="0.0000000000000000e+00" cType="1" res="8.6468327790498734e-03" rms="3.3670464158058167e-01" purity="5.7185024023056030e-01" nType="-99"/>
          </Node>
          <Node pos="r" depth="2" NCoef="0" IVar="2" Cut="4.2828806250000000e+05" cType="1" res="4.9784341827034950e-03" rms="2.9114362597465515e-01" purity="5.6587535142898560e-01" nType="0">
            <Node pos="l" depth="3" NCoef="0" IVar="-1" Cut="0.0000000000000000e+00" cType="1" res="1.7336269840598106e-02" rms="3.0248412489891052e-01" purity="7.3892849683761597e-01" nType="-99"/>
            <Node pos="r" depth="3" NCoef="0" IVar="16" Cut="1.5271136760711670e+00" cType="1" res="-1.7389995045959949e-03" rms="2.8438174724578857e-01" purity="4.6907120943069458e-01" nType="0">
              <Node pos="l" depth="4" NCoef="0" IVar="-1" Cut="0.0000000000000000e+00" cType="1" res="-1.2718195095658302e-02" rms="2.7475735545158386e-01" purity="6.1594617366790771e-01" nType="-99"/>
              <Node pos="r" depth="4" NCoef="0" IVar="-1" Cut="0.0000000000000000e+00" cType="1" res="1.1355432681739330e-02" rms="2.9677990078926086e-01" purity="2.6573210954666138e-01" nType="-99"/>
            </Node>
          </Node>
        </Node>
      </Node>
    </BinaryTree>
    <BinaryTree type="DecisionTree" boostWeight="1.0000000000000000e+00" itree="245">
      <Node pos="s" depth="0" NCoef="0" IVar="15" Cut="3.0486736297607422e+00" cType="1" res="-1.7973391095438274e-06" rms="3.3725649118423462e-01" purity="5.0000000000000000e-01" nType="0">
        <Node pos="l" depth="1" NCoef="0" IVar="15" Cut="1.3085736036300659e+00" cType="1" res="-1.2142909690737724e-04" rms="3.3781141042709351e-01" purity="5.0211989879608154e-01" nType="0">
          <Node pos="l" depth="2" NCoef="0" IVar="18" Cut="1.1213061718750000e+05" cType="1" res="9.8990008700639009e-04" rms="3.5952705144882202e-01" purity="4.8421031236648560e-01" nType="0">
            <Node pos="l" depth="3" NCoef="0" IVar="1" Cut="5.9176351562500000e+04" cType="1" res="2.0831273868680000e-03" rms="3.6304360628128052e-01" purity="4.9664881825447083e-01" nType="0">
              <Node pos="l" depth="4" NCoef="0" IVar="-1" Cut="0.0000000000000000e+00" cType="1" res="4.8734270967543125e-03" rms="3.6163955926895142e-01" purity="4.0612795948982239e-01" nType="-99"/>
              <Node pos="r" depth="4" NCoef="0" IVar="-1" Cut="0.0000000000000000e+00" cType="1" res="-2.2121872752904892e-03" rms="3.6455190181732178e-01" purity="5.9864974021911621e-01" nType="-99"/>
            </Node>
            <Node pos="r" depth="3" NCoef="0" IVar="-1" Cut="0.0000000000000000e+00" cType="1" res="-3.4899126738309860e-02" rms="2.5772920250892639e-01" purity="1.8025445938110352e-01" nType="-99"/>
          </Node>
          <Node pos="r" depth="2" NCoef="0" IVar="12" Cut="2.6074326038360596e+00" cType="1" res="-5.3411093540489674e-04" rms="3.2938221096992493e-01" purity="5.0877052545547485e-01" nType="0">
            <Node pos="l" depth="3" NCoef="0" IVar="19" Cut="3.0393450000000000e+05" cType="1" res="-2.3897564969956875e-03" rms="3.4555411338806152e-01" purity="4.5180952548980713e-01" nType="0">
              <Node pos="l" depth="4" NCoef="0" IVar="-1" Cut="0.0000000000000000e+00" cType="1" res="-2.5736971292644739e-03" rms="3.4783256053924561e-01" purity="4.6350738406181335e-01" nType="-99"/>
              <Node pos="r" depth="4" NCoef="0" IVar="-1" Cut="0.0000000000000000e+00" cType="1" res="2.6310015469789505e-02" rms="2.8185486793518066e-01" purity="1.5975998342037201e-01" nType="-99"/>
            </Node>
            <Node pos="r" depth="3" NCoef="0" IVar="16" Cut="2.4059305191040039e+00" cType="1" res="9.0868351981043816e-04" rms="3.1622982025146484e-01" purity="5.5305862426757812e-01" nType="0">
              <Node pos="l" depth="4" NCoef="0" IVar="-1" Cut="0.0000000000000000e+00" cType="1" res="5.6635481087141670e-06" rms="3.1541576981544495e-01" purity="5.9184885025024414e-01" nType="-99"/>
              <Node pos="r" depth="4" NCoef="0" IVar="-1" Cut="0.0000000000000000e+00" cType="1" res="6.8510198034346104e-03" rms="3.2199862599372864e-01" purity="2.7161857485771179e-01" nType="-99"/>
            </Node>
          </Node>
        </Node>
        <Node pos="r" depth="1" NCoef="0" IVar="12" Cut="2.0032291412353516e+00" cType="1" res="2.0854712929576635e-03" rms="3.2741618156433105e-01" purity="4.6301230788230896e-01" nType="0">
          <Node pos="l" depth="2" NCoef="0" IVar="-1" Cut="0.0000000000000000e+00" cType="1" res="-1.2503297068178654e-02" rms="3.3084464073181152e-01" purity="2.7484464645385742e-01" nType="-99"/>
          <Node pos="r" depth="2" NCoef="0" IVar="12" Cut="2.5154743194580078e+00" cType="1" res="6.4992923289537430e-03" rms="3.2638135552406311e-01" purity="5.1149451732635498e-01" nType="0">
            <Node pos="l" depth="3" NCoef="0" IVar="-1" Cut="0.0000000000000000e+00" cType="1" res="2.4680260568857193e-02" rms="3.5219219326972961e-01" purity="4.9794942140579224e-01" nType="-99"/>
            <Node pos="r" depth="3" NCoef="0" IVar="8" Cut="5.7079109375000000e+04" cType="1" res="-1.3203240232542157e-03" rms="3.1679606437683105e-01" purity="5.1607525348663330e-01" nType="0">
              <Node pos="l" depth="4" NCoef="0" IVar="-1" Cut="0.0000000000000000e+00" cType="1" res="-8.3365011960268021e-03" rms="3.3830913901329041e-01" purity="7.2443944215774536e-01" nType="-99"/>
              <Node pos="r" depth="4" NCoef="0" IVar="-1" Cut="0.0000000000000000e+00" cType="1" res="1.1327120475471020e-02" rms="2.8712755441665649e-01" purity="2.5428020954132080e-01" nType="-99"/>
            </Node>
          </Node>
        </Node>
      </Node>
    </BinaryTree>
    <BinaryTree type="DecisionTree" boostWeight="1.0000000000000000e+00" itree="246">
      <Node pos="s" depth="0" NCoef="0" IVar="12" Cut="2.0714859962463379e+00" cType="1" res="-2.4689206838957034e-06" rms="3.3721607923507690e-01" purity="5.0000000000000000e-01" nType="0">
        <Node pos="l" depth="1" NCoef="0" IVar="13" Cut="2.3250331878662109e+00" cType="1" res="1.1116615496575832e-03" rms="3.5669741034507751e-01" purity="3.7926226854324341e-01" nType="0">
          <Node pos="l" depth="2" NCoef="0" IVar="20" Cut="3.5363187500000000e+04" cType="1" res="-2.2231307812035084e-03" rms="3.5133996605873108e-01" purity="3.0634385347366333e-01" nType="0">
            <Node pos="l" depth="3" NCoef="0" IVar="14" Cut="2.3933877944946289e+00" cType="1" res="2.9854963067919016e-03" rms="3.7856909632682800e-01" purity="3.6676406860351562e-01" nType="0">
              <Node pos="l" depth="4" NCoef="0" IVar="-1" Cut="0.0000000000000000e+00" cType="1" res="5.9283701702952385e-03" rms="3.8319137692451477e-01" purity="3.8240087032318115e-01" nType="-99"/>
              <Node pos="r" depth="4" NCoef="0" IVar="-1" Cut="0.0000000000000000e+00" cType="1" res="-6.1551555991172791e-03" rms="3.6869424581527710e-01" purity="3.3495616912841797e-01" nType="-99"/>
            </Node>
            <Node pos="r" depth="3" NCoef="0" IVar="11" Cut="9.4556015729904175e-01" cType="1" res="-1.0511948727071285e-02" rms="3.0281984806060791e-01" purity="2.1019333600997925e-01" nType="0">
              <Node pos="l" depth="4" NCoef="0" IVar="-1" Cut="0.0000000000000000e+00" cType="1" res="4.2633921839296818e-03" rms="3.0753752589225769e-01" purity="2.4097362160682678e-01" nType="-99"/>
              <Node pos="r" depth="4" NCoef="0" IVar="-1" Cut="0.0000000000000000e+00" cType="1" res="-2.3456625640392303e-02" rms="2.9810622334480286e-01" purity="1.8360204994678497e-01" nType="-99"/>
            </Node>
          </Node>
          <Node pos="r" depth="2" NCoef="0" IVar="4" Cut="1.9243240625000000e+05" cType="1" res="8.4049748256802559e-03" rms="3.6803743243217468e-01" purity="5.3873753547668457e-01" nType="0">
            <Node pos="l" depth="3" NCoef="0" IVar="-1" Cut="0.0000000000000000e+00" cType="1" res="-7.0359385572373867e-03" rms="4.0846538543701172e-01" purity="5.3510797023773193e-01" nType="-99"/>
            <Node pos="r" depth="3" NCoef="0" IVar="9" Cut="6.2774605468750000e+04" cType="1" res="1.3333195820450783e-02" rms="3.5749760270118713e-01" purity="5.3960716724395752e-01" nType="0">
              <Node pos="l" depth="4" NCoef="0" IVar="-1" Cut="0.0000000000000000e+00" cType="1" res="2.0950201898813248e-02" rms="3.7286794185638428e-01" purity="7.4032658338546753e-01" nType="-99"/>
              <Node pos="r" depth="4" NCoef="0" IVar="-1" Cut="0.0000000000000000e+00" cType="1" res="1.6767330234870315e-03" rms="3.4754064679145813e-01" purity="4.2009419202804565e-01" nType="-99"/>
            </Node>
          </Node>
        </Node>
        <Node pos="r" depth="1" NCoef="0" IVar="13" Cut="1.6455202102661133e+00" cType="1" res="-2.8242921689525247e-04" rms="3.3214062452316284e-01" purity="5.3033912181854248e-01" nType="0">
          <Node pos="l" depth="2" NCoef="0" IVar="11" Cut="1.5501588582992554e+00" cType="1" res="3.0040626879781485e-03" rms="2.9271197319030762e-01" purity="1.9300863146781921e-01" nType="0">
            <Node pos="l" depth="3" NCoef="0" IVar="16" Cut="1.6576004028320312e+00" cType="1" res="1.7828218638896942e-02" rms="3.5962194204330444e-01" purity="3.4698864817619324e-01" nType="0">
              <Node pos="l" depth="4" NCoef="0" IVar="-1" Cut="0.0000000000000000e+00" cType="1" res="1.8924027681350708e-02" rms="3.8280442357063293e-01" purity="4.5663109421730042e-01" nType="-99"/>
              <Node pos="r" depth="4" NCoef="0" IVar="-1" Cut="0.0000000000000000e+00" cType="1" res="6.8705203011631966e-03" rms="3.3469349145889282e-01" purity="2.3792500793933868e-01" nType="-99"/>
            </Node>
            <Node pos="r" depth="3" NCoef="0" IVar="2" Cut="3.2719778125000000e+05" cType="1" res="-9.6543546533212066e-04" rms="2.7187877893447876e-01" purity="1.5177704393863678e-01" nType="0">
              <Node pos="l" depth="4" NCoef="0" IVar="-1" Cut="0.0000000000000000e+00" cType="1" res="-7.4109062552452087e-03" rms="3.1078842282295227e-01" purity="2.1585135161876678e-01" nType="-99"/>
              <Node pos="r" depth="4" NCoef="0" IVar="-1" Cut="0.0000000000000000e+00" cType="1" res="1.0825303383171558e-02" rms="2.2829410433769226e-01" purity="9.0424112975597382e-02" nType="-99"/>
            </Node>
          </Node>
          <Node pos="r" depth="2" NCoef="0" IVar="14" Cut="5.1808136701583862e-01" cType="1" res="-7.4739841511473060e-04" rms="3.3734443783760071e-01" purity="5.7806426286697388e-01" nType="0">
            <Node pos="l" depth="3" NCoef="0" IVar="-1" Cut="0.0000000000000000e+00" cType="1" res="-6.8855797871947289e-03" rms="3.5469612479209900e-01" purity="5.2576339244842529e-01" nType="-99"/>
            <Node pos="r" depth="3" NCoef="0" IVar="19" Cut="1.2900694531250000e+05" cType="1" res="-5.0927739357575774e-04" rms="3.3682599663734436e-01" purity="5.7957786321640015e-01" nType="0">
              <Node pos="l" depth="4" NCoef="0" IVar="-1" Cut="0.0000000000000000e+00" cType="1" res="1.2804808648070320e-05" rms="3.3568406105041504e-01" purity="6.2732863426208496e-01" nType="-99"/>
              <Node pos="r" depth="4" NCoef="0" IVar="-1" Cut="0.0000000000000000e+00" cType="1" res="-2.8148095589131117e-03" rms="3.4320569038391113e-01" purity="3.0917692184448242e-01" nType="-99"/>
            </Node>
          </Node>
        </Node>
      </Node>
    </BinaryTree>
    <BinaryTree type="DecisionTree" boostWeight="1.0000000000000000e+00" itree="247">
      <Node pos="s" depth="0" NCoef="0" IVar="14" Cut="3.3399713039398193e+00" cType="1" res="-2.6865684503718512e-06" rms="3.3717319369316101e-01" purity="5.0000000000000000e-01" nType="0">
        <Node pos="l" depth="1" NCoef="0" IVar="0" Cut="5.3333334922790527e+00" cType="1" res="-6.8184388510417193e-05" rms="3.3725595474243164e-01" purity="5.0139945745468140e-01" nType="0">
          <Node pos="l" depth="2" NCoef="0" IVar="10" Cut="9.8189859375000000e+04" cType="1" res="5.2412052173167467e-04" rms="3.2668334245681763e-01" purity="5.9393203258514404e-01" nType="0">
            <Node pos="l" depth="3" NCoef="0" IVar="1" Cut="5.1289734375000000e+04" cType="1" res="3.3690514974296093e-03" rms="3.4853872656822205e-01" purity="5.4594713449478149e-01" nType="0">
              <Node pos="l" depth="4" NCoef="0" IVar="-1" Cut="0.0000000000000000e+00" cType="1" res="7.4273049831390381e-03" rms="3.4526014328002930e-01" purity="4.2110064625740051e-01" nType="-99"/>
              <Node pos="r" depth="4" NCoef="0" IVar="-1" Cut="0.0000000000000000e+00" cType="1" res="-1.2400152627378702e-03" rms="3.5120481252670288e-01" purity="6.5127217769622803e-01" nType="-99"/>
            </Node>
            <Node pos="r" depth="3" NCoef="0" IVar="6" Cut="1.8148850000000000e+05" cType="1" res="-1.6948350239545107e-03" rms="3.0854591727256775e-01" purity="6.3135874271392822e-01" nType="0">
              <Node pos="l" depth="4" NCoef="0" IVar="-1" Cut="0.0000000000000000e+00" cType="1" res="-5.5796019732952118e-03" rms="3.4189230203628540e-01" purity="6.9100004434585571e-01" nType="-99"/>
              <Node pos="r" depth="4" NCoef="0" IVar="-1" Cut="0.0000000000000000e+00" cType="1" res="1.6284601297229528e-03" rms="2.8620985150337219e-01" purity="5.9489953517913818e-01" nType="-99"/>
            </Node>
          </Node>
          <Node pos="r" depth="2" NCoef="0" IVar="16" Cut="2.9688622951507568e+00" cType="1" res="-6.3342816429212689e-04" rms="3.4704437851905823e-01" purity="4.1309455037117004e-01" nType="0">
            <Node pos="l" depth="3" NCoef="0" IVar="11" Cut="2.1707923412322998e+00" cType="1" res="-1.8135823484044522e-04" rms="3.4825906157493591e-01" purity="4.2352810502052307e-01" nType="0">
              <Node pos="l" depth="4" NCoef="0" IVar="-1" Cut="0.0000000000000000e+00" cType="1" res="-8.2116585690528154e-04" rms="3.5814058780670166e-01" purity="4.6402940154075623e-01" nType="-99"/>
              <Node pos="r" depth="4" NCoef="0" IVar="-1" Cut="0.0000000000000000e+00" cType="1" res="9.2101991176605225e-03" rms="2.6455962657928467e-01" purity="1.2622408568859100e-01" nType="-99"/>
            </Node>
            <Node pos="r" depth="3" NCoef="0" IVar="18" Cut="7.8698781250000000e+04" cType="1" res="-9.7648994997143745e-03" rms="3.2139208912849426e-01" purity="2.0234523713588715e-01" nType="0">
              <Node pos="l" depth="4" NCoef="0" IVar="-1" Cut="0.0000000000000000e+00" cType="1" res="-2.1236343309283257e-02" rms="3.3915370702743530e-01" purity="2.1843245625495911e-01" nType="-99"/>
              <Node pos="r" depth="4" NCoef="0" IVar="-1" Cut="0.0000000000000000e+00" cType="1" res="6.5531972795724869e-03" rms="3.0308106541633606e-01" purity="1.8743187189102173e-01" nType="-99"/>
            </Node>
          </Node>
        </Node>
        <Node pos="r" depth="1" NCoef="0" IVar="-1" Cut="0.0000000000000000e+00" cType="1" res="3.5502328537404537e-03" rms="3.3205702900886536e-01" purity="4.1457158327102661e-01" nType="-99"/>
      </Node>
    </BinaryTree>
    <BinaryTree type="DecisionTree" boostWeight="1.0000000000000000e+00" itree="248">
      <Node pos="s" depth="0" NCoef="0" IVar="14" Cut="2.8268120288848877e+00" cType="1" res="-2.7761018372984836e-06" rms="3.3714717626571655e-01" purity="5.0000000000000000e-01" nType="0">
        <Node pos="l" depth="1" NCoef="0" IVar="19" Cut="2.5873704687500000e+05" cType="1" res="-1.6792847600299865e-04" rms="3.3932870626449585e-01" purity="4.9454963207244873e-01" nType="0">
          <Node pos="l" depth="2" NCoef="0" IVar="16" Cut="2.8088903427124023e+00" cType="1" res="7.6210591942071915e-05" rms="3.4166726469993591e-01" purity="5.0873380899429321e-01" nType="0">
            <Node pos="l" depth="3" NCoef="0" IVar="19" Cut="1.9695901562500000e+05" cType="1" res="-3.8582587148994207e-04" rms="3.4110137820243835e-01" purity="5.1957142353057861e-01" nType="0">
              <Node pos="l" depth="4" NCoef="0" IVar="-1" Cut="0.0000000000000000e+00" cType="1" res="-5.6102639064192772e-04" rms="3.4152039885520935e-01" purity="5.2848333120346069e-01" nType="-99"/>
              <Node pos="r" depth="4" NCoef="0" IVar="-1" Cut="0.0000000000000000e+00" cType="1" res="8.1741744652390480e-03" rms="3.2798895239830017e-01" purity="2.4888901412487030e-01" nType="-99"/>
            </Node>
            <Node pos="r" depth="3" NCoef="0" IVar="12" Cut="3.0531182289123535e+00" cType="1" res="7.9995412379503250e-03" rms="3.5113468766212463e-01" purity="3.2288300991058350e-01" nType="0">
              <Node pos="l" depth="4" NCoef="0" IVar="-1" Cut="0.0000000000000000e+00" cType="1" res="1.1864219792187214e-02" rms="3.6489021778106689e-01" purity="3.4625044465065002e-01" nType="-99"/>
              <Node pos="r" depth="4" NCoef="0" IVar="-1" Cut="0.0000000000000000e+00" cType="1" res="-1.2309175916016102e-02" rms="3.1183055043220520e-01" purity="2.6257058978080750e-01" nType="-99"/>
            </Node>
          </Node>
          <Node pos="r" depth="2" NCoef="0" IVar="12" Cut="2.7635099887847900e+00" cType="1" res="-5.7558328844606876e-03" rms="2.8046596050262451e-01" purity="1.6990004479885101e-01" nType="0">
            <Node pos="l" depth="3" NCoef="0" IVar="12" Cut="2.0297794342041016e+00" cType="1" res="-1.2635733000934124e-02" rms="2.7205774188041687e-01" purity="1.4611971378326416e-01" nType="0">
              <Node pos="l" depth="4" NCoef="0" IVar="-1" Cut="0.0000000000000000e+00" cType="1" res="-7.4806497432291508e-03" rms="2.4558761715888977e-01" purity="1.0825796425342560e-01" nType="-99"/>
              <Node pos="r" depth="4" NCoef="0" IVar="-1" Cut="0.0000000000000000e+00" cType="1" res="-1.9986633211374283e-02" rms="2.9392403364181519e-01" purity="1.8056529760360718e-01" nType="-99"/>
            </Node>
            <Node pos="r" depth="3" NCoef="0" IVar="-1" Cut="0.0000000000000000e+00" cType="1" res="4.2313709855079651e-03" rms="2.9155573248863220e-01" purity="2.0318508148193359e-01" nType="-99"/>
          </Node>
        </Node>
        <Node pos="r" depth="1" NCoef="0" IVar="21" Cut="7.0430703125000000e+04" cType="1" res="1.2608958641067147e-03" rms="3.1996023654937744e-01" purity="5.4170334339141846e-01" nType="0">
          <Node pos="l" depth="2" NCoef="0" IVar="3" Cut="9.4082554687500000e+04" cType="1" res="4.3307277373969555e-03" rms="3.4426265954971313e-01" purity="6.4841884374618530e-01" nType="0">
            <Node pos="l" depth="3" NCoef="0" IVar="-1" Cut="0.0000000000000000e+00" cType="1" res="-1.2832826003432274e-02" rms="3.7981176376342773e-01" purity="3.1000429391860962e-01" nType="-99"/>
            <Node pos="r" depth="3" NCoef="0" IVar="9" Cut="1.2066258593750000e+05" cType="1" res="9.2564532533288002e-03" rms="3.3628848195075989e-01" purity="7.1789455413818359e-01" nType="0">
              <Node pos="l" depth="4" NCoef="0" IVar="-1" Cut="0.0000000000000000e+00" cType="1" res="1.4439020305871964e-02" rms="3.5177722573280334e-01" purity="6.8905049562454224e-01" nType="-99"/>
              <Node pos="r" depth="4" NCoef="0" IVar="-1" Cut="0.0000000000000000e+00" cType="1" res="-2.8554268646985292e-03" rms="3.1430229544639587e-01" purity="7.5589621067047119e-01" nType="-99"/>
            </Node>
          </Node>
          <Node pos="r" depth="2" NCoef="0" IVar="9" Cut="1.1353989062500000e+05" cType="1" res="-5.1388656720519066e-03" rms="2.6203396916389465e-01" purity="3.1923055648803711e-01" nType="0">
            <Node pos="l" depth="3" NCoef="0" IVar="-1" Cut="0.0000000000000000e+00" cType="1" res="-2.4656798690557480e-02" rms="3.0164843797683716e-01" purity="2.4642324447631836e-01" nType="-99"/>
            <Node pos="r" depth="3" NCoef="0" IVar="6" Cut="2.3896768750000000e+05" cType="1" res="3.0057795811444521e-03" rms="2.4390557408332825e-01" purity="3.4837910532951355e-01" nType="0">
              <Node pos="l" depth="4" NCoef="0" IVar="-1" Cut="0.0000000000000000e+00" cType="1" res="2.1468345075845718e-02" rms="2.9021376371383667e-01" purity="4.7150364518165588e-01" nType="-99"/>
              <Node pos="r" depth="4" NCoef="0" IVar="-1" Cut="0.0000000000000000e+00" cType="1" res="-3.7135936319828033e-02" rms="1.7787852883338928e-01" purity="2.1244287490844727e-01" nType="-99"/>
            </Node>
          </Node>
        </Node>
      </Node>
    </BinaryTree>
    <BinaryTree type="DecisionTree" boostWeight="1.0000000000000000e+00" itree="249">
      <Node pos="s" depth="0" NCoef="0" IVar="12" Cut="2.0714859962463379e+00" cType="1" res="-2.9973286927997833e-06" rms="3.3710396289825439e-01" purity="5.0000000000000000e-01" nType="0">
        <Node pos="l" depth="1" NCoef="0" IVar="13" Cut="2.3250331878662109e+00" cType="1" res="9.0082007227465510e-04" rms="3.5648074746131897e-01" purity="3.7926226854324341e-01" nType="0">
          <Node pos="l" depth="2" NCoef="0" IVar="3" Cut="7.5791046875000000e+04" cType="1" res="-1.8044660100713372e-03" rms="3.5116499662399292e-01" purity="3.0634385347366333e-01" nType="0">
            <Node pos="l" depth="3" NCoef="0" IVar="1" Cut="5.1487003906250000e+04" cType="1" res="5.4448936134576797e-03" rms="3.9244011044502258e-01" purity="3.6342814564704895e-01" nType="0">
              <Node pos="l" depth="4" NCoef="0" IVar="-1" Cut="0.0000000000000000e+00" cType="1" res="1.3973206281661987e-02" rms="3.5888680815696716e-01" purity="2.3147378861904144e-01" nType="-99"/>
              <Node pos="r" depth="4" NCoef="0" IVar="-1" Cut="0.0000000000000000e+00" cType="1" res="-4.5567471534013748e-03" rms="4.2701745033264160e-01" purity="5.1372778415679932e-01" nType="-99"/>
            </Node>
            <Node pos="r" depth="3" NCoef="0" IVar="15" Cut="2.1828215122222900e+00" cType="1" res="-6.6508562304079533e-03" rms="3.2053008675575256e-01" purity="2.6818147301673889e-01" nType="0">
              <Node pos="l" depth="4" NCoef="0" IVar="-1" Cut="0.0000000000000000e+00" cType="1" res="-1.0704453103244305e-02" rms="3.3238524198532104e-01" purity="2.8171417117118835e-01" nType="-99"/>
              <Node pos="r" depth="4" NCoef="0" IVar="-1" Cut="0.0000000000000000e+00" cType="1" res="-4.9882067833095789e-04" rms="3.0792242288589478e-01" purity="2.5446018576622009e-01" nType="-99"/>
            </Node>
          </Node>
          <Node pos="r" depth="2" NCoef="0" IVar="9" Cut="1.0621345312500000e+05" cType="1" res="6.8173804320394993e-03" rms="3.6776953935623169e-01" purity="5.3873753547668457e-01" nType="0">
            <Node pos="l" depth="3" NCoef="0" IVar="4" Cut="1.8843242187500000e+05" cType="1" res="1.0818757116794586e-02" rms="3.8159042596817017e-01" purity="6.0775643587112427e-01" nType="0">
              <Node pos="l" depth="4" NCoef="0" IVar="-1" Cut="0.0000000000000000e+00" cType="1" res="-7.8584728762507439e-03" rms="4.0969270467758179e-01" purity="5.2205032110214233e-01" nType="-99"/>
              <Node pos="r" depth="4" NCoef="0" IVar="-1" Cut="0.0000000000000000e+00" cType="1" res="1.2008613906800747e-02" rms="3.7295398116111755e-01" purity="6.3203018903732300e-01" nType="-99"/>
            </Node>
            <Node pos="r" depth="3" NCoef="0" IVar="-1" Cut="0.0000000000000000e+00" cType="1" res="-9.7998483106493950e-03" rms="3.0278271436691284e-01" purity="2.5064024329185486e-01" nType="-99"/>
          </Node>
        </Node>
        <Node pos="r" depth="1" NCoef="0" IVar="0" Cut="2.3333332538604736e+00" cType="1" res="-2.3010985751170665e-04" rms="3.3205682039260864e-01" purity="5.3033912181854248e-01" nType="0">
          <Node pos="l" depth="2" NCoef="0" IVar="10" Cut="1.0425649218750000e+05" cType="1" res="1.4309501275420189e-03" rms="3.4695312380790710e-01" purity="4.8123800754547119e-01" nType="0">
            <Node pos="l" depth="3" NCoef="0" IVar="16" Cut="7.4987047910690308e-01" cType="1" res="6.2447395175695419e-03" rms="3.6189287900924683e-01" purity="4.5569634437561035e-01" nType="0">
              <Node pos="l" depth="4" NCoef="0" IVar="-1" Cut="0.0000000000000000e+00" cType="1" res="-6.0415607877075672e-03" rms="3.3616974949836731e-01" purity="6.6598027944564819e-01" nType="-99"/>
              <Node pos="r" depth="4" NCoef="0" IVar="-1" Cut="0.0000000000000000e+00" cType="1" res="6.4208982512354851e-03" rms="3.6707675457000732e-01" purity="4.1093140840530396e-01" nType="-99"/>
            </Node>
            <Node pos="r" depth="3" NCoef="0" IVar="12" Cut="3.2698271274566650e+00" cType="1" res="-2.1311424206942320e-03" rms="3.3542555570602417e-01" purity="5.0013822317123413e-01" nType="0">
              <Node pos="l" depth="4" NCoef="0" IVar="-1" Cut="0.0000000000000000e+00" cType="1" res="1.3654126087203622e-03" rms="3.3707821369171143e-01" purity="5.2664458751678467e-01" nType="-99"/>
              <Node pos="r" depth="4" NCoef="0" IVar="-1" Cut="0.0000000000000000e+00" cType="1" res="-1.7335090786218643e-02" rms="3.2702296972274780e-01" purity="3.7636020779609680e-01" nType="-99"/>
            </Node>
          </Node>
          <Node pos="r" depth="2" NCoef="0" IVar="11" Cut="7.3745375871658325e-01" cType="1" res="-7.7071919804438949e-04" rms="3.2706055045127869e-01" purity="5.4631966352462769e-01" nType="0">
            <Node pos="l" depth="3" NCoef="0" IVar="0" Cut="7.0476188659667969e+00" cType="1" res="2.0990388002246618e-03" rms="3.0098086595535278e-01" purity="7.8395605087280273e-01" nType="0">
              <Node pos="l" depth="4" NCoef="0" IVar="-1" Cut="0.0000000000000000e+00" cType="1" res="5.3777056746184826e-03" rms="2.7710300683975220e-01" purity="8.3878767490386963e-01" nType="-99"/>
              <Node pos="r" depth="4" NCoef="0" IVar="-1" Cut="0.0000000000000000e+00" cType="1" res="-3.9411410689353943e-03" rms="3.6749646067619324e-01" purity="6.0702437162399292e-01" nType="-99"/>
            </Node>
            <Node pos="r" depth="3" NCoef="0" IVar="0" Cut="3.2380952835083008e+00" cType="1" res="-2.0222356542944908e-03" rms="3.3779647946357727e-01" purity="4.4268515706062317e-01" nType="0">
              <Node pos="l" depth="4" NCoef="0" IVar="-1" Cut="0.0000000000000000e+00" cType="1" res="-7.0918183773756027e-03" rms="3.6127468943595886e-01" purity="4.2951899766921997e-01" nType="-99"/>
              <Node pos="r" depth="4" NCoef="0" IVar="-1" Cut="0.0000000000000000e+00" cType="1" res="-8.3172437734901905e-04" rms="3.3441102504730225e-01" purity="4.4450336694717407e-01" nType="-99"/>
            </Node>
          </Node>
        </Node>
      </Node>
    </BinaryTree>
    <BinaryTree type="DecisionTree" boostWeight="1.0000000000000000e+00" itree="250">
      <Node pos="s" depth="0" NCoef="0" IVar="13" Cut="3.2910404205322266e+00" cType="1" res="-2.6034051643364364e-06" rms="3.3706513047218323e-01" purity="5.0000000000000000e-01" nType="0">
        <Node pos="l" depth="1" NCoef="0" IVar="12" Cut="2.5661182403564453e+00" cType="1" res="-1.7308501992374659e-04" rms="3.3603841066360474e-01" purity="4.9753779172897339e-01" nType="0">
          <Node pos="l" depth="2" NCoef="0" IVar="9" Cut="1.2766714843750000e+05" cType="1" res="-1.1849326547235250e-03" rms="3.5245934128761292e-01" purity="4.4848352670669556e-01" nType="0">
            <Node pos="l" depth="3" NCoef="0" IVar="7" Cut="2.6669158203125000e+04" cType="1" res="8.5866136942058802e-04" rms="3.6419928073883057e-01" purity="4.6923285722732544e-01" nType="0">
              <Node pos="l" depth="4" NCoef="0" IVar="-1" Cut="0.0000000000000000e+00" cType="1" res="-6.9361776113510132e-03" rms="3.3514249324798584e-01" purity="6.3257175683975220e-01" nType="-99"/>
              <Node pos="r" depth="4" NCoef="0" IVar="-1" Cut="0.0000000000000000e+00" cType="1" res="2.8551088180392981e-03" rms="3.7385600805282593e-01" purity="4.1161149740219116e-01" nType="-99"/>
            </Node>
            <Node pos="r" depth="3" NCoef="0" IVar="2" Cut="4.6191690625000000e+05" cType="1" res="-1.0369146242737770e-02" rms="2.9379042983055115e-01" purity="3.5523283481597900e-01" nType="0">
              <Node pos="l" depth="4" NCoef="0" IVar="-1" Cut="0.0000000000000000e+00" cType="1" res="-2.5761267170310020e-02" rms="3.2590624690055847e-01" purity="5.4233080148696899e-01" nType="-99"/>
              <Node pos="r" depth="4" NCoef="0" IVar="-1" Cut="0.0000000000000000e+00" cType="1" res="-1.8643196672201157e-03" rms="2.7591204643249512e-01" purity="2.6169499754905701e-01" nType="-99"/>
            </Node>
          </Node>
          <Node pos="r" depth="2" NCoef="0" IVar="13" Cut="9.4027531147003174e-01" cType="1" res="6.1494903638958931e-04" rms="3.2266911864280701e-01" purity="5.3574156761169434e-01" nType="0">
            <Node pos="l" depth="3" NCoef="0" IVar="-1" Cut="0.0000000000000000e+00" cType="1" res="1.7692353576421738e-02" rms="2.6113498210906982e-01" purity="1.2455615401268005e-01" nType="-99"/>
            <Node pos="r" depth="3" NCoef="0" IVar="13" Cut="1.1642520427703857e+00" cType="1" res="1.7985742306336761e-04" rms="3.2487747073173523e-01" purity="5.5216580629348755e-01" nType="0">
              <Node pos="l" depth="4" NCoef="0" IVar="-1" Cut="0.0000000000000000e+00" cType="1" res="-3.1581465154886246e-02" rms="2.2654974460601807e-01" purity="1.0947424918413162e-01" nType="-99"/>
              <Node pos="r" depth="4" NCoef="0" IVar="-1" Cut="0.0000000000000000e+00" cType="1" res="6.3443859107792377e-04" rms="3.2686045765876770e-01" purity="5.6281650066375732e-01" nType="-99"/>
            </Node>
          </Node>
        </Node>
        <Node pos="r" depth="1" NCoef="0" IVar="15" Cut="1.2837932109832764e+00" cType="1" res="1.6185083659365773e-03" rms="3.4667232632637024e-01" purity="5.2341330051422119e-01" nType="0">
          <Node pos="l" depth="2" NCoef="0" IVar="18" Cut="3.2391544921875000e+04" cType="1" res="1.4712220057845116e-02" rms="3.7272831797599792e-01" purity="4.9148994684219360e-01" nType="0">
            <Node pos="l" depth="3" NCoef="0" IVar="-1" Cut="0.0000000000000000e+00" cType="1" res="-3.3767179120332003e-03" rms="3.7905544042587280e-01" purity="5.2311474084854126e-01" nType="-99"/>
            <Node pos="r" depth="3" NCoef="0" IVar="-1" Cut="0.0000000000000000e+00" cType="1" res="2.2651858627796173e-02" rms="3.6643025279045105e-01" purity="4.6453019976615906e-01" nType="-99"/>
          </Node>
          <Node pos="r" depth="2" NCoef="0" IVar="15" Cut="2.0550022125244141e+00" cType="1" res="-2.4640278425067663e-03" rms="3.3803415298461914e-01" purity="5.3336685895919800e-01" nType="0">
            <Node pos="l" depth="3" NCoef="0" IVar="15" Cut="1.7243756055831909e+00" cType="1" res="-1.4615337364375591e-02" rms="3.4617394208908081e-01" purity="4.6247172355651855e-01" nType="0">
              <Node pos="l" depth="4" NCoef="0" IVar="-1" Cut="0.0000000000000000e+00" cType="1" res="-2.1261498332023621e-02" rms="3.4542027115821838e-01" purity="4.3224856257438660e-01" nType="-99"/>
              <Node pos="r" depth="4" NCoef="0" IVar="-1" Cut="0.0000000000000000e+00" cType="1" res="-5.0147937145084143e-04" rms="3.4646156430244446e-01" purity="4.9566620588302612e-01" nType="-99"/>
            </Node>
            <Node pos="r" depth="3" NCoef="0" IVar="17" Cut="1.0617393750000000e+05" cType="1" res="4.6939817257225513e-03" rms="3.3293864130973816e-01" purity="5.7512921094894409e-01" nType="0">
              <Node pos="l" depth="4" NCoef="0" IVar="-1" Cut="0.0000000000000000e+00" cType="1" res="-1.6062335344031453e-03" rms="3.4741693735122681e-01" purity="5.5497199296951294e-01" nType="-99"/>
              <Node pos="r" depth="4" NCoef="0" IVar="-1" Cut="0.0000000000000000e+00" cType="1" res="1.5646578744053841e-02" rms="3.0750593543052673e-01" purity="6.0806316137313843e-01" nType="-99"/>
            </Node>
          </Node>
        </Node>
      </Node>
    </BinaryTree>
    <BinaryTree type="DecisionTree" boostWeight="1.0000000000000000e+00" itree="251">
      <Node pos="s" depth="0" NCoef="0" IVar="16" Cut="2.7308914661407471e+00" cType="1" res="-2.2042197542759823e-06" rms="3.3700436353683472e-01" purity="5.0000000000000000e-01" nType="0">
        <Node pos="l" depth="1" NCoef="0" IVar="16" Cut="6.5748691558837891e-01" cType="1" res="1.2988261005375534e-04" rms="3.3696410059928894e-01" purity="5.2008587121963501e-01" nType="0">
          <Node pos="l" depth="2" NCoef="0" IVar="0" Cut="1.3333333730697632e+00" cType="1" res="3.2040262594819069e-03" rms="2.8440508246421814e-01" purity="7.6821470260620117e-01" nType="0">
            <Node pos="l" depth="3" NCoef="0" IVar="-1" Cut="0.0000000000000000e+00" cType="1" res="-1.1290665715932846e-02" rms="3.1504005193710327e-01" purity="6.5912818908691406e-01" nType="-99"/>
            <Node pos="r" depth="3" NCoef="0" IVar="13" Cut="1.6536825895309448e+00" cType="1" res="4.9630943685770035e-03" rms="2.8053149580955505e-01" purity="7.8103929758071899e-01" nType="0">
              <Node pos="l" depth="4" NCoef="0" IVar="-1" Cut="0.0000000000000000e+00" cType="1" res="1.9009202718734741e-02" rms="3.5568377375602722e-01" purity="3.8798123598098755e-01" nType="-99"/>
              <Node pos="r" depth="4" NCoef="0" IVar="-1" Cut="0.0000000000000000e+00" cType="1" res="4.1801221668720245e-03" rms="2.7290955185890198e-01" purity="8.1543821096420288e-01" nType="-99"/>
            </Node>
          </Node>
          <Node pos="r" depth="2" NCoef="0" IVar="16" Cut="7.5622224807739258e-01" cType="1" res="-4.3687262223102152e-04" rms="3.4577989578247070e-01" purity="4.7434037923812866e-01" nType="0">
            <Node pos="l" depth="3" NCoef="0" IVar="1" Cut="7.5586351562500000e+04" cType="1" res="-5.3512556478381157e-03" rms="3.0280479788780212e-01" purity="7.3542606830596924e-01" nType="0">
              <Node pos="l" depth="4" NCoef="0" IVar="-1" Cut="0.0000000000000000e+00" cType="1" res="-1.3342185877263546e-02" rms="3.1965047121047974e-01" purity="6.8111485242843628e-01" nType="-99"/>
              <Node pos="r" depth="4" NCoef="0" IVar="-1" Cut="0.0000000000000000e+00" cType="1" res="8.6444234475493431e-03" rms="2.7492547035217285e-01" purity="8.1753516197204590e-01" nType="-99"/>
            </Node>
            <Node pos="r" depth="3" NCoef="0" IVar="16" Cut="8.5026162862777710e-01" cType="1" res="-5.0010850827675313e-05" rms="3.4893533587455750e-01" purity="4.5378765463829041e-01" nType="0">
              <Node pos="l" depth="4" NCoef="0" IVar="-1" Cut="0.0000000000000000e+00" cType="1" res="4.5500327832996845e-03" rms="3.1140020489692688e-01" purity="6.9486939907073975e-01" nType="-99"/>
              <Node pos="r" depth="4" NCoef="0" IVar="-1" Cut="0.0000000000000000e+00" cType="1" res="-3.2738209119997919e-04" rms="3.5159796476364136e-01" purity="4.3562570214271545e-01" nType="-99"/>
            </Node>
          </Node>
        </Node>
        <Node pos="r" depth="1" NCoef="0" IVar="1" Cut="7.9167187500000000e+04" cType="1" res="-1.4288784004747868e-03" rms="3.3743563294410706e-01" purity="2.8305149078369141e-01" nType="0">
          <Node pos="l" depth="2" NCoef="0" IVar="1" Cut="3.4053699218750000e+04" cType="1" res="-5.0441618077456951e-03" rms="3.2737061381340027e-01" purity="2.2520408034324646e-01" nType="0">
            <Node pos="l" depth="3" NCoef="0" IVar="11" Cut="1.1662369966506958e+00" cType="1" res="6.8334937095642090e-03" rms="2.9580101370811462e-01" purity="1.6097240149974823e-01" nType="0">
              <Node pos="l" depth="4" NCoef="0" IVar="-1" Cut="0.0000000000000000e+00" cType="1" res="2.0166970789432526e-02" rms="3.3688959479331970e-01" purity="2.2235490381717682e-01" nType="-99"/>
              <Node pos="r" depth="4" NCoef="0" IVar="-1" Cut="0.0000000000000000e+00" cType="1" res="-7.5790872797369957e-03" rms="2.5904658436775208e-01" purity="1.1369805037975311e-01" nType="-99"/>
            </Node>
            <Node pos="r" depth="3" NCoef="0" IVar="8" Cut="7.0963593750000000e+04" cType="1" res="-1.4519693329930305e-02" rms="3.5023388266563416e-01" purity="2.7644559741020203e-01" nType="0">
              <Node pos="l" depth="4" NCoef="0" IVar="-1" Cut="0.0000000000000000e+00" cType="1" res="-1.3285529799759388e-02" rms="3.9678058028221130e-01" purity="3.7040412425994873e-01" nType="-99"/>
              <Node pos="r" depth="4" NCoef="0" IVar="-1" Cut="0.0000000000000000e+00" cType="1" res="8.8963322341442108e-03" rms="2.1015599370002747e-01" purity="6.5657079219818115e-02" nType="-99"/>
            </Node>
          </Node>
          <Node pos="r" depth="2" NCoef="0" IVar="12" Cut="2.7549810409545898e+00" cType="1" res="6.6806348040699959e-03" rms="3.5885518789291382e-01" purity="4.1281017661094666e-01" nType="0">
            <Node pos="l" depth="3" NCoef="0" IVar="-1" Cut="0.0000000000000000e+00" cType="1" res="-5.5356421507894993e-03" rms="3.6587533354759216e-01" purity="3.8130083680152893e-01" nType="-99"/>
            <Node pos="r" depth="3" NCoef="0" IVar="-1" Cut="0.0000000000000000e+00" cType="1" res="2.0745186135172844e-02" rms="3.4814548492431641e-01" purity="4.5552322268486023e-01" nType="-99"/>
          </Node>
        </Node>
      </Node>
    </BinaryTree>
    <BinaryTree type="DecisionTree" boostWeight="1.0000000000000000e+00" itree="252">
      <Node pos="s" depth="0" NCoef="0" IVar="12" Cut="2.0714859962463379e+00" cType="1" res="-1.6814160517242271e-06" rms="3.3697155117988586e-01" purity="5.0000000000000000e-01" nType="0">
        <Node pos="l" depth="1" NCoef="0" IVar="10" Cut="6.6367921875000000e+04" cType="1" res="8.4699917351827025e-04" rms="3.5631060600280762e-01" purity="3.7926226854324341e-01" nType="0">
          <Node pos="l" depth="2" NCoef="0" IVar="13" Cut="1.9329794645309448e+00" cType="1" res="5.0542610697448254e-03" rms="3.7448361515998840e-01" purity="3.4004202485084534e-01" nType="0">
            <Node pos="l" depth="3" NCoef="0" IVar="11" Cut="9.3438744544982910e-01" cType="1" res="1.6275680391117930e-03" rms="3.6788630485534668e-01" purity="3.0604785680770874e-01" nType="0">
              <Node pos="l" depth="4" NCoef="0" IVar="-1" Cut="0.0000000000000000e+00" cType="1" res="5.5365692824125290e-03" rms="3.7523442506790161e-01" purity="3.3088433742523193e-01" nType="-99"/>
              <Node pos="r" depth="4" NCoef="0" IVar="-1" Cut="0.0000000000000000e+00" cType="1" res="-8.5858590900897980e-03" rms="3.5231697559356689e-01" purity="2.5618472695350647e-01" nType="-99"/>
            </Node>
            <Node pos="r" depth="3" NCoef="0" IVar="-1" Cut="0.0000000000000000e+00" cType="1" res="1.2456773780286312e-02" rms="4.0437752008438110e-01" purity="5.0393682718276978e-01" nType="-99"/>
          </Node>
          <Node pos="r" depth="2" NCoef="0" IVar="0" Cut="2.3333332538604736e+00" cType="1" res="-2.7583492919802666e-03" rms="3.3992409706115723e-01" purity="4.1287147998809814e-01" nType="0">
            <Node pos="l" depth="3" NCoef="0" IVar="11" Cut="1.1258977651596069e+00" cType="1" res="-1.5569379553198814e-02" rms="3.3663496375083923e-01" purity="3.3720317482948303e-01" nType="0">
              <Node pos="l" depth="4" NCoef="0" IVar="-1" Cut="0.0000000000000000e+00" cType="1" res="-2.4559987708926201e-02" rms="3.3678767085075378e-01" purity="2.9878395795822144e-01" nType="-99"/>
              <Node pos="r" depth="4" NCoef="0" IVar="-1" Cut="0.0000000000000000e+00" cType="1" res="3.6401110701262951e-03" rms="3.3537167310714722e-01" purity="3.9278432726860046e-01" nType="-99"/>
            </Node>
            <Node pos="r" depth="3" NCoef="0" IVar="20" Cut="3.6927335937500000e+04" cType="1" res="1.4727554516866803e-03" rms="3.4089767932891846e-01" purity="4.3786245584487915e-01" nType="0">
              <Node pos="l" depth="4" NCoef="0" IVar="-1" Cut="0.0000000000000000e+00" cType="1" res="1.0969799943268299e-02" rms="3.7303715944290161e-01" purity="5.4723471403121948e-01" nType="-99"/>
              <Node pos="r" depth="4" NCoef="0" IVar="-1" Cut="0.0000000000000000e+00" cType="1" res="-6.0639115981757641e-03" rms="3.2086426019668579e-01" purity="3.7554058432579041e-01" nType="-99"/>
            </Node>
          </Node>
        </Node>
        <Node pos="r" depth="1" NCoef="0" IVar="14" Cut="1.0307539701461792e+00" cType="1" res="-2.1493907843250781e-04" rms="3.3193454146385193e-01" purity="5.3033912181854248e-01" nType="0">
          <Node pos="l" depth="2" NCoef="0" IVar="10" Cut="1.0637302343750000e+05" cType="1" res="1.8033306114375591e-03" rms="3.4920924901962280e-01" purity="4.5589068531990051e-01" nType="0">
            <Node pos="l" depth="3" NCoef="0" IVar="2" Cut="2.4319823437500000e+05" cType="1" res="1.0361248627305031e-02" rms="3.6570057272911072e-01" purity="4.3088009953498840e-01" nType="0">
              <Node pos="l" depth="4" NCoef="0" IVar="-1" Cut="0.0000000000000000e+00" cType="1" res="-7.6182844350114465e-04" rms="3.7627390027046204e-01" purity="4.3948823213577271e-01" nType="-99"/>
              <Node pos="r" depth="4" NCoef="0" IVar="-1" Cut="0.0000000000000000e+00" cType="1" res="1.4659225940704346e-02" rms="3.5785683989524841e-01" purity="4.2482662200927734e-01" nType="-99"/>
            </Node>
            <Node pos="r" depth="3" NCoef="0" IVar="16" Cut="2.3735845088958740e+00" cType="1" res="-5.8770654723048210e-03" rms="3.3352884650230408e-01" purity="4.7833669185638428e-01" nType="0">
              <Node pos="l" depth="4" NCoef="0" IVar="-1" Cut="0.0000000000000000e+00" cType="1" res="-8.6997880134731531e-04" rms="3.2913729548454285e-01" purity="5.3808885812759399e-01" nType="-99"/>
              <Node pos="r" depth="4" NCoef="0" IVar="-1" Cut="0.0000000000000000e+00" cType="1" res="-1.5820151194930077e-02" rms="3.4527009725570679e-01" purity="3.0942788720130920e-01" nType="-99"/>
            </Node>
          </Node>
          <Node pos="r" depth="2" NCoef="0" IVar="12" Cut="2.9647421836853027e+00" cType="1" res="-6.3593342201784253e-04" rms="3.2821506261825562e-01" purity="5.4586851596832275e-01" nType="0">
            <Node pos="l" depth="3" NCoef="0" IVar="1" Cut="8.3672085937500000e+04" cType="1" res="-2.1032653748989105e-03" rms="3.3573561906814575e-01" purity="5.4976695775985718e-01" nType="0">
              <Node pos="l" depth="4" NCoef="0" IVar="-1" Cut="0.0000000000000000e+00" cType="1" res="-4.2867101728916168e-03" rms="3.4158605337142944e-01" purity="4.9686819314956665e-01" nType="-99"/>
              <Node pos="r" depth="4" NCoef="0" IVar="-1" Cut="0.0000000000000000e+00" cType="1" res="4.9654413014650345e-03" rms="3.2135540246963501e-01" purity="6.7485189437866211e-01" nType="-99"/>
            </Node>
            <Node pos="r" depth="3" NCoef="0" IVar="0" Cut="6.3333334922790527e+00" cType="1" res="1.5136651927605271e-03" rms="3.1686326861381531e-01" purity="5.4015731811523438e-01" nType="0">
              <Node pos="l" depth="4" NCoef="0" IVar="-1" Cut="0.0000000000000000e+00" cType="1" res="4.3887076899409294e-03" rms="3.0692651867866516e-01" purity="6.2013643980026245e-01" nType="-99"/>
              <Node pos="r" depth="4" NCoef="0" IVar="-1" Cut="0.0000000000000000e+00" cType="1" res="-2.5511905550956726e-03" rms="3.3184781670570374e-01" purity="4.1430616378784180e-01" nType="-99"/>
            </Node>
          </Node>
        </Node>
      </Node>
    </BinaryTree>
    <BinaryTree type="DecisionTree" boostWeight="1.0000000000000000e+00" itree="253">
      <Node pos="s" depth="0" NCoef="0" IVar="12" Cut="1.2675663232803345e+00" cType="1" res="-1.6350361420336412e-06" rms="3.3691379427909851e-01" purity="5.0000000000000000e-01" nType="0">
        <Node pos="l" depth="1" NCoef="0" IVar="11" Cut="5.7531821727752686e-01" cType="1" res="-2.4717205669730902e-03" rms="3.4427437186241150e-01" purity="2.4588495492935181e-01" nType="0">
          <Node pos="l" depth="2" NCoef="0" IVar="-1" Cut="0.0000000000000000e+00" cType="1" res="-7.2592003270983696e-03" rms="3.3432072401046753e-01" purity="2.2248779237270355e-01" nType="-99"/>
          <Node pos="r" depth="2" NCoef="0" IVar="13" Cut="1.2003086805343628e+00" cType="1" res="2.6021818630397320e-03" rms="3.5168984532356262e-01" purity="2.6396661996841431e-01" nType="0">
            <Node pos="l" depth="3" NCoef="0" IVar="-1" Cut="0.0000000000000000e+00" cType="1" res="9.0037649497389793e-03" rms="3.4914669394493103e-01" purity="2.3066903650760651e-01" nType="-99"/>
            <Node pos="r" depth="3" NCoef="0" IVar="-1" Cut="0.0000000000000000e+00" cType="1" res="-5.1756720058619976e-03" rms="3.5431092977523804e-01" purity="3.0180725455284119e-01" nType="-99"/>
          </Node>
        </Node>
        <Node pos="r" depth="1" NCoef="0" IVar="16" Cut="1.2447643280029297e+00" cType="1" res="1.1554921366041526e-04" rms="3.3656015992164612e-01" purity="5.1205557584762573e-01" nType="0">
          <Node pos="l" depth="2" NCoef="0" IVar="16" Cut="8.3302450180053711e-01" cType="1" res="-5.6530116125941277e-04" rms="3.1417331099510193e-01" purity="6.8605780601501465e-01" nType="0">
            <Node pos="l" depth="3" NCoef="0" IVar="2" Cut="2.6049459375000000e+05" cType="1" res="1.4733573189005256e-03" rms="2.9187828302383423e-01" purity="7.5494289398193359e-01" nType="0">
              <Node pos="l" depth="4" NCoef="0" IVar="-1" Cut="0.0000000000000000e+00" cType="1" res="8.0769779160618782e-03" rms="3.3637201786041260e-01" purity="7.1564292907714844e-01" nType="-99"/>
              <Node pos="r" depth="4" NCoef="0" IVar="-1" Cut="0.0000000000000000e+00" cType="1" res="-1.3097131159156561e-03" rms="2.7671512961387634e-01" purity="7.6702600717544556e-01" nType="-99"/>
            </Node>
            <Node pos="r" depth="3" NCoef="0" IVar="12" Cut="3.3001458644866943e+00" cType="1" res="-3.0810080934315920e-03" rms="3.3965742588043213e-01" purity="6.0105341672897339e-01" nType="0">
              <Node pos="l" depth="4" NCoef="0" IVar="-1" Cut="0.0000000000000000e+00" cType="1" res="-3.5752945113927126e-03" rms="3.4063813090324402e-01" purity="6.0360258817672729e-01" nType="-99"/>
              <Node pos="r" depth="4" NCoef="0" IVar="-1" Cut="0.0000000000000000e+00" cType="1" res="6.6659264266490936e-03" rms="3.3126574754714966e-01" purity="5.8003205060958862e-01" nType="-99"/>
            </Node>
          </Node>
          <Node pos="r" depth="2" NCoef="0" IVar="20" Cut="7.3403414062500000e+04" cType="1" res="6.6925154533237219e-04" rms="3.5372221469879150e-01" purity="3.7054806947708130e-01" nType="0">
            <Node pos="l" depth="3" NCoef="0" IVar="3" Cut="2.5403750000000000e+05" cType="1" res="-5.5724149569869041e-04" rms="3.9259892702102661e-01" purity="4.7550219297409058e-01" nType="0">
              <Node pos="l" depth="4" NCoef="0" IVar="-1" Cut="0.0000000000000000e+00" cType="1" res="6.7990092793479562e-04" rms="3.9342576265335083e-01" purity="4.7584503889083862e-01" nType="-99"/>
              <Node pos="r" depth="4" NCoef="0" IVar="-1" Cut="0.0000000000000000e+00" cType="1" res="-7.2287861257791519e-03" rms="3.8693073391914368e-01" purity="4.7324416041374207e-01" nType="-99"/>
            </Node>
            <Node pos="r" depth="3" NCoef="0" IVar="13" Cut="1.8868931531906128e+00" cType="1" res="4.3445471674203873e-03" rms="1.9533766806125641e-01" purity="5.6043591350317001e-02" nType="0">
              <Node pos="l" depth="4" NCoef="0" IVar="-1" Cut="0.0000000000000000e+00" cType="1" res="-1.3266884721815586e-02" rms="1.5394036471843719e-01" purity="2.8945688158273697e-02" nType="-99"/>
              <Node pos="r" depth="4" NCoef="0" IVar="-1" Cut="0.0000000000000000e+00" cType="1" res="1.9846765324473381e-02" rms="2.1522007882595062e-01" purity="7.1442514657974243e-02" nType="-99"/>
            </Node>
          </Node>
        </Node>
      </Node>
    </BinaryTree>
    <BinaryTree type="DecisionTree" boostWeight="1.0000000000000000e+00" itree="254">
      <Node pos="s" depth="0" NCoef="0" IVar="10" Cut="1.1646107812500000e+05" cType="1" res="-3.1966112601367058e-06" rms="3.3687940239906311e-01" purity="5.0000000000000000e-01" nType="0">
        <Node pos="l" depth="1" NCoef="0" IVar="6" Cut="2.5928543750000000e+05" cType="1" res="-4.5198734733276069e-04" rms="3.5217338800430298e-01" purity="4.7444492578506470e-01" nType="0">
          <Node pos="l" depth="2" NCoef="0" IVar="7" Cut="1.0342863281250000e+05" cType="1" res="9.6710493380669504e-05" rms="3.5819435119628906e-01" purity="4.9112695455551147e-01" nType="0">
            <Node pos="l" depth="3" NCoef="0" IVar="7" Cut="7.8802500000000000e+04" cType="1" res="-1.7544487491250038e-03" rms="3.6536189913749695e-01" purity="5.0788837671279907e-01" nType="0">
              <Node pos="l" depth="4" NCoef="0" IVar="-1" Cut="0.0000000000000000e+00" cType="1" res="4.8734497977420688e-04" rms="3.6941516399383545e-01" purity="5.3909271955490112e-01" nType="-99"/>
              <Node pos="r" depth="4" NCoef="0" IVar="-1" Cut="0.0000000000000000e+00" cType="1" res="-2.4563793092966080e-02" rms="3.2026258111000061e-01" purity="1.9104495644569397e-01" nType="-99"/>
            </Node>
            <Node pos="r" depth="3" NCoef="0" IVar="6" Cut="1.2194598437500000e+05" cType="1" res="8.7087815627455711e-03" rms="3.2262355089187622e-01" purity="4.1314843297004700e-01" nType="0">
              <Node pos="l" depth="4" NCoef="0" IVar="-1" Cut="0.0000000000000000e+00" cType="1" res="2.4882547557353973e-02" rms="3.8908523321151733e-01" purity="4.5805948972702026e-01" nType="-99"/>
              <Node pos="r" depth="4" NCoef="0" IVar="-1" Cut="0.0000000000000000e+00" cType="1" res="5.0190240144729614e-03" rms="3.1300163269042969e-01" purity="4.0745502710342407e-01" nType="-99"/>
            </Node>
          </Node>
          <Node pos="r" depth="2" NCoef="0" IVar="13" Cut="1.5408455133438110e+00" cType="1" res="-1.0111970826983452e-02" rms="2.2051712870597839e-01" purity="1.8075221776962280e-01" nType="0">
            <Node pos="l" depth="3" NCoef="0" IVar="-1" Cut="0.0000000000000000e+00" cType="1" res="1.0805356316268444e-02" rms="1.8059107661247253e-01" purity="4.2734321206808090e-02" nType="-99"/>
            <Node pos="r" depth="3" NCoef="0" IVar="-1" Cut="0.0000000000000000e+00" cType="1" res="-3.5813368856906891e-02" rms="2.6296696066856384e-01" purity="3.6234238743782043e-01" nType="-99"/>
          </Node>
        </Node>
        <Node pos="r" depth="1" NCoef="0" IVar="11" Cut="1.3326883316040039e+00" cType="1" res="5.8910367079079151e-04" rms="3.1556126475334167e-01" purity="5.3372681140899658e-01" nType="0">
          <Node pos="l" depth="2" NCoef="0" IVar="11" Cut="1.2701969146728516e+00" cType="1" res="2.7742111124098301e-03" rms="3.2498422265052795e-01" purity="6.4894288778305054e-01" nType="0">
            <Node pos="l" depth="3" NCoef="0" IVar="16" Cut="1.7464348077774048e+00" cType="1" res="1.8887546611949801e-03" rms="3.2392609119415283e-01" purity="6.5578645467758179e-01" nType="0">
              <Node pos="l" depth="4" NCoef="0" IVar="-1" Cut="0.0000000000000000e+00" cType="1" res="-4.7879011253826320e-04" rms="3.0329477787017822e-01" purity="7.4408566951751709e-01" nType="-99"/>
              <Node pos="r" depth="4" NCoef="0" IVar="-1" Cut="0.0000000000000000e+00" cType="1" res="5.2638766355812550e-03" rms="3.6823755502700806e-01" purity="4.4620069861412048e-01" nType="-99"/>
            </Node>
            <Node pos="r" depth="3" NCoef="0" IVar="-1" Cut="0.0000000000000000e+00" cType="1" res="1.9754638895392418e-02" rms="3.4943211078643799e-01" purity="4.7963419556617737e-01" nType="-99"/>
          </Node>
          <Node pos="r" depth="2" NCoef="0" IVar="1" Cut="8.3570585937500000e+04" cType="1" res="-4.3484852649271488e-03" rms="2.9309532046318054e-01" purity="2.7337834239006042e-01" nType="0">
            <Node pos="l" depth="3" NCoef="0" IVar="11" Cut="1.4889054298400879e+00" cType="1" res="-7.7198655344545841e-03" rms="2.9356867074966431e-01" purity="2.4708163738250732e-01" nType="0">
              <Node pos="l" depth="4" NCoef="0" IVar="-1" Cut="0.0000000000000000e+00" cType="1" res="-2.0256731659173965e-02" rms="3.2922968268394470e-01" purity="3.7461367249488831e-01" nType="-99"/>
              <Node pos="r" depth="4" NCoef="0" IVar="-1" Cut="0.0000000000000000e+00" cType="1" res="-4.4198660179972649e-03" rms="2.8504824638366699e-01" purity="2.1923397481441498e-01" nType="-99"/>
            </Node>
            <Node pos="r" depth="3" NCoef="0" IVar="0" Cut="5.3333334922790527e+00" cType="1" res="5.6548332795500755e-03" rms="2.9145687818527222e-01" purity="3.5140404105186462e-01" nType="0">
              <Node pos="l" depth="4" NCoef="0" IVar="-1" Cut="0.0000000000000000e+00" cType="1" res="-1.0063836351037025e-02" rms="2.8596761822700500e-01" purity="3.9013373851776123e-01" nType="-99"/>
              <Node pos="r" depth="4" NCoef="0" IVar="-1" Cut="0.0000000000000000e+00" cType="1" res="2.0558040589094162e-02" rms="2.9585289955139160e-01" purity="3.1512486934661865e-01" nType="-99"/>
            </Node>
          </Node>
        </Node>
      </Node>
    </BinaryTree>
    <BinaryTree type="DecisionTree" boostWeight="1.0000000000000000e+00" itree="255">
      <Node pos="s" depth="0" NCoef="0" IVar="12" Cut="9.9959307909011841e-01" cType="1" res="-4.2443111851753201e-06" rms="3.3679863810539246e-01" purity="5.0000000000000000e-01" nType="0">
        <Node pos="l" depth="1" NCoef="0" IVar="7" Cut="3.0543453125000000e+04" cType="1" res="-3.1509643886238337e-03" rms="3.4652990102767944e-01" purity="2.2334109246730804e-01" nType="0">
          <Node pos="l" depth="2" NCoef="0" IVar="-1" Cut="0.0000000000000000e+00" cType="1" res="-9.7608296200633049e-03" rms="3.5568735003471375e-01" purity="2.5451046228408813e-01" nType="-99"/>
          <Node pos="r" depth="2" NCoef="0" IVar="-1" Cut="0.0000000000000000e+00" cType="1" res="8.8414037600159645e-03" rms="3.3468717336654663e-01" purity="1.8568484485149384e-01" nType="-99"/>
        </Node>
        <Node pos="r" depth="1" NCoef="0" IVar="18" Cut="1.4775275000000000e+05" cType="1" res="6.9202411395963281e-05" rms="3.3656778931617737e-01" purity="5.0645744800567627e-01" nType="0">
          <Node pos="l" depth="2" NCoef="0" IVar="9" Cut="2.6746003125000000e+05" cType="1" res="3.5498372744768858e-04" rms="3.4491586685180664e-01" purity="5.2093333005905151e-01" nType="0">
            <Node pos="l" depth="3" NCoef="0" IVar="20" Cut="1.7253169921875000e+04" cType="1" res="8.0577016342431307e-04" rms="3.4960421919822693e-01" purity="5.3629767894744873e-01" nType="0">
              <Node pos="l" depth="4" NCoef="0" IVar="-1" Cut="0.0000000000000000e+00" cType="1" res="-5.4699783213436604e-03" rms="3.6118155717849731e-01" purity="4.9926310777664185e-01" nType="-99"/>
              <Node pos="r" depth="4" NCoef="0" IVar="-1" Cut="0.0000000000000000e+00" cType="1" res="1.1954805813729763e-03" rms="3.4861579537391663e-01" purity="5.3937405347824097e-01" nType="-99"/>
            </Node>
            <Node pos="r" depth="3" NCoef="0" IVar="12" Cut="2.9018785953521729e+00" cType="1" res="-7.2678043507039547e-03" rms="2.5267300009727478e-01" purity="2.6112124323844910e-01" nType="0">
              <Node pos="l" depth="4" NCoef="0" IVar="-1" Cut="0.0000000000000000e+00" cType="1" res="-4.7813747078180313e-02" rms="2.3455131053924561e-01" purity="1.9470120966434479e-01" nType="-99"/>
              <Node pos="r" depth="4" NCoef="0" IVar="-1" Cut="0.0000000000000000e+00" cType="1" res="-8.0179801443591714e-04" rms="2.5766241550445557e-01" purity="2.8169903159141541e-01" nType="-99"/>
            </Node>
          </Node>
          <Node pos="r" depth="2" NCoef="0" IVar="12" Cut="3.1846210956573486e+00" cType="1" res="-1.2395180528983474e-03" rms="2.9533547163009644e-01" purity="4.4016596674919128e-01" nType="0">
            <Node pos="l" depth="3" NCoef="0" IVar="12" Cut="2.5603189468383789e+00" cType="1" res="4.5188140938989818e-04" rms="2.9932337999343872e-01" purity="4.4102802872657776e-01" nType="0">
              <Node pos="l" depth="4" NCoef="0" IVar="-1" Cut="0.0000000000000000e+00" cType="1" res="-5.4092258214950562e-03" rms="3.0519866943359375e-01" purity="3.6080500483512878e-01" nType="-99"/>
              <Node pos="r" depth="4" NCoef="0" IVar="-1" Cut="0.0000000000000000e+00" cType="1" res="7.7383364550769329e-03" rms="2.9261490702629089e-01" purity="5.2892619371414185e-01" nType="-99"/>
            </Node>
            <Node pos="r" depth="3" NCoef="0" IVar="11" Cut="1.1337720155715942e+00" cType="1" res="-1.1229082942008972e-02" rms="2.7037093043327332e-01" purity="4.3507432937622070e-01" nType="0">
              <Node pos="l" depth="4" NCoef="0" IVar="-1" Cut="0.0000000000000000e+00" cType="1" res="-1.7095426097512245e-02" rms="2.9872378706932068e-01" purity="6.4784663915634155e-01" nType="-99"/>
              <Node pos="r" depth="4" NCoef="0" IVar="-1" Cut="0.0000000000000000e+00" cType="1" res="-8.8187968358397484e-03" rms="2.3222140967845917e-01" purity="1.8299712240695953e-01" nType="-99"/>
            </Node>
          </Node>
        </Node>
      </Node>
    </BinaryTree>
    <BinaryTree type="DecisionTree" boostWeight="1.0000000000000000e+00" itree="256">
      <Node pos="s" depth="0" NCoef="0" IVar="11" Cut="7.3745375871658325e-01" cType="1" res="-3.5806783671432640e-06" rms="3.3676847815513611e-01" purity="5.0000000000000000e-01" nType="0">
        <Node pos="l" depth="1" NCoef="0" IVar="16" Cut="7.1178907155990601e-01" cType="1" res="9.1289967531338334e-04" rms="3.2532566785812378e-01" purity="6.6764646768569946e-01" nType="0">
          <Node pos="l" depth="2" NCoef="0" IVar="12" Cut="2.7273473739624023e+00" cType="1" res="4.7292048111557961e-03" rms="2.4372115731239319e-01" purity="8.8418453931808472e-01" nType="0">
            <Node pos="l" depth="3" NCoef="0" IVar="-1" Cut="0.0000000000000000e+00" cType="1" res="1.2683067470788956e-02" rms="2.7833396196365356e-01" purity="8.2974684238433838e-01" nType="-99"/>
            <Node pos="r" depth="3" NCoef="0" IVar="-1" Cut="0.0000000000000000e+00" cType="1" res="3.1915248837321997e-03" rms="2.2228665649890900e-01" purity="9.1420251131057739e-01" nType="-99"/>
          </Node>
          <Node pos="r" depth="2" NCoef="0" IVar="11" Cut="6.6919386386871338e-01" cType="1" res="-2.4642763310112059e-04" rms="3.4632024168968201e-01" purity="6.0186594724655151e-01" nType="0">
            <Node pos="l" depth="3" NCoef="0" IVar="4" Cut="5.3185218750000000e+05" cType="1" res="1.2263429816812277e-03" rms="3.4466513991355896e-01" purity="6.1107724905014038e-01" nType="0">
              <Node pos="l" depth="4" NCoef="0" IVar="-1" Cut="0.0000000000000000e+00" cType="1" res="2.4735082406550646e-03" rms="3.4792944788932800e-01" purity="6.7343384027481079e-01" nType="-99"/>
              <Node pos="r" depth="4" NCoef="0" IVar="-1" Cut="0.0000000000000000e+00" cType="1" res="-6.7058256827294827e-03" rms="3.2918477058410645e-01" purity="3.2602089643478394e-01" nType="-99"/>
            </Node>
            <Node pos="r" depth="3" NCoef="0" IVar="9" Cut="1.0911549218750000e+05" cType="1" res="-9.0194772928953171e-03" rms="3.5589382052421570e-01" purity="5.4699599742889404e-01" nType="0">
              <Node pos="l" depth="4" NCoef="0" IVar="-1" Cut="0.0000000000000000e+00" cType="1" res="-1.5633929520845413e-02" rms="3.5925894975662231e-01" purity="5.0172221660614014e-01" nType="-99"/>
              <Node pos="r" depth="4" NCoef="0" IVar="-1" Cut="0.0000000000000000e+00" cType="1" res="5.4174689576029778e-03" rms="3.5117128491401672e-01" purity="6.0151141881942749e-01" nType="-99"/>
            </Node>
          </Node>
        </Node>
        <Node pos="r" depth="1" NCoef="0" IVar="15" Cut="3.0486736297607422e+00" cType="1" res="-4.2295284220017493e-04" rms="3.4187605977058411e-01" purity="4.2328667640686035e-01" nType="0">
          <Node pos="l" depth="2" NCoef="0" IVar="16" Cut="2.7263977527618408e+00" cType="1" res="-7.1525195380672812e-04" rms="3.4257319569587708e-01" purity="4.2497059702873230e-01" nType="0">
            <Node pos="l" depth="3" NCoef="0" IVar="14" Cut="1.8409607410430908e+00" cType="1" res="-2.3554443032480776e-04" rms="3.4401887655258179e-01" purity="4.4153878092765808e-01" nType="0">
              <Node pos="l" depth="4" NCoef="0" IVar="-1" Cut="0.0000000000000000e+00" cType="1" res="-1.4164703898131847e-03" rms="3.5076478123664856e-01" purity="4.0811833739280701e-01" nType="-99"/>
              <Node pos="r" depth="4" NCoef="0" IVar="-1" Cut="0.0000000000000000e+00" cType="1" res="1.2220033677294850e-03" rms="3.3666199445724487e-01" purity="4.7720691561698914e-01" nType="-99"/>
            </Node>
            <Node pos="r" depth="3" NCoef="0" IVar="15" Cut="2.0385301113128662e+00" cType="1" res="-5.8149532414972782e-03" rms="3.2676556706428528e-01" purity="2.4883688986301422e-01" nType="0">
              <Node pos="l" depth="4" NCoef="0" IVar="-1" Cut="0.0000000000000000e+00" cType="1" res="2.0979244436603040e-04" rms="3.5023850202560425e-01" purity="3.0717095732688904e-01" nType="-99"/>
              <Node pos="r" depth="4" NCoef="0" IVar="-1" Cut="0.0000000000000000e+00" cType="1" res="-1.4876093715429306e-02" rms="2.9133918881416321e-01" purity="1.6889844834804535e-01" nType="-99"/>
            </Node>
          </Node>
          <Node pos="r" depth="2" NCoef="0" IVar="11" Cut="1.2625128030776978e+00" cType="1" res="4.8016202636063099e-03" rms="3.2912302017211914e-01" purity="3.9318758249282837e-01" nType="0">
            <Node pos="l" depth="3" NCoef="0" IVar="-1" Cut="0.0000000000000000e+00" cType="1" res="1.1840188875794411e-02" rms="3.5516217350959778e-01" purity="5.3540372848510742e-01" nType="-99"/>
            <Node pos="r" depth="3" NCoef="0" IVar="18" Cut="1.4723362500000000e+05" cType="1" res="-3.0114389955997467e-03" rms="3.0758577585220337e-01" purity="2.8486451506614685e-01" nType="0">
              <Node pos="l" depth="4" NCoef="0" IVar="-1" Cut="0.0000000000000000e+00" cType="1" res="2.4503222666680813e-03" rms="3.3409917354583740e-01" purity="3.4946659207344055e-01" nType="-99"/>
              <Node pos="r" depth="4" NCoef="0" IVar="-1" Cut="0.0000000000000000e+00" cType="1" res="-1.0401103645563126e-02" rms="2.7837613224983215e-01" purity="2.2012658417224884e-01" nType="-99"/>
            </Node>
          </Node>
        </Node>
      </Node>
    </BinaryTree>
    <BinaryTree type="DecisionTree" boostWeight="1.0000000000000000e+00" itree="257">
      <Node pos="s" depth="0" NCoef="0" IVar="12" Cut="2.0714859962463379e+00" cType="1" res="-2.8329516226222040e-06" rms="3.3675098419189453e-01" purity="5.0000000000000000e-01" nType="0">
        <Node pos="l" depth="1" NCoef="0" IVar="10" Cut="1.3270539062500000e+05" cType="1" res="1.0688983602449298e-03" rms="3.5607564449310303e-01" purity="3.7926226854324341e-01" nType="0">
          <Node pos="l" depth="2" NCoef="0" IVar="3" Cut="1.5441754687500000e+05" cType="1" res="-8.5490482160821557e-04" rms="3.6429628729820251e-01" purity="3.8417422771453857e-01" nType="0">
            <Node pos="l" depth="3" NCoef="0" IVar="14" Cut="1.2080113887786865e+00" cType="1" res="2.0422856323421001e-03" rms="3.7749505043029785e-01" purity="4.1770562529563904e-01" nType="0">
              <Node pos="l" depth="4" NCoef="0" IVar="-1" Cut="0.0000000000000000e+00" cType="1" res="-8.3131166175007820e-03" rms="3.8084748387336731e-01" purity="4.1359803080558777e-01" nType="-99"/>
              <Node pos="r" depth="4" NCoef="0" IVar="-1" Cut="0.0000000000000000e+00" cType="1" res="3.5258380230516195e-03" rms="3.7668538093566895e-01" purity="4.1860100626945496e-01" nType="-99"/>
            </Node>
            <Node pos="r" depth="3" NCoef="0" IVar="17" Cut="1.5026323437500000e+05" cType="1" res="-2.0122269168496132e-02" rms="2.5917756557464600e-01" purity="1.6117802262306213e-01" nType="0">
              <Node pos="l" depth="4" NCoef="0" IVar="-1" Cut="0.0000000000000000e+00" cType="1" res="-4.0403574705123901e-02" rms="2.8730565309524536e-01" purity="1.9489885866641998e-01" nType="-99"/>
              <Node pos="r" depth="4" NCoef="0" IVar="-1" Cut="0.0000000000000000e+00" cType="1" res="-1.0599241359159350e-03" rms="2.2550308704376221e-01" purity="1.2702767550945282e-01" nType="-99"/>
            </Node>
          </Node>
          <Node pos="r" depth="2" NCoef="0" IVar="8" Cut="5.1765128906250000e+04" cType="1" res="9.2268073931336403e-03" rms="3.1874066591262817e-01" purity="3.5843318700790405e-01" nType="0">
            <Node pos="l" depth="3" NCoef="0" IVar="-1" Cut="0.0000000000000000e+00" cType="1" res="1.7673196271061897e-02" rms="3.7597072124481201e-01" purity="5.3522711992263794e-01" nType="-99"/>
            <Node pos="r" depth="3" NCoef="0" IVar="13" Cut="2.6553013324737549e+00" cType="1" res="-1.8554741982370615e-03" rms="2.7322211861610413e-01" purity="2.3997649550437927e-01" nType="0">
              <Node pos="l" depth="4" NCoef="0" IVar="-1" Cut="0.0000000000000000e+00" cType="1" res="-3.1608711928129196e-02" rms="2.0951530337333679e-01" purity="1.0045982897281647e-01" nType="-99"/>
              <Node pos="r" depth="4" NCoef="0" IVar="-1" Cut="0.0000000000000000e+00" cType="1" res="1.2508182786405087e-02" rms="3.2580646872520447e-01" purity="3.8516700267791748e-01" nType="-99"/>
            </Node>
          </Node>
        </Node>
        <Node pos="r" depth="1" NCoef="0" IVar="11" Cut="7.3745375871658325e-01" cType="1" res="-2.7213915018364787e-04" rms="3.3171758055686951e-01" purity="5.3033912181854248e-01" nType="0">
          <Node pos="l" depth="2" NCoef="0" IVar="15" Cut="1.2238000631332397e+00" cType="1" res="1.0194543283432722e-03" rms="3.1553515791893005e-01" purity="7.6226747035980225e-01" nType="0">
            <Node pos="l" depth="3" NCoef="0" IVar="12" Cut="2.9066476821899414e+00" cType="1" res="-4.5055295340716839e-03" rms="3.4318390488624573e-01" purity="7.0028758049011230e-01" nType="0">
              <Node pos="l" depth="4" NCoef="0" IVar="-1" Cut="0.0000000000000000e+00" cType="1" res="-1.3993323780596256e-02" rms="3.4833925962448120e-01" purity="6.7602950334548950e-01" nType="-99"/>
              <Node pos="r" depth="4" NCoef="0" IVar="-1" Cut="0.0000000000000000e+00" cType="1" res="7.2636534459888935e-03" rms="3.3745098114013672e-01" purity="7.2438710927963257e-01" nType="-99"/>
            </Node>
            <Node pos="r" depth="3" NCoef="0" IVar="14" Cut="1.8302620649337769e+00" cType="1" res="2.3989137262105942e-03" rms="3.0822980403900146e-01" purity="7.7774238586425781e-01" nType="0">
              <Node pos="l" depth="4" NCoef="0" IVar="-1" Cut="0.0000000000000000e+00" cType="1" res="8.3286873996257782e-03" rms="3.3182254433631897e-01" purity="7.3150271177291870e-01" nType="-99"/>
              <Node pos="r" depth="4" NCoef="0" IVar="-1" Cut="0.0000000000000000e+00" cType="1" res="-4.8832676839083433e-04" rms="2.9869434237480164e-01" purity="7.9537332057952881e-01" nType="-99"/>
            </Node>
          </Node>
          <Node pos="r" depth="2" NCoef="0" IVar="0" Cut="2.3333332538604736e+00" cType="1" res="-8.3226023707538843e-04" rms="3.3849340677261353e-01" purity="4.2975956201553345e-01" nType="0">
            <Node pos="l" depth="3" NCoef="0" IVar="14" Cut="1.4860069751739502e+00" cType="1" res="2.3553392384201288e-03" rms="3.4162944555282593e-01" purity="3.9031794667243958e-01" nType="0">
              <Node pos="l" depth="4" NCoef="0" IVar="-1" Cut="0.0000000000000000e+00" cType="1" res="-2.4021246936172247e-03" rms="3.4807819128036499e-01" purity="3.4054329991340637e-01" nType="-99"/>
              <Node pos="r" depth="4" NCoef="0" IVar="-1" Cut="0.0000000000000000e+00" cType="1" res="4.6880925074219704e-03" rms="3.3756101131439209e-01" purity="4.2092010378837585e-01" nType="-99"/>
            </Node>
            <Node pos="r" depth="3" NCoef="0" IVar="0" Cut="3.2380952835083008e+00" cType="1" res="-1.8768841400742531e-03" rms="3.3745279908180237e-01" purity="4.4268515706062317e-01" nType="0">
              <Node pos="l" depth="4" NCoef="0" IVar="-1" Cut="0.0000000000000000e+00" cType="1" res="-6.2550990842282772e-03" rms="3.6062186956405640e-01" purity="4.2951899766921997e-01" nType="-99"/>
              <Node pos="r" depth="4" NCoef="0" IVar="-1" Cut="0.0000000000000000e+00" cType="1" res="-8.2744268001988530e-04" rms="3.3411666750907898e-01" purity="4.4450336694717407e-01" nType="-99"/>
            </Node>
          </Node>
        </Node>
      </Node>
    </BinaryTree>
    <BinaryTree type="DecisionTree" boostWeight="1.0000000000000000e+00" itree="258">
      <Node pos="s" depth="0" NCoef="0" IVar="0" Cut="5.3333334922790527e+00" cType="1" res="-2.9689188068005024e-06" rms="3.3669918775558472e-01" purity="5.0000000000000000e-01" nType="0">
        <Node pos="l" depth="1" NCoef="0" IVar="20" Cut="6.1857671875000000e+04" cType="1" res="4.6790778287686408e-04" rms="3.2594707608222961e-01" purity="5.9258693456649780e-01" nType="0">
          <Node pos="l" depth="2" NCoef="0" IVar="9" Cut="1.4689404687500000e+05" cType="1" res="-7.7698804670944810e-04" rms="3.3698263764381409e-01" purity="7.1160167455673218e-01" nType="0">
            <Node pos="l" depth="3" NCoef="0" IVar="21" Cut="7.4684906250000000e+04" cType="1" res="1.2089300435036421e-03" rms="3.4468108415603638e-01" purity="6.8625193834304810e-01" nType="0">
              <Node pos="l" depth="4" NCoef="0" IVar="-1" Cut="0.0000000000000000e+00" cType="1" res="2.4226533714681864e-03" rms="3.4216588735580444e-01" purity="6.9509351253509521e-01" nType="-99"/>
              <Node pos="r" depth="4" NCoef="0" IVar="-1" Cut="0.0000000000000000e+00" cType="1" res="-1.1328861117362976e-02" rms="3.6762914061546326e-01" purity="6.0092061758041382e-01" nType="-99"/>
            </Node>
            <Node pos="r" depth="3" NCoef="0" IVar="16" Cut="1.1613489389419556e+00" cType="1" res="-7.9992003738880157e-03" rms="3.0725604295730591e-01" purity="8.0379122495651245e-01" nType="0">
              <Node pos="l" depth="4" NCoef="0" IVar="-1" Cut="0.0000000000000000e+00" cType="1" res="-5.7295203441753983e-04" rms="2.3561619222164154e-01" purity="9.1583353281021118e-01" nType="-99"/>
              <Node pos="r" depth="4" NCoef="0" IVar="-1" Cut="0.0000000000000000e+00" cType="1" res="-1.2116711586713791e-02" rms="3.7784397602081299e-01" purity="6.6399711370468140e-01" nType="-99"/>
            </Node>
          </Node>
          <Node pos="r" depth="2" NCoef="0" IVar="13" Cut="1.8764724731445312e+00" cType="1" res="3.8564023561775684e-03" rms="2.9379048943519592e-01" purity="2.6863947510719299e-01" nType="0">
            <Node pos="l" depth="3" NCoef="0" IVar="0" Cut="2.1428570747375488e+00" cType="1" res="-5.3743892349302769e-03" rms="2.4663953483104706e-01" purity="1.2041071802377701e-01" nType="0">
              <Node pos="l" depth="4" NCoef="0" IVar="-1" Cut="0.0000000000000000e+00" cType="1" res="8.8090337812900543e-03" rms="2.1796004474163055e-01" purity="8.1137277185916901e-02" nType="-99"/>
              <Node pos="r" depth="4" NCoef="0" IVar="-1" Cut="0.0000000000000000e+00" cType="1" res="-2.6762381196022034e-02" rms="2.8908699750900269e-01" purity="1.8876232206821442e-01" nType="-99"/>
            </Node>
            <Node pos="r" depth="3" NCoef="0" IVar="8" Cut="1.1415627343750000e+05" cType="1" res="7.8091952018439770e-03" rms="3.1172508001327515e-01" purity="3.3211371302604675e-01" nType="0">
              <Node pos="l" depth="4" NCoef="0" IVar="-1" Cut="0.0000000000000000e+00" cType="1" res="9.7970180213451385e-03" rms="3.5128837823867798e-01" purity="4.2682623863220215e-01" nType="-99"/>
              <Node pos="r" depth="4" NCoef="0" IVar="-1" Cut="0.0000000000000000e+00" cType="1" res="-4.4584196060895920e-02" rms="9.4715431332588196e-02" purity="1.4696456491947174e-02" nType="-99"/>
            </Node>
          </Node>
        </Node>
        <Node pos="r" depth="1" NCoef="0" IVar="12" Cut="3.4113523960113525e+00" cType="1" res="-4.4978479854762554e-04" rms="3.4659299254417419e-01" purity="4.1214406490325928e-01" nType="0">
          <Node pos="l" depth="2" NCoef="0" IVar="15" Cut="3.1936867237091064e+00" cType="1" res="-8.9402735466137528e-04" rms="3.4814903140068054e-01" purity="4.1604068875312805e-01" nType="0">
            <Node pos="l" depth="3" NCoef="0" IVar="18" Cut="3.0302253125000000e+05" cType="1" res="-5.0343264592811465e-04" rms="3.4862139821052551e-01" purity="4.1916662454605103e-01" nType="0">
              <Node pos="l" depth="4" NCoef="0" IVar="-1" Cut="0.0000000000000000e+00" cType="1" res="-7.7062410127837211e-05" rms="3.5157808661460876e-01" purity="4.2705705761909485e-01" nType="-99"/>
              <Node pos="r" depth="4" NCoef="0" IVar="-1" Cut="0.0000000000000000e+00" cType="1" res="-2.0950812846422195e-02" rms="2.3436892032623291e-01" purity="1.6595967113971710e-01" nType="-99"/>
            </Node>
            <Node pos="r" depth="3" NCoef="0" IVar="-1" Cut="0.0000000000000000e+00" cType="1" res="-1.1973802000284195e-02" rms="3.3097603917121887e-01" purity="3.0708894133567810e-01" nType="-99"/>
          </Node>
          <Node pos="r" depth="2" NCoef="0" IVar="15" Cut="1.8850090503692627e+00" cType="1" res="4.3376162648200989e-03" rms="3.2932022213935852e-01" purity="3.7015232443809509e-01" nType="0">
            <Node pos="l" depth="3" NCoef="0" IVar="15" Cut="1.2646273374557495e+00" cType="1" res="-4.1216411627829075e-03" rms="3.1653186678886414e-01" purity="3.1319439411163330e-01" nType="0">
              <Node pos="l" depth="4" NCoef="0" IVar="-1" Cut="0.0000000000000000e+00" cType="1" res="5.9843342751264572e-03" rms="3.3382469415664673e-01" purity="3.0768710374832153e-01" nType="-99"/>
              <Node pos="r" depth="4" NCoef="0" IVar="-1" Cut="0.0000000000000000e+00" cType="1" res="-1.3810938224196434e-02" rms="2.9837968945503235e-01" purity="3.1854403018951416e-01" nType="-99"/>
            </Node>
            <Node pos="r" depth="3" NCoef="0" IVar="11" Cut="1.5609942674636841e+00" cType="1" res="1.1977680027484894e-02" rms="3.4027686715126038e-01" purity="4.2159447073936462e-01" nType="0">
              <Node pos="l" depth="4" NCoef="0" IVar="-1" Cut="0.0000000000000000e+00" cType="1" res="1.2846862955484539e-04" rms="3.6608657240867615e-01" purity="5.7859361171722412e-01" nType="-99"/>
              <Node pos="r" depth="4" NCoef="0" IVar="-1" Cut="0.0000000000000000e+00" cType="1" res="2.9949067160487175e-02" rms="3.0378183722496033e-01" purity="2.2263008356094360e-01" nType="-99"/>
            </Node>
          </Node>
        </Node>
      </Node>
    </BinaryTree>
    <BinaryTree type="DecisionTree" boostWeight="1.0000000000000000e+00" itree="259">
      <Node pos="s" depth="0" NCoef="0" IVar="11" Cut="7.3745375871658325e-01" cType="1" res="-3.9440519685740583e-06" rms="3.3664280176162720e-01" purity="5.0000000000000000e-01" nType="0">
        <Node pos="l" depth="1" NCoef="0" IVar="13" Cut="8.2423067092895508e-01" cType="1" res="7.2094396455213428e-04" rms="3.2520774006843567e-01" purity="6.6764646768569946e-01" nType="0">
          <Node pos="l" depth="2" NCoef="0" IVar="-1" Cut="0.0000000000000000e+00" cType="1" res="-7.2768288664519787e-03" rms="3.3243578672409058e-01" purity="1.8852519989013672e-01" nType="-99"/>
          <Node pos="r" depth="2" NCoef="0" IVar="13" Cut="1.5292634963989258e+00" cType="1" res="1.1641603196039796e-03" rms="3.2485684752464294e-01" purity="6.9019740819931030e-01" nType="0">
            <Node pos="l" depth="3" NCoef="0" IVar="17" Cut="9.0066812500000000e+04" cType="1" res="1.1153948493301868e-02" rms="3.5334289073944092e-01" purity="2.9585835337638855e-01" nType="0">
              <Node pos="l" depth="4" NCoef="0" IVar="-1" Cut="0.0000000000000000e+00" cType="1" res="-1.0411508847028017e-03" rms="3.6055600643157959e-01" purity="3.1318682432174683e-01" nType="-99"/>
              <Node pos="r" depth="4" NCoef="0" IVar="-1" Cut="0.0000000000000000e+00" cType="1" res="2.1010464057326317e-02" rms="3.4466746449470520e-01" purity="2.7671986818313599e-01" nType="-99"/>
            </Node>
            <Node pos="r" depth="3" NCoef="0" IVar="12" Cut="2.1776201725006104e+00" cType="1" res="1.5115027781575918e-04" rms="3.2181015610694885e-01" purity="7.3018521070480347e-01" nType="0">
              <Node pos="l" depth="4" NCoef="0" IVar="-1" Cut="0.0000000000000000e+00" cType="1" res="-4.5330082066357136e-03" rms="3.6392945051193237e-01" purity="5.1118707656860352e-01" nType="-99"/>
              <Node pos="r" depth="4" NCoef="0" IVar="-1" Cut="0.0000000000000000e+00" cType="1" res="1.2102788314223289e-03" rms="3.1404143571853638e-01" purity="7.6757556200027466e-01" nType="-99"/>
            </Node>
          </Node>
        </Node>
        <Node pos="r" depth="1" NCoef="0" IVar="15" Cut="3.0486736297607422e+00" cType="1" res="-3.3564551267772913e-04" rms="3.4174728393554688e-01" purity="4.2328667640686035e-01" nType="0">
          <Node pos="l" depth="2" NCoef="0" IVar="16" Cut="1.0079910755157471e+00" cType="1" res="-5.9253541985526681e-04" rms="3.4245094656944275e-01" purity="4.2497059702873230e-01" nType="0">
            <Node pos="l" depth="3" NCoef="0" IVar="11" Cut="1.4755523204803467e+00" cType="1" res="-2.7940250001847744e-03" rms="3.2675001025199890e-01" purity="6.2851214408874512e-01" nType="0">
              <Node pos="l" depth="4" NCoef="0" IVar="-1" Cut="0.0000000000000000e+00" cType="1" res="-6.0704024508595467e-03" rms="3.2395827770233154e-01" purity="7.3695236444473267e-01" nType="-99"/>
              <Node pos="r" depth="4" NCoef="0" IVar="-1" Cut="0.0000000000000000e+00" cType="1" res="3.2813097350299358e-03" rms="3.3138012886047363e-01" purity="4.4247040152549744e-01" nType="-99"/>
            </Node>
            <Node pos="r" depth="3" NCoef="0" IVar="15" Cut="5.8353388309478760e-01" cType="1" res="3.1727220630273223e-04" rms="3.4872925281524658e-01" purity="3.4085315465927124e-01" nType="0">
              <Node pos="l" depth="4" NCoef="0" IVar="-1" Cut="0.0000000000000000e+00" cType="1" res="1.0113800875842571e-02" rms="3.7128385901451111e-01" purity="4.4129014015197754e-01" nType="-99"/>
              <Node pos="r" depth="4" NCoef="0" IVar="-1" Cut="0.0000000000000000e+00" cType="1" res="-3.8005359238013625e-04" rms="3.4740471839904785e-01" purity="3.3522474765777588e-01" nType="-99"/>
            </Node>
          </Node>
          <Node pos="r" depth="2" NCoef="0" IVar="11" Cut="1.2625128030776978e+00" cType="1" res="4.2560221627354622e-03" rms="3.2888209819793701e-01" purity="3.9318758249282837e-01" nType="0">
            <Node pos="l" depth="3" NCoef="0" IVar="-1" Cut="0.0000000000000000e+00" cType="1" res="9.9564492702484131e-03" rms="3.5489082336425781e-01" purity="5.3540372848510742e-01" nType="-99"/>
            <Node pos="r" depth="3" NCoef="0" IVar="18" Cut="1.4723362500000000e+05" cType="1" res="-2.1253789309412241e-03" rms="3.0744674801826477e-01" purity="2.8486451506614685e-01" nType="0">
              <Node pos="l" depth="4" NCoef="0" IVar="-1" Cut="0.0000000000000000e+00" cType="1" res="2.1774112246930599e-03" rms="3.3410817384719849e-01" purity="3.4946659207344055e-01" nType="-99"/>
              <Node pos="r" depth="4" NCoef="0" IVar="-1" Cut="0.0000000000000000e+00" cType="1" res="-7.9938834533095360e-03" rms="2.7810215950012207e-01" purity="2.2012658417224884e-01" nType="-99"/>
            </Node>
          </Node>
        </Node>
      </Node>
    </BinaryTree>
    <BinaryTree type="DecisionTree" boostWeight="1.0000000000000000e+00" itree="260">
      <Node pos="s" depth="0" NCoef="0" IVar="15" Cut="5.1103079319000244e-01" cType="1" res="-3.2246607588604093e-06" rms="3.3662045001983643e-01" purity="5.0000000000000000e-01" nType="0">
        <Node pos="l" depth="1" NCoef="0" IVar="11" Cut="1.1022709608078003e+00" cType="1" res="-3.3765742555260658e-03" rms="3.5393422842025757e-01" purity="5.0138574838638306e-01" nType="0">
          <Node pos="l" depth="2" NCoef="0" IVar="-1" Cut="0.0000000000000000e+00" cType="1" res="3.3732829615473747e-03" rms="3.5178270936012268e-01" purity="6.3411706686019897e-01" nType="-99"/>
          <Node pos="r" depth="2" NCoef="0" IVar="-1" Cut="0.0000000000000000e+00" cType="1" res="-8.4025701507925987e-03" rms="3.5585403442382812e-01" purity="3.7186616659164429e-01" nType="-99"/>
        </Node>
        <Node pos="r" depth="1" NCoef="0" IVar="12" Cut="3.1433789730072021e+00" cType="1" res="9.0617388195823878e-05" rms="3.3612558245658875e-01" purity="4.9996146559715271e-01" nType="0">
          <Node pos="l" depth="2" NCoef="0" IVar="6" Cut="1.8604671875000000e+05" cType="1" res="4.8901897389441729e-04" rms="3.3999025821685791e-01" purity="5.0295799970626831e-01" nType="0">
            <Node pos="l" depth="3" NCoef="0" IVar="3" Cut="1.9187006250000000e+05" cType="1" res="-1.2459777062758803e-03" rms="3.6899802088737488e-01" purity="5.2355027198791504e-01" nType="0">
              <Node pos="l" depth="4" NCoef="0" IVar="-1" Cut="0.0000000000000000e+00" cType="1" res="-4.0713439375394955e-05" rms="3.7101501226425171e-01" purity="5.3179746866226196e-01" nType="-99"/>
              <Node pos="r" depth="4" NCoef="0" IVar="-1" Cut="0.0000000000000000e+00" cType="1" res="-1.1933963745832443e-02" rms="3.4490501880645752e-01" purity="4.2961233854293823e-01" nType="-99"/>
            </Node>
            <Node pos="r" depth="3" NCoef="0" IVar="16" Cut="2.9831619262695312e+00" cType="1" res="3.1000832095742226e-03" rms="2.9091444611549377e-01" purity="4.7196787595748901e-01" nType="0">
              <Node pos="l" depth="4" NCoef="0" IVar="-1" Cut="0.0000000000000000e+00" cType="1" res="4.4951750896871090e-03" rms="2.9194849729537964e-01" purity="4.8351666331291199e-01" nType="-99"/>
              <Node pos="r" depth="4" NCoef="0" IVar="-1" Cut="0.0000000000000000e+00" cType="1" res="-2.0155694335699081e-02" rms="2.6449361443519592e-01" purity="1.9950912892818451e-01" nType="-99"/>
            </Node>
          </Node>
          <Node pos="r" depth="2" NCoef="0" IVar="14" Cut="1.8004931211471558e+00" cType="1" res="-1.7015310004353523e-03" rms="3.1815472245216370e-01" purity="4.8648196458816528e-01" nType="0">
            <Node pos="l" depth="3" NCoef="0" IVar="4" Cut="2.3919601562500000e+05" cType="1" res="-6.5279384143650532e-03" rms="3.2061371207237244e-01" purity="3.9129868149757385e-01" nType="0">
              <Node pos="l" depth="4" NCoef="0" IVar="-1" Cut="0.0000000000000000e+00" cType="1" res="-1.4676195569336414e-02" rms="3.4594109654426575e-01" purity="3.9257007837295532e-01" nType="-99"/>
              <Node pos="r" depth="4" NCoef="0" IVar="-1" Cut="0.0000000000000000e+00" cType="1" res="1.1387191480025649e-03" rms="3.0434152483940125e-01" purity="3.9054468274116516e-01" nType="-99"/>
            </Node>
            <Node pos="r" depth="3" NCoef="0" IVar="16" Cut="1.7678203582763672e+00" cType="1" res="2.0941989496350288e-03" rms="3.1615567207336426e-01" purity="5.6133896112442017e-01" nType="0">
              <Node pos="l" depth="4" NCoef="0" IVar="-1" Cut="0.0000000000000000e+00" cType="1" res="-1.0871901176869869e-03" rms="3.1068995594978333e-01" purity="6.3771152496337891e-01" nType="-99"/>
              <Node pos="r" depth="4" NCoef="0" IVar="-1" Cut="0.0000000000000000e+00" cType="1" res="1.0544683784246445e-02" rms="3.3245310187339783e-01" purity="3.2280391454696655e-01" nType="-99"/>
            </Node>
          </Node>
        </Node>
      </Node>
    </BinaryTree>
    <BinaryTree type="DecisionTree" boostWeight="1.0000000000000000e+00" itree="261">
      <Node pos="s" depth="0" NCoef="0" IVar="13" Cut="3.2910404205322266e+00" cType="1" res="-2.8414360713213682e-06" rms="3.3659282326698303e-01" purity="5.0000000000000000e-01" nType="0">
        <Node pos="l" depth="1" NCoef="0" IVar="14" Cut="1.0307539701461792e+00" cType="1" res="-1.8166947120334953e-04" rms="3.3558699488639832e-01" purity="4.9753779172897339e-01" nType="0">
          <Node pos="l" depth="2" NCoef="0" IVar="12" Cut="1.9240922927856445e+00" cType="1" res="1.7126647289842367e-03" rms="3.5176253318786621e-01" purity="4.4551256299018860e-01" nType="0">
            <Node pos="l" depth="3" NCoef="0" IVar="-1" Cut="0.0000000000000000e+00" cType="1" res="-9.2900013551115990e-03" rms="3.6283037066459656e-01" purity="3.6610504984855652e-01" nType="-99"/>
            <Node pos="r" depth="3" NCoef="0" IVar="12" Cut="3.0402441024780273e+00" cType="1" res="3.8261348381638527e-03" rms="3.5007947683334351e-01" purity="4.5701801776885986e-01" nType="0">
              <Node pos="l" depth="4" NCoef="0" IVar="-1" Cut="0.0000000000000000e+00" cType="1" res="6.3625499606132507e-03" rms="3.5879302024841309e-01" purity="4.8046043515205383e-01" nType="-99"/>
              <Node pos="r" depth="4" NCoef="0" IVar="-1" Cut="0.0000000000000000e+00" cType="1" res="-6.2707494944334030e-03" rms="3.2814833521842957e-01" purity="4.0120792388916016e-01" nType="-99"/>
            </Node>
          </Node>
          <Node pos="r" depth="2" NCoef="0" IVar="0" Cut="1.3333333730697632e+00" cType="1" res="-5.5278383661061525e-04" rms="3.3232459425926208e-01" purity="5.0772988796234131e-01" nType="0">
            <Node pos="l" depth="3" NCoef="0" IVar="17" Cut="1.5027737500000000e+05" cType="1" res="0.0000000000000000e+00" rms="0.0000000000000000e+00" purity="3.8072004914283752e-01" nType="0">
              <Node pos="l" depth="4" NCoef="0" IVar="-1" Cut="0.0000000000000000e+00" cType="1" res="-6.6570439375936985e-03" rms="3.5132694244384766e-01" purity="3.9515146613121033e-01" nType="-99"/>
              <Node pos="r" depth="4" NCoef="0" IVar="-1" Cut="0.0000000000000000e+00" cType="1" res="1.2041615322232246e-02" rms="2.9722383618354797e-01" purity="3.2881182432174683e-01" nType="-99"/>
            </Node>
            <Node pos="r" depth="3" NCoef="0" IVar="11" Cut="1.4541230201721191e+00" cType="1" res="-3.6676719901151955e-05" rms="3.3122634887695312e-01" purity="5.2474373579025269e-01" nType="0">
              <Node pos="l" depth="4" NCoef="0" IVar="-1" Cut="0.0000000000000000e+00" cType="1" res="7.5845973333343863e-04" rms="3.3625262975692749e-01" purity="6.1725145578384399e-01" nType="-99"/>
              <Node pos="r" depth="4" NCoef="0" IVar="-1" Cut="0.0000000000000000e+00" cType="1" res="-2.1062125451862812e-03" rms="3.1880876421928406e-01" purity="3.0237132310867310e-01" nType="-99"/>
            </Node>
          </Node>
        </Node>
        <Node pos="r" depth="1" NCoef="0" IVar="3" Cut="2.1333771875000000e+05" cType="1" res="1.6976366750895977e-03" rms="3.4600675106048584e-01" purity="5.2341330051422119e-01" nType="0">
          <Node pos="l" depth="2" NCoef="0" IVar="3" Cut="1.6976454687500000e+05" cType="1" res="9.9073396995663643e-03" rms="3.8553342223167419e-01" purity="6.5373742580413818e-01" nType="0">
            <Node pos="l" depth="3" NCoef="0" IVar="-1" Cut="0.0000000000000000e+00" cType="1" res="1.4603963121771812e-02" rms="3.9438763260841370e-01" purity="6.7400449514389038e-01" nType="-99"/>
            <Node pos="r" depth="3" NCoef="0" IVar="-1" Cut="0.0000000000000000e+00" cType="1" res="-4.9611018039286137e-03" rms="3.7286856770515442e-01" purity="6.2703901529312134e-01" nType="-99"/>
          </Node>
          <Node pos="r" depth="2" NCoef="0" IVar="13" Cut="3.7611930370330811e+00" cType="1" res="-3.7866726052016020e-03" rms="3.1674805283546448e-01" purity="4.3635323643684387e-01" nType="0">
            <Node pos="l" depth="3" NCoef="0" IVar="7" Cut="8.9028742187500000e+04" cType="1" res="-9.7244782373309135e-03" rms="3.1324657797813416e-01" purity="4.6679523587226868e-01" nType="0">
              <Node pos="l" depth="4" NCoef="0" IVar="-1" Cut="0.0000000000000000e+00" cType="1" res="-1.3922461308538914e-02" rms="3.4311303496360779e-01" purity="5.3828352689743042e-01" nType="-99"/>
              <Node pos="r" depth="4" NCoef="0" IVar="-1" Cut="0.0000000000000000e+00" cType="1" res="5.6366040371358395e-03" rms="2.5200596451759338e-01" purity="3.4162753820419312e-01" nType="-99"/>
            </Node>
            <Node pos="r" depth="3" NCoef="0" IVar="-1" Cut="0.0000000000000000e+00" cType="1" res="7.0631243288516998e-03" rms="3.2322779297828674e-01" purity="3.7626919150352478e-01" nType="-99"/>
          </Node>
        </Node>
      </Node>
    </BinaryTree>
    <BinaryTree type="DecisionTree" boostWeight="1.0000000000000000e+00" itree="262">
      <Node pos="s" depth="0" NCoef="0" IVar="12" Cut="1.2675663232803345e+00" cType="1" res="-2.0340391984063899e-06" rms="3.3656588196754456e-01" purity="5.0000000000000000e-01" nType="0">
        <Node pos="l" depth="1" NCoef="0" IVar="20" Cut="2.4724835937500000e+04" cType="1" res="-2.1828112658113241e-03" rms="3.4391978383064270e-01" purity="2.4588495492935181e-01" nType="0">
          <Node pos="l" depth="2" NCoef="0" IVar="19" Cut="6.7625250000000000e+04" cType="1" res="2.9085453134030104e-03" rms="3.5502812266349792e-01" purity="2.6402410864830017e-01" nType="0">
            <Node pos="l" depth="3" NCoef="0" IVar="-1" Cut="0.0000000000000000e+00" cType="1" res="-6.3209016807377338e-03" rms="3.4704312682151794e-01" purity="2.9277992248535156e-01" nType="-99"/>
            <Node pos="r" depth="3" NCoef="0" IVar="-1" Cut="0.0000000000000000e+00" cType="1" res="1.0475880466401577e-02" rms="3.6204954981803894e-01" purity="2.3688086867332458e-01" nType="-99"/>
          </Node>
          <Node pos="r" depth="2" NCoef="0" IVar="-1" Cut="0.0000000000000000e+00" cType="1" res="-7.6526179909706116e-03" rms="3.2909533381462097e-01" purity="2.2275155782699585e-01" nType="-99"/>
        </Node>
        <Node pos="r" depth="1" NCoef="0" IVar="16" Cut="2.9740662574768066e+00" cType="1" res="1.0142503015231341e-04" rms="3.3621263504028320e-01" purity="5.1205557584762573e-01" nType="0">
          <Node pos="l" depth="2" NCoef="0" IVar="19" Cut="1.8235876562500000e+05" cType="1" res="-5.6735792895779014e-05" rms="3.3640807867050171e-01" purity="5.2168238162994385e-01" nType="0">
            <Node pos="l" depth="3" NCoef="0" IVar="19" Cut="1.4748550000000000e+05" cType="1" res="-3.4456714638508856e-04" rms="3.3846673369407654e-01" purity="5.4528558254241943e-01" nType="0">
              <Node pos="l" depth="4" NCoef="0" IVar="-1" Cut="0.0000000000000000e+00" cType="1" res="8.7910193542484194e-05" rms="3.3897176384925842e-01" purity="5.5787467956542969e-01" nType="-99"/>
              <Node pos="r" depth="4" NCoef="0" IVar="-1" Cut="0.0000000000000000e+00" cType="1" res="-8.7143583223223686e-03" rms="3.2709151506423950e-01" purity="2.7041789889335632e-01" nType="-99"/>
            </Node>
            <Node pos="r" depth="3" NCoef="0" IVar="6" Cut="1.9674259375000000e+05" cType="1" res="3.5183213185518980e-03" rms="3.0967745184898376e-01" purity="2.2851459681987762e-01" nType="0">
              <Node pos="l" depth="4" NCoef="0" IVar="-1" Cut="0.0000000000000000e+00" cType="1" res="-1.1935940012335777e-02" rms="3.6464497447013855e-01" purity="2.9712378978729248e-01" nType="-99"/>
              <Node pos="r" depth="4" NCoef="0" IVar="-1" Cut="0.0000000000000000e+00" cType="1" res="1.2930478900671005e-02" rms="2.8803041577339172e-01" purity="2.0494630932807922e-01" nType="-99"/>
            </Node>
          </Node>
          <Node pos="r" depth="2" NCoef="0" IVar="0" Cut="6.3333334922790527e+00" cType="1" res="3.6965776234865189e-03" rms="3.3171850442886353e-01" purity="2.9322931170463562e-01" nType="0">
            <Node pos="l" depth="3" NCoef="0" IVar="16" Cut="3.1858644485473633e+00" cType="1" res="1.3287362642586231e-02" rms="3.4299185872077942e-01" purity="3.7522232532501221e-01" nType="0">
              <Node pos="l" depth="4" NCoef="0" IVar="-1" Cut="0.0000000000000000e+00" cType="1" res="2.2495066747069359e-02" rms="3.4800240397453308e-01" purity="4.0075471997261047e-01" nType="-99"/>
              <Node pos="r" depth="4" NCoef="0" IVar="-1" Cut="0.0000000000000000e+00" cType="1" res="-3.2684826292097569e-03" rms="3.3650863170623779e-01" purity="3.4703809022903442e-01" nType="-99"/>
            </Node>
            <Node pos="r" depth="3" NCoef="0" IVar="-1" Cut="0.0000000000000000e+00" cType="1" res="-8.0232638865709305e-03" rms="3.1600189208984375e-01" purity="1.8646459281444550e-01" nType="-99"/>
          </Node>
        </Node>
      </Node>
    </BinaryTree>
    <BinaryTree type="DecisionTree" boostWeight="1.0000000000000000e+00" itree="263">
      <Node pos="s" depth="0" NCoef="0" IVar="12" Cut="2.0714859962463379e+00" cType="1" res="-2.5666897727205651e-06" rms="3.3653956651687622e-01" purity="5.0000000000000000e-01" nType="0">
        <Node pos="l" depth="1" NCoef="0" IVar="11" Cut="1.6857937574386597e+00" cType="1" res="1.0082087246701121e-03" rms="3.5573828220367432e-01" purity="3.7926226854324341e-01" nType="0">
          <Node pos="l" depth="2" NCoef="0" IVar="15" Cut="1.2045089006423950e+00" cType="1" res="1.8311911262571812e-03" rms="3.5736286640167236e-01" purity="3.8006728887557983e-01" nType="0">
            <Node pos="l" depth="3" NCoef="0" IVar="0" Cut="5.3333334922790527e+00" cType="1" res="8.9173093438148499e-03" rms="3.7417656183242798e-01" purity="4.4146928191184998e-01" nType="0">
              <Node pos="l" depth="4" NCoef="0" IVar="-1" Cut="0.0000000000000000e+00" cType="1" res="1.4643715694546700e-02" rms="3.7153750658035278e-01" purity="5.3083735704421997e-01" nType="-99"/>
              <Node pos="r" depth="4" NCoef="0" IVar="-1" Cut="0.0000000000000000e+00" cType="1" res="-1.2496386189013720e-03" rms="3.7618765234947205e-01" purity="3.6180314421653748e-01" nType="-99"/>
            </Node>
            <Node pos="r" depth="3" NCoef="0" IVar="12" Cut="1.8928084373474121e+00" cType="1" res="1.1800827633123845e-04" rms="3.5315638780593872e-01" purity="3.6522239446640015e-01" nType="0">
              <Node pos="l" depth="4" NCoef="0" IVar="-1" Cut="0.0000000000000000e+00" cType="1" res="-2.0559022668749094e-03" rms="3.5014334321022034e-01" purity="3.3415901660919189e-01" nType="-99"/>
              <Node pos="r" depth="4" NCoef="0" IVar="-1" Cut="0.0000000000000000e+00" cType="1" res="7.5547564774751663e-03" rms="3.6370912194252014e-01" purity="4.7804182767868042e-01" nType="-99"/>
            </Node>
          </Node>
          <Node pos="r" depth="2" NCoef="0" IVar="-1" Cut="0.0000000000000000e+00" cType="1" res="-9.7463866695761681e-03" rms="3.2880905270576477e-01" purity="3.6657637357711792e-01" nType="-99"/>
        </Node>
        <Node pos="r" depth="1" NCoef="0" IVar="13" Cut="1.6455202102661133e+00" cType="1" res="-2.5655579520389438e-04" rms="3.3154004812240601e-01" purity="5.3033912181854248e-01" nType="0">
          <Node pos="l" depth="2" NCoef="0" IVar="11" Cut="1.5501588582992554e+00" cType="1" res="2.4533011019229889e-03" rms="2.9200261831283569e-01" purity="1.9300863146781921e-01" nType="0">
            <Node pos="l" depth="3" NCoef="0" IVar="15" Cut="2.0078570842742920e+00" cType="1" res="1.4506951905786991e-02" rms="3.5894134640693665e-01" purity="3.4698864817619324e-01" nType="0">
              <Node pos="l" depth="4" NCoef="0" IVar="-1" Cut="0.0000000000000000e+00" cType="1" res="1.6160424798727036e-02" rms="3.7757036089897156e-01" purity="3.9746522903442383e-01" nType="-99"/>
              <Node pos="r" depth="4" NCoef="0" IVar="-1" Cut="0.0000000000000000e+00" cType="1" res="4.8747709952294827e-03" rms="3.3919170498847961e-01" purity="2.9681301116943359e-01" nType="-99"/>
            </Node>
            <Node pos="r" depth="3" NCoef="0" IVar="9" Cut="1.2268950781250000e+05" cType="1" res="-7.7433255501091480e-04" rms="2.7119818329811096e-01" purity="1.5177704393863678e-01" nType="0">
              <Node pos="l" depth="4" NCoef="0" IVar="-1" Cut="0.0000000000000000e+00" cType="1" res="-5.4003717377781868e-03" rms="2.9821974039077759e-01" purity="1.8391013145446777e-01" nType="-99"/>
              <Node pos="r" depth="4" NCoef="0" IVar="-1" Cut="0.0000000000000000e+00" cType="1" res="1.5847848728299141e-02" rms="2.1544741094112396e-01" purity="9.5326162874698639e-02" nType="-99"/>
            </Node>
          </Node>
          <Node pos="r" depth="2" NCoef="0" IVar="18" Cut="2.9464993750000000e+05" cType="1" res="-6.3994334777817130e-04" rms="3.3675739169120789e-01" purity="5.7806426286697388e-01" nType="0">
            <Node pos="l" depth="3" NCoef="0" IVar="18" Cut="2.1022601562500000e+05" cType="1" res="-8.6687528528273106e-04" rms="3.3827611804008484e-01" purity="5.8450818061828613e-01" nType="0">
              <Node pos="l" depth="4" NCoef="0" IVar="-1" Cut="0.0000000000000000e+00" cType="1" res="-3.4598613274283707e-04" rms="3.4036812186241150e-01" purity="5.8790755271911621e-01" nType="-99"/>
              <Node pos="r" depth="4" NCoef="0" IVar="-1" Cut="0.0000000000000000e+00" cType="1" res="-1.0318900458514690e-02" rms="2.9412975907325745e-01" purity="5.1785570383071899e-01" nType="-99"/>
            </Node>
            <Node pos="r" depth="3" NCoef="0" IVar="1" Cut="7.9541531250000000e+04" cType="1" res="6.5544671379029751e-03" rms="2.8434276580810547e-01" purity="3.7377226352691650e-01" nType="0">
              <Node pos="l" depth="4" NCoef="0" IVar="-1" Cut="0.0000000000000000e+00" cType="1" res="-6.6995588131248951e-03" rms="2.6438787579536438e-01" purity="3.1252995133399963e-01" nType="-99"/>
              <Node pos="r" depth="4" NCoef="0" IVar="-1" Cut="0.0000000000000000e+00" cType="1" res="2.0636299625039101e-02" rms="3.0402746796607971e-01" purity="4.4036301970481873e-01" nType="-99"/>
            </Node>
          </Node>
        </Node>
      </Node>
    </BinaryTree>
    <BinaryTree type="DecisionTree" boostWeight="1.0000000000000000e+00" itree="264">
      <Node pos="s" depth="0" NCoef="0" IVar="13" Cut="3.2910404205322266e+00" cType="1" res="-2.2773369892092887e-06" rms="3.3651363849639893e-01" purity="5.0000000000000000e-01" nType="0">
        <Node pos="l" depth="1" NCoef="0" IVar="14" Cut="3.0833916664123535e+00" cType="1" res="-1.6148206486832350e-04" rms="3.3551800251007080e-01" purity="4.9753779172897339e-01" nType="0">
          <Node pos="l" depth="2" NCoef="0" IVar="15" Cut="1.2009087800979614e+00" cType="1" res="-8.3694897057284834e-07" rms="3.3587843179702759e-01" purity="4.9934726953506470e-01" nType="0">
            <Node pos="l" depth="3" NCoef="0" IVar="11" Cut="2.2608952522277832e+00" cType="1" res="-2.1827055606991053e-03" rms="3.5723471641540527e-01" purity="4.8576149344444275e-01" nType="0">
              <Node pos="l" depth="4" NCoef="0" IVar="-1" Cut="0.0000000000000000e+00" cType="1" res="-2.7473836671561003e-03" rms="3.6402696371078491e-01" purity="5.2274632453918457e-01" nType="-99"/>
              <Node pos="r" depth="4" NCoef="0" IVar="-1" Cut="0.0000000000000000e+00" cType="1" res="1.3617492280900478e-02" rms="2.9437068104743958e-01" purity="1.7809331417083740e-01" nType="-99"/>
            </Node>
            <Node pos="r" depth="3" NCoef="0" IVar="14" Cut="1.9104481935501099e+00" cType="1" res="6.3877948559820652e-04" rms="3.2935270667076111e-01" purity="5.0332999229431152e-01" nType="0">
              <Node pos="l" depth="4" NCoef="0" IVar="-1" Cut="0.0000000000000000e+00" cType="1" res="2.6007187552750111e-03" rms="3.3602866530418396e-01" purity="4.3316397070884705e-01" nType="-99"/>
              <Node pos="r" depth="4" NCoef="0" IVar="-1" Cut="0.0000000000000000e+00" cType="1" res="-1.1911480687558651e-03" rms="3.2387748360633850e-01" purity="5.5968856811523438e-01" nType="-99"/>
            </Node>
          </Node>
          <Node pos="r" depth="2" NCoef="0" IVar="5" Cut="1.5488910937500000e+05" cType="1" res="-3.7795656826347113e-03" rms="3.2727479934692383e-01" purity="4.5678308606147766e-01" nType="0">
            <Node pos="l" depth="3" NCoef="0" IVar="5" Cut="8.6850289062500000e+04" cType="1" res="-1.3238089159131050e-02" rms="3.3262890577316284e-01" purity="4.9226158857345581e-01" nType="0">
              <Node pos="l" depth="4" NCoef="0" IVar="-1" Cut="0.0000000000000000e+00" cType="1" res="-7.1745691820979118e-03" rms="3.4294193983078003e-01" purity="4.7013270854949951e-01" nType="-99"/>
              <Node pos="r" depth="4" NCoef="0" IVar="-1" Cut="0.0000000000000000e+00" cType="1" res="-1.6024392098188400e-02" rms="3.2168725132942200e-01" purity="5.1486212015151978e-01" nType="-99"/>
            </Node>
            <Node pos="r" depth="3" NCoef="0" IVar="-1" Cut="0.0000000000000000e+00" cType="1" res="8.2738716155290604e-03" rms="3.1986492872238159e-01" purity="4.1126328706741333e-01" nType="-99"/>
          </Node>
        </Node>
        <Node pos="r" depth="1" NCoef="0" IVar="15" Cut="1.2837932109832764e+00" cType="1" res="1.5116024296730757e-03" rms="3.4583419561386108e-01" purity="5.2341330051422119e-01" nType="0">
          <Node pos="l" depth="2" NCoef="0" IVar="18" Cut="3.2391544921875000e+04" cType="1" res="1.1764947324991226e-02" rms="3.7148854136466980e-01" purity="4.9148994684219360e-01" nType="0">
            <Node pos="l" depth="3" NCoef="0" IVar="-1" Cut="0.0000000000000000e+00" cType="1" res="-2.9715392738580704e-03" rms="3.7801462411880493e-01" purity="5.2311474084854126e-01" nType="-99"/>
            <Node pos="r" depth="3" NCoef="0" IVar="-1" Cut="0.0000000000000000e+00" cType="1" res="1.8420165404677391e-02" rms="3.6528226733207703e-01" purity="4.6453019976615906e-01" nType="-99"/>
          </Node>
          <Node pos="r" depth="2" NCoef="0" IVar="15" Cut="2.0550022125244141e+00" cType="1" res="-1.6853255219757557e-03" rms="3.3737295866012573e-01" purity="5.3336685895919800e-01" nType="0">
            <Node pos="l" depth="3" NCoef="0" IVar="15" Cut="1.7243756055831909e+00" cType="1" res="-1.1262437328696251e-02" rms="3.4540033340454102e-01" purity="4.6247172355651855e-01" nType="0">
              <Node pos="l" depth="4" NCoef="0" IVar="-1" Cut="0.0000000000000000e+00" cType="1" res="-1.6677742823958397e-02" rms="3.4458431601524353e-01" purity="4.3224856257438660e-01" nType="-99"/>
              <Node pos="r" depth="4" NCoef="0" IVar="-1" Cut="0.0000000000000000e+00" cType="1" res="-7.9673583968542516e-05" rms="3.4595057368278503e-01" purity="4.9566620588302612e-01" nType="-99"/>
            </Node>
            <Node pos="r" depth="3" NCoef="0" IVar="16" Cut="1.2181894779205322e+00" cType="1" res="3.9562936872243881e-03" rms="3.3242446184158325e-01" purity="5.7512921094894409e-01" nType="0">
              <Node pos="l" depth="4" NCoef="0" IVar="-1" Cut="0.0000000000000000e+00" cType="1" res="-3.5659607965499163e-03" rms="3.1107899546623230e-01" purity="7.1253079175949097e-01" nType="-99"/>
              <Node pos="r" depth="4" NCoef="0" IVar="-1" Cut="0.0000000000000000e+00" cType="1" res="9.2748105525970459e-03" rms="3.5407027602195740e-01" purity="4.2517900466918945e-01" nType="-99"/>
            </Node>
          </Node>
        </Node>
      </Node>
    </BinaryTree>
    <BinaryTree type="DecisionTree" boostWeight="1.0000000000000000e+00" itree="265">
      <Node pos="s" depth="0" NCoef="0" IVar="12" Cut="2.0714859962463379e+00" cType="1" res="-1.8798029941535788e-06" rms="3.3648234605789185e-01" purity="5.0000000000000000e-01" nType="0">
        <Node pos="l" depth="1" NCoef="0" IVar="10" Cut="6.6367921875000000e+04" cType="1" res="9.2947733355686069e-04" rms="3.5569205880165100e-01" purity="3.7926226854324341e-01" nType="0">
          <Node pos="l" depth="2" NCoef="0" IVar="12" Cut="1.6248360872268677e+00" cType="1" res="4.3547037057578564e-03" rms="3.7406638264656067e-01" purity="3.4004202485084534e-01" nType="0">
            <Node pos="l" depth="3" NCoef="0" IVar="15" Cut="2.0660901069641113e+00" cType="1" res="-4.4856913154944777e-04" rms="3.6945867538452148e-01" purity="3.1299671530723572e-01" nType="0">
              <Node pos="l" depth="4" NCoef="0" IVar="-1" Cut="0.0000000000000000e+00" cType="1" res="6.4775934442877769e-03" rms="3.7774685025215149e-01" purity="3.5219997167587280e-01" nType="-99"/>
              <Node pos="r" depth="4" NCoef="0" IVar="-1" Cut="0.0000000000000000e+00" cType="1" res="-7.3011168278753757e-03" rms="3.6099648475646973e-01" purity="2.7508977055549622e-01" nType="-99"/>
            </Node>
            <Node pos="r" depth="3" NCoef="0" IVar="12" Cut="1.9013180732727051e+00" cType="1" res="1.2481660582125187e-02" rms="3.8159817457199097e-01" purity="3.8580164313316345e-01" nType="0">
              <Node pos="l" depth="4" NCoef="0" IVar="-1" Cut="0.0000000000000000e+00" cType="1" res="1.4119161292910576e-02" rms="3.7886935472488403e-01" purity="3.9938202500343323e-01" nType="-99"/>
              <Node pos="r" depth="4" NCoef="0" IVar="-1" Cut="0.0000000000000000e+00" cType="1" res="-8.7756454013288021e-04" rms="3.8548767566680908e-01" purity="3.6424544453620911e-01" nType="-99"/>
            </Node>
          </Node>
          <Node pos="r" depth="2" NCoef="0" IVar="13" Cut="1.5075541734695435e+00" cType="1" res="-2.0057177171111107e-03" rms="3.3912783861160278e-01" purity="4.1287147998809814e-01" nType="0">
            <Node pos="l" depth="3" NCoef="0" IVar="-1" Cut="0.0000000000000000e+00" cType="1" res="-2.6580546051263809e-02" rms="2.1980796754360199e-01" purity="8.7060168385505676e-02" nType="-99"/>
            <Node pos="r" depth="3" NCoef="0" IVar="0" Cut="2.3333332538604736e+00" cType="1" res="7.6756632188335061e-04" rms="3.5699677467346191e-01" purity="4.7387799620628357e-01" nType="0">
              <Node pos="l" depth="4" NCoef="0" IVar="-1" Cut="0.0000000000000000e+00" cType="1" res="-9.6388962119817734e-03" rms="3.5552597045898438e-01" purity="3.9674022793769836e-01" nType="-99"/>
              <Node pos="r" depth="4" NCoef="0" IVar="-1" Cut="0.0000000000000000e+00" cType="1" res="4.0035289712250233e-03" rms="3.5734617710113525e-01" purity="4.9842417240142822e-01" nType="-99"/>
            </Node>
          </Node>
        </Node>
        <Node pos="r" depth="1" NCoef="0" IVar="14" Cut="3.3399713039398193e+00" cType="1" res="-2.3591256467625499e-04" rms="3.3147990703582764e-01" purity="5.3033912181854248e-01" nType="0">
          <Node pos="l" depth="2" NCoef="0" IVar="18" Cut="3.6926103125000000e+05" cType="1" res="-3.4456653520464897e-04" rms="3.3151814341545105e-01" purity="5.3137266635894775e-01" nType="0">
            <Node pos="l" depth="3" NCoef="0" IVar="18" Cut="2.1069332812500000e+05" cType="1" res="-4.5667306403629482e-04" rms="3.3251664042472839e-01" purity="5.3522795438766479e-01" nType="0">
              <Node pos="l" depth="4" NCoef="0" IVar="-1" Cut="0.0000000000000000e+00" cType="1" res="7.2710259701125324e-05" rms="3.3555838465690613e-01" purity="5.4082620143890381e-01" nType="-99"/>
              <Node pos="r" depth="4" NCoef="0" IVar="-1" Cut="0.0000000000000000e+00" cType="1" res="-1.0537835769355297e-02" rms="2.7967262268066406e-01" purity="4.4632297754287720e-01" nType="-99"/>
            </Node>
            <Node pos="r" depth="3" NCoef="0" IVar="-1" Cut="0.0000000000000000e+00" cType="1" res="1.1361219920217991e-02" rms="2.4796167016029358e-01" purity="2.5022685527801514e-01" nType="-99"/>
          </Node>
          <Node pos="r" depth="2" NCoef="0" IVar="-1" Cut="0.0000000000000000e+00" cType="1" res="5.5214143358170986e-03" rms="3.2912990450859070e-01" purity="4.6878993511199951e-01" nType="-99"/>
        </Node>
      </Node>
    </BinaryTree>
    <BinaryTree type="DecisionTree" boostWeight="1.0000000000000000e+00" itree="266">
      <Node pos="s" depth="0" NCoef="0" IVar="16" Cut="3.2256813049316406e+00" cType="1" res="-2.4792361728032120e-06" rms="3.3645865321159363e-01" purity="5.0000000000000000e-01" nType="0">
        <Node pos="l" depth="1" NCoef="0" IVar="16" Cut="3.0725235939025879e+00" cType="1" res="-6.9745525252074003e-05" rms="3.3650267124176025e-01" purity="5.0438487529754639e-01" nType="0">
          <Node pos="l" depth="2" NCoef="0" IVar="16" Cut="2.9266400337219238e+00" cType="1" res="2.7652607968775555e-05" rms="3.3665221929550171e-01" purity="5.0750672817230225e-01" nType="0">
            <Node pos="l" depth="3" NCoef="0" IVar="19" Cut="3.6544068750000000e+05" cType="1" res="-1.9978234195150435e-04" rms="3.3656889200210571e-01" purity="5.1172751188278198e-01" nType="0">
              <Node pos="l" depth="4" NCoef="0" IVar="-1" Cut="0.0000000000000000e+00" cType="1" res="-2.7107377536594868e-04" rms="3.3733949065208435e-01" purity="5.1588881015777588e-01" nType="-99"/>
              <Node pos="r" depth="4" NCoef="0" IVar="-1" Cut="0.0000000000000000e+00" cType="1" res="1.6695817932486534e-02" rms="2.5759151577949524e-01" purity="1.3671556115150452e-01" nType="-99"/>
            </Node>
            <Node pos="r" depth="3" NCoef="0" IVar="-1" Cut="0.0000000000000000e+00" cType="1" res="8.8646085932850838e-03" rms="3.4043446183204651e-01" purity="3.0568590760231018e-01" nType="-99"/>
          </Node>
          <Node pos="r" depth="2" NCoef="0" IVar="-1" Cut="0.0000000000000000e+00" cType="1" res="-6.3739595934748650e-03" rms="3.2484948635101318e-01" purity="2.6711291074752808e-01" nType="-99"/>
        </Node>
        <Node pos="r" depth="1" NCoef="0" IVar="-1" Cut="0.0000000000000000e+00" cType="1" res="2.8943151701241732e-03" rms="3.3416059613227844e-01" purity="2.7357205748558044e-01" nType="-99"/>
      </Node>
    </BinaryTree>
    <BinaryTree type="DecisionTree" boostWeight="1.0000000000000000e+00" itree="267">
      <Node pos="s" depth="0" NCoef="0" IVar="15" Cut="5.1103079319000244e-01" cType="1" res="-2.2118724700703751e-06" rms="3.3645281195640564e-01" purity="5.0000000000000000e-01" nType="0">
        <Node pos="l" depth="1" NCoef="0" IVar="13" Cut="2.6129813194274902e+00" cType="1" res="-2.7159231249243021e-03" rms="3.5367569327354431e-01" purity="5.0138574838638306e-01" nType="0">
          <Node pos="l" depth="2" NCoef="0" IVar="-1" Cut="0.0000000000000000e+00" cType="1" res="3.6983110476285219e-03" rms="3.5546645522117615e-01" purity="3.9933177828788757e-01" nType="-99"/>
          <Node pos="r" depth="2" NCoef="0" IVar="-1" Cut="0.0000000000000000e+00" cType="1" res="-7.5592123903334141e-03" rms="3.5180389881134033e-01" purity="5.9884536266326904e-01" nType="-99"/>
        </Node>
        <Node pos="r" depth="1" NCoef="0" IVar="15" Cut="7.4065363407135010e-01" cType="1" res="7.3279923526570201e-05" rms="3.3596074581146240e-01" purity="4.9996146559715271e-01" nType="0">
          <Node pos="l" depth="2" NCoef="0" IVar="12" Cut="2.5620265007019043e+00" cType="1" res="3.0500590801239014e-03" rms="3.6667525768280029e-01" purity="5.0409626960754395e-01" nType="0">
            <Node pos="l" depth="3" NCoef="0" IVar="14" Cut="1.1842083930969238e+00" cType="1" res="1.5123778954148293e-02" rms="3.8601642847061157e-01" purity="5.1865893602371216e-01" nType="0">
              <Node pos="l" depth="4" NCoef="0" IVar="-1" Cut="0.0000000000000000e+00" cType="1" res="-8.7852822616696358e-04" rms="3.8755723834037781e-01" purity="5.1947057247161865e-01" nType="-99"/>
              <Node pos="r" depth="4" NCoef="0" IVar="-1" Cut="0.0000000000000000e+00" cType="1" res="2.0620351657271385e-02" rms="3.8394314050674438e-01" purity="5.1790320873260498e-01" nType="-99"/>
            </Node>
            <Node pos="r" depth="3" NCoef="0" IVar="6" Cut="1.4256567187500000e+05" cType="1" res="-5.8471490629017353e-03" rms="3.5147732496261597e-01" purity="4.9336490035057068e-01" nType="0">
              <Node pos="l" depth="4" NCoef="0" IVar="-1" Cut="0.0000000000000000e+00" cType="1" res="-1.7520304769277573e-02" rms="3.8949751853942871e-01" purity="4.7211211919784546e-01" nType="-99"/>
              <Node pos="r" depth="4" NCoef="0" IVar="-1" Cut="0.0000000000000000e+00" cType="1" res="4.8622670583426952e-03" rms="3.3014988899230957e-01" purity="5.0403702259063721e-01" nType="-99"/>
            </Node>
          </Node>
          <Node pos="r" depth="2" NCoef="0" IVar="15" Cut="2.4899590015411377e+00" cType="1" res="-9.5498566224705428e-05" rms="3.3413392305374146e-01" purity="4.9972704052925110e-01" nType="0">
            <Node pos="l" depth="3" NCoef="0" IVar="15" Cut="8.2397007942199707e-01" cType="1" res="-6.0205126646906137e-04" rms="3.4082543849945068e-01" purity="4.9133762717247009e-01" nType="0">
              <Node pos="l" depth="4" NCoef="0" IVar="-1" Cut="0.0000000000000000e+00" cType="1" res="-8.1817684695124626e-03" rms="3.5482704639434814e-01" purity="4.7050744295120239e-01" nType="-99"/>
              <Node pos="r" depth="4" NCoef="0" IVar="-1" Cut="0.0000000000000000e+00" cType="1" res="-2.0585437596309930e-04" rms="3.4033787250518799e-01" purity="4.9203974008560181e-01" nType="-99"/>
            </Node>
            <Node pos="r" depth="3" NCoef="0" IVar="13" Cut="2.9652848243713379e+00" cType="1" res="1.2341118417680264e-03" rms="3.1589251756668091e-01" purity="5.2174776792526245e-01" nType="0">
              <Node pos="l" depth="4" NCoef="0" IVar="-1" Cut="0.0000000000000000e+00" cType="1" res="3.3546080812811852e-03" rms="3.1810882687568665e-01" purity="4.6597057580947876e-01" nType="-99"/>
              <Node pos="r" depth="4" NCoef="0" IVar="-1" Cut="0.0000000000000000e+00" cType="1" res="-4.9800644628703594e-03" rms="3.0983433127403259e-01" purity="6.7011636495590210e-01" nType="-99"/>
            </Node>
          </Node>
        </Node>
      </Node>
    </BinaryTree>
    <BinaryTree type="DecisionTree" boostWeight="1.0000000000000000e+00" itree="268">
      <Node pos="s" depth="0" NCoef="0" IVar="13" Cut="3.2910404205322266e+00" cType="1" res="-1.5385944607260171e-06" rms="3.3643075823783875e-01" purity="5.0000000000000000e-01" nType="0">
        <Node pos="l" depth="1" NCoef="0" IVar="10" Cut="9.7021195312500000e+04" cType="1" res="-1.7879245569929481e-04" rms="3.3544743061065674e-01" purity="4.9753779172897339e-01" nType="0">
          <Node pos="l" depth="2" NCoef="0" IVar="13" Cut="2.9774880409240723e+00" cType="1" res="-1.0680181439965963e-03" rms="3.5274243354797363e-01" purity="4.4025531411170959e-01" nType="0">
            <Node pos="l" depth="3" NCoef="0" IVar="14" Cut="1.0307539701461792e+00" cType="1" res="-7.8268654760904610e-05" rms="3.5112729668617249e-01" purity="4.2027306556701660e-01" nType="0">
              <Node pos="l" depth="4" NCoef="0" IVar="-1" Cut="0.0000000000000000e+00" cType="1" res="5.6017786264419556e-03" rms="3.6299645900726318e-01" purity="3.8336732983589172e-01" nType="-99"/>
              <Node pos="r" depth="4" NCoef="0" IVar="-1" Cut="0.0000000000000000e+00" cType="1" res="-1.2308951700106263e-03" rms="3.4871914982795715e-01" purity="4.2755097150802612e-01" nType="-99"/>
            </Node>
            <Node pos="r" depth="3" NCoef="0" IVar="10" Cut="6.8842031250000000e+04" cType="1" res="-1.0935978963971138e-02" rms="3.6831334233283997e-01" purity="6.3948136568069458e-01" nType="0">
              <Node pos="l" depth="4" NCoef="0" IVar="-1" Cut="0.0000000000000000e+00" cType="1" res="-2.4201771244406700e-02" rms="3.6156520247459412e-01" purity="5.1338446140289307e-01" nType="-99"/>
              <Node pos="r" depth="4" NCoef="0" IVar="-1" Cut="0.0000000000000000e+00" cType="1" res="-2.3327689268626273e-04" rms="3.7056815624237061e-01" purity="6.9197207689285278e-01" nType="-99"/>
            </Node>
          </Node>
          <Node pos="r" depth="2" NCoef="0" IVar="13" Cut="1.5482298135757446e+00" cType="1" res="6.4380763797089458e-04" rms="3.1861120462417603e-01" purity="5.5052834749221802e-01" nType="0">
            <Node pos="l" depth="3" NCoef="0" IVar="-1" Cut="0.0000000000000000e+00" cType="1" res="-3.5658992826938629e-02" rms="1.5712252259254456e-01" purity="4.1810188442468643e-02" nType="-99"/>
            <Node pos="r" depth="3" NCoef="0" IVar="12" Cut="1.5096027851104736e+00" cType="1" res="1.1732125421985984e-03" rms="3.2316389679908752e-01" purity="5.6992626190185547e-01" nType="0">
              <Node pos="l" depth="4" NCoef="0" IVar="-1" Cut="0.0000000000000000e+00" cType="1" res="2.0658666267991066e-02" rms="3.5578453540802002e-01" purity="3.3776029944419861e-01" nType="-99"/>
              <Node pos="r" depth="4" NCoef="0" IVar="-1" Cut="0.0000000000000000e+00" cType="1" res="5.7855877093970776e-04" rms="3.2236742973327637e-01" purity="5.7517719268798828e-01" nType="-99"/>
            </Node>
          </Node>
        </Node>
        <Node pos="r" depth="1" NCoef="0" IVar="3" Cut="2.1333771875000000e+05" cType="1" res="1.6839705640450120e-03" rms="3.4563687443733215e-01" purity="5.2341330051422119e-01" nType="0">
          <Node pos="l" depth="2" NCoef="0" IVar="18" Cut="3.1965148437500000e+04" cType="1" res="8.5786571726202965e-03" rms="3.8516652584075928e-01" purity="6.5373742580413818e-01" nType="0">
            <Node pos="l" depth="3" NCoef="0" IVar="-1" Cut="0.0000000000000000e+00" cType="1" res="-5.6366040371358395e-03" rms="4.0140962600708008e-01" purity="5.8729332685470581e-01" nType="-99"/>
            <Node pos="r" depth="3" NCoef="0" IVar="-1" Cut="0.0000000000000000e+00" cType="1" res="1.2120467610657215e-02" rms="3.7616795301437378e-01" purity="6.8811047077178955e-01" nType="-99"/>
          </Node>
          <Node pos="r" depth="2" NCoef="0" IVar="14" Cut="1.9812248945236206e+00" cType="1" res="-2.9218716081231833e-03" rms="3.1640735268592834e-01" purity="4.3635323643684387e-01" nType="0">
            <Node pos="l" depth="3" NCoef="0" IVar="9" Cut="1.8076576562500000e+05" cType="1" res="-1.0612946934998035e-02" rms="3.1968778371810913e-01" purity="3.7151098251342773e-01" nType="0">
              <Node pos="l" depth="4" NCoef="0" IVar="-1" Cut="0.0000000000000000e+00" cType="1" res="-1.8290122970938683e-02" rms="3.3460676670074463e-01" purity="3.8581222295761108e-01" nType="-99"/>
              <Node pos="r" depth="4" NCoef="0" IVar="-1" Cut="0.0000000000000000e+00" cType="1" res="1.1880488600581884e-03" rms="3.0373546481132507e-01" purity="3.5734939575195312e-01" nType="-99"/>
            </Node>
            <Node pos="r" depth="3" NCoef="0" IVar="7" Cut="9.8807546875000000e+04" cType="1" res="4.6262582764029503e-03" rms="3.1297075748443604e-01" purity="4.9999031424522400e-01" nType="0">
              <Node pos="l" depth="4" NCoef="0" IVar="-1" Cut="0.0000000000000000e+00" cType="1" res="-1.9060005433857441e-03" rms="3.4326577186584473e-01" purity="5.6621742248535156e-01" nType="-99"/>
              <Node pos="r" depth="4" NCoef="0" IVar="-1" Cut="0.0000000000000000e+00" cType="1" res="2.5260318070650101e-02" rms="2.4968174099922180e-01" purity="3.8218271732330322e-01" nType="-99"/>
            </Node>
          </Node>
        </Node>
      </Node>
    </BinaryTree>
    <BinaryTree type="DecisionTree" boostWeight="1.0000000000000000e+00" itree="269">
      <Node pos="s" depth="0" NCoef="0" IVar="13" Cut="3.2910404205322266e+00" cType="1" res="-1.9471012819849420e-06" rms="3.3638927340507507e-01" purity="5.0000000000000000e-01" nType="0">
        <Node pos="l" depth="1" NCoef="0" IVar="15" Cut="2.4574902057647705e+00" cType="1" res="-1.4412357995752245e-04" rms="3.3542037010192871e-01" purity="4.9753779172897339e-01" nType="0">
          <Node pos="l" depth="2" NCoef="0" IVar="15" Cut="2.3406188488006592e+00" cType="1" res="-6.0285296058282256e-04" rms="3.4259507060050964e-01" purity="4.9194061756134033e-01" nType="0">
            <Node pos="l" depth="3" NCoef="0" IVar="13" Cut="2.6640682220458984e+00" cType="1" res="2.2542135411640629e-05" rms="3.4453517198562622e-01" purity="4.9035796523094177e-01" nType="0">
              <Node pos="l" depth="4" NCoef="0" IVar="-1" Cut="0.0000000000000000e+00" cType="1" res="-1.5761775430291891e-03" rms="3.4251165390014648e-01" purity="3.9682313799858093e-01" nType="-99"/>
              <Node pos="r" depth="4" NCoef="0" IVar="-1" Cut="0.0000000000000000e+00" cType="1" res="2.2583585232496262e-03" rms="3.4740296006202698e-01" purity="6.2477725744247437e-01" nType="-99"/>
            </Node>
            <Node pos="r" depth="3" NCoef="0" IVar="18" Cut="5.7123378906250000e+04" cType="1" res="-9.1648939996957779e-03" rms="3.1470888853073120e-01" purity="5.1360821723937988e-01" nType="0">
              <Node pos="l" depth="4" NCoef="0" IVar="-1" Cut="0.0000000000000000e+00" cType="1" res="-3.5067699849605560e-02" rms="3.1337049603462219e-01" purity="4.1453811526298523e-01" nType="-99"/>
              <Node pos="r" depth="4" NCoef="0" IVar="-1" Cut="0.0000000000000000e+00" cType="1" res="-9.6642048447392881e-05" rms="3.1454765796661377e-01" purity="5.4346108436584473e-01" nType="-99"/>
            </Node>
          </Node>
          <Node pos="r" depth="2" NCoef="0" IVar="13" Cut="2.9775719642639160e+00" cType="1" res="1.1349399574100971e-03" rms="3.1454870104789734e-01" purity="5.1314425468444824e-01" nType="0">
            <Node pos="l" depth="3" NCoef="0" IVar="12" Cut="3.3432629108428955e+00" cType="1" res="3.2708344515413046e-03" rms="3.1769040226936340e-01" purity="4.6968501806259155e-01" nType="0">
              <Node pos="l" depth="4" NCoef="0" IVar="-1" Cut="0.0000000000000000e+00" cType="1" res="2.1224459633231163e-03" rms="3.1799423694610596e-01" purity="4.7347891330718994e-01" nType="-99"/>
              <Node pos="r" depth="4" NCoef="0" IVar="-1" Cut="0.0000000000000000e+00" cType="1" res="2.0687265321612358e-02" rms="3.1222045421600342e-01" purity="4.0757560729980469e-01" nType="-99"/>
            </Node>
            <Node pos="r" depth="3" NCoef="0" IVar="11" Cut="1.1700036525726318e+00" cType="1" res="-8.8866129517555237e-03" rms="2.9916453361511230e-01" purity="7.1705359220504761e-01" nType="0">
              <Node pos="l" depth="4" NCoef="0" IVar="-1" Cut="0.0000000000000000e+00" cType="1" res="-4.8161726444959641e-03" rms="2.8802570700645447e-01" purity="8.0618661642074585e-01" nType="-99"/>
              <Node pos="r" depth="4" NCoef="0" IVar="-1" Cut="0.0000000000000000e+00" cType="1" res="-1.8098391592502594e-02" rms="3.2580518722534180e-01" purity="4.8720109462738037e-01" nType="-99"/>
            </Node>
          </Node>
        </Node>
        <Node pos="r" depth="1" NCoef="0" IVar="15" Cut="1.2837932109832764e+00" cType="1" res="1.3500108616426587e-03" rms="3.4546384215354919e-01" purity="5.2341330051422119e-01" nType="0">
          <Node pos="l" depth="2" NCoef="0" IVar="18" Cut="3.2391544921875000e+04" cType="1" res="1.0272423736751080e-02" rms="3.7091118097305298e-01" purity="4.9148994684219360e-01" nType="0">
            <Node pos="l" depth="3" NCoef="0" IVar="-1" Cut="0.0000000000000000e+00" cType="1" res="-8.3148479461669922e-04" rms="3.7762784957885742e-01" purity="5.2311474084854126e-01" nType="-99"/>
            <Node pos="r" depth="3" NCoef="0" IVar="-1" Cut="0.0000000000000000e+00" cType="1" res="1.4589790254831314e-02" rms="3.6480408906936646e-01" purity="4.6453019976615906e-01" nType="-99"/>
          </Node>
          <Node pos="r" depth="2" NCoef="0" IVar="16" Cut="1.9683004617691040e+00" cType="1" res="-1.4319409383460879e-03" rms="3.3708861470222473e-01" purity="5.3336685895919800e-01" nType="0">
            <Node pos="l" depth="3" NCoef="0" IVar="15" Cut="2.1143927574157715e+00" cType="1" res="-5.8843926526606083e-03" rms="3.3259770274162292e-01" purity="6.0161745548248291e-01" nType="0">
              <Node pos="l" depth="4" NCoef="0" IVar="-1" Cut="0.0000000000000000e+00" cType="1" res="-1.3689914718270302e-02" rms="3.3540207147598267e-01" purity="5.5081778764724731e-01" nType="-99"/>
              <Node pos="r" depth="4" NCoef="0" IVar="-1" Cut="0.0000000000000000e+00" cType="1" res="-9.9466735264286399e-05" rms="3.3099848031997681e-01" purity="6.2773472070693970e-01" nType="-99"/>
            </Node>
            <Node pos="r" depth="3" NCoef="0" IVar="-1" Cut="0.0000000000000000e+00" cType="1" res="8.1875044852495193e-03" rms="3.4863758087158203e-01" purity="3.4915611147880554e-01" nType="-99"/>
          </Node>
        </Node>
      </Node>
    </BinaryTree>
    <BinaryTree type="DecisionTree" boostWeight="1.0000000000000000e+00" itree="270">
      <Node pos="s" depth="0" NCoef="0" IVar="10" Cut="3.5086378125000000e+05" cType="1" res="-1.3240618272902793e-06" rms="3.3635231852531433e-01" purity="5.0000000000000000e-01" nType="0">
        <Node pos="l" depth="1" NCoef="0" IVar="21" Cut="1.2784861718750000e+05" cType="1" res="6.7945722548756748e-05" rms="3.3827126026153564e-01" purity="5.0746500492095947e-01" nType="0">
          <Node pos="l" depth="2" NCoef="0" IVar="21" Cut="7.9144179687500000e+04" cType="1" res="-4.3173681478947401e-04" rms="3.4605252742767334e-01" purity="5.1577299833297729e-01" nType="0">
            <Node pos="l" depth="3" NCoef="0" IVar="21" Cut="3.7687695312500000e+04" cType="1" res="9.4395154155790806e-04" rms="3.5964426398277283e-01" purity="5.6989359855651855e-01" nType="0">
              <Node pos="l" depth="4" NCoef="0" IVar="-1" Cut="0.0000000000000000e+00" cType="1" res="-1.5158156165853143e-03" rms="3.4507539868354797e-01" purity="6.5308016538619995e-01" nType="-99"/>
              <Node pos="r" depth="4" NCoef="0" IVar="-1" Cut="0.0000000000000000e+00" cType="1" res="2.8519539628177881e-03" rms="3.7587979435920715e-01" purity="4.7297465801239014e-01" nType="-99"/>
            </Node>
            <Node pos="r" depth="3" NCoef="0" IVar="7" Cut="1.0697543750000000e+05" cType="1" res="-8.3641465753316879e-03" rms="2.5371593236923218e-01" purity="2.0370590686798096e-01" nType="0">
              <Node pos="l" depth="4" NCoef="0" IVar="-1" Cut="0.0000000000000000e+00" cType="1" res="-2.1171508356928825e-02" rms="2.5699695944786072e-01" purity="1.4016017317771912e-01" nType="-99"/>
              <Node pos="r" depth="4" NCoef="0" IVar="-1" Cut="0.0000000000000000e+00" cType="1" res="3.4912847331725061e-04" rms="2.4952456355094910e-01" purity="2.7849394083023071e-01" nType="-99"/>
            </Node>
          </Node>
          <Node pos="r" depth="2" NCoef="0" IVar="12" Cut="3.2449929714202881e+00" cType="1" res="4.7077620401978493e-03" rms="2.5487074255943298e-01" purity="4.3032097816467285e-01" nType="0">
            <Node pos="l" depth="3" NCoef="0" IVar="7" Cut="2.3406081250000000e+05" cType="1" res="8.3146168617531657e-04" rms="2.5564655661582947e-01" purity="4.4121050834655762e-01" nType="0">
              <Node pos="l" depth="4" NCoef="0" IVar="-1" Cut="0.0000000000000000e+00" cType="1" res="6.6663161851465702e-03" rms="2.5900790095329285e-01" purity="4.6275624632835388e-01" nType="-99"/>
              <Node pos="r" depth="4" NCoef="0" IVar="-1" Cut="0.0000000000000000e+00" cType="1" res="-3.2120186835527420e-02" rms="2.3790398240089417e-01" purity="3.3671921491622925e-01" nType="-99"/>
            </Node>
            <Node pos="r" depth="3" NCoef="0" IVar="15" Cut="1.8680609464645386e+00" cType="1" res="1.8337910994887352e-02" rms="2.5165018439292908e-01" purity="3.9203041791915894e-01" nType="0">
              <Node pos="l" depth="4" NCoef="0" IVar="-1" Cut="0.0000000000000000e+00" cType="1" res="2.5662962347269058e-02" rms="2.6506349444389343e-01" purity="3.2444149255752563e-01" nType="-99"/>
              <Node pos="r" depth="4" NCoef="0" IVar="-1" Cut="0.0000000000000000e+00" cType="1" res="3.1731691211462021e-02" rms="2.3835407197475433e-01" purity="4.5556527376174927e-01" nType="-99"/>
            </Node>
          </Node>
        </Node>
        <Node pos="r" depth="1" NCoef="0" IVar="19" Cut="1.2900694531250000e+05" cType="1" res="-2.7081954758614302e-03" rms="2.5007504224777222e-01" purity="2.0828786492347717e-01" nType="0">
          <Node pos="l" depth="2" NCoef="0" IVar="-1" Cut="0.0000000000000000e+00" cType="1" res="-1.6925640404224396e-02" rms="2.6637271046638489e-01" purity="2.8553503751754761e-01" nType="-99"/>
          <Node pos="r" depth="2" NCoef="0" IVar="-1" Cut="0.0000000000000000e+00" cType="1" res="1.2379626743495464e-02" rms="2.3255977034568787e-01" purity="1.3257209956645966e-01" nType="-99"/>
        </Node>
      </Node>
    </BinaryTree>
    <BinaryTree type="DecisionTree" boostWeight="1.0000000000000000e+00" itree="271">
      <Node pos="s" depth="0" NCoef="0" IVar="0" Cut="5.3333334922790527e+00" cType="1" res="-1.9779979538725456e-06" rms="3.3629834651947021e-01" purity="5.0000000000000000e-01" nType="0">
        <Node pos="l" depth="1" NCoef="0" IVar="12" Cut="3.3343746662139893e+00" cType="1" res="4.4111828901804984e-04" rms="3.2555013895034790e-01" purity="5.9258693456649780e-01" nType="0">
          <Node pos="l" depth="2" NCoef="0" IVar="2" Cut="5.9644443750000000e+05" cType="1" res="9.9532818421721458e-04" rms="3.2717755436897278e-01" purity="5.9925371408462524e-01" nType="0">
            <Node pos="l" depth="3" NCoef="0" IVar="2" Cut="2.2528168750000000e+05" cType="1" res="-2.6997411623597145e-04" rms="3.3095765113830566e-01" purity="6.4507627487182617e-01" nType="0">
              <Node pos="l" depth="4" NCoef="0" IVar="-1" Cut="0.0000000000000000e+00" cType="1" res="6.5987906418740749e-03" rms="3.6049824953079224e-01" purity="6.1539804935455322e-01" nType="-99"/>
              <Node pos="r" depth="4" NCoef="0" IVar="-1" Cut="0.0000000000000000e+00" cType="1" res="-2.2982694208621979e-03" rms="3.2352447509765625e-01" purity="6.5210694074630737e-01" nType="-99"/>
            </Node>
            <Node pos="r" depth="3" NCoef="0" IVar="17" Cut="1.5025273437500000e+05" cType="1" res="6.7854430526494980e-03" rms="3.0922472476959229e-01" purity="3.8956651091575623e-01" nType="0">
              <Node pos="l" depth="4" NCoef="0" IVar="-1" Cut="0.0000000000000000e+00" cType="1" res="1.1607303284108639e-02" rms="3.2759407162666321e-01" purity="4.1319823265075684e-01" nType="-99"/>
              <Node pos="r" depth="4" NCoef="0" IVar="-1" Cut="0.0000000000000000e+00" cType="1" res="-6.0957157984375954e-04" rms="2.8492909669876099e-01" purity="3.6060076951980591e-01" nType="-99"/>
            </Node>
          </Node>
          <Node pos="r" depth="2" NCoef="0" IVar="16" Cut="1.6939322948455811e+00" cType="1" res="-5.0433920696377754e-03" rms="3.0892965197563171e-01" purity="5.2661186456680298e-01" nType="0">
            <Node pos="l" depth="3" NCoef="0" IVar="-1" Cut="0.0000000000000000e+00" cType="1" res="3.9618052542209625e-03" rms="3.0414700508117676e-01" purity="6.5909284353256226e-01" nType="-99"/>
            <Node pos="r" depth="3" NCoef="0" IVar="-1" Cut="0.0000000000000000e+00" cType="1" res="-1.5942167490720749e-02" rms="3.1538367271423340e-01" purity="3.3180168271064758e-01" nType="-99"/>
          </Node>
        </Node>
        <Node pos="r" depth="1" NCoef="0" IVar="16" Cut="3.2154717445373535e+00" cType="1" res="-4.2243298958055675e-04" rms="3.4618836641311646e-01" purity="4.1214406490325928e-01" nType="0">
          <Node pos="l" depth="2" NCoef="0" IVar="11" Cut="2.1707923412322998e+00" cType="1" res="-6.5403914777562022e-04" rms="3.4648644924163818e-01" purity="4.1648790240287781e-01" nType="0">
            <Node pos="l" depth="3" NCoef="0" IVar="11" Cut="2.0683543682098389e+00" cType="1" res="-1.2862080475315452e-03" rms="3.5673415660858154e-01" purity="4.5711871981620789e-01" nType="0">
              <Node pos="l" depth="4" NCoef="0" IVar="-1" Cut="0.0000000000000000e+00" cType="1" res="-6.7840242991223931e-04" rms="3.5829994082450867e-01" purity="4.6432712674140930e-01" nType="-99"/>
              <Node pos="r" depth="4" NCoef="0" IVar="-1" Cut="0.0000000000000000e+00" cType="1" res="-1.5638131648302078e-02" rms="2.8908264636993408e-01" purity="1.7717318236827850e-01" nType="-99"/>
            </Node>
            <Node pos="r" depth="3" NCoef="0" IVar="16" Cut="1.8515131473541260e+00" cType="1" res="3.8781545590609312e-03" rms="2.6146656274795532e-01" purity="1.2519453465938568e-01" nType="0">
              <Node pos="l" depth="4" NCoef="0" IVar="-1" Cut="0.0000000000000000e+00" cType="1" res="1.8300982192158699e-02" rms="2.8774750232696533e-01" purity="1.6196434199810028e-01" nType="-99"/>
              <Node pos="r" depth="4" NCoef="0" IVar="-1" Cut="0.0000000000000000e+00" cType="1" res="-1.5724716708064079e-02" rms="2.2362028062343597e-01" purity="7.9264551401138306e-02" nType="-99"/>
            </Node>
          </Node>
          <Node pos="r" depth="2" NCoef="0" IVar="-1" Cut="0.0000000000000000e+00" cType="1" res="8.6719766259193420e-03" rms="3.3231985569000244e-01" purity="2.1650381386280060e-01" nType="-99"/>
        </Node>
      </Node>
    </BinaryTree>
    <BinaryTree type="DecisionTree" boostWeight="1.0000000000000000e+00" itree="272">
      <Node pos="s" depth="0" NCoef="0" IVar="11" Cut="9.7634357213973999e-01" cType="1" res="-2.6876718948187772e-06" rms="3.3626908063888550e-01" purity="5.0000000000000000e-01" nType="0">
        <Node pos="l" depth="1" NCoef="0" IVar="14" Cut="7.5314164161682129e-01" cType="1" res="4.7019508201628923e-04" rms="3.3423578739166260e-01" purity="6.4255952835083008e-01" nType="0">
          <Node pos="l" depth="2" NCoef="0" IVar="5" Cut="1.4030425000000000e+05" cType="1" res="-6.3974806107580662e-03" rms="3.5231518745422363e-01" purity="6.0632956027984619e-01" nType="0">
            <Node pos="l" depth="3" NCoef="0" IVar="-1" Cut="0.0000000000000000e+00" cType="1" res="-1.2722057290375233e-02" rms="3.4768667817115784e-01" purity="6.6178935766220093e-01" nType="-99"/>
            <Node pos="r" depth="3" NCoef="0" IVar="-1" Cut="0.0000000000000000e+00" cType="1" res="6.8089324049651623e-03" rms="3.5889497399330139e-01" purity="5.1929306983947754e-01" nType="-99"/>
          </Node>
          <Node pos="r" depth="2" NCoef="0" IVar="16" Cut="2.4834966659545898e+00" cType="1" res="9.6961716189980507e-04" rms="3.3287721872329712e-01" purity="6.4519417285919189e-01" nType="0">
            <Node pos="l" depth="3" NCoef="0" IVar="10" Cut="1.0117765625000000e+05" cType="1" res="1.8308995058760047e-03" rms="3.2819396257400513e-01" purity="6.8220967054367065e-01" nType="0">
              <Node pos="l" depth="4" NCoef="0" IVar="-1" Cut="0.0000000000000000e+00" cType="1" res="-1.3336323900148273e-03" rms="3.4948059916496277e-01" purity="6.0575526952743530e-01" nType="-99"/>
              <Node pos="r" depth="4" NCoef="0" IVar="-1" Cut="0.0000000000000000e+00" cType="1" res="4.0515717118978500e-03" rms="3.1350916624069214e-01" purity="7.3208129405975342e-01" nType="-99"/>
            </Node>
            <Node pos="r" depth="3" NCoef="0" IVar="14" Cut="2.4382946491241455e+00" cType="1" res="-5.5097001604735851e-03" rms="3.6612868309020996e-01" purity="3.6673119664192200e-01" nType="0">
              <Node pos="l" depth="4" NCoef="0" IVar="-1" Cut="0.0000000000000000e+00" cType="1" res="-8.7638627737760544e-03" rms="3.7778356671333313e-01" purity="4.1122794151306152e-01" nType="-99"/>
              <Node pos="r" depth="4" NCoef="0" IVar="-1" Cut="0.0000000000000000e+00" cType="1" res="4.4630160555243492e-03" rms="3.4767016768455505e-01" purity="3.0020630359649658e-01" nType="-99"/>
            </Node>
          </Node>
        </Node>
        <Node pos="r" depth="1" NCoef="0" IVar="15" Cut="7.6479506492614746e-01" cType="1" res="-4.0162962977774441e-04" rms="3.3797439932823181e-01" purity="3.7973135709762573e-01" nType="0">
          <Node pos="l" depth="2" NCoef="0" IVar="8" Cut="7.6956335937500000e+04" cType="1" res="-4.6478621661663055e-03" rms="3.6227664351463318e-01" purity="4.1498342156410217e-01" nType="0">
            <Node pos="l" depth="3" NCoef="0" IVar="20" Cut="4.6294707031250000e+04" cType="1" res="-1.2511946260929108e-02" rms="3.9891356229782104e-01" purity="5.3433597087860107e-01" nType="0">
              <Node pos="l" depth="4" NCoef="0" IVar="-1" Cut="0.0000000000000000e+00" cType="1" res="4.4767903164029121e-03" rms="3.9681282639503479e-01" purity="5.9317868947982788e-01" nType="-99"/>
              <Node pos="r" depth="4" NCoef="0" IVar="-1" Cut="0.0000000000000000e+00" cType="1" res="-1.9892994314432144e-02" rms="4.0003067255020142e-01" purity="4.7270944714546204e-01" nType="-99"/>
            </Node>
            <Node pos="r" depth="3" NCoef="0" IVar="-1" Cut="0.0000000000000000e+00" cType="1" res="1.9835347309708595e-02" rms="2.5729605555534363e-01" purity="1.3864609599113464e-01" nType="-99"/>
          </Node>
          <Node pos="r" depth="2" NCoef="0" IVar="0" Cut="1.3333333730697632e+00" cType="1" res="4.1808139940258116e-05" rms="3.3533185720443726e-01" purity="3.7604996562004089e-01" nType="0">
            <Node pos="l" depth="3" NCoef="0" IVar="14" Cut="1.1715995073318481e+00" cType="1" res="0.0000000000000000e+00" rms="0.0000000000000000e+00" purity="2.5832027196884155e-01" nType="0">
              <Node pos="l" depth="4" NCoef="0" IVar="-1" Cut="0.0000000000000000e+00" cType="1" res="7.1948026306927204e-03" rms="3.3384713530540466e-01" purity="2.5143077969551086e-01" nType="-99"/>
              <Node pos="r" depth="4" NCoef="0" IVar="-1" Cut="0.0000000000000000e+00" cType="1" res="-9.8616052418947220e-03" rms="3.1423723697662354e-01" purity="2.6066729426383972e-01" nType="-99"/>
            </Node>
            <Node pos="r" depth="3" NCoef="0" IVar="0" Cut="2.2857143878936768e+00" cType="1" res="8.8653824059292674e-04" rms="3.3746391534805298e-01" purity="3.9234724640846252e-01" nType="0">
              <Node pos="l" depth="4" NCoef="0" IVar="-1" Cut="0.0000000000000000e+00" cType="1" res="6.3919532112777233e-03" rms="3.4449878334999084e-01" purity="4.1336745023727417e-01" nType="-99"/>
              <Node pos="r" depth="4" NCoef="0" IVar="-1" Cut="0.0000000000000000e+00" cType="1" res="-2.3232400417327881e-04" rms="3.3629322052001953e-01" purity="3.8893371820449829e-01" nType="-99"/>
            </Node>
          </Node>
        </Node>
      </Node>
    </BinaryTree>
    <BinaryTree type="DecisionTree" boostWeight="1.0000000000000000e+00" itree="273">
      <Node pos="s" depth="0" NCoef="0" IVar="10" Cut="3.5086378125000000e+05" cType="1" res="-2.2667295525025111e-06" rms="3.3622837066650391e-01" purity="5.0000000000000000e-01" nType="0">
        <Node pos="l" depth="1" NCoef="0" IVar="21" Cut="1.2784861718750000e+05" cType="1" res="6.2445564253721386e-05" rms="3.3815208077430725e-01" purity="5.0746500492095947e-01" nType="0">
          <Node pos="l" depth="2" NCoef="0" IVar="21" Cut="7.9144179687500000e+04" cType="1" res="-3.4271340700797737e-04" rms="3.4594687819480896e-01" purity="5.1577299833297729e-01" nType="0">
            <Node pos="l" depth="3" NCoef="0" IVar="7" Cut="1.0481314062500000e+05" cType="1" res="7.8055489575490355e-04" rms="3.5955983400344849e-01" purity="5.6989359855651855e-01" nType="0">
              <Node pos="l" depth="4" NCoef="0" IVar="-1" Cut="0.0000000000000000e+00" cType="1" res="2.7668218535836786e-05" rms="3.5789844393730164e-01" purity="5.7126653194427490e-01" nType="-99"/>
              <Node pos="r" depth="4" NCoef="0" IVar="-1" Cut="0.0000000000000000e+00" cType="1" res="7.2508458979427814e-03" rms="3.8128203153610229e-01" purity="5.5123233795166016e-01" nType="-99"/>
            </Node>
            <Node pos="r" depth="3" NCoef="0" IVar="7" Cut="1.0697543750000000e+05" cType="1" res="-6.8196337670087814e-03" rms="2.5347936153411865e-01" purity="2.0370590686798096e-01" nType="0">
              <Node pos="l" depth="4" NCoef="0" IVar="-1" Cut="0.0000000000000000e+00" cType="1" res="-1.7466442659497261e-02" rms="2.5671184062957764e-01" purity="1.4016017317771912e-01" nType="-99"/>
              <Node pos="r" depth="4" NCoef="0" IVar="-1" Cut="0.0000000000000000e+00" cType="1" res="2.4948368081822991e-04" rms="2.4943993985652924e-01" purity="2.7849394083023071e-01" nType="-99"/>
            </Node>
          </Node>
          <Node pos="r" depth="2" NCoef="0" IVar="16" Cut="2.2519664764404297e+00" cType="1" res="3.8245606701821089e-03" rms="2.5459158420562744e-01" purity="4.3032097816467285e-01" nType="0">
            <Node pos="l" depth="3" NCoef="0" IVar="13" Cut="3.1070101261138916e+00" cType="1" res="7.1241968544200063e-04" rms="2.4874725937843323e-01" purity="4.7537821531295776e-01" nType="0">
              <Node pos="l" depth="4" NCoef="0" IVar="-1" Cut="0.0000000000000000e+00" cType="1" res="-4.3275072239339352e-03" rms="2.4537858366966248e-01" purity="4.3074223399162292e-01" nType="-99"/>
              <Node pos="r" depth="4" NCoef="0" IVar="-1" Cut="0.0000000000000000e+00" cType="1" res="2.0498465746641159e-02" rms="2.6237103343009949e-01" purity="6.6864055395126343e-01" nType="-99"/>
            </Node>
            <Node pos="r" depth="3" NCoef="0" IVar="-1" Cut="0.0000000000000000e+00" cType="1" res="2.2366506978869438e-02" rms="2.7723446488380432e-01" purity="2.4268405139446259e-01" nType="-99"/>
          </Node>
        </Node>
        <Node pos="r" depth="1" NCoef="0" IVar="19" Cut="1.2900694531250000e+05" cType="1" res="-2.5310439523309469e-03" rms="2.4969556927680969e-01" purity="2.0828786492347717e-01" nType="0">
          <Node pos="l" depth="2" NCoef="0" IVar="-1" Cut="0.0000000000000000e+00" cType="1" res="-1.4168815687298775e-02" rms="2.6630386710166931e-01" purity="2.8553503751754761e-01" nType="-99"/>
          <Node pos="r" depth="2" NCoef="0" IVar="-1" Cut="0.0000000000000000e+00" cType="1" res="9.3600004911422729e-03" rms="2.3198039829730988e-01" purity="1.3257209956645966e-01" nType="-99"/>
        </Node>
      </Node>
    </BinaryTree>
    <BinaryTree type="DecisionTree" boostWeight="1.0000000000000000e+00" itree="274">
      <Node pos="s" depth="0" NCoef="0" IVar="19" Cut="2.8405653125000000e+05" cType="1" res="-2.5460137749178102e-06" rms="3.3619678020477295e-01" purity="5.0000000000000000e-01" nType="0">
        <Node pos="l" depth="1" NCoef="0" IVar="16" Cut="2.8088903427124023e+00" cType="1" res="8.2435246440581977e-05" rms="3.3817496895790100e-01" purity="5.1193803548812866e-01" nType="0">
          <Node pos="l" depth="2" NCoef="0" IVar="16" Cut="2.6755735874176025e+00" cType="1" res="-2.5986673426814377e-04" rms="3.3759838342666626e-01" purity="5.2419340610504150e-01" nType="0">
            <Node pos="l" depth="3" NCoef="0" IVar="19" Cut="1.4842678125000000e+05" cType="1" res="4.1559378587407991e-05" rms="3.3725091814994812e-01" purity="5.2975416183471680e-01" nType="0">
              <Node pos="l" depth="4" NCoef="0" IVar="-1" Cut="0.0000000000000000e+00" cType="1" res="4.3720428948290646e-04" rms="3.3891937136650085e-01" purity="5.5564337968826294e-01" nType="-99"/>
              <Node pos="r" depth="4" NCoef="0" IVar="-1" Cut="0.0000000000000000e+00" cType="1" res="-4.9155643209815025e-03" rms="3.1822434067726135e-01" purity="2.4427011609077454e-01" nType="-99"/>
            </Node>
            <Node pos="r" depth="3" NCoef="0" IVar="11" Cut="1.1502754688262939e+00" cType="1" res="-1.2548905797302723e-02" rms="3.5125148296356201e-01" purity="2.9748386144638062e-01" nType="0">
              <Node pos="l" depth="4" NCoef="0" IVar="-1" Cut="0.0000000000000000e+00" cType="1" res="-1.7185147851705551e-02" rms="3.7068164348602295e-01" purity="3.7622168660163879e-01" nType="-99"/>
              <Node pos="r" depth="4" NCoef="0" IVar="-1" Cut="0.0000000000000000e+00" cType="1" res="-1.1257478035986423e-03" rms="3.3333358168601990e-01" purity="2.3018632829189301e-01" nType="-99"/>
            </Node>
          </Node>
          <Node pos="r" depth="2" NCoef="0" IVar="19" Cut="1.2131998437500000e+05" cType="1" res="5.6474097073078156e-03" rms="3.4736767411231995e-01" purity="3.1269609928131104e-01" nType="0">
            <Node pos="l" depth="3" NCoef="0" IVar="19" Cut="5.7383800781250000e+04" cType="1" res="-4.8040081746876240e-03" rms="3.3971065282821655e-01" purity="3.2758295536041260e-01" nType="0">
              <Node pos="l" depth="4" NCoef="0" IVar="-1" Cut="0.0000000000000000e+00" cType="1" res="6.9963382557034492e-03" rms="3.3652743697166443e-01" purity="3.3669906854629517e-01" nType="-99"/>
              <Node pos="r" depth="4" NCoef="0" IVar="-1" Cut="0.0000000000000000e+00" cType="1" res="-1.7933938652276993e-02" rms="3.4333845973014832e-01" purity="3.1436002254486084e-01" nType="-99"/>
            </Node>
            <Node pos="r" depth="3" NCoef="0" IVar="3" Cut="1.4708987500000000e+05" cType="1" res="1.5407826751470566e-02" rms="3.5409060120582581e-01" purity="2.9879349470138550e-01" nType="0">
              <Node pos="l" depth="4" NCoef="0" IVar="-1" Cut="0.0000000000000000e+00" cType="1" res="2.3266332224011421e-02" rms="3.8731396198272705e-01" purity="3.2381442189216614e-01" nType="-99"/>
              <Node pos="r" depth="4" NCoef="0" IVar="-1" Cut="0.0000000000000000e+00" cType="1" res="2.8516347520053387e-03" rms="3.2990106940269470e-01" purity="2.8236162662506104e-01" nType="-99"/>
            </Node>
          </Node>
        </Node>
        <Node pos="r" depth="1" NCoef="0" IVar="14" Cut="1.7441550493240356e+00" cType="1" res="-2.3595083039253950e-03" rms="2.7572214603424072e-01" purity="1.6889743506908417e-01" nType="0">
          <Node pos="l" depth="2" NCoef="0" IVar="-1" Cut="0.0000000000000000e+00" cType="1" res="-1.3855994679033756e-02" rms="2.6538544893264771e-01" purity="1.4881224930286407e-01" nType="-99"/>
          <Node pos="r" depth="2" NCoef="0" IVar="-1" Cut="0.0000000000000000e+00" cType="1" res="5.6630643084645271e-03" rms="2.8306892514228821e-01" purity="1.8405519425868988e-01" nType="-99"/>
        </Node>
      </Node>
    </BinaryTree>
    <BinaryTree type="DecisionTree" boostWeight="1.0000000000000000e+00" itree="275">
      <Node pos="s" depth="0" NCoef="0" IVar="15" Cut="2.5411450862884521e+00" cType="1" res="-3.0109899853414390e-06" rms="3.3617517352104187e-01" purity="5.0000000000000000e-01" nType="0">
        <Node pos="l" depth="1" NCoef="0" IVar="15" Cut="2.4203004837036133e+00" cType="1" res="2.1526342607103288e-04" rms="3.4229978919029236e-01" purity="4.9447363615036011e-01" nType="0">
          <Node pos="l" depth="2" NCoef="0" IVar="11" Cut="2.6589043140411377e+00" cType="1" res="-1.4530729094985873e-04" rms="3.4402149915695190e-01" purity="4.9117550253868103e-01" nType="0">
            <Node pos="l" depth="3" NCoef="0" IVar="12" Cut="1.0277870893478394e+00" cType="1" res="1.4033287880010903e-04" rms="3.4810438752174377e-01" purity="5.0850063562393188e-01" nType="0">
              <Node pos="l" depth="4" NCoef="0" IVar="-1" Cut="0.0000000000000000e+00" cType="1" res="-7.3378896340727806e-03" rms="3.3432489633560181e-01" purity="2.2764915227890015e-01" nType="-99"/>
              <Node pos="r" depth="4" NCoef="0" IVar="-1" Cut="0.0000000000000000e+00" cType="1" res="2.6756196166388690e-04" rms="3.4839129447937012e-01" purity="5.1452583074569702e-01" nType="-99"/>
            </Node>
            <Node pos="r" depth="3" NCoef="0" IVar="13" Cut="1.8635545969009399e+00" cType="1" res="-6.6693508997559547e-03" rms="2.3186950385570526e-01" purity="9.5468536019325256e-02" nType="0">
              <Node pos="l" depth="4" NCoef="0" IVar="-1" Cut="0.0000000000000000e+00" cType="1" res="4.6551899868063629e-04" rms="2.2154623270034790e-01" purity="8.8652320206165314e-02" nType="-99"/>
              <Node pos="r" depth="4" NCoef="0" IVar="-1" Cut="0.0000000000000000e+00" cType="1" res="-2.4961128830909729e-02" rms="2.4514733254909515e-01" purity="1.0492222756147385e-01" nType="-99"/>
            </Node>
          </Node>
          <Node pos="r" depth="2" NCoef="0" IVar="15" Cut="2.4605808258056641e+00" cType="1" res="5.0862245261669159e-03" rms="3.1808927655220032e-01" purity="5.3902858495712280e-01" nType="0">
            <Node pos="l" depth="3" NCoef="0" IVar="-1" Cut="0.0000000000000000e+00" cType="1" res="-9.1960234567523003e-03" rms="3.0960687994956970e-01" purity="5.2360063791275024e-01" nType="-99"/>
            <Node pos="r" depth="3" NCoef="0" IVar="7" Cut="6.2902105468750000e+04" cType="1" res="1.2280025519430637e-02" rms="3.2187122106552124e-01" purity="5.4650115966796875e-01" nType="0">
              <Node pos="l" depth="4" NCoef="0" IVar="-1" Cut="0.0000000000000000e+00" cType="1" res="2.0691832527518272e-02" rms="3.4322711825370789e-01" purity="7.0082992315292358e-01" nType="-99"/>
              <Node pos="r" depth="4" NCoef="0" IVar="-1" Cut="0.0000000000000000e+00" cType="1" res="-3.0579420272260904e-03" rms="2.9411864280700684e-01" purity="3.6539170145988464e-01" nType="-99"/>
            </Node>
          </Node>
        </Node>
        <Node pos="r" depth="1" NCoef="0" IVar="11" Cut="2.0001764297485352e+00" cType="1" res="-7.2903808904811740e-04" rms="3.1494656205177307e-01" purity="5.1838177442550659e-01" nType="0">
          <Node pos="l" depth="2" NCoef="0" IVar="2" Cut="9.0896331250000000e+05" cType="1" res="4.1241422877646983e-04" rms="3.2236090302467346e-01" purity="5.7059949636459351e-01" nType="0">
            <Node pos="l" depth="3" NCoef="0" IVar="2" Cut="5.1397312500000000e+05" cType="1" res="-8.7207724573090672e-04" rms="3.2766389846801758e-01" purity="6.0500448942184448e-01" nType="0">
              <Node pos="l" depth="4" NCoef="0" IVar="-1" Cut="0.0000000000000000e+00" cType="1" res="2.7104592882096767e-03" rms="3.2925200462341309e-01" purity="6.5621751546859741e-01" nType="-99"/>
              <Node pos="r" depth="4" NCoef="0" IVar="-1" Cut="0.0000000000000000e+00" cType="1" res="-9.9146077409386635e-03" rms="3.2362160086631775e-01" purity="4.8208725452423096e-01" nType="-99"/>
            </Node>
            <Node pos="r" depth="3" NCoef="0" IVar="11" Cut="7.7480852603912354e-01" cType="1" res="1.1092001572251320e-02" rms="2.7409636974334717e-01" purity="2.8454768657684326e-01" nType="0">
              <Node pos="l" depth="4" NCoef="0" IVar="-1" Cut="0.0000000000000000e+00" cType="1" res="2.2193675395101309e-03" rms="2.8065070509910583e-01" purity="3.5531899333000183e-01" nType="-99"/>
              <Node pos="r" depth="4" NCoef="0" IVar="-1" Cut="0.0000000000000000e+00" cType="1" res="2.8744386509060860e-02" rms="2.6667076349258423e-01" purity="2.0985327661037445e-01" nType="-99"/>
            </Node>
          </Node>
          <Node pos="r" depth="2" NCoef="0" IVar="12" Cut="2.8742549419403076e+00" cType="1" res="-9.0280529111623764e-03" rms="2.5447580218315125e-01" purity="1.3872897624969482e-01" nType="0">
            <Node pos="l" depth="3" NCoef="0" IVar="-1" Cut="0.0000000000000000e+00" cType="1" res="-3.4059323370456696e-02" rms="2.5635629892349243e-01" purity="1.2609808146953583e-01" nType="-99"/>
            <Node pos="r" depth="3" NCoef="0" IVar="-1" Cut="0.0000000000000000e+00" cType="1" res="9.3095534248277545e-04" rms="2.5288984179496765e-01" purity="1.4592123031616211e-01" nType="-99"/>
          </Node>
        </Node>
      </Node>
    </BinaryTree>
    <BinaryTree type="DecisionTree" boostWeight="1.0000000000000000e+00" itree="276">
      <Node pos="s" depth="0" NCoef="0" IVar="18" Cut="4.4458743750000000e+05" cType="1" res="-3.2363102491217433e-06" rms="3.3613836765289307e-01" purity="5.0000000000000000e-01" nType="0">
        <Node pos="l" depth="1" NCoef="0" IVar="18" Cut="2.7494631250000000e+05" cType="1" res="4.3883992475457489e-05" rms="3.3714237809181213e-01" purity="5.0383251905441284e-01" nType="0">
          <Node pos="l" depth="2" NCoef="0" IVar="19" Cut="2.0238096875000000e+05" cType="1" res="-1.4783536607865244e-04" rms="3.3867633342742920e-01" purity="5.0994288921356201e-01" nType="0">
            <Node pos="l" depth="3" NCoef="0" IVar="19" Cut="1.7336357812500000e+05" cType="1" res="2.6201072614639997e-04" rms="3.4071007370948792e-01" purity="5.3006398677825928e-01" nType="0">
              <Node pos="l" depth="4" NCoef="0" IVar="-1" Cut="0.0000000000000000e+00" cType="1" res="-6.6811844590120018e-05" rms="3.4047409892082214e-01" purity="5.3688478469848633e-01" nType="-99"/>
              <Node pos="r" depth="4" NCoef="0" IVar="-1" Cut="0.0000000000000000e+00" cType="1" res="9.8992446437478065e-03" rms="3.4855693578720093e-01" purity="2.9442954063415527e-01" nType="-99"/>
            </Node>
            <Node pos="r" depth="3" NCoef="0" IVar="18" Cut="5.1835105468750000e+04" cType="1" res="-6.0525657609105110e-03" rms="3.0782797932624817e-01" purity="2.2005385160446167e-01" nType="0">
              <Node pos="l" depth="4" NCoef="0" IVar="-1" Cut="0.0000000000000000e+00" cType="1" res="-1.9160222262144089e-02" rms="3.3054140210151672e-01" purity="2.5936561822891235e-01" nType="-99"/>
              <Node pos="r" depth="4" NCoef="0" IVar="-1" Cut="0.0000000000000000e+00" cType="1" res="-1.8571413820609450e-03" rms="3.0188053846359253e-01" purity="2.1046508848667145e-01" nType="-99"/>
            </Node>
          </Node>
          <Node pos="r" depth="2" NCoef="0" IVar="16" Cut="1.2199785709381104e+00" cType="1" res="5.5224667303264141e-03" rms="2.8984448313713074e-01" purity="3.2922372221946716e-01" nType="0">
            <Node pos="l" depth="3" NCoef="0" IVar="-1" Cut="0.0000000000000000e+00" cType="1" res="-7.6551265083253384e-03" rms="2.8676158189773560e-01" purity="5.3390300273895264e-01" nType="-99"/>
            <Node pos="r" depth="3" NCoef="0" IVar="11" Cut="9.0517139434814453e-01" cType="1" res="1.2106913141906261e-02" rms="2.9125055670738220e-01" purity="2.2073440253734589e-01" nType="0">
              <Node pos="l" depth="4" NCoef="0" IVar="-1" Cut="0.0000000000000000e+00" cType="1" res="2.2003520280122757e-02" rms="3.4593924880027771e-01" purity="3.2534879446029663e-01" nType="-99"/>
              <Node pos="r" depth="4" NCoef="0" IVar="-1" Cut="0.0000000000000000e+00" cType="1" res="8.6652796017006040e-04" rms="2.2684255242347717e-01" purity="1.2138407677412033e-01" nType="-99"/>
            </Node>
          </Node>
        </Node>
        <Node pos="r" depth="1" NCoef="0" IVar="-1" Cut="0.0000000000000000e+00" cType="1" res="-7.6334597542881966e-03" rms="2.2380210459232330e-01" purity="1.4349031448364258e-01" nType="-99"/>
      </Node>
    </BinaryTree>
    <BinaryTree type="DecisionTree" boostWeight="1.0000000000000000e+00" itree="277">
      <Node pos="s" depth="0" NCoef="0" IVar="11" Cut="1.9319025278091431e+00" cType="1" res="-3.0347166557476157e-06" rms="3.3612337708473206e-01" purity="5.0000000000000000e-01" nType="0">
        <Node pos="l" depth="1" NCoef="0" IVar="8" Cut="1.2449911718750000e+05" cType="1" res="-1.9385489576961845e-04" rms="3.4469160437583923e-01" purity="5.6063216924667358e-01" nType="0">
          <Node pos="l" depth="2" NCoef="0" IVar="6" Cut="1.5006078125000000e+05" cType="1" res="9.3878625193610787e-06" rms="3.4940931200981140e-01" purity="5.7617664337158203e-01" nType="0">
            <Node pos="l" depth="3" NCoef="0" IVar="19" Cut="6.7378632812500000e+04" cType="1" res="-4.1783498600125313e-03" rms="3.8245010375976562e-01" purity="5.5696302652359009e-01" nType="0">
              <Node pos="l" depth="4" NCoef="0" IVar="-1" Cut="0.0000000000000000e+00" cType="1" res="-2.5795088731683791e-04" rms="3.7198039889335632e-01" purity="6.0937768220901489e-01" nType="-99"/>
              <Node pos="r" depth="4" NCoef="0" IVar="-1" Cut="0.0000000000000000e+00" cType="1" res="-7.1611548773944378e-03" rms="4.0368571877479553e-01" purity="4.4554612040519714e-01" nType="-99"/>
            </Node>
            <Node pos="r" depth="3" NCoef="0" IVar="8" Cut="1.0177571093750000e+05" cType="1" res="2.8173113241791725e-03" rms="3.2535129785537720e-01" purity="5.8905965089797974e-01" nType="0">
              <Node pos="l" depth="4" NCoef="0" IVar="-1" Cut="0.0000000000000000e+00" cType="1" res="3.4071118570864201e-03" rms="3.3580335974693298e-01" purity="6.3417595624923706e-01" nType="-99"/>
              <Node pos="r" depth="4" NCoef="0" IVar="-1" Cut="0.0000000000000000e+00" cType="1" res="-4.1924081742763519e-02" rms="1.3783487677574158e-01" purity="2.3520851507782936e-02" nType="-99"/>
            </Node>
          </Node>
          <Node pos="r" depth="2" NCoef="0" IVar="10" Cut="1.9566107812500000e+05" cType="1" res="-7.5121205300092697e-03" rms="2.9117694124579430e-02" purity="9.1358885401859879e-04" nType="0">
            <Node pos="l" depth="3" NCoef="0" IVar="-1" Cut="0.0000000000000000e+00" cType="1" res="-9.7881063818931580e-02" rms="3.7727195769548416e-02" purity="1.7019956139847636e-03" nType="-99"/>
            <Node pos="r" depth="3" NCoef="0" IVar="-1" Cut="0.0000000000000000e+00" cType="1" res="-1.0429345816373825e-01" rms="1.2788641266524792e-02" purity="0.0000000000000000e+00" nType="-99"/>
          </Node>
        </Node>
        <Node pos="r" depth="1" NCoef="0" IVar="12" Cut="2.6607019901275635e+00" cType="1" res="9.6558209042996168e-04" rms="2.8873369097709656e-01" purity="1.9222681224346161e-01" nType="0">
          <Node pos="l" depth="2" NCoef="0" IVar="9" Cut="8.4562593750000000e+04" cType="1" res="8.8774282485246658e-03" rms="3.2317322492599487e-01" purity="2.5561109185218811e-01" nType="0">
            <Node pos="l" depth="3" NCoef="0" IVar="7" Cut="6.3678375000000000e+04" cType="1" res="2.6236904785037041e-02" rms="3.8505530357360840e-01" purity="3.7744182348251343e-01" nType="0">
              <Node pos="l" depth="4" NCoef="0" IVar="-1" Cut="0.0000000000000000e+00" cType="1" res="7.7683893032371998e-03" rms="3.8958993554115295e-01" purity="4.9789008498191833e-01" nType="-99"/>
              <Node pos="r" depth="4" NCoef="0" IVar="-1" Cut="0.0000000000000000e+00" cType="1" res="3.0521797016263008e-02" rms="3.8019785284996033e-01" purity="2.6208412647247314e-01" nType="-99"/>
            </Node>
            <Node pos="r" depth="3" NCoef="0" IVar="-1" Cut="0.0000000000000000e+00" cType="1" res="-1.8177000805735588e-02" rms="2.3036958277225494e-01" purity="1.1489407718181610e-01" nType="-99"/>
          </Node>
          <Node pos="r" depth="2" NCoef="0" IVar="12" Cut="3.5367047786712646e+00" cType="1" res="-1.6927442047744989e-03" rms="2.7614924311637878e-01" purity="1.7093008756637573e-01" nType="0">
            <Node pos="l" depth="3" NCoef="0" IVar="12" Cut="3.2863810062408447e+00" cType="1" res="-1.2772750051226467e-04" rms="2.7960893511772156e-01" purity="1.7064136266708374e-01" nType="0">
              <Node pos="l" depth="4" NCoef="0" IVar="-1" Cut="0.0000000000000000e+00" cType="1" res="-3.4100105985999107e-03" rms="2.7892908453941345e-01" purity="1.6764628887176514e-01" nType="-99"/>
              <Node pos="r" depth="4" NCoef="0" IVar="-1" Cut="0.0000000000000000e+00" cType="1" res="1.7221402376890182e-02" rms="2.8266063332557678e-01" purity="1.8596346676349640e-01" nType="-99"/>
            </Node>
            <Node pos="r" depth="3" NCoef="0" IVar="-1" Cut="0.0000000000000000e+00" cType="1" res="-1.3001911342144012e-02" rms="2.5752192735671997e-01" purity="1.7241127789020538e-01" nType="-99"/>
          </Node>
        </Node>
      </Node>
    </BinaryTree>
    <BinaryTree type="DecisionTree" boostWeight="1.0000000000000000e+00" itree="278">
      <Node pos="s" depth="0" NCoef="0" IVar="13" Cut="1.9197735786437988e+00" cType="1" res="-9.1689134933403693e-06" rms="3.3607760071754456e-01" purity="5.0000000000000000e-01" nType="0">
        <Node pos="l" depth="1" NCoef="0" IVar="13" Cut="1.8283419609069824e+00" cType="1" res="7.4310420313850045e-04" rms="3.2331508398056030e-01" purity="2.5426813960075378e-01" nType="0">
          <Node pos="l" depth="2" NCoef="0" IVar="2" Cut="3.3400731250000000e+05" cType="1" res="-8.7187909230124205e-05" rms="3.2033395767211914e-01" purity="2.3960196971893311e-01" nType="0">
            <Node pos="l" depth="3" NCoef="0" IVar="2" Cut="3.0597750000000000e+05" cType="1" res="-3.5930252633988857e-03" rms="3.5425111651420593e-01" purity="3.2599690556526184e-01" nType="0">
              <Node pos="l" depth="4" NCoef="0" IVar="-1" Cut="0.0000000000000000e+00" cType="1" res="1.1886647553183138e-04" rms="3.5707369446754456e-01" purity="3.3576834201812744e-01" nType="-99"/>
              <Node pos="r" depth="4" NCoef="0" IVar="-1" Cut="0.0000000000000000e+00" cType="1" res="-2.5515384972095490e-02" rms="3.3088210225105286e-01" purity="2.5247386097908020e-01" nType="-99"/>
            </Node>
            <Node pos="r" depth="3" NCoef="0" IVar="10" Cut="9.0359882812500000e+04" cType="1" res="2.7746029663830996e-03" rms="2.8968742489814758e-01" purity="1.6907837986946106e-01" nType="0">
              <Node pos="l" depth="4" NCoef="0" IVar="-1" Cut="0.0000000000000000e+00" cType="1" res="5.9080244973301888e-03" rms="3.1397846341133118e-01" purity="2.0040719211101532e-01" nType="-99"/>
              <Node pos="r" depth="4" NCoef="0" IVar="-1" Cut="0.0000000000000000e+00" cType="1" res="-8.3018420264124870e-03" rms="2.2374117374420166e-01" purity="9.6909984946250916e-02" nType="-99"/>
            </Node>
          </Node>
          <Node pos="r" depth="2" NCoef="0" IVar="13" Cut="1.8805812597274780e+00" cType="1" res="8.5757132619619370e-03" rms="3.5009428858757019e-01" purity="3.9262235164642334e-01" nType="0">
            <Node pos="l" depth="3" NCoef="0" IVar="-1" Cut="0.0000000000000000e+00" cType="1" res="-5.8749127201735973e-03" rms="3.3677527308464050e-01" purity="3.7423461675643921e-01" nType="-99"/>
            <Node pos="r" depth="3" NCoef="0" IVar="-1" Cut="0.0000000000000000e+00" cType="1" res="2.1611507982015610e-02" rms="3.6517965793609619e-01" purity="4.1574212908744812e-01" nType="-99"/>
          </Node>
        </Node>
        <Node pos="r" depth="1" NCoef="0" IVar="13" Cut="2.6511194705963135e+00" cType="1" res="-2.6942716795019805e-04" rms="3.4038114547729492e-01" purity="5.8501398563385010e-01" nType="0">
          <Node pos="l" depth="2" NCoef="0" IVar="16" Cut="2.9831619262695312e+00" cType="1" res="-1.7133681103587151e-03" rms="3.4666240215301514e-01" purity="5.2051687240600586e-01" nType="0">
            <Node pos="l" depth="3" NCoef="0" IVar="9" Cut="1.5620879687500000e+05" cType="1" res="-9.7583193564787507e-04" rms="3.4728065133094788e-01" purity="5.2939766645431519e-01" nType="0">
              <Node pos="l" depth="4" NCoef="0" IVar="-1" Cut="0.0000000000000000e+00" cType="1" res="-2.2760292049497366e-03" rms="3.5952499508857727e-01" purity="5.5723059177398682e-01" nType="-99"/>
              <Node pos="r" depth="4" NCoef="0" IVar="-1" Cut="0.0000000000000000e+00" cType="1" res="6.9737103767693043e-03" rms="3.0068585276603699e-01" purity="4.3252286314964294e-01" nType="-99"/>
            </Node>
            <Node pos="r" depth="3" NCoef="0" IVar="-1" Cut="0.0000000000000000e+00" cType="1" res="-1.6717178747057915e-02" rms="3.2929453253746033e-01" purity="2.8566762804985046e-01" nType="-99"/>
          </Node>
          <Node pos="r" depth="2" NCoef="0" IVar="11" Cut="2.4260652065277100e+00" cType="1" res="6.0072564519941807e-04" rms="3.3653631806373596e-01" purity="6.2388145923614502e-01" nType="0">
            <Node pos="l" depth="3" NCoef="0" IVar="11" Cut="2.0824062824249268e+00" cType="1" res="2.1044616005383432e-04" rms="3.3786058425903320e-01" purity="6.3899099826812744e-01" nType="0">
              <Node pos="l" depth="4" NCoef="0" IVar="-1" Cut="0.0000000000000000e+00" cType="1" res="5.0897774053737521e-04" rms="3.3871468901634216e-01" purity="6.5400618314743042e-01" nType="-99"/>
              <Node pos="r" depth="4" NCoef="0" IVar="-1" Cut="0.0000000000000000e+00" cType="1" res="-9.3489438295364380e-03" rms="3.1536373496055603e-01" purity="2.5992560386657715e-01" nType="-99"/>
            </Node>
            <Node pos="r" depth="3" NCoef="0" IVar="-1" Cut="0.0000000000000000e+00" cType="1" res="1.3880868442356586e-02" rms="2.9653373360633850e-01" purity="1.9755581021308899e-01" nType="-99"/>
          </Node>
        </Node>
      </Node>
    </BinaryTree>
    <BinaryTree type="DecisionTree" boostWeight="1.0000000000000000e+00" itree="279">
      <Node pos="s" depth="0" NCoef="0" IVar="15" Cut="1.5260878801345825e+00" cType="1" res="-8.3933355199405923e-06" rms="3.3604311943054199e-01" purity="5.0000000000000000e-01" nType="0">
        <Node pos="l" depth="1" NCoef="0" IVar="18" Cut="9.1171742187500000e+04" cType="1" res="5.9976731427013874e-04" rms="3.5582575201988220e-01" purity="4.8203909397125244e-01" nType="0">
          <Node pos="l" depth="2" NCoef="0" IVar="16" Cut="1.2138316631317139e+00" cType="1" res="1.6262602293863893e-03" rms="3.6139616370201111e-01" purity="5.0316733121871948e-01" nType="0">
            <Node pos="l" depth="3" NCoef="0" IVar="16" Cut="1.0991311073303223e+00" cType="1" res="-2.5185192935168743e-03" rms="3.3482214808464050e-01" purity="6.2045055627822876e-01" nType="0">
              <Node pos="l" depth="4" NCoef="0" IVar="-1" Cut="0.0000000000000000e+00" cType="1" res="-1.9491850980557501e-04" rms="3.2906389236450195e-01" purity="6.3849580287933350e-01" nType="-99"/>
              <Node pos="r" depth="4" NCoef="0" IVar="-1" Cut="0.0000000000000000e+00" cType="1" res="-1.2881931848824024e-02" rms="3.6895096302032471e-01" purity="5.0591003894805908e-01" nType="-99"/>
            </Node>
            <Node pos="r" depth="3" NCoef="0" IVar="1" Cut="5.8989304687500000e+04" cType="1" res="4.0095197036862373e-03" rms="3.7580570578575134e-01" purity="4.3572920560836792e-01" nType="0">
              <Node pos="l" depth="4" NCoef="0" IVar="-1" Cut="0.0000000000000000e+00" cType="1" res="6.7589404061436653e-03" rms="3.6941027641296387e-01" purity="3.3993178606033325e-01" nType="-99"/>
              <Node pos="r" depth="4" NCoef="0" IVar="-1" Cut="0.0000000000000000e+00" cType="1" res="-1.8596637528389692e-03" rms="3.8324984908103943e-01" purity="5.5102062225341797e-01" nType="-99"/>
            </Node>
          </Node>
          <Node pos="r" depth="2" NCoef="0" IVar="15" Cut="1.2574465274810791e+00" cType="1" res="-8.0885197967290878e-03" rms="3.0448630452156067e-01" purity="3.0320850014686584e-01" nType="0">
            <Node pos="l" depth="3" NCoef="0" IVar="-1" Cut="0.0000000000000000e+00" cType="1" res="-2.4040639400482178e-02" rms="2.8282204270362854e-01" purity="2.2918172180652618e-01" nType="-99"/>
            <Node pos="r" depth="3" NCoef="0" IVar="-1" Cut="0.0000000000000000e+00" cType="1" res="2.2061420604586601e-03" rms="3.2060077786445618e-01" purity="3.6322686076164246e-01" nType="-99"/>
          </Node>
        </Node>
        <Node pos="r" depth="1" NCoef="0" IVar="13" Cut="3.8392155170440674e+00" cType="1" res="-3.1706088338978589e-04" rms="3.2554253935813904e-01" purity="5.0911593437194824e-01" nType="0">
          <Node pos="l" depth="2" NCoef="0" IVar="15" Cut="1.6990028619766235e+00" cType="1" res="-5.4867455037310719e-04" rms="3.2511121034622192e-01" purity="5.1062887907028198e-01" nType="0">
            <Node pos="l" depth="3" NCoef="0" IVar="2" Cut="5.2159000000000000e+05" cType="1" res="-5.4322038777172565e-03" rms="3.4613797068595886e-01" purity="4.6881163120269775e-01" nType="0">
              <Node pos="l" depth="4" NCoef="0" IVar="-1" Cut="0.0000000000000000e+00" cType="1" res="-7.8446697443723679e-03" rms="3.5172155499458313e-01" purity="5.2210944890975952e-01" nType="-99"/>
              <Node pos="r" depth="4" NCoef="0" IVar="-1" Cut="0.0000000000000000e+00" cType="1" res="9.8893251270055771e-03" rms="3.2725322246551514e-01" purity="2.9911646246910095e-01" nType="-99"/>
            </Node>
            <Node pos="r" depth="3" NCoef="0" IVar="0" Cut="5.3333334922790527e+00" cType="1" res="-2.7184596547158435e-06" rms="3.2267075777053833e-01" purity="5.1530390977859497e-01" nType="0">
              <Node pos="l" depth="4" NCoef="0" IVar="-1" Cut="0.0000000000000000e+00" cType="1" res="1.5641425270587206e-03" rms="3.0952307581901550e-01" purity="6.1237597465515137e-01" nType="-99"/>
              <Node pos="r" depth="4" NCoef="0" IVar="-1" Cut="0.0000000000000000e+00" cType="1" res="-1.2885391479358077e-03" rms="3.3476641774177551e-01" purity="4.2237782478332520e-01" nType="-99"/>
            </Node>
          </Node>
          <Node pos="r" depth="2" NCoef="0" IVar="-1" Cut="0.0000000000000000e+00" cType="1" res="8.0366246402263641e-03" rms="3.4355521202087402e-01" purity="4.4359046220779419e-01" nType="-99"/>
        </Node>
      </Node>
    </BinaryTree>
    <BinaryTree type="DecisionTree" boostWeight="1.0000000000000000e+00" itree="280">
      <Node pos="s" depth="0" NCoef="0" IVar="0" Cut="3.3333332538604736e+00" cType="1" res="-7.0842106651980430e-06" rms="3.3601415157318115e-01" purity="5.0000000000000000e-01" nType="0">
        <Node pos="l" depth="1" NCoef="0" IVar="20" Cut="6.1857671875000000e+04" cType="1" res="-8.2555145490914583e-04" rms="3.4807983040809631e-01" purity="4.7118261456489563e-01" nType="0">
          <Node pos="l" depth="2" NCoef="0" IVar="1" Cut="1.0244955468750000e+05" cType="1" res="-2.9433965682983398e-03" rms="3.7431213259696960e-01" purity="6.0037565231323242e-01" nType="0">
            <Node pos="l" depth="3" NCoef="0" IVar="20" Cut="2.1062742187500000e+04" cType="1" res="-5.3347875364124775e-03" rms="3.7740185856819153e-01" purity="5.6717556715011597e-01" nType="0">
              <Node pos="l" depth="4" NCoef="0" IVar="-1" Cut="0.0000000000000000e+00" cType="1" res="-1.2547584250569344e-02" rms="3.7297987937927246e-01" purity="4.4069272279739380e-01" nType="-99"/>
              <Node pos="r" depth="4" NCoef="0" IVar="-1" Cut="0.0000000000000000e+00" cType="1" res="-1.4002084499225020e-03" rms="3.7837639451026917e-01" purity="5.9731090068817139e-01" nType="-99"/>
            </Node>
            <Node pos="r" depth="3" NCoef="0" IVar="11" Cut="6.7423009872436523e-01" cType="1" res="6.8462928757071495e-03" rms="3.6122339963912964e-01" purity="7.3628741502761841e-01" nType="0">
              <Node pos="l" depth="4" NCoef="0" IVar="-1" Cut="0.0000000000000000e+00" cType="1" res="-4.1788271628320217e-03" rms="3.4379532933235168e-01" purity="7.4677699804306030e-01" nType="-99"/>
              <Node pos="r" depth="4" NCoef="0" IVar="-1" Cut="0.0000000000000000e+00" cType="1" res="1.0149817913770676e-02" rms="3.7250989675521851e-01" purity="7.2907799482345581e-01" nType="-99"/>
            </Node>
          </Node>
          <Node pos="r" depth="2" NCoef="0" IVar="14" Cut="2.1396956443786621e+00" cType="1" res="3.8215816020965576e-03" rms="2.8204002976417542e-01" purity="1.8769772350788116e-01" nType="0">
            <Node pos="l" depth="3" NCoef="0" IVar="19" Cut="7.7500867187500000e+04" cType="1" res="8.0092465505003929e-03" rms="2.8663858771324158e-01" purity="1.7663525044918060e-01" nType="0">
              <Node pos="l" depth="4" NCoef="0" IVar="-1" Cut="0.0000000000000000e+00" cType="1" res="-5.3233720791467931e-06" rms="3.1007191538810730e-01" purity="2.3783382773399353e-01" nType="-99"/>
              <Node pos="r" depth="4" NCoef="0" IVar="-1" Cut="0.0000000000000000e+00" cType="1" res="2.5537347421050072e-02" rms="2.5994703173637390e-01" purity="1.1337415128946304e-01" nType="-99"/>
            </Node>
            <Node pos="r" depth="3" NCoef="0" IVar="13" Cut="2.9626905918121338e+00" cType="1" res="-3.7093518767505884e-03" rms="2.7341443300247192e-01" purity="2.0759204030036926e-01" nType="0">
              <Node pos="l" depth="4" NCoef="0" IVar="-1" Cut="0.0000000000000000e+00" cType="1" res="-1.4940873719751835e-02" rms="2.5688770413398743e-01" purity="1.7304684221744537e-01" nType="-99"/>
              <Node pos="r" depth="4" NCoef="0" IVar="-1" Cut="0.0000000000000000e+00" cType="1" res="1.6404919326305389e-02" rms="3.1234410405158997e-01" purity="2.9974114894866943e-01" nType="-99"/>
            </Node>
          </Node>
        </Node>
        <Node pos="r" depth="1" NCoef="0" IVar="16" Cut="3.2154717445373535e+00" cType="1" res="4.1144303395412862e-04" rms="3.2967293262481689e-01" purity="5.1473593711853027e-01" nType="0">
          <Node pos="l" depth="2" NCoef="0" IVar="19" Cut="2.7389971875000000e+05" cType="1" res="2.4142392794601619e-04" rms="3.2956570386886597e-01" purity="5.1923745870590210e-01" nType="0">
            <Node pos="l" depth="3" NCoef="0" IVar="5" Cut="1.6403573437500000e+05" cType="1" res="5.1441777031868696e-04" rms="3.3159807324409485e-01" purity="5.3067088127136230e-01" nType="0">
              <Node pos="l" depth="4" NCoef="0" IVar="-1" Cut="0.0000000000000000e+00" cType="1" res="1.4285513898357749e-03" rms="3.3476665616035461e-01" purity="5.5895417928695679e-01" nType="-99"/>
              <Node pos="r" depth="4" NCoef="0" IVar="-1" Cut="0.0000000000000000e+00" cType="1" res="-2.0351866260170937e-03" rms="3.2408714294433594e-01" purity="4.6484333276748657e-01" nType="-99"/>
            </Node>
            <Node pos="r" depth="3" NCoef="0" IVar="-1" Cut="0.0000000000000000e+00" cType="1" res="-1.1249263770878315e-02" rms="2.5562560558319092e-01" purity="1.5174618363380432e-01" nType="-99"/>
          </Node>
          <Node pos="r" depth="2" NCoef="0" IVar="-1" Cut="0.0000000000000000e+00" cType="1" res="7.4356221593916416e-03" rms="3.3485338091850281e-01" purity="2.9090699553489685e-01" nType="-99"/>
        </Node>
      </Node>
    </BinaryTree>
    <BinaryTree type="DecisionTree" boostWeight="1.0000000000000000e+00" itree="281">
      <Node pos="s" depth="0" NCoef="0" IVar="12" Cut="2.0714859962463379e+00" cType="1" res="-7.1429922172683291e-06" rms="3.3597576618194580e-01" purity="5.0000000000000000e-01" nType="0">
        <Node pos="l" depth="1" NCoef="0" IVar="10" Cut="1.9904285937500000e+05" cType="1" res="1.1007868451997638e-03" rms="3.5520210862159729e-01" purity="3.7926226854324341e-01" nType="0">
          <Node pos="l" depth="2" NCoef="0" IVar="10" Cut="1.4216129687500000e+05" cType="1" res="1.8966598436236382e-03" rms="3.5999602079391479e-01" purity="3.9034095406532288e-01" nType="0">
            <Node pos="l" depth="3" NCoef="0" IVar="3" Cut="1.5441754687500000e+05" cType="1" res="1.2557566515170038e-04" rms="3.6309549212455750e-01" purity="3.8619583845138550e-01" nType="0">
              <Node pos="l" depth="4" NCoef="0" IVar="-1" Cut="0.0000000000000000e+00" cType="1" res="1.7850616713985801e-03" rms="3.7689778208732605e-01" purity="4.2009130120277405e-01" nType="-99"/>
              <Node pos="r" depth="4" NCoef="0" IVar="-1" Cut="0.0000000000000000e+00" cType="1" res="-1.6108499839901924e-02" rms="2.7444413304328918e-01" purity="1.9938604533672333e-01" nType="-99"/>
            </Node>
            <Node pos="r" depth="3" NCoef="0" IVar="11" Cut="1.1049386262893677e+00" cType="1" res="1.6550816595554352e-02" rms="3.3288526535034180e-01" purity="4.2463845014572144e-01" nType="0">
              <Node pos="l" depth="4" NCoef="0" IVar="-1" Cut="0.0000000000000000e+00" cType="1" res="8.9100394397974014e-03" rms="3.3110567927360535e-01" purity="3.7670433521270752e-01" nType="-99"/>
              <Node pos="r" depth="4" NCoef="0" IVar="-1" Cut="0.0000000000000000e+00" cType="1" res="1.9404174759984016e-02" rms="3.3454865217208862e-01" purity="4.7369393706321716e-01" nType="-99"/>
            </Node>
          </Node>
          <Node pos="r" depth="2" NCoef="0" IVar="-1" Cut="0.0000000000000000e+00" cType="1" res="-1.3397024944424629e-02" rms="2.6924982666969299e-01" purity="2.0636089146137238e-01" nType="-99"/>
        </Node>
        <Node pos="r" depth="1" NCoef="0" IVar="2" Cut="1.3728913750000000e+06" cType="1" res="-2.8554518939927220e-04" rms="3.3096840977668762e-01" purity="5.3033912181854248e-01" nType="0">
          <Node pos="l" depth="2" NCoef="0" IVar="3" Cut="9.8337085937500000e+04" cType="1" res="-1.6857654554769397e-04" rms="3.3253926038742065e-01" purity="5.3727835416793823e-01" nType="0">
            <Node pos="l" depth="3" NCoef="0" IVar="1" Cut="5.7634082031250000e+04" cType="1" res="-1.3650763779878616e-02" rms="3.5310605168342590e-01" purity="3.4321886301040649e-01" nType="0">
              <Node pos="l" depth="4" NCoef="0" IVar="-1" Cut="0.0000000000000000e+00" cType="1" res="-2.8175439685583115e-02" rms="3.1914493441581726e-01" purity="1.8796755373477936e-01" nType="-99"/>
              <Node pos="r" depth="4" NCoef="0" IVar="-1" Cut="0.0000000000000000e+00" cType="1" res="2.0300630480051041e-02" rms="4.1405147314071655e-01" purity="6.8786054849624634e-01" nType="-99"/>
            </Node>
            <Node pos="r" depth="3" NCoef="0" IVar="1" Cut="2.2613628125000000e+05" cType="1" res="7.9622649354860187e-04" rms="3.3099743723869324e-01" purity="5.5116552114486694e-01" nType="0">
              <Node pos="l" depth="4" NCoef="0" IVar="-1" Cut="0.0000000000000000e+00" cType="1" res="1.0815754067152739e-03" rms="3.3138909935951233e-01" purity="5.5353897809982300e-01" nType="-99"/>
              <Node pos="r" depth="4" NCoef="0" IVar="-1" Cut="0.0000000000000000e+00" cType="1" res="-2.5735149160027504e-02" rms="3.0460068583488464e-01" purity="4.0439295768737793e-01" nType="-99"/>
            </Node>
          </Node>
          <Node pos="r" depth="2" NCoef="0" IVar="-1" Cut="0.0000000000000000e+00" cType="1" res="-1.4949084259569645e-02" rms="2.1294246613979340e-01" purity="1.0329204797744751e-01" nType="-99"/>
        </Node>
      </Node>
    </BinaryTree>
    <BinaryTree type="DecisionTree" boostWeight="1.0000000000000000e+00" itree="282">
      <Node pos="s" depth="0" NCoef="0" IVar="13" Cut="2.1940269470214844e+00" cType="1" res="-8.2390988609404303e-06" rms="3.3592179417610168e-01" purity="5.0000000000000000e-01" nType="0">
        <Node pos="l" depth="1" NCoef="0" IVar="10" Cut="5.3469230468750000e+04" cType="1" res="7.7006703941151500e-04" rms="3.3001437783241272e-01" purity="2.9838448762893677e-01" nType="0">
          <Node pos="l" depth="2" NCoef="0" IVar="3" Cut="8.1760031250000000e+04" cType="1" res="3.7671669851988554e-03" rms="3.5142749547958374e-01" purity="2.9736974835395813e-01" nType="0">
            <Node pos="l" depth="3" NCoef="0" IVar="3" Cut="7.4987281250000000e+04" cType="1" res="-1.0794512927532196e-03" rms="3.6976942420005798e-01" purity="3.2954236865043640e-01" nType="0">
              <Node pos="l" depth="4" NCoef="0" IVar="-1" Cut="0.0000000000000000e+00" cType="1" res="4.4738925062119961e-03" rms="3.9103060960769653e-01" purity="3.6869180202484131e-01" nType="-99"/>
              <Node pos="r" depth="4" NCoef="0" IVar="-1" Cut="0.0000000000000000e+00" cType="1" res="-2.0326573401689529e-02" rms="2.9966914653778076e-01" purity="2.1773308515548706e-01" nType="-99"/>
            </Node>
            <Node pos="r" depth="3" NCoef="0" IVar="11" Cut="2.2761805057525635e+00" cType="1" res="1.1876035481691360e-02" rms="3.1822043657302856e-01" purity="2.4354174733161926e-01" nType="0">
              <Node pos="l" depth="4" NCoef="0" IVar="-1" Cut="0.0000000000000000e+00" cType="1" res="1.6958406195044518e-02" rms="3.4678065776824951e-01" purity="3.1566870212554932e-01" nType="-99"/>
              <Node pos="r" depth="4" NCoef="0" IVar="-1" Cut="0.0000000000000000e+00" cType="1" res="-1.6709227347746491e-03" rms="2.6318097114562988e-01" purity="1.2304808199405670e-01" nType="-99"/>
            </Node>
          </Node>
          <Node pos="r" depth="2" NCoef="0" IVar="16" Cut="1.2644493579864502e+00" cType="1" res="-1.3947490369901061e-03" rms="3.1362175941467285e-01" purity="2.9911747574806213e-01" nType="0">
            <Node pos="l" depth="3" NCoef="0" IVar="15" Cut="1.4786366224288940e+00" cType="1" res="-1.1277014389634132e-02" rms="3.2389882206916809e-01" purity="4.6808224916458130e-01" nType="0">
              <Node pos="l" depth="4" NCoef="0" IVar="-1" Cut="0.0000000000000000e+00" cType="1" res="-2.6863869279623032e-02" rms="3.1810697913169861e-01" purity="3.5703963041305542e-01" nType="-99"/>
              <Node pos="r" depth="4" NCoef="0" IVar="-1" Cut="0.0000000000000000e+00" cType="1" res="-2.4498892016708851e-03" rms="3.2637152075767517e-01" purity="5.2262991666793823e-01" nType="-99"/>
            </Node>
            <Node pos="r" depth="3" NCoef="0" IVar="2" Cut="3.7150562500000000e+05" cType="1" res="3.0176253058016300e-03" rms="3.0882063508033752e-01" purity="2.2367566823959351e-01" nType="0">
              <Node pos="l" depth="4" NCoef="0" IVar="-1" Cut="0.0000000000000000e+00" cType="1" res="-3.9639677852392197e-03" rms="3.5491892695426941e-01" purity="3.3283755183219910e-01" nType="-99"/>
              <Node pos="r" depth="4" NCoef="0" IVar="-1" Cut="0.0000000000000000e+00" cType="1" res="9.1252066195011139e-03" rms="2.8197872638702393e-01" purity="1.6730028390884399e-01" nType="-99"/>
            </Node>
          </Node>
        </Node>
        <Node pos="r" depth="1" NCoef="0" IVar="13" Cut="2.3638174533843994e+00" cType="1" res="-4.0830319630913436e-04" rms="3.3891755342483521e-01" purity="6.0363417863845825e-01" nType="0">
          <Node pos="l" depth="2" NCoef="0" IVar="8" Cut="5.9243964843750000e+04" cType="1" res="-5.0626476295292377e-03" rms="3.5144382715225220e-01" purity="5.0907719135284424e-01" nType="0">
            <Node pos="l" depth="3" NCoef="0" IVar="2" Cut="3.8687871875000000e+05" cType="1" res="-1.4818461611866951e-02" rms="3.6743709444999695e-01" purity="6.4538276195526123e-01" nType="0">
              <Node pos="l" depth="4" NCoef="0" IVar="-1" Cut="0.0000000000000000e+00" cType="1" res="-4.2379968799650669e-03" rms="3.6426705121994019e-01" purity="6.6772872209548950e-01" nType="-99"/>
              <Node pos="r" depth="4" NCoef="0" IVar="-1" Cut="0.0000000000000000e+00" cType="1" res="-2.1465577185153961e-02" rms="3.7277156114578247e-01" purity="6.0305964946746826e-01" nType="-99"/>
            </Node>
            <Node pos="r" depth="3" NCoef="0" IVar="15" Cut="1.8873660564422607e+00" cType="1" res="1.2270853854715824e-02" rms="3.2033672928810120e-01" purity="2.6689836382865906e-01" nType="0">
              <Node pos="l" depth="4" NCoef="0" IVar="-1" Cut="0.0000000000000000e+00" cType="1" res="2.8620935045182705e-03" rms="3.1406998634338379e-01" purity="2.7631318569183350e-01" nType="-99"/>
              <Node pos="r" depth="4" NCoef="0" IVar="-1" Cut="0.0000000000000000e+00" cType="1" res="2.2414861246943474e-02" rms="3.2630819082260132e-01" purity="2.5732770562171936e-01" nType="-99"/>
            </Node>
          </Node>
          <Node pos="r" depth="2" NCoef="0" IVar="12" Cut="2.0809807777404785e+00" cType="1" res="8.8704829977359623e-05" rms="3.3754870295524597e-01" purity="6.1373138427734375e-01" nType="0">
            <Node pos="l" depth="3" NCoef="0" IVar="5" Cut="2.3826834375000000e+05" cType="1" res="5.1465942524373531e-03" rms="3.6611545085906982e-01" purity="5.4139900207519531e-01" nType="0">
              <Node pos="l" depth="4" NCoef="0" IVar="-1" Cut="0.0000000000000000e+00" cType="1" res="1.3978672213852406e-03" rms="3.7107768654823303e-01" purity="5.7095825672149658e-01" nType="-99"/>
              <Node pos="r" depth="4" NCoef="0" IVar="-1" Cut="0.0000000000000000e+00" cType="1" res="1.5914447605609894e-02" rms="3.4144064784049988e-01" purity="4.0241196751594543e-01" nType="-99"/>
            </Node>
            <Node pos="r" depth="3" NCoef="0" IVar="12" Cut="2.2591817378997803e+00" cType="1" res="-5.0027755787596107e-04" rms="3.3405840396881104e-01" purity="6.2215429544448853e-01" nType="0">
              <Node pos="l" depth="4" NCoef="0" IVar="-1" Cut="0.0000000000000000e+00" cType="1" res="-6.4198113977909088e-03" rms="3.6286330223083496e-01" purity="5.6048423051834106e-01" nType="-99"/>
              <Node pos="r" depth="4" NCoef="0" IVar="-1" Cut="0.0000000000000000e+00" cType="1" res="1.1796922626672313e-04" rms="3.3168861269950867e-01" purity="6.2698382139205933e-01" nType="-99"/>
            </Node>
          </Node>
        </Node>
      </Node>
    </BinaryTree>
    <BinaryTree type="DecisionTree" boostWeight="1.0000000000000000e+00" itree="283">
      <Node pos="s" depth="0" NCoef="0" IVar="13" Cut="2.4682803153991699e+00" cType="1" res="-8.0400859587825835e-06" rms="3.3585500717163086e-01" purity="5.0000000000000000e-01" nType="0">
        <Node pos="l" depth="1" NCoef="0" IVar="12" Cut="3.5617487430572510e+00" cType="1" res="5.4305128287523985e-04" rms="3.3451002836227417e-01" purity="3.5427215695381165e-01" nType="0">
          <Node pos="l" depth="2" NCoef="0" IVar="11" Cut="3.5546872019767761e-01" cType="1" res="9.5750938635319471e-04" rms="3.3623215556144714e-01" purity="3.5889574885368347e-01" nType="0">
            <Node pos="l" depth="3" NCoef="0" IVar="-1" Cut="0.0000000000000000e+00" cType="1" res="1.0332885198295116e-02" rms="3.4328597784042358e-01" purity="5.3172552585601807e-01" nType="-99"/>
            <Node pos="r" depth="3" NCoef="0" IVar="12" Cut="2.4953787326812744e+00" cType="1" res="4.0299896500073373e-04" rms="3.3589830994606018e-01" purity="3.5106062889099121e-01" nType="0">
              <Node pos="l" depth="4" NCoef="0" IVar="-1" Cut="0.0000000000000000e+00" cType="1" res="-1.7028147121891379e-03" rms="3.4954163432121277e-01" purity="3.4120526909828186e-01" nType="-99"/>
              <Node pos="r" depth="4" NCoef="0" IVar="-1" Cut="0.0000000000000000e+00" cType="1" res="2.6940391398966312e-03" rms="3.2190480828285217e-01" purity="3.6074769496917725e-01" nType="-99"/>
            </Node>
          </Node>
          <Node pos="r" depth="2" NCoef="0" IVar="-1" Cut="0.0000000000000000e+00" cType="1" res="-1.9192986190319061e-02" rms="2.6301163434982300e-01" purity="1.8422248959541321e-01" nType="-99"/>
        </Node>
        <Node pos="r" depth="1" NCoef="0" IVar="13" Cut="2.6249997615814209e+00" cType="1" res="-4.5585876796394587e-04" rms="3.3694332838058472e-01" purity="6.1841893196105957e-01" nType="0">
          <Node pos="l" depth="2" NCoef="0" IVar="10" Cut="1.8141479687500000e+05" cType="1" res="-5.2312230691313744e-03" rms="3.3939176797866821e-01" purity="5.8715677261352539e-01" nType="0">
            <Node pos="l" depth="3" NCoef="0" IVar="8" Cut="6.8101382812500000e+04" cType="1" res="-1.8864891026169062e-03" rms="3.4796679019927979e-01" purity="6.2331694364547729e-01" nType="0">
              <Node pos="l" depth="4" NCoef="0" IVar="-1" Cut="0.0000000000000000e+00" cType="1" res="2.1317915525287390e-03" rms="3.5577049851417542e-01" purity="7.1658390760421753e-01" nType="-99"/>
              <Node pos="r" depth="4" NCoef="0" IVar="-1" Cut="0.0000000000000000e+00" cType="1" res="-2.2177467122673988e-02" rms="3.1054955720901489e-01" purity="2.1391025185585022e-01" nType="-99"/>
            </Node>
            <Node pos="r" depth="3" NCoef="0" IVar="-1" Cut="0.0000000000000000e+00" cType="1" res="-2.7337495237588882e-02" rms="2.8646636009216309e-01" purity="3.8643956184387207e-01" nType="-99"/>
          </Node>
          <Node pos="r" depth="2" NCoef="0" IVar="13" Cut="2.7742700576782227e+00" cType="1" res="2.9332979465834796e-04" rms="3.3655142784118652e-01" purity="6.2332355976104736e-01" nType="0">
            <Node pos="l" depth="3" NCoef="0" IVar="6" Cut="1.3369492187500000e+05" cType="1" res="5.0124544650316238e-03" rms="3.3908066153526306e-01" purity="6.3048058748245239e-01" nType="0">
              <Node pos="l" depth="4" NCoef="0" IVar="-1" Cut="0.0000000000000000e+00" cType="1" res="-6.3817463815212250e-03" rms="3.8501957058906555e-01" purity="5.8553117513656616e-01" nType="-99"/>
              <Node pos="r" depth="4" NCoef="0" IVar="-1" Cut="0.0000000000000000e+00" cType="1" res="9.3998061493039131e-03" rms="3.2197862863540649e-01" purity="6.4561897516250610e-01" nType="-99"/>
            </Node>
            <Node pos="r" depth="3" NCoef="0" IVar="16" Cut="5.2019447088241577e-01" cType="1" res="-7.0378225063905120e-04" rms="3.3600610494613647e-01" purity="6.2181127071380615e-01" nType="0">
              <Node pos="l" depth="4" NCoef="0" IVar="-1" Cut="0.0000000000000000e+00" cType="1" res="7.7789761126041412e-03" rms="2.5658285617828369e-01" purity="8.4771537780761719e-01" nType="-99"/>
              <Node pos="r" depth="4" NCoef="0" IVar="-1" Cut="0.0000000000000000e+00" cType="1" res="-1.0542555246502161e-03" rms="3.4245714545249939e-01" purity="6.0078400373458862e-01" nType="-99"/>
            </Node>
          </Node>
        </Node>
      </Node>
    </BinaryTree>
    <BinaryTree type="DecisionTree" boostWeight="1.0000000000000000e+00" itree="284">
      <Node pos="s" depth="0" NCoef="0" IVar="15" Cut="1.5260878801345825e+00" cType="1" res="-6.3973870965128299e-06" rms="3.3582749962806702e-01" purity="5.0000000000000000e-01" nType="0">
        <Node pos="l" depth="1" NCoef="0" IVar="15" Cut="1.4535570144653320e+00" cType="1" res="6.7039404530078173e-04" rms="3.5553652048110962e-01" purity="4.8203909397125244e-01" nType="0">
          <Node pos="l" depth="2" NCoef="0" IVar="18" Cut="7.7159984375000000e+04" cType="1" res="-1.2114887067582458e-04" rms="3.5550171136856079e-01" purity="4.8146685957908630e-01" nType="0">
            <Node pos="l" depth="3" NCoef="0" IVar="18" Cut="6.6093289062500000e+04" cType="1" res="1.2029863428324461e-03" rms="3.6173048615455627e-01" purity="5.0590860843658447e-01" nType="0">
              <Node pos="l" depth="4" NCoef="0" IVar="-1" Cut="0.0000000000000000e+00" cType="1" res="1.5005372697487473e-03" rms="3.6129084229469299e-01" purity="5.0942647457122803e-01" nType="-99"/>
              <Node pos="r" depth="4" NCoef="0" IVar="-1" Cut="0.0000000000000000e+00" cType="1" res="-8.2891657948493958e-03" rms="3.6782783269882202e-01" purity="4.5489057898521423e-01" nType="-99"/>
            </Node>
            <Node pos="r" depth="3" NCoef="0" IVar="0" Cut="6.3333334922790527e+00" cType="1" res="-8.1277973949909210e-03" rms="3.1510835886001587e-01" purity="3.3367478847503662e-01" nType="0">
              <Node pos="l" depth="4" NCoef="0" IVar="-1" Cut="0.0000000000000000e+00" cType="1" res="-1.4123552478849888e-02" rms="3.1829342246055603e-01" purity="3.9288929104804993e-01" nType="-99"/>
              <Node pos="r" depth="4" NCoef="0" IVar="-1" Cut="0.0000000000000000e+00" cType="1" res="1.8676066538318992e-03" rms="3.1016039848327637e-01" purity="2.4784667789936066e-01" nType="-99"/>
            </Node>
          </Node>
          <Node pos="r" depth="2" NCoef="0" IVar="1" Cut="6.2559089843750000e+04" cType="1" res="9.4403298571705818e-03" rms="3.5580420494079590e-01" purity="4.8837926983833313e-01" nType="0">
            <Node pos="l" depth="3" NCoef="0" IVar="-1" Cut="0.0000000000000000e+00" cType="1" res="-4.3076849542558193e-03" rms="3.5350894927978516e-01" purity="3.7750145792961121e-01" nType="-99"/>
            <Node pos="r" depth="3" NCoef="0" IVar="-1" Cut="0.0000000000000000e+00" cType="1" res="2.0794678479433060e-02" rms="3.5768872499465942e-01" purity="6.1906951665878296e-01" nType="-99"/>
          </Node>
        </Node>
        <Node pos="r" depth="1" NCoef="0" IVar="16" Cut="1.7488965988159180e+00" cType="1" res="-3.4989800769835711e-04" rms="3.2536733150482178e-01" purity="5.0911593437194824e-01" nType="0">
          <Node pos="l" depth="2" NCoef="0" IVar="0" Cut="1.3333333730697632e+00" cType="1" res="6.5050541888922453e-04" rms="3.2093009352684021e-01" purity="6.3628399372100830e-01" nType="0">
            <Node pos="l" depth="3" NCoef="0" IVar="18" Cut="7.2992078125000000e+04" cType="1" res="0.0000000000000000e+00" rms="0.0000000000000000e+00" purity="4.9955603480339050e-01" nType="0">
              <Node pos="l" depth="4" NCoef="0" IVar="-1" Cut="0.0000000000000000e+00" cType="1" res="-1.2569054029881954e-02" rms="3.5854801535606384e-01" purity="4.4320049881935120e-01" nType="-99"/>
              <Node pos="r" depth="4" NCoef="0" IVar="-1" Cut="0.0000000000000000e+00" cType="1" res="-1.0484087979421020e-03" rms="3.4120151400566101e-01" purity="5.3059482574462891e-01" nType="-99"/>
            </Node>
            <Node pos="r" depth="3" NCoef="0" IVar="19" Cut="1.1691989062500000e+05" cType="1" res="1.5510272933170199e-03" rms="3.1753021478652954e-01" purity="6.5291112661361694e-01" nType="0">
              <Node pos="l" depth="4" NCoef="0" IVar="-1" Cut="0.0000000000000000e+00" cType="1" res="2.1523386240005493e-03" rms="3.1883594393730164e-01" purity="6.7758172750473022e-01" nType="-99"/>
              <Node pos="r" depth="4" NCoef="0" IVar="-1" Cut="0.0000000000000000e+00" cType="1" res="-1.1486455798149109e-02" rms="2.9514521360397339e-01" purity="2.5057268142700195e-01" nType="-99"/>
            </Node>
          </Node>
          <Node pos="r" depth="2" NCoef="0" IVar="2" Cut="3.8369771875000000e+05" cType="1" res="-2.2108387202024460e-03" rms="3.3345645666122437e-01" purity="2.7255913615226746e-01" nType="0">
            <Node pos="l" depth="3" NCoef="0" IVar="1" Cut="5.8854519531250000e+04" cType="1" res="-9.1782864183187485e-03" rms="3.6297318339347839e-01" purity="3.0624631047248840e-01" nType="0">
              <Node pos="l" depth="4" NCoef="0" IVar="-1" Cut="0.0000000000000000e+00" cType="1" res="4.2260836926288903e-04" rms="3.4312075376510620e-01" purity="2.2812749445438385e-01" nType="-99"/>
              <Node pos="r" depth="4" NCoef="0" IVar="-1" Cut="0.0000000000000000e+00" cType="1" res="-1.8415292724967003e-02" rms="4.0324196219444275e-01" purity="4.8203301429748535e-01" nType="-99"/>
            </Node>
            <Node pos="r" depth="3" NCoef="0" IVar="17" Cut="1.5509862500000000e+05" cType="1" res="2.3752574343234301e-03" rms="3.1242546439170837e-01" purity="2.5038567185401917e-01" nType="0">
              <Node pos="l" depth="4" NCoef="0" IVar="-1" Cut="0.0000000000000000e+00" cType="1" res="5.2770869806408882e-03" rms="3.2153308391571045e-01" purity="2.7346530556678772e-01" nType="-99"/>
              <Node pos="r" depth="4" NCoef="0" IVar="-1" Cut="0.0000000000000000e+00" cType="1" res="-5.3856326267123222e-03" rms="2.9266428947448730e-01" purity="2.0289568603038788e-01" nType="-99"/>
            </Node>
          </Node>
        </Node>
      </Node>
    </BinaryTree>
    <BinaryTree type="DecisionTree" boostWeight="1.0000000000000000e+00" itree="285">
      <Node pos="s" depth="0" NCoef="0" IVar="12" Cut="2.3394594192504883e+00" cType="1" res="-4.7583616833435372e-06" rms="3.3578342199325562e-01" purity="5.0000000000000000e-01" nType="0">
        <Node pos="l" depth="1" NCoef="0" IVar="9" Cut="1.2766714843750000e+05" cType="1" res="7.1139272768050432e-04" rms="3.5638770461082458e-01" purity="4.2162412405014038e-01" nType="0">
          <Node pos="l" depth="2" NCoef="0" IVar="2" Cut="6.6623643750000000e+05" cType="1" res="2.4167438969016075e-03" rms="3.6673596501350403e-01" purity="4.4944855570793152e-01" nType="0">
            <Node pos="l" depth="3" NCoef="0" IVar="2" Cut="2.1871132812500000e+05" cType="1" res="3.9371442981064320e-03" rms="3.7478467822074890e-01" purity="4.8492610454559326e-01" nType="0">
              <Node pos="l" depth="4" NCoef="0" IVar="-1" Cut="0.0000000000000000e+00" cType="1" res="8.7495269253849983e-03" rms="3.8752156496047974e-01" purity="5.1591247320175171e-01" nType="-99"/>
              <Node pos="r" depth="4" NCoef="0" IVar="-1" Cut="0.0000000000000000e+00" cType="1" res="6.3203688478097320e-04" rms="3.7068453431129456e-01" purity="4.7529560327529907e-01" nType="-99"/>
            </Node>
            <Node pos="r" depth="3" NCoef="0" IVar="17" Cut="1.0559671875000000e+05" cType="1" res="-7.6702036894857883e-03" rms="3.0786696076393127e-01" purity="2.1407648921012878e-01" nType="0">
              <Node pos="l" depth="4" NCoef="0" IVar="-1" Cut="0.0000000000000000e+00" cType="1" res="4.3029333464801311e-03" rms="3.2217046618461609e-01" purity="2.6233109831809998e-01" nType="-99"/>
              <Node pos="r" depth="4" NCoef="0" IVar="-1" Cut="0.0000000000000000e+00" cType="1" res="-1.5629561617970467e-02" rms="2.9848772287368774e-01" purity="1.8445532023906708e-01" nType="-99"/>
            </Node>
          </Node>
          <Node pos="r" depth="2" NCoef="0" IVar="2" Cut="7.4982387500000000e+05" cType="1" res="-9.7791766747832298e-03" rms="2.8434446454048157e-01" purity="2.5046035647392273e-01" nType="0">
            <Node pos="l" depth="3" NCoef="0" IVar="8" Cut="6.9843710937500000e+04" cType="1" res="-2.5025960057973862e-02" rms="3.1311705708503723e-01" purity="3.3220010995864868e-01" nType="0">
              <Node pos="l" depth="4" NCoef="0" IVar="-1" Cut="0.0000000000000000e+00" cType="1" res="-2.9118519276380539e-02" rms="3.6818736791610718e-01" purity="5.1356405019760132e-01" nType="-99"/>
              <Node pos="r" depth="4" NCoef="0" IVar="-1" Cut="0.0000000000000000e+00" cType="1" res="-3.6506836768239737e-03" rms="2.1494710445404053e-01" purity="8.6122773587703705e-02" nType="-99"/>
            </Node>
            <Node pos="r" depth="3" NCoef="0" IVar="-1" Cut="0.0000000000000000e+00" cType="1" res="2.1268527954816818e-02" rms="2.3589761555194855e-01" purity="1.3441374897956848e-01" nType="-99"/>
          </Node>
        </Node>
        <Node pos="r" depth="1" NCoef="0" IVar="0" Cut="7.3333334922790527e+00" cType="1" res="-3.1561928335577250e-04" rms="3.2643467187881470e-01" purity="5.3402078151702881e-01" nType="0">
          <Node pos="l" depth="2" NCoef="0" IVar="12" Cut="2.4978995323181152e+00" cType="1" res="3.6257764440961182e-04" rms="3.2249465584754944e-01" purity="5.7802891731262207e-01" nType="0">
            <Node pos="l" depth="3" NCoef="0" IVar="20" Cut="4.1894800781250000e+04" cType="1" res="6.6851139999926090e-03" rms="3.4406295418739319e-01" purity="5.7384234666824341e-01" nType="0">
              <Node pos="l" depth="4" NCoef="0" IVar="-1" Cut="0.0000000000000000e+00" cType="1" res="1.3291025534272194e-02" rms="3.5025307536125183e-01" purity="7.1700656414031982e-01" nType="-99"/>
              <Node pos="r" depth="4" NCoef="0" IVar="-1" Cut="0.0000000000000000e+00" cType="1" res="-2.5651159230619669e-03" rms="3.3810210227966309e-01" purity="4.4495871663093567e-01" nType="-99"/>
            </Node>
            <Node pos="r" depth="3" NCoef="0" IVar="13" Cut="2.7425336837768555e+00" cType="1" res="-4.0995227755047381e-04" rms="3.1975099444389343e-01" purity="5.7854050397872925e-01" nType="0">
              <Node pos="l" depth="4" NCoef="0" IVar="-1" Cut="0.0000000000000000e+00" cType="1" res="1.5457785921171308e-03" rms="3.2070145010948181e-01" purity="4.7542679309844971e-01" nType="-99"/>
              <Node pos="r" depth="4" NCoef="0" IVar="-1" Cut="0.0000000000000000e+00" cType="1" res="-2.3820376954972744e-03" rms="3.1877133250236511e-01" purity="6.8296211957931519e-01" nType="-99"/>
            </Node>
          </Node>
          <Node pos="r" depth="2" NCoef="0" IVar="15" Cut="2.8880434036254883e+00" cType="1" res="0.0000000000000000e+00" rms="0.0000000000000000e+00" purity="3.7077602744102478e-01" nType="0">
            <Node pos="l" depth="3" NCoef="0" IVar="12" Cut="2.8371441364288330e+00" cType="1" res="0.0000000000000000e+00" rms="0.0000000000000000e+00" purity="3.6699357628822327e-01" nType="0">
              <Node pos="l" depth="4" NCoef="0" IVar="-1" Cut="0.0000000000000000e+00" cType="1" res="-8.3834771066904068e-03" rms="3.4939429163932800e-01" purity="3.7205910682678223e-01" nType="-99"/>
              <Node pos="r" depth="4" NCoef="0" IVar="-1" Cut="0.0000000000000000e+00" cType="1" res="-2.4981814203783870e-04" rms="3.3305037021636963e-01" purity="3.6370632052421570e-01" nType="-99"/>
            </Node>
            <Node pos="r" depth="3" NCoef="0" IVar="-1" Cut="0.0000000000000000e+00" cType="1" res="9.8146963864564896e-03" rms="3.4923198819160461e-01" purity="4.0406408905982971e-01" nType="-99"/>
          </Node>
        </Node>
      </Node>
    </BinaryTree>
    <BinaryTree type="DecisionTree" boostWeight="1.0000000000000000e+00" itree="286">
      <Node pos="s" depth="0" NCoef="0" IVar="15" Cut="2.5411450862884521e+00" cType="1" res="-3.9957049011718482e-06" rms="3.3573603630065918e-01" purity="5.0000000000000000e-01" nType="0">
        <Node pos="l" depth="1" NCoef="0" IVar="15" Cut="2.4203004837036133e+00" cType="1" res="2.7221409254707396e-04" rms="3.4185156226158142e-01" purity="4.9447363615036011e-01" nType="0">
          <Node pos="l" depth="2" NCoef="0" IVar="12" Cut="3.4254493713378906e+00" cType="1" res="-3.6049270875082584e-06" rms="3.4359341859817505e-01" purity="4.9117550253868103e-01" nType="0">
            <Node pos="l" depth="3" NCoef="0" IVar="12" Cut="3.2732026576995850e+00" cType="1" res="3.2971086329780519e-04" rms="3.4553620219230652e-01" purity="4.9908521771430969e-01" nType="0">
              <Node pos="l" depth="4" NCoef="0" IVar="-1" Cut="0.0000000000000000e+00" cType="1" res="-6.0943777498323470e-05" rms="3.4611639380455017e-01" purity="4.9994590878486633e-01" nType="-99"/>
              <Node pos="r" depth="4" NCoef="0" IVar="-1" Cut="0.0000000000000000e+00" cType="1" res="7.7296104282140732e-03" rms="3.3327856659889221e-01" purity="4.8139646649360657e-01" nType="-99"/>
            </Node>
            <Node pos="r" depth="3" NCoef="0" IVar="18" Cut="3.3482605468750000e+04" cType="1" res="-4.1794534772634506e-03" rms="3.1822097301483154e-01" purity="3.9208117127418518e-01" nType="0">
              <Node pos="l" depth="4" NCoef="0" IVar="-1" Cut="0.0000000000000000e+00" cType="1" res="6.3264505006372929e-03" rms="3.2279413938522339e-01" purity="4.1447496414184570e-01" nType="-99"/>
              <Node pos="r" depth="4" NCoef="0" IVar="-1" Cut="0.0000000000000000e+00" cType="1" res="-1.1743218638002872e-02" rms="3.1455990672111511e-01" purity="3.7565428018569946e-01" nType="-99"/>
            </Node>
          </Node>
          <Node pos="r" depth="2" NCoef="0" IVar="11" Cut="1.2860870361328125e+00" cType="1" res="3.9982618764042854e-03" rms="3.1736192107200623e-01" purity="5.3902858495712280e-01" nType="0">
            <Node pos="l" depth="3" NCoef="0" IVar="21" Cut="4.6716917968750000e+04" cType="1" res="-2.2212057374417782e-03" rms="3.1976786255836487e-01" purity="6.4316487312316895e-01" nType="0">
              <Node pos="l" depth="4" NCoef="0" IVar="-1" Cut="0.0000000000000000e+00" cType="1" res="8.2615278661251068e-03" rms="3.2425177097320557e-01" purity="7.1387058496475220e-01" nType="-99"/>
              <Node pos="r" depth="4" NCoef="0" IVar="-1" Cut="0.0000000000000000e+00" cType="1" res="-2.1673804149031639e-02" rms="3.1094297766685486e-01" purity="5.2190983295440674e-01" nType="-99"/>
            </Node>
            <Node pos="r" depth="3" NCoef="0" IVar="-1" Cut="0.0000000000000000e+00" cType="1" res="1.4730023220181465e-02" rms="3.1238073110580444e-01" purity="3.4048944711685181e-01" nType="-99"/>
          </Node>
        </Node>
        <Node pos="r" depth="1" NCoef="0" IVar="15" Cut="2.6740696430206299e+00" cType="1" res="-9.2272821348160505e-04" rms="3.1453838944435120e-01" purity="5.1838177442550659e-01" nType="0">
          <Node pos="l" depth="2" NCoef="0" IVar="9" Cut="7.3944343750000000e+04" cType="1" res="-6.0020200908184052e-03" rms="3.1281363964080811e-01" purity="5.3129822015762329e-01" nType="0">
            <Node pos="l" depth="3" NCoef="0" IVar="-1" Cut="0.0000000000000000e+00" cType="1" res="-1.3600779697299004e-02" rms="3.5595655441284180e-01" purity="4.7838202118873596e-01" nType="-99"/>
            <Node pos="r" depth="3" NCoef="0" IVar="19" Cut="7.5398414062500000e+04" cType="1" res="-2.9609078774228692e-04" rms="2.9140079021453857e-01" purity="5.5483263731002808e-01" nType="0">
              <Node pos="l" depth="4" NCoef="0" IVar="-1" Cut="0.0000000000000000e+00" cType="1" res="-7.7818902209401131e-03" rms="2.8284651041030884e-01" purity="7.0172637701034546e-01" nType="-99"/>
              <Node pos="r" depth="4" NCoef="0" IVar="-1" Cut="0.0000000000000000e+00" cType="1" res="1.0414071381092072e-02" rms="3.0528995394706726e-01" purity="3.0214932560920715e-01" nType="-99"/>
            </Node>
          </Node>
          <Node pos="r" depth="2" NCoef="0" IVar="1" Cut="9.4517734375000000e+04" cType="1" res="6.2249653274193406e-04" rms="3.1504496932029724e-01" purity="5.1445233821868896e-01" nType="0">
            <Node pos="l" depth="3" NCoef="0" IVar="1" Cut="6.7574414062500000e+04" cType="1" res="3.0329967848956585e-03" rms="3.1994733214378357e-01" purity="4.8527604341506958e-01" nType="0">
              <Node pos="l" depth="4" NCoef="0" IVar="-1" Cut="0.0000000000000000e+00" cType="1" res="-1.0325248586013913e-03" rms="3.2134130597114563e-01" purity="4.3809884786605835e-01" nType="-99"/>
              <Node pos="r" depth="4" NCoef="0" IVar="-1" Cut="0.0000000000000000e+00" cType="1" res="1.6502913087606430e-02" rms="3.1457486748695374e-01" purity="6.5087872743606567e-01" nType="-99"/>
            </Node>
            <Node pos="r" depth="3" NCoef="0" IVar="13" Cut="2.1447570323944092e+00" cType="1" res="-7.8313257545232773e-03" rms="2.9705899953842163e-01" purity="6.1677581071853638e-01" nType="0">
              <Node pos="l" depth="4" NCoef="0" IVar="-1" Cut="0.0000000000000000e+00" cType="1" res="-2.1351059898734093e-02" rms="3.2250458002090454e-01" purity="2.9030957818031311e-01" nType="-99"/>
              <Node pos="r" depth="4" NCoef="0" IVar="-1" Cut="0.0000000000000000e+00" cType="1" res="-9.7698450554162264e-04" rms="2.8567448258399963e-01" purity="7.5067913532257080e-01" nType="-99"/>
            </Node>
          </Node>
        </Node>
      </Node>
    </BinaryTree>
    <BinaryTree type="DecisionTree" boostWeight="1.0000000000000000e+00" itree="287">
      <Node pos="s" depth="0" NCoef="0" IVar="5" Cut="4.3468087500000000e+05" cType="1" res="-2.7465669063531095e-06" rms="3.3569419384002686e-01" purity="5.0000000000000000e-01" nType="0">
        <Node pos="l" depth="1" NCoef="0" IVar="5" Cut="3.7615462500000000e+05" cType="1" res="-1.2036097177769989e-04" rms="3.3821052312850952e-01" purity="5.1539814472198486e-01" nType="0">
          <Node pos="l" depth="2" NCoef="0" IVar="12" Cut="1.0460517406463623e+00" cType="1" res="-2.5775423273444176e-04" rms="3.3861216902732849e-01" purity="5.1984441280364990e-01" nType="0">
            <Node pos="l" depth="3" NCoef="0" IVar="-1" Cut="0.0000000000000000e+00" cType="1" res="-7.1876705624163151e-03" rms="3.5665941238403320e-01" purity="2.4821515381336212e-01" nType="-99"/>
            <Node pos="r" depth="3" NCoef="0" IVar="11" Cut="2.8506696224212646e-01" cType="1" res="-4.9630012654233724e-05" rms="3.3820930123329163e-01" purity="5.2570289373397827e-01" nType="0">
              <Node pos="l" depth="4" NCoef="0" IVar="-1" Cut="0.0000000000000000e+00" cType="1" res="8.0175297334790230e-03" rms="2.9429432749748230e-01" purity="8.2094383239746094e-01" nType="-99"/>
              <Node pos="r" depth="4" NCoef="0" IVar="-1" Cut="0.0000000000000000e+00" cType="1" res="-2.0178298291284591e-04" rms="3.3927536010742188e-01" purity="5.1801037788391113e-01" nType="-99"/>
            </Node>
          </Node>
          <Node pos="r" depth="2" NCoef="0" IVar="13" Cut="2.1789329051971436e+00" cType="1" res="5.9167118743062019e-03" rms="3.2000607252120972e-01" purity="3.2002821564674377e-01" nType="0">
            <Node pos="l" depth="3" NCoef="0" IVar="-1" Cut="0.0000000000000000e+00" cType="1" res="2.2439677268266678e-02" rms="3.0434891581535339e-01" purity="2.1018910408020020e-01" nType="-99"/>
            <Node pos="r" depth="3" NCoef="0" IVar="-1" Cut="0.0000000000000000e+00" cType="1" res="-7.7617247588932514e-03" rms="3.3379969000816345e-01" purity="4.2642948031425476e-01" nType="-99"/>
          </Node>
        </Node>
        <Node pos="r" depth="1" NCoef="0" IVar="17" Cut="3.1078956250000000e+05" cType="1" res="2.2279906552284956e-03" rms="2.8376525640487671e-01" purity="2.0795036852359772e-01" nType="0">
          <Node pos="l" depth="2" NCoef="0" IVar="17" Cut="1.9224856250000000e+05" cType="1" res="-1.2516408460214734e-03" rms="2.9982605576515198e-01" purity="2.2806215286254883e-01" nType="0">
            <Node pos="l" depth="3" NCoef="0" IVar="16" Cut="1.8180910348892212e+00" cType="1" res="6.5962057560682297e-03" rms="3.1378757953643799e-01" purity="2.4260772764682770e-01" nType="0">
              <Node pos="l" depth="4" NCoef="0" IVar="-1" Cut="0.0000000000000000e+00" cType="1" res="1.5042589977383614e-02" rms="3.2788616418838501e-01" purity="2.9448068141937256e-01" nType="-99"/>
              <Node pos="r" depth="4" NCoef="0" IVar="-1" Cut="0.0000000000000000e+00" cType="1" res="-8.2888305187225342e-03" rms="2.9085859656333923e-01" purity="1.6514578461647034e-01" nType="-99"/>
            </Node>
            <Node pos="r" depth="3" NCoef="0" IVar="-1" Cut="0.0000000000000000e+00" cType="1" res="-2.4843748658895493e-02" rms="2.6316991448402405e-01" purity="1.9384744763374329e-01" nType="-99"/>
          </Node>
          <Node pos="r" depth="2" NCoef="0" IVar="-1" Cut="0.0000000000000000e+00" cType="1" res="2.4690875783562660e-02" rms="2.2440747916698456e-01" purity="1.4357593655586243e-01" nType="-99"/>
        </Node>
      </Node>
    </BinaryTree>
    <BinaryTree type="DecisionTree" boostWeight="1.0000000000000000e+00" itree="288">
      <Node pos="s" depth="0" NCoef="0" IVar="12" Cut="2.3394594192504883e+00" cType="1" res="-3.0665769372717477e-06" rms="3.3567234873771667e-01" purity="5.0000000000000000e-01" nType="0">
        <Node pos="l" depth="1" NCoef="0" IVar="9" Cut="1.2766714843750000e+05" cType="1" res="6.9606729084625840e-04" rms="3.5619205236434937e-01" purity="4.2162412405014038e-01" nType="0">
          <Node pos="l" depth="2" NCoef="0" IVar="6" Cut="2.9388771875000000e+05" cType="1" res="2.0996199455112219e-03" rms="3.6660623550415039e-01" purity="4.4944855570793152e-01" nType="0">
            <Node pos="l" depth="3" NCoef="0" IVar="7" Cut="2.4442011718750000e+04" cType="1" res="2.9250369407236576e-03" rms="3.7267172336578369e-01" purity="4.6649512648582458e-01" nType="0">
              <Node pos="l" depth="4" NCoef="0" IVar="-1" Cut="0.0000000000000000e+00" cType="1" res="-6.3052400946617126e-03" rms="3.3532786369323730e-01" purity="6.1313432455062866e-01" nType="-99"/>
              <Node pos="r" depth="4" NCoef="0" IVar="-1" Cut="0.0000000000000000e+00" cType="1" res="4.2421254329383373e-03" rms="3.8419121503829956e-01" purity="4.1786327958106995e-01" nType="-99"/>
            </Node>
            <Node pos="r" depth="3" NCoef="0" IVar="-1" Cut="0.0000000000000000e+00" cType="1" res="-2.7075354009866714e-02" rms="2.0814977586269379e-01" purity="1.0433791577816010e-01" nType="-99"/>
          </Node>
          <Node pos="r" depth="2" NCoef="0" IVar="2" Cut="7.4982387500000000e+05" cType="1" res="-7.9379696398973465e-03" rms="2.8369188308715820e-01" purity="2.5046035647392273e-01" nType="0">
            <Node pos="l" depth="3" NCoef="0" IVar="8" Cut="6.9843710937500000e+04" cType="1" res="-2.0040482282638550e-02" rms="3.1281602382659912e-01" purity="3.3220010995864868e-01" nType="0">
              <Node pos="l" depth="4" NCoef="0" IVar="-1" Cut="0.0000000000000000e+00" cType="1" res="-2.3295072838664055e-02" rms="3.6807692050933838e-01" purity="5.1356405019760132e-01" nType="-99"/>
              <Node pos="r" depth="4" NCoef="0" IVar="-1" Cut="0.0000000000000000e+00" cType="1" res="-2.8682316187769175e-03" rms="2.1494416892528534e-01" purity="8.6122773587703705e-02" nType="-99"/>
            </Node>
            <Node pos="r" depth="3" NCoef="0" IVar="-1" Cut="0.0000000000000000e+00" cType="1" res="1.6315473243594170e-02" rms="2.3518854379653931e-01" purity="1.3441374897956848e-01" nType="-99"/>
          </Node>
        </Node>
        <Node pos="r" depth="1" NCoef="0" IVar="0" Cut="7.3333334922790527e+00" cType="1" res="-3.0654080910608172e-04" rms="3.2636356353759766e-01" purity="5.3402078151702881e-01" nType="0">
          <Node pos="l" depth="2" NCoef="0" IVar="12" Cut="2.4978995323181152e+00" cType="1" res="2.3864973627496511e-04" rms="3.2242494821548462e-01" purity="5.7802891731262207e-01" nType="0">
            <Node pos="l" depth="3" NCoef="0" IVar="18" Cut="8.2567039062500000e+04" cType="1" res="5.3142164833843708e-03" rms="3.4391584992408752e-01" purity="5.7384234666824341e-01" nType="0">
              <Node pos="l" depth="4" NCoef="0" IVar="-1" Cut="0.0000000000000000e+00" cType="1" res="9.9816266447305679e-03" rms="3.6800485849380493e-01" purity="5.7745617628097534e-01" nType="-99"/>
              <Node pos="r" depth="4" NCoef="0" IVar="-1" Cut="0.0000000000000000e+00" cType="1" res="-5.1517691463232040e-03" rms="3.0908015370368958e-01" purity="5.6909203529357910e-01" nType="-99"/>
            </Node>
            <Node pos="r" depth="3" NCoef="0" IVar="15" Cut="1.0307458639144897e+00" cType="1" res="-3.8151707849465311e-04" rms="3.1969448924064636e-01" purity="5.7854050397872925e-01" nType="0">
              <Node pos="l" depth="4" NCoef="0" IVar="-1" Cut="0.0000000000000000e+00" cType="1" res="-3.8494968321174383e-03" rms="3.4680619835853577e-01" purity="5.2974438667297363e-01" nType="-99"/>
              <Node pos="r" depth="4" NCoef="0" IVar="-1" Cut="0.0000000000000000e+00" cType="1" res="4.5222911285236478e-04" rms="3.1422075629234314e-01" purity="5.8789825439453125e-01" nType="-99"/>
            </Node>
          </Node>
          <Node pos="r" depth="2" NCoef="0" IVar="18" Cut="7.9267929687500000e+04" cType="1" res="0.0000000000000000e+00" rms="0.0000000000000000e+00" purity="3.7077602744102478e-01" nType="0">
            <Node pos="l" depth="3" NCoef="0" IVar="14" Cut="1.3739511966705322e+00" cType="1" res="0.0000000000000000e+00" rms="0.0000000000000000e+00" purity="3.5801637172698975e-01" nType="0">
              <Node pos="l" depth="4" NCoef="0" IVar="-1" Cut="0.0000000000000000e+00" cType="1" res="4.2136698029935360e-03" rms="3.6408996582031250e-01" purity="3.7103122472763062e-01" nType="-99"/>
              <Node pos="r" depth="4" NCoef="0" IVar="-1" Cut="0.0000000000000000e+00" cType="1" res="-1.1016483418643475e-02" rms="3.4289360046386719e-01" purity="3.4950944781303406e-01" nType="-99"/>
            </Node>
            <Node pos="r" depth="3" NCoef="0" IVar="15" Cut="1.9476945400238037e+00" cType="1" res="0.0000000000000000e+00" rms="0.0000000000000000e+00" purity="3.8848614692687988e-01" nType="0">
              <Node pos="l" depth="4" NCoef="0" IVar="-1" Cut="0.0000000000000000e+00" cType="1" res="-1.1989108286798000e-02" rms="3.0456155538558960e-01" purity="2.7030262351036072e-01" nType="-99"/>
              <Node pos="r" depth="4" NCoef="0" IVar="-1" Cut="0.0000000000000000e+00" cType="1" res="7.6842452399432659e-03" rms="3.3164417743682861e-01" purity="4.3262952566146851e-01" nType="-99"/>
            </Node>
          </Node>
        </Node>
      </Node>
    </BinaryTree>
    <BinaryTree type="DecisionTree" boostWeight="1.0000000000000000e+00" itree="289">
      <Node pos="s" depth="0" NCoef="0" IVar="11" Cut="7.3745375871658325e-01" cType="1" res="-2.9642101253557485e-06" rms="3.3562728762626648e-01" purity="5.0000000000000000e-01" nType="0">
        <Node pos="l" depth="1" NCoef="0" IVar="2" Cut="3.1807462500000000e+05" cType="1" res="8.1562774721533060e-04" rms="3.2439652085304260e-01" purity="6.6764646768569946e-01" nType="0">
          <Node pos="l" depth="2" NCoef="0" IVar="6" Cut="1.1048395312500000e+05" cType="1" res="3.9003924466669559e-03" rms="3.3268663287162781e-01" purity="7.0126271247863770e-01" nType="0">
            <Node pos="l" depth="3" NCoef="0" IVar="20" Cut="1.5209544921875000e+04" cType="1" res="2.0726872608065605e-02" rms="3.7794926762580872e-01" purity="4.4733878970146179e-01" nType="0">
              <Node pos="l" depth="4" NCoef="0" IVar="-1" Cut="0.0000000000000000e+00" cType="1" res="1.9659104291349649e-03" rms="3.6090436577796936e-01" purity="3.7266507744789124e-01" nType="-99"/>
              <Node pos="r" depth="4" NCoef="0" IVar="-1" Cut="0.0000000000000000e+00" cType="1" res="2.4760307744145393e-02" rms="3.9441698789596558e-01" purity="5.2695244550704956e-01" nType="-99"/>
            </Node>
            <Node pos="r" depth="3" NCoef="0" IVar="20" Cut="1.9048488281250000e+04" cType="1" res="-2.0167257171124220e-03" rms="3.1501546502113342e-01" purity="7.9055631160736084e-01" nType="0">
              <Node pos="l" depth="4" NCoef="0" IVar="-1" Cut="0.0000000000000000e+00" cType="1" res="-1.5966733917593956e-02" rms="3.4445545077323914e-01" purity="6.6259646415710449e-01" nType="-99"/>
              <Node pos="r" depth="4" NCoef="0" IVar="-1" Cut="0.0000000000000000e+00" cType="1" res="5.8615193702280521e-03" rms="3.0137637257575989e-01" purity="8.4463965892791748e-01" nType="-99"/>
            </Node>
          </Node>
          <Node pos="r" depth="2" NCoef="0" IVar="4" Cut="3.2257253125000000e+05" cType="1" res="-5.6957686319947243e-04" rms="3.2059448957443237e-01" purity="6.5255117416381836e-01" nType="0">
            <Node pos="l" depth="3" NCoef="0" IVar="4" Cut="2.4712570312500000e+05" cType="1" res="-7.4672824703156948e-03" rms="3.4059235453605652e-01" purity="6.9073975086212158e-01" nType="0">
              <Node pos="l" depth="4" NCoef="0" IVar="-1" Cut="0.0000000000000000e+00" cType="1" res="9.6510732546448708e-03" rms="3.7176883220672607e-01" purity="6.0615140199661255e-01" nType="-99"/>
              <Node pos="r" depth="4" NCoef="0" IVar="-1" Cut="0.0000000000000000e+00" cType="1" res="-1.3366696424782276e-02" rms="3.2860490679740906e-01" purity="7.2046273946762085e-01" nType="-99"/>
            </Node>
            <Node pos="r" depth="3" NCoef="0" IVar="15" Cut="1.4579292535781860e+00" cType="1" res="1.4780987985432148e-03" rms="3.1438398361206055e-01" purity="6.4121443033218384e-01" nType="0">
              <Node pos="l" depth="4" NCoef="0" IVar="-1" Cut="0.0000000000000000e+00" cType="1" res="6.8435729481279850e-03" rms="3.4159910678863525e-01" purity="5.9002637863159180e-01" nType="-99"/>
              <Node pos="r" depth="4" NCoef="0" IVar="-1" Cut="0.0000000000000000e+00" cType="1" res="-7.3998252628371119e-04" rms="3.0528512597084045e-01" purity="6.5732264518737793e-01" nType="-99"/>
            </Node>
          </Node>
        </Node>
        <Node pos="r" depth="1" NCoef="0" IVar="12" Cut="1.2315862178802490e+00" cType="1" res="-3.7754364893771708e-04" rms="3.4064224362373352e-01" purity="4.2328667640686035e-01" nType="0">
          <Node pos="l" depth="2" NCoef="0" IVar="-1" Cut="0.0000000000000000e+00" cType="1" res="5.4397182539105415e-03" rms="3.5938569903373718e-01" purity="2.8171971440315247e-01" nType="-99"/>
          <Node pos="r" depth="2" NCoef="0" IVar="12" Cut="1.8875459432601929e+00" cType="1" res="-5.2480935119092464e-04" rms="3.4026747941970825e-01" purity="4.2602759599685669e-01" nType="0">
            <Node pos="l" depth="3" NCoef="0" IVar="19" Cut="8.6628234375000000e+04" cType="1" res="-4.0660919621586800e-03" rms="3.5455563664436340e-01" purity="3.8518768548965454e-01" nType="0">
              <Node pos="l" depth="4" NCoef="0" IVar="-1" Cut="0.0000000000000000e+00" cType="1" res="-7.6909842900931835e-03" rms="3.6990284919738770e-01" purity="4.7994321584701538e-01" nType="-99"/>
              <Node pos="r" depth="4" NCoef="0" IVar="-1" Cut="0.0000000000000000e+00" cType="1" res="5.9191081672906876e-03" rms="3.2959684729576111e-01" purity="2.4131092429161072e-01" nType="-99"/>
            </Node>
            <Node pos="r" depth="3" NCoef="0" IVar="12" Cut="2.0749592781066895e+00" cType="1" res="-7.7040967880748212e-05" rms="3.3841526508331299e-01" purity="4.3119144439697266e-01" nType="0">
              <Node pos="l" depth="4" NCoef="0" IVar="-1" Cut="0.0000000000000000e+00" cType="1" res="5.5773137137293816e-03" rms="3.5362935066223145e-01" purity="4.5310953259468079e-01" nType="-99"/>
              <Node pos="r" depth="4" NCoef="0" IVar="-1" Cut="0.0000000000000000e+00" cType="1" res="-5.3179025417193770e-04" rms="3.3726021647453308e-01" purity="4.2957621812820435e-01" nType="-99"/>
            </Node>
          </Node>
        </Node>
      </Node>
    </BinaryTree>
    <BinaryTree type="DecisionTree" boostWeight="1.0000000000000000e+00" itree="290">
      <Node pos="s" depth="0" NCoef="0" IVar="15" Cut="2.5411450862884521e+00" cType="1" res="-1.6489592553625698e-06" rms="3.3558249473571777e-01" purity="5.0000000000000000e-01" nType="0">
        <Node pos="l" depth="1" NCoef="0" IVar="16" Cut="4.9126183986663818e-01" cType="1" res="2.5795956025831401e-04" rms="3.4171757102012634e-01" purity="4.9447363615036011e-01" nType="0">
          <Node pos="l" depth="2" NCoef="0" IVar="19" Cut="1.1686736328125000e+04" cType="1" res="-3.9438758976757526e-03" rms="2.9309833049774170e-01" purity="7.1231871843338013e-01" nType="0">
            <Node pos="l" depth="3" NCoef="0" IVar="-1" Cut="0.0000000000000000e+00" cType="1" res="-1.3655691407620907e-02" rms="3.6319008469581604e-01" purity="4.3420016765594482e-01" nType="-99"/>
            <Node pos="r" depth="3" NCoef="0" IVar="-1" Cut="0.0000000000000000e+00" cType="1" res="2.2005881182849407e-03" rms="2.5881135463714600e-01" purity="8.2608807086944580e-01" nType="-99"/>
          </Node>
          <Node pos="r" depth="2" NCoef="0" IVar="13" Cut="3.0167870521545410e+00" cType="1" res="4.5647454680874944e-04" rms="3.4384328126907349e-01" purity="4.8418158292770386e-01" nType="0">
            <Node pos="l" depth="3" NCoef="0" IVar="12" Cut="2.5829746723175049e+00" cType="1" res="-1.5560834435746074e-04" rms="3.4202897548675537e-01" purity="4.5434990525245667e-01" nType="0">
              <Node pos="l" depth="4" NCoef="0" IVar="-1" Cut="0.0000000000000000e+00" cType="1" res="-1.3357785064727068e-03" rms="3.5641786456108093e-01" purity="4.3186736106872559e-01" nType="-99"/>
              <Node pos="r" depth="4" NCoef="0" IVar="-1" Cut="0.0000000000000000e+00" cType="1" res="1.1137714609503746e-03" rms="3.2891306281089783e-01" purity="4.7402659058570862e-01" nType="-99"/>
            </Node>
            <Node pos="r" depth="3" NCoef="0" IVar="14" Cut="7.0867347717285156e-01" cType="1" res="2.3666196502745152e-03" rms="3.4943780303001404e-01" purity="5.7727837562561035e-01" nType="0">
              <Node pos="l" depth="4" NCoef="0" IVar="-1" Cut="0.0000000000000000e+00" cType="1" res="-9.3800816684961319e-03" rms="3.5502892732620239e-01" purity="5.4231619834899902e-01" nType="-99"/>
              <Node pos="r" depth="4" NCoef="0" IVar="-1" Cut="0.0000000000000000e+00" cType="1" res="3.0225466471165419e-03" rms="3.4884893894195557e-01" purity="5.8071231842041016e-01" nType="-99"/>
            </Node>
          </Node>
        </Node>
        <Node pos="r" depth="1" NCoef="0" IVar="13" Cut="2.9652848243713379e+00" cType="1" res="-8.6516211740672588e-04" rms="3.1431394815444946e-01" purity="5.1838177442550659e-01" nType="0">
          <Node pos="l" depth="2" NCoef="0" IVar="10" Cut="5.3626574218750000e+04" cType="1" res="7.6023233123123646e-04" rms="3.1609195470809937e-01" purity="4.6218800544738770e-01" nType="0">
            <Node pos="l" depth="3" NCoef="0" IVar="1" Cut="4.4526234375000000e+04" cType="1" res="-6.3689472153782845e-03" rms="3.4837326407432556e-01" purity="2.6446506381034851e-01" nType="0">
              <Node pos="l" depth="4" NCoef="0" IVar="-1" Cut="0.0000000000000000e+00" cType="1" res="3.6141639575362206e-03" rms="3.1706139445304871e-01" purity="1.7499616742134094e-01" nType="-99"/>
              <Node pos="r" depth="4" NCoef="0" IVar="-1" Cut="0.0000000000000000e+00" cType="1" res="-1.2045539915561676e-02" rms="3.8194420933723450e-01" purity="3.7088373303413391e-01" nType="-99"/>
            </Node>
            <Node pos="r" depth="3" NCoef="0" IVar="20" Cut="5.6307742187500000e+04" cType="1" res="2.6890977751463652e-03" rms="3.0674615502357483e-01" purity="5.1568377017974854e-01" nType="0">
              <Node pos="l" depth="4" NCoef="0" IVar="-1" Cut="0.0000000000000000e+00" cType="1" res="7.0176818408071995e-03" rms="3.3256283402442932e-01" purity="6.9885033369064331e-01" nType="-99"/>
              <Node pos="r" depth="4" NCoef="0" IVar="-1" Cut="0.0000000000000000e+00" cType="1" res="-8.4126098081469536e-03" rms="2.6014995574951172e-01" purity="2.2392652928829193e-01" nType="-99"/>
            </Node>
          </Node>
          <Node pos="r" depth="2" NCoef="0" IVar="6" Cut="1.3762707812500000e+05" cType="1" res="-5.1978360861539841e-03" rms="3.0948290228843689e-01" purity="6.6817253828048706e-01" nType="0">
            <Node pos="l" depth="3" NCoef="0" IVar="-1" Cut="0.0000000000000000e+00" cType="1" res="-1.4655566774308681e-02" rms="3.5997095704078674e-01" purity="6.4729714393615723e-01" nType="-99"/>
            <Node pos="r" depth="3" NCoef="0" IVar="13" Cut="3.3503789901733398e+00" cType="1" res="4.8449414316564798e-04" rms="2.8710141777992249e-01" purity="6.7634856700897217e-01" nType="0">
              <Node pos="l" depth="4" NCoef="0" IVar="-1" Cut="0.0000000000000000e+00" cType="1" res="-5.8410642668604851e-03" rms="2.8013285994529724e-01" purity="7.2616994380950928e-01" nType="-99"/>
              <Node pos="r" depth="4" NCoef="0" IVar="-1" Cut="0.0000000000000000e+00" cType="1" res="1.3097292743623257e-02" rms="3.0179631710052490e-01" purity="5.6476032733917236e-01" nType="-99"/>
            </Node>
          </Node>
        </Node>
      </Node>
    </BinaryTree>
    <BinaryTree type="DecisionTree" boostWeight="1.0000000000000000e+00" itree="291">
      <Node pos="s" depth="0" NCoef="0" IVar="0" Cut="3.3333332538604736e+00" cType="1" res="-9.0770822680497076e-07" rms="3.3555212616920471e-01" purity="5.0000000000000000e-01" nType="0">
        <Node pos="l" depth="1" NCoef="0" IVar="4" Cut="2.9891609375000000e+05" cType="1" res="-6.4276985358446836e-04" rms="3.4754914045333862e-01" purity="4.7118261456489563e-01" nType="0">
          <Node pos="l" depth="2" NCoef="0" IVar="6" Cut="2.0816706250000000e+05" cType="1" res="-3.2976020593196154e-03" rms="3.7320092320442200e-01" purity="4.9970829486846924e-01" nType="0">
            <Node pos="l" depth="3" NCoef="0" IVar="11" Cut="1.6546926498413086e+00" cType="1" res="-4.6634264290332794e-03" rms="3.7709355354309082e-01" purity="4.9210110306739807e-01" nType="0">
              <Node pos="l" depth="4" NCoef="0" IVar="-1" Cut="0.0000000000000000e+00" cType="1" res="-5.4319561459124088e-03" rms="3.8714468479156494e-01" purity="5.8218705654144287e-01" nType="-99"/>
              <Node pos="r" depth="4" NCoef="0" IVar="-1" Cut="0.0000000000000000e+00" cType="1" res="2.9471791349351406e-03" rms="3.5419243574142456e-01" purity="2.9695680737495422e-01" nType="-99"/>
            </Node>
            <Node pos="r" depth="3" NCoef="0" IVar="-1" Cut="0.0000000000000000e+00" cType="1" res="1.3200921937823296e-02" rms="3.1837105751037598e-01" purity="5.9760659933090210e-01" nType="-99"/>
          </Node>
          <Node pos="r" depth="2" NCoef="0" IVar="2" Cut="3.8432715625000000e+05" cType="1" res="2.0354955922812223e-03" rms="3.1956908106803894e-01" purity="4.4240516424179077e-01" nType="0">
            <Node pos="l" depth="3" NCoef="0" IVar="16" Cut="1.3137832880020142e+00" cType="1" res="1.9382450729608536e-02" rms="3.3745181560516357e-01" purity="6.8113321065902710e-01" nType="0">
              <Node pos="l" depth="4" NCoef="0" IVar="-1" Cut="0.0000000000000000e+00" cType="1" res="1.2002756819128990e-02" rms="3.0171042680740356e-01" purity="7.9981940984725952e-01" nType="-99"/>
              <Node pos="r" depth="4" NCoef="0" IVar="-1" Cut="0.0000000000000000e+00" cType="1" res="2.1274030208587646e-02" rms="3.9414620399475098e-01" purity="4.6412935853004456e-01" nType="-99"/>
            </Node>
            <Node pos="r" depth="3" NCoef="0" IVar="8" Cut="6.6974390625000000e+04" cType="1" res="-1.9818656146526337e-03" rms="3.1514686346054077e-01" purity="3.8711839914321899e-01" nType="0">
              <Node pos="l" depth="4" NCoef="0" IVar="-1" Cut="0.0000000000000000e+00" cType="1" res="-3.9883372373878956e-03" rms="3.6562076210975647e-01" purity="5.8602195978164673e-01" nType="-99"/>
              <Node pos="r" depth="4" NCoef="0" IVar="-1" Cut="0.0000000000000000e+00" cType="1" res="5.9866439551115036e-03" rms="2.2549918293952942e-01" purity="1.0681774467229843e-01" nType="-99"/>
            </Node>
          </Node>
        </Node>
        <Node pos="r" depth="1" NCoef="0" IVar="15" Cut="3.1936867237091064e+00" cType="1" res="3.2731165993027389e-04" rms="3.2924804091453552e-01" purity="5.1473593711853027e-01" nType="0">
          <Node pos="l" depth="2" NCoef="0" IVar="14" Cut="3.1500356197357178e+00" cType="1" res="5.5401265854015946e-04" rms="3.2936555147171021e-01" purity="5.1739311218261719e-01" nType="0">
            <Node pos="l" depth="3" NCoef="0" IVar="14" Cut="1.3525445461273193e+00" cType="1" res="2.7793346089310944e-04" rms="3.2942557334899902e-01" purity="5.1814466714859009e-01" nType="0">
              <Node pos="l" depth="4" NCoef="0" IVar="-1" Cut="0.0000000000000000e+00" cType="1" res="2.1865856833755970e-03" rms="3.4461161494255066e-01" purity="4.6361553668975830e-01" nType="-99"/>
              <Node pos="r" depth="4" NCoef="0" IVar="-1" Cut="0.0000000000000000e+00" cType="1" res="-6.2772125238552690e-04" rms="3.2308769226074219e-01" purity="5.4015827178955078e-01" nType="-99"/>
            </Node>
            <Node pos="r" depth="3" NCoef="0" IVar="-1" Cut="0.0000000000000000e+00" cType="1" res="9.9458703771233559e-03" rms="3.2706311345100403e-01" purity="4.9056923389434814e-01" nType="-99"/>
          </Node>
          <Node pos="r" depth="2" NCoef="0" IVar="-1" Cut="0.0000000000000000e+00" cType="1" res="-6.7101782187819481e-03" rms="3.2503014802932739e-01" purity="4.2217978835105896e-01" nType="-99"/>
        </Node>
      </Node>
    </BinaryTree>
    <BinaryTree type="DecisionTree" boostWeight="1.0000000000000000e+00" itree="292">
      <Node pos="s" depth="0" NCoef="0" IVar="14" Cut="1.2873336076736450e+00" cType="1" res="-3.2279731954076851e-07" rms="3.3552512526512146e-01" purity="5.0000000000000000e-01" nType="0">
        <Node pos="l" depth="1" NCoef="0" IVar="16" Cut="2.8335232734680176e+00" cType="1" res="-9.2820893041789532e-04" rms="3.4738558530807495e-01" purity="4.4710662961006165e-01" nType="0">
          <Node pos="l" depth="2" NCoef="0" IVar="16" Cut="8.1638115644454956e-01" cType="1" res="-1.7952061025425792e-03" rms="3.4830632805824280e-01" purity="4.5910558104515076e-01" nType="0">
            <Node pos="l" depth="3" NCoef="0" IVar="11" Cut="1.4732214212417603e+00" cType="1" res="5.8765946887433529e-03" rms="3.1005197763442993e-01" purity="7.0242458581924438e-01" nType="0">
              <Node pos="l" depth="4" NCoef="0" IVar="-1" Cut="0.0000000000000000e+00" cType="1" res="-9.6494180615991354e-04" rms="2.9690673947334290e-01" purity="7.7541512250900269e-01" nType="-99"/>
              <Node pos="r" depth="4" NCoef="0" IVar="-1" Cut="0.0000000000000000e+00" cType="1" res="2.1601529791951180e-02" rms="3.4621837735176086e-01" purity="4.8009070754051208e-01" nType="-99"/>
            </Node>
            <Node pos="r" depth="3" NCoef="0" IVar="18" Cut="8.4500156250000000e+04" cType="1" res="-3.4396811388432980e-03" rms="3.5595011711120605e-01" purity="4.0694940090179443e-01" nType="0">
              <Node pos="l" depth="4" NCoef="0" IVar="-1" Cut="0.0000000000000000e+00" cType="1" res="-7.9183129128068686e-04" rms="3.7143230438232422e-01" purity="4.6007370948791504e-01" nType="-99"/>
              <Node pos="r" depth="4" NCoef="0" IVar="-1" Cut="0.0000000000000000e+00" cType="1" res="-1.1583261191844940e-02" rms="2.9666107892990112e-01" purity="2.2480447590351105e-01" nType="-99"/>
            </Node>
          </Node>
          <Node pos="r" depth="2" NCoef="0" IVar="19" Cut="1.2932296875000000e+05" cType="1" res="9.0232267975807190e-03" rms="3.3647695183753967e-01" purity="3.0938196182250977e-01" nType="0">
            <Node pos="l" depth="3" NCoef="0" IVar="-1" Cut="0.0000000000000000e+00" cType="1" res="1.0662233456969261e-02" rms="3.3870947360992432e-01" purity="3.5718002915382385e-01" nType="-99"/>
            <Node pos="r" depth="3" NCoef="0" IVar="-1" Cut="0.0000000000000000e+00" cType="1" res="3.8033169694244862e-03" rms="3.3411961793899536e-01" purity="2.6051905751228333e-01" nType="-99"/>
          </Node>
        </Node>
        <Node pos="r" depth="1" NCoef="0" IVar="13" Cut="2.4680671691894531e+00" cType="1" res="3.1510321423411369e-04" rms="3.3139604330062866e-01" purity="5.1798057556152344e-01" nType="0">
          <Node pos="l" depth="2" NCoef="0" IVar="14" Cut="1.6577423810958862e+00" cType="1" res="1.5504518523812294e-03" rms="3.3408612012863159e-01" purity="3.7176239490509033e-01" nType="0">
            <Node pos="l" depth="3" NCoef="0" IVar="0" Cut="2.3333332538604736e+00" cType="1" res="7.1872309781610966e-03" rms="3.4277427196502686e-01" purity="3.3447355031967163e-01" nType="0">
              <Node pos="l" depth="4" NCoef="0" IVar="-1" Cut="0.0000000000000000e+00" cType="1" res="-6.5118637867271900e-03" rms="3.3795312047004700e-01" purity="2.8547871112823486e-01" nType="-99"/>
              <Node pos="r" depth="4" NCoef="0" IVar="-1" Cut="0.0000000000000000e+00" cType="1" res="1.0227466002106667e-02" rms="3.4421682357788086e-01" purity="3.5075241327285767e-01" nType="-99"/>
            </Node>
            <Node pos="r" depth="3" NCoef="0" IVar="13" Cut="2.3505787849426270e+00" cType="1" res="9.9761236924678087e-05" rms="3.3179780840873718e-01" purity="3.8135915994644165e-01" nType="0">
              <Node pos="l" depth="4" NCoef="0" IVar="-1" Cut="0.0000000000000000e+00" cType="1" res="-8.5450790356844664e-04" rms="3.3156010508537292e-01" purity="3.5386112332344055e-01" nType="-99"/>
              <Node pos="r" depth="4" NCoef="0" IVar="-1" Cut="0.0000000000000000e+00" cType="1" res="6.9980327971279621e-03" rms="3.3347466588020325e-01" purity="5.8961993455886841e-01" nType="-99"/>
            </Node>
          </Node>
          <Node pos="r" depth="2" NCoef="0" IVar="12" Cut="3.6423256397247314e+00" cType="1" res="-6.7793321795761585e-04" rms="3.2921433448791504e-01" purity="6.3551825284957886e-01" nType="0">
            <Node pos="l" depth="3" NCoef="0" IVar="11" Cut="2.4356725215911865e+00" cType="1" res="-1.3457230525091290e-03" rms="3.2966339588165283e-01" purity="6.4470994472503662e-01" nType="0">
              <Node pos="l" depth="4" NCoef="0" IVar="-1" Cut="0.0000000000000000e+00" cType="1" res="-1.7269547097384930e-03" rms="3.3000358939170837e-01" purity="6.5621352195739746e-01" nType="-99"/>
              <Node pos="r" depth="4" NCoef="0" IVar="-1" Cut="0.0000000000000000e+00" cType="1" res="2.2833142429590225e-02" rms="3.1635189056396484e-01" purity="2.3070451617240906e-01" nType="-99"/>
            </Node>
            <Node pos="r" depth="3" NCoef="0" IVar="13" Cut="3.2518153190612793e+00" cType="1" res="8.9435968548059464e-03" rms="3.2252109050750732e-01" purity="5.0308352708816528e-01" nType="0">
              <Node pos="l" depth="4" NCoef="0" IVar="-1" Cut="0.0000000000000000e+00" cType="1" res="2.2228723391890526e-02" rms="3.2578352093696594e-01" purity="4.9348539113998413e-01" nType="-99"/>
              <Node pos="r" depth="4" NCoef="0" IVar="-1" Cut="0.0000000000000000e+00" cType="1" res="-2.4246140383183956e-03" rms="3.1958287954330444e-01" purity="5.1017487049102783e-01" nType="-99"/>
            </Node>
          </Node>
        </Node>
      </Node>
    </BinaryTree>
    <BinaryTree type="DecisionTree" boostWeight="1.0000000000000000e+00" itree="293">
      <Node pos="s" depth="0" NCoef="0" IVar="11" Cut="9.7634357213973999e-01" cType="1" res="-5.5619784689042717e-07" rms="3.3548802137374878e-01" purity="5.0000000000000000e-01" nType="0">
        <Node pos="l" depth="1" NCoef="0" IVar="7" Cut="1.2201020312500000e+05" cType="1" res="6.8115128669887781e-04" rms="3.3357307314872742e-01" purity="6.4255952835083008e-01" nType="0">
          <Node pos="l" depth="2" NCoef="0" IVar="7" Cut="1.1038796093750000e+05" cType="1" res="1.5016400720924139e-03" rms="3.3728292584419250e-01" purity="6.2652873992919922e-01" nType="0">
            <Node pos="l" depth="3" NCoef="0" IVar="21" Cut="6.8334382812500000e+04" cType="1" res="4.1150482138618827e-04" rms="3.3708196878433228e-01" purity="6.2686741352081299e-01" nType="0">
              <Node pos="l" depth="4" NCoef="0" IVar="-1" Cut="0.0000000000000000e+00" cType="1" res="1.4555385569110513e-03" rms="3.4022098779678345e-01" purity="6.6296857595443726e-01" nType="-99"/>
              <Node pos="r" depth="4" NCoef="0" IVar="-1" Cut="0.0000000000000000e+00" cType="1" res="-9.9519547075033188e-03" rms="3.1124943494796753e-01" purity="3.4463587403297424e-01" nType="-99"/>
            </Node>
            <Node pos="r" depth="3" NCoef="0" IVar="-1" Cut="0.0000000000000000e+00" cType="1" res="1.7828069627285004e-02" rms="3.4036883711814880e-01" purity="6.2021374702453613e-01" nType="-99"/>
          </Node>
          <Node pos="r" depth="2" NCoef="0" IVar="8" Cut="2.6033357421875000e+04" cType="1" res="-4.9888812936842442e-03" rms="3.0665197968482971e-01" purity="7.5334107875823975e-01" nType="0">
            <Node pos="l" depth="3" NCoef="0" IVar="-1" Cut="0.0000000000000000e+00" cType="1" res="-1.7129432410001755e-02" rms="3.2921770215034485e-01" purity="7.3707920312881470e-01" nType="-99"/>
            <Node pos="r" depth="3" NCoef="0" IVar="13" Cut="2.6582360267639160e+00" cType="1" res="1.1682035401463509e-03" rms="2.9576909542083740e-01" purity="7.6063245534896851e-01" nType="0">
              <Node pos="l" depth="4" NCoef="0" IVar="-1" Cut="0.0000000000000000e+00" cType="1" res="1.4714865945279598e-02" rms="3.2287245988845825e-01" purity="6.5293616056442261e-01" nType="-99"/>
              <Node pos="r" depth="4" NCoef="0" IVar="-1" Cut="0.0000000000000000e+00" cType="1" res="-7.6819332316517830e-03" rms="2.7994897961616516e-01" purity="8.1810939311981201e-01" nType="-99"/>
            </Node>
          </Node>
        </Node>
        <Node pos="r" depth="1" NCoef="0" IVar="14" Cut="2.0570728778839111e+00" cType="1" res="-5.7567068142816424e-04" rms="3.3709400892257690e-01" purity="3.7973135709762573e-01" nType="0">
          <Node pos="l" depth="2" NCoef="0" IVar="17" Cut="6.1270457031250000e+04" cType="1" res="-1.7670707311481237e-03" rms="3.4128159284591675e-01" purity="3.5345423221588135e-01" nType="0">
            <Node pos="l" depth="3" NCoef="0" IVar="17" Cut="3.4870906250000000e+04" cType="1" res="1.5970574459061027e-03" rms="3.5870167613029480e-01" purity="4.0601810812950134e-01" nType="0">
              <Node pos="l" depth="4" NCoef="0" IVar="-1" Cut="0.0000000000000000e+00" cType="1" res="-1.1306949891149998e-03" rms="3.5173958539962769e-01" purity="3.9854872226715088e-01" nType="-99"/>
              <Node pos="r" depth="4" NCoef="0" IVar="-1" Cut="0.0000000000000000e+00" cType="1" res="5.1165092736482620e-03" rms="3.7072664499282837e-01" purity="4.1933608055114746e-01" nType="-99"/>
            </Node>
            <Node pos="r" depth="3" NCoef="0" IVar="6" Cut="1.8321567187500000e+05" cType="1" res="-8.4308916702866554e-03" rms="3.0373063683509827e-01" purity="2.4933321774005890e-01" nType="0">
              <Node pos="l" depth="4" NCoef="0" IVar="-1" Cut="0.0000000000000000e+00" cType="1" res="-1.2268577702343464e-02" rms="3.5862651467323303e-01" purity="3.5770198702812195e-01" nType="-99"/>
              <Node pos="r" depth="4" NCoef="0" IVar="-1" Cut="0.0000000000000000e+00" cType="1" res="-1.4611531696573365e-05" rms="2.3324024677276611e-01" purity="1.3693711161613464e-01" nType="-99"/>
            </Node>
          </Node>
          <Node pos="r" depth="2" NCoef="0" IVar="15" Cut="2.2992093563079834e+00" cType="1" res="1.3722253497689962e-03" rms="3.3012378215789795e-01" purity="4.2269355058670044e-01" nType="0">
            <Node pos="l" depth="3" NCoef="0" IVar="14" Cut="2.5842001438140869e+00" cType="1" res="4.4236802496016026e-03" rms="3.3578985929489136e-01" purity="4.1059589385986328e-01" nType="0">
              <Node pos="l" depth="4" NCoef="0" IVar="-1" Cut="0.0000000000000000e+00" cType="1" res="7.5019830837845802e-03" rms="3.4501898288726807e-01" purity="4.1966679692268372e-01" nType="-99"/>
              <Node pos="r" depth="4" NCoef="0" IVar="-1" Cut="0.0000000000000000e+00" cType="1" res="-2.6435174513608217e-03" rms="3.2112738490104675e-01" purity="3.9682272076606750e-01" nType="-99"/>
            </Node>
            <Node pos="r" depth="3" NCoef="0" IVar="14" Cut="2.2159173488616943e+00" cType="1" res="-3.0546407215297222e-03" rms="3.2167497277259827e-01" purity="4.4024410843849182e-01" nType="0">
              <Node pos="l" depth="4" NCoef="0" IVar="-1" Cut="0.0000000000000000e+00" cType="1" res="-2.0894438028335571e-02" rms="3.0735665559768677e-01" purity="3.8359686732292175e-01" nType="-99"/>
              <Node pos="r" depth="4" NCoef="0" IVar="-1" Cut="0.0000000000000000e+00" cType="1" res="1.1520900443429127e-04" rms="3.2388797402381897e-01" purity="4.4967618584632874e-01" nType="-99"/>
            </Node>
          </Node>
        </Node>
      </Node>
    </BinaryTree>
    <BinaryTree type="DecisionTree" boostWeight="1.0000000000000000e+00" itree="294">
      <Node pos="s" depth="0" NCoef="0" IVar="11" Cut="9.7634357213973999e-01" cType="1" res="2.5874737730191555e-07" rms="3.3543664216995239e-01" purity="5.0000000000000000e-01" nType="0">
        <Node pos="l" depth="1" NCoef="0" IVar="15" Cut="2.8393890857696533e+00" cType="1" res="5.4695620201528072e-04" rms="3.3351585268974304e-01" purity="6.4255952835083008e-01" nType="0">
          <Node pos="l" depth="2" NCoef="0" IVar="15" Cut="2.7045710086822510e+00" cType="1" res="1.2611288111656904e-03" rms="3.3617460727691650e-01" purity="6.4470964670181274e-01" nType="0">
            <Node pos="l" depth="3" NCoef="0" IVar="14" Cut="2.2684991359710693e+00" cType="1" res="3.3962205634452403e-04" rms="3.3798253536224365e-01" purity="6.4198124408721924e-01" nType="0">
              <Node pos="l" depth="4" NCoef="0" IVar="-1" Cut="0.0000000000000000e+00" cType="1" res="1.6074577579274774e-03" rms="3.4563240408897400e-01" purity="6.3340055942535400e-01" nType="-99"/>
              <Node pos="r" depth="4" NCoef="0" IVar="-1" Cut="0.0000000000000000e+00" cType="1" res="-4.1611674241721630e-03" rms="3.1561067700386047e-01" purity="6.6592490673065186e-01" nType="-99"/>
            </Node>
            <Node pos="r" depth="3" NCoef="0" IVar="-1" Cut="0.0000000000000000e+00" cType="1" res="1.3984004966914654e-02" rms="3.0996236205101013e-01" purity="6.8223756551742554e-01" nType="-99"/>
          </Node>
          <Node pos="r" depth="2" NCoef="0" IVar="16" Cut="2.0416178703308105e+00" cType="1" res="-4.2500048875808716e-03" rms="3.1503459811210632e-01" purity="6.2811720371246338e-01" nType="0">
            <Node pos="l" depth="3" NCoef="0" IVar="19" Cut="7.0345632812500000e+04" cType="1" res="1.4745504595339298e-03" rms="3.0672821402549744e-01" purity="7.6032060384750366e-01" nType="0">
              <Node pos="l" depth="4" NCoef="0" IVar="-1" Cut="0.0000000000000000e+00" cType="1" res="8.1279221922159195e-03" rms="2.8924489021301270e-01" purity="8.3916074037551880e-01" nType="-99"/>
              <Node pos="r" depth="4" NCoef="0" IVar="-1" Cut="0.0000000000000000e+00" cType="1" res="-1.2911775149405003e-02" rms="3.5464075207710266e-01" purity="5.1756137609481812e-01" nType="-99"/>
            </Node>
            <Node pos="r" depth="3" NCoef="0" IVar="-1" Cut="0.0000000000000000e+00" cType="1" res="-1.4935384504497051e-02" rms="3.3535167574882507e-01" purity="2.8191763162612915e-01" nType="-99"/>
          </Node>
        </Node>
        <Node pos="r" depth="1" NCoef="0" IVar="10" Cut="1.1646107812500000e+05" cType="1" res="-4.6095612924546003e-04" rms="3.3704787492752075e-01" purity="3.7973135709762573e-01" nType="0">
          <Node pos="l" depth="2" NCoef="0" IVar="9" Cut="9.6909265625000000e+04" cType="1" res="6.9831998553127050e-04" rms="3.5194543004035950e-01" purity="3.9533007144927979e-01" nType="0">
            <Node pos="l" depth="3" NCoef="0" IVar="9" Cut="3.7322304687500000e+04" cType="1" res="-2.4174689315259457e-03" rms="3.7535971403121948e-01" purity="4.3517479300498962e-01" nType="0">
              <Node pos="l" depth="4" NCoef="0" IVar="-1" Cut="0.0000000000000000e+00" cType="1" res="-1.7079066485166550e-02" rms="3.9547306299209595e-01" purity="4.3992966413497925e-01" nType="-99"/>
              <Node pos="r" depth="4" NCoef="0" IVar="-1" Cut="0.0000000000000000e+00" cType="1" res="3.5775420838035643e-04" rms="3.7298959493637085e-01" purity="4.3465778231620789e-01" nType="-99"/>
            </Node>
            <Node pos="r" depth="3" NCoef="0" IVar="15" Cut="7.5158786773681641e-01" cType="1" res="4.8264916986227036e-03" rms="3.1823450326919556e-01" purity="3.4253901243209839e-01" nType="0">
              <Node pos="l" depth="4" NCoef="0" IVar="-1" Cut="0.0000000000000000e+00" cType="1" res="-2.2164888679981232e-02" rms="3.3501920104026794e-01" purity="2.8251558542251587e-01" nType="-99"/>
              <Node pos="r" depth="4" NCoef="0" IVar="-1" Cut="0.0000000000000000e+00" cType="1" res="7.3305284604430199e-03" rms="3.1656378507614136e-01" purity="3.4781742095947266e-01" nType="-99"/>
            </Node>
          </Node>
          <Node pos="r" depth="2" NCoef="0" IVar="13" Cut="2.7245454788208008e+00" cType="1" res="-2.3786565288901329e-03" rms="3.1083098053932190e-01" purity="3.5392764210700989e-01" nType="0">
            <Node pos="l" depth="3" NCoef="0" IVar="16" Cut="2.2424788475036621e+00" cType="1" res="-8.8367033749818802e-03" rms="2.7398791909217834e-01" purity="2.4001909792423248e-01" nType="0">
              <Node pos="l" depth="4" NCoef="0" IVar="-1" Cut="0.0000000000000000e+00" cType="1" res="-4.9838996492326260e-03" rms="2.8388500213623047e-01" purity="2.8435775637626648e-01" nType="-99"/>
              <Node pos="r" depth="4" NCoef="0" IVar="-1" Cut="0.0000000000000000e+00" cType="1" res="-2.9072595760226250e-02" rms="2.4524879455566406e-01" purity="1.2178264558315277e-01" nType="-99"/>
            </Node>
            <Node pos="r" depth="3" NCoef="0" IVar="12" Cut="2.2525913715362549e+00" cType="1" res="1.7317704623565078e-03" rms="3.3209398388862610e-01" purity="4.2642831802368164e-01" nType="0">
              <Node pos="l" depth="4" NCoef="0" IVar="-1" Cut="0.0000000000000000e+00" cType="1" res="1.0036514140665531e-02" rms="3.4862452745437622e-01" purity="5.0514000654220581e-01" nType="-99"/>
              <Node pos="r" depth="4" NCoef="0" IVar="-1" Cut="0.0000000000000000e+00" cType="1" res="-1.4396221376955509e-03" rms="3.2688495516777039e-01" purity="4.0276390314102173e-01" nType="-99"/>
            </Node>
          </Node>
        </Node>
      </Node>
    </BinaryTree>
    <BinaryTree type="DecisionTree" boostWeight="1.0000000000000000e+00" itree="295">
      <Node pos="s" depth="0" NCoef="0" IVar="12" Cut="1.8035128116607666e+00" cType="1" res="-5.5442870916522224e-07" rms="3.3538058400154114e-01" purity="5.0000000000000000e-01" nType="0">
        <Node pos="l" depth="1" NCoef="0" IVar="21" Cut="9.7137742187500000e+04" cType="1" res="1.6008424572646618e-03" rms="3.5281717777252197e-01" purity="3.3634012937545776e-01" nType="0">
          <Node pos="l" depth="2" NCoef="0" IVar="18" Cut="1.7043406250000000e+05" cType="1" res="3.6362588871270418e-03" rms="3.6526978015899658e-01" purity="3.6296275258064270e-01" nType="0">
            <Node pos="l" depth="3" NCoef="0" IVar="18" Cut="2.4038695312500000e+04" cType="1" res="8.5457530803978443e-04" rms="3.6967107653617859e-01" purity="3.8701036572456360e-01" nType="0">
              <Node pos="l" depth="4" NCoef="0" IVar="-1" Cut="0.0000000000000000e+00" cType="1" res="-9.9625270813703537e-03" rms="3.5023018717765808e-01" purity="3.4195730090141296e-01" nType="-99"/>
              <Node pos="r" depth="4" NCoef="0" IVar="-1" Cut="0.0000000000000000e+00" cType="1" res="4.7334074042737484e-03" rms="3.7769761681556702e-01" purity="4.0672969818115234e-01" nType="-99"/>
            </Node>
            <Node pos="r" depth="3" NCoef="0" IVar="13" Cut="1.3012970685958862e+00" cType="1" res="1.6475176438689232e-02" rms="3.4393551945686340e-01" purity="2.5197029113769531e-01" nType="0">
              <Node pos="l" depth="4" NCoef="0" IVar="-1" Cut="0.0000000000000000e+00" cType="1" res="2.7942631393671036e-02" rms="3.4238460659980774e-01" purity="1.9770011305809021e-01" nType="-99"/>
              <Node pos="r" depth="4" NCoef="0" IVar="-1" Cut="0.0000000000000000e+00" cType="1" res="2.0258275326341391e-03" rms="3.4498584270477295e-01" purity="3.0818837881088257e-01" nType="-99"/>
            </Node>
          </Node>
          <Node pos="r" depth="2" NCoef="0" IVar="-1" Cut="0.0000000000000000e+00" cType="1" res="-5.1429104059934616e-02" rms="1.6211569309234619e-01" purity="4.5585494488477707e-02" nType="-99"/>
        </Node>
        <Node pos="r" depth="1" NCoef="0" IVar="12" Cut="1.9949320554733276e+00" cType="1" res="-2.3866385163273662e-04" rms="3.3270928263664246e-01" purity="5.2433437108993530e-01" nType="0">
          <Node pos="l" depth="2" NCoef="0" IVar="2" Cut="3.1559718750000000e+05" cType="1" res="-4.9373195506632328e-03" rms="3.5380277037620544e-01" purity="4.4793608784675598e-01" nType="0">
            <Node pos="l" depth="3" NCoef="0" IVar="-1" Cut="0.0000000000000000e+00" cType="1" res="4.8438697122037411e-03" rms="3.8671314716339111e-01" purity="5.7120031118392944e-01" nType="-99"/>
            <Node pos="r" depth="3" NCoef="0" IVar="10" Cut="1.3270539062500000e+05" cType="1" res="-1.4054861851036549e-02" rms="3.2694128155708313e-01" purity="3.5643535852432251e-01" nType="0">
              <Node pos="l" depth="4" NCoef="0" IVar="-1" Cut="0.0000000000000000e+00" cType="1" res="-2.1571788936853409e-02" rms="3.2517182826995850e-01" purity="3.5181486606597900e-01" nType="-99"/>
              <Node pos="r" depth="4" NCoef="0" IVar="-1" Cut="0.0000000000000000e+00" cType="1" res="7.1942918002605438e-03" rms="3.2855182886123657e-01" purity="3.6385762691497803e-01" nType="-99"/>
            </Node>
          </Node>
          <Node pos="r" depth="2" NCoef="0" IVar="14" Cut="3.3399713039398193e+00" cType="1" res="3.7880810850765556e-05" rms="3.3142390847206116e-01" purity="5.2883088588714600e-01" nType="0">
            <Node pos="l" depth="3" NCoef="0" IVar="14" Cut="7.9856920242309570e-01" cType="1" res="-1.2198921467643231e-04" rms="3.3135971426963806e-01" purity="5.2982366085052490e-01" nType="0">
              <Node pos="l" depth="4" NCoef="0" IVar="-1" Cut="0.0000000000000000e+00" cType="1" res="2.6787142269313335e-03" rms="3.4900328516960144e-01" purity="4.5825240015983582e-01" nType="-99"/>
              <Node pos="r" depth="4" NCoef="0" IVar="-1" Cut="0.0000000000000000e+00" cType="1" res="-4.5155372936278582e-04" rms="3.2932832837104797e-01" purity="5.3781652450561523e-01" nType="-99"/>
            </Node>
            <Node pos="r" depth="3" NCoef="0" IVar="-1" Cut="0.0000000000000000e+00" cType="1" res="8.5509773343801498e-03" rms="3.3509951829910278e-01" purity="4.6949425339698792e-01" nType="-99"/>
          </Node>
        </Node>
      </Node>
    </BinaryTree>
    <BinaryTree type="DecisionTree" boostWeight="1.0000000000000000e+00" itree="296">
      <Node pos="s" depth="0" NCoef="0" IVar="12" Cut="2.3394594192504883e+00" cType="1" res="-2.5398833258805098e-06" rms="3.3534699678421021e-01" purity="5.0000000000000000e-01" nType="0">
        <Node pos="l" depth="1" NCoef="0" IVar="13" Cut="8.7369322776794434e-01" cType="1" res="8.4223737940192223e-04" rms="3.5575768351554871e-01" purity="4.2162412405014038e-01" nType="0">
          <Node pos="l" depth="2" NCoef="0" IVar="13" Cut="6.6585505008697510e-01" cType="1" res="-6.4878114499151707e-03" rms="3.2552132010459900e-01" purity="2.0100724697113037e-01" nType="0">
            <Node pos="l" depth="3" NCoef="0" IVar="16" Cut="2.2348148822784424e+00" cType="1" res="4.1101318784058094e-03" rms="3.3187559247016907e-01" purity="2.0744830369949341e-01" nType="0">
              <Node pos="l" depth="4" NCoef="0" IVar="-1" Cut="0.0000000000000000e+00" cType="1" res="-6.8648909218609333e-03" rms="3.2519394159317017e-01" purity="2.1635496616363525e-01" nType="-99"/>
              <Node pos="r" depth="4" NCoef="0" IVar="-1" Cut="0.0000000000000000e+00" cType="1" res="1.6133906319737434e-02" rms="3.3880653977394104e-01" purity="1.9727700948715210e-01" nType="-99"/>
            </Node>
            <Node pos="r" depth="3" NCoef="0" IVar="-1" Cut="0.0000000000000000e+00" cType="1" res="-1.8808431923389435e-02" rms="3.1539195775985718e-01" purity="1.9161747395992279e-01" nType="-99"/>
          </Node>
          <Node pos="r" depth="2" NCoef="0" IVar="15" Cut="7.3969864845275879e-01" cType="1" res="1.9227436278015375e-03" rms="3.5998743772506714e-01" purity="4.5414477586746216e-01" nType="0">
            <Node pos="l" depth="3" NCoef="0" IVar="11" Cut="1.1481766700744629e+00" cType="1" res="1.4895263127982616e-02" rms="3.8299313187599182e-01" purity="5.3437727689743042e-01" nType="0">
              <Node pos="l" depth="4" NCoef="0" IVar="-1" Cut="0.0000000000000000e+00" cType="1" res="1.8761385232210159e-02" rms="3.9572250843048096e-01" purity="5.3890556097030640e-01" nType="-99"/>
              <Node pos="r" depth="4" NCoef="0" IVar="-1" Cut="0.0000000000000000e+00" cType="1" res="1.3690396444872022e-03" rms="3.6950683593750000e-01" purity="5.2989333868026733e-01" nType="-99"/>
            </Node>
            <Node pos="r" depth="3" NCoef="0" IVar="9" Cut="1.2775989843750000e+05" cType="1" res="7.4704806320369244e-04" rms="3.5780608654022217e-01" purity="4.4687327742576599e-01" nType="0">
              <Node pos="l" depth="4" NCoef="0" IVar="-1" Cut="0.0000000000000000e+00" cType="1" res="1.6196523793041706e-03" rms="3.6935985088348389e-01" purity="4.8003250360488892e-01" nType="-99"/>
              <Node pos="r" depth="4" NCoef="0" IVar="-1" Cut="0.0000000000000000e+00" cType="1" res="-9.0633882209658623e-03" rms="2.8518891334533691e-01" purity="2.6293322443962097e-01" nType="-99"/>
            </Node>
          </Node>
        </Node>
        <Node pos="r" depth="1" NCoef="0" IVar="0" Cut="7.3333334922790527e+00" cType="1" res="-3.6923377774655819e-04" rms="3.2608923316001892e-01" purity="5.3402078151702881e-01" nType="0">
          <Node pos="l" depth="2" NCoef="0" IVar="14" Cut="1.4805370569229126e+00" cType="1" res="1.2421142309904099e-04" rms="3.2216858863830566e-01" purity="5.7802891731262207e-01" nType="0">
            <Node pos="l" depth="3" NCoef="0" IVar="17" Cut="7.8826398437500000e+04" cType="1" res="-2.2214888595044613e-03" rms="3.3767929673194885e-01" purity="4.9479183554649353e-01" nType="0">
              <Node pos="l" depth="4" NCoef="0" IVar="-1" Cut="0.0000000000000000e+00" cType="1" res="1.7498550732852891e-05" rms="3.4458762407302856e-01" purity="5.2287185192108154e-01" nType="-99"/>
              <Node pos="r" depth="4" NCoef="0" IVar="-1" Cut="0.0000000000000000e+00" cType="1" res="-1.8797511234879494e-02" rms="2.9033836722373962e-01" purity="3.1902933120727539e-01" nType="-99"/>
            </Node>
            <Node pos="r" depth="3" NCoef="0" IVar="15" Cut="7.7769839763641357e-01" cType="1" res="1.3513929443433881e-03" rms="3.1374162435531616e-01" purity="6.2157547473907471e-01" nType="0">
              <Node pos="l" depth="4" NCoef="0" IVar="-1" Cut="0.0000000000000000e+00" cType="1" res="1.1146831326186657e-02" rms="3.5503742098808289e-01" purity="3.7068063020706177e-01" nType="-99"/>
              <Node pos="r" depth="4" NCoef="0" IVar="-1" Cut="0.0000000000000000e+00" cType="1" res="7.7349093044176698e-04" rms="3.1184035539627075e-01" purity="6.3231337070465088e-01" nType="-99"/>
            </Node>
          </Node>
          <Node pos="r" depth="2" NCoef="0" IVar="4" Cut="2.4259206250000000e+05" cType="1" res="0.0000000000000000e+00" rms="0.0000000000000000e+00" purity="3.7077602744102478e-01" nType="0">
            <Node pos="l" depth="3" NCoef="0" IVar="6" Cut="1.5300759375000000e+05" cType="1" res="0.0000000000000000e+00" rms="0.0000000000000000e+00" purity="3.3574318885803223e-01" nType="0">
              <Node pos="l" depth="4" NCoef="0" IVar="-1" Cut="0.0000000000000000e+00" cType="1" res="-9.5286723226308823e-03" rms="3.7500712275505066e-01" purity="3.1109553575515747e-01" nType="-99"/>
              <Node pos="r" depth="4" NCoef="0" IVar="-1" Cut="0.0000000000000000e+00" cType="1" res="1.2037940323352814e-02" rms="3.5488852858543396e-01" purity="4.2936393618583679e-01" nType="-99"/>
            </Node>
            <Node pos="r" depth="3" NCoef="0" IVar="11" Cut="8.2761108875274658e-01" cType="1" res="0.0000000000000000e+00" rms="0.0000000000000000e+00" purity="3.9139205217361450e-01" nType="0">
              <Node pos="l" depth="4" NCoef="0" IVar="-1" Cut="0.0000000000000000e+00" cType="1" res="-5.9904484078288078e-03" rms="3.5006922483444214e-01" purity="6.2879037857055664e-01" nType="-99"/>
              <Node pos="r" depth="4" NCoef="0" IVar="-1" Cut="0.0000000000000000e+00" cType="1" res="6.7443000152707100e-03" rms="3.0199652910232544e-01" purity="2.5270998477935791e-01" nType="-99"/>
            </Node>
          </Node>
        </Node>
      </Node>
    </BinaryTree>
    <BinaryTree type="DecisionTree" boostWeight="1.0000000000000000e+00" itree="297">
      <Node pos="s" depth="0" NCoef="0" IVar="11" Cut="7.3745375871658325e-01" cType="1" res="-2.9898023967689369e-06" rms="3.3530610799789429e-01" purity="5.0000000000000000e-01" nType="0">
        <Node pos="l" depth="1" NCoef="0" IVar="11" Cut="6.3506704568862915e-01" cType="1" res="7.8703474719077349e-04" rms="3.2408478856086731e-01" purity="6.6764646768569946e-01" nType="0">
          <Node pos="l" depth="2" NCoef="0" IVar="0" Cut="6.3333334922790527e+00" cType="1" res="1.8128844676539302e-03" rms="3.1901362538337708e-01" purity="6.8256825208663940e-01" nType="0">
            <Node pos="l" depth="3" NCoef="0" IVar="5" Cut="2.8891603125000000e+05" cType="1" res="4.0627927519381046e-03" rms="2.9748967289924622e-01" purity="7.5639456510543823e-01" nType="0">
              <Node pos="l" depth="4" NCoef="0" IVar="-1" Cut="0.0000000000000000e+00" cType="1" res="6.0322699137032032e-03" rms="2.9088824987411499e-01" purity="7.9574126005172729e-01" nType="-99"/>
              <Node pos="r" depth="4" NCoef="0" IVar="-1" Cut="0.0000000000000000e+00" cType="1" res="-4.0677902288734913e-03" rms="3.3416482806205750e-01" purity="5.2079176902770996e-01" nType="-99"/>
            </Node>
            <Node pos="r" depth="3" NCoef="0" IVar="13" Cut="1.4548645019531250e+00" cType="1" res="-2.1435993257910013e-03" rms="3.5366621613502502e-01" purity="5.5274403095245361e-01" nType="0">
              <Node pos="l" depth="4" NCoef="0" IVar="-1" Cut="0.0000000000000000e+00" cType="1" res="1.3737956993281841e-02" rms="3.3549544215202332e-01" purity="1.8567387759685516e-01" nType="-99"/>
              <Node pos="r" depth="4" NCoef="0" IVar="-1" Cut="0.0000000000000000e+00" cType="1" res="-3.7869655061513186e-03" rms="3.5662701725959778e-01" purity="6.1618506908416748e-01" nType="-99"/>
            </Node>
          </Node>
          <Node pos="r" depth="2" NCoef="0" IVar="5" Cut="2.7141721875000000e+05" cType="1" res="-3.0294777825474739e-03" rms="3.4226527810096741e-01" purity="6.1213225126266479e-01" nType="0">
            <Node pos="l" depth="3" NCoef="0" IVar="6" Cut="1.2003883593750000e+05" cType="1" res="-7.0324176922440529e-03" rms="3.4409421682357788e-01" purity="6.5717715024948120e-01" nType="0">
              <Node pos="l" depth="4" NCoef="0" IVar="-1" Cut="0.0000000000000000e+00" cType="1" res="6.2469192780554295e-03" rms="3.7814933061599731e-01" purity="4.7278055548667908e-01" nType="-99"/>
              <Node pos="r" depth="4" NCoef="0" IVar="-1" Cut="0.0000000000000000e+00" cType="1" res="-1.1114663444459438e-02" rms="3.3225789666175842e-01" purity="7.1634250879287720e-01" nType="-99"/>
            </Node>
            <Node pos="r" depth="3" NCoef="0" IVar="-1" Cut="0.0000000000000000e+00" cType="1" res="1.3929038308560848e-02" rms="3.3277374505996704e-01" purity="3.9795356988906860e-01" nType="-99"/>
          </Node>
        </Node>
        <Node pos="r" depth="1" NCoef="0" IVar="9" Cut="4.2437840625000000e+05" cType="1" res="-3.6449707113206387e-04" rms="3.4031689167022705e-01" purity="4.2328667640686035e-01" nType="0">
          <Node pos="l" depth="2" NCoef="0" IVar="17" Cut="2.0780539062500000e+05" cType="1" res="-4.9381662392988801e-04" rms="3.4265458583831787e-01" purity="4.2962729930877686e-01" nType="0">
            <Node pos="l" depth="3" NCoef="0" IVar="6" Cut="1.2464279687500000e+05" cType="1" res="6.9049398007337004e-05" rms="3.4755808115005493e-01" purity="4.4485309720039368e-01" nType="0">
              <Node pos="l" depth="4" NCoef="0" IVar="-1" Cut="0.0000000000000000e+00" cType="1" res="-2.2600200027227402e-03" rms="3.8528534770011902e-01" purity="4.7171556949615479e-01" nType="-99"/>
              <Node pos="r" depth="4" NCoef="0" IVar="-1" Cut="0.0000000000000000e+00" cType="1" res="1.6482790233567357e-03" rms="3.2713922858238220e-01" purity="4.3147736787796021e-01" nType="-99"/>
            </Node>
            <Node pos="r" depth="3" NCoef="0" IVar="20" Cut="9.0404929687500000e+04" cType="1" res="-9.4883721321821213e-03" rms="2.5148153305053711e-01" purity="1.8632036447525024e-01" nType="0">
              <Node pos="l" depth="4" NCoef="0" IVar="-1" Cut="0.0000000000000000e+00" cType="1" res="-1.7345817759633064e-02" rms="3.2855266332626343e-01" purity="3.3076587319374084e-01" nType="-99"/>
              <Node pos="r" depth="4" NCoef="0" IVar="-1" Cut="0.0000000000000000e+00" cType="1" res="1.9200906157493591e-02" rms="1.0435490310192108e-01" purity="1.7981534823775291e-02" nType="-99"/>
            </Node>
          </Node>
          <Node pos="r" depth="2" NCoef="0" IVar="-1" Cut="0.0000000000000000e+00" cType="1" res="3.6767687648534775e-02" rms="1.4364822208881378e-01" purity="4.5525442808866501e-02" nType="-99"/>
        </Node>
      </Node>
    </BinaryTree>
    <BinaryTree type="DecisionTree" boostWeight="1.0000000000000000e+00" itree="298">
      <Node pos="s" depth="0" NCoef="0" IVar="5" Cut="4.3468087500000000e+05" cType="1" res="-2.5891060886351625e-06" rms="3.3527189493179321e-01" purity="5.0000000000000000e-01" nType="0">
        <Node pos="l" depth="1" NCoef="0" IVar="14" Cut="3.0833916664123535e+00" cType="1" res="-1.2556280125863850e-04" rms="3.3780637383460999e-01" purity="5.1539814472198486e-01" nType="0">
          <Node pos="l" depth="2" NCoef="0" IVar="10" Cut="2.1378921875000000e+05" cType="1" res="9.1094654635526240e-05" rms="3.3844637870788574e-01" purity="5.1619863510131836e-01" nType="0">
            <Node pos="l" depth="3" NCoef="0" IVar="13" Cut="3.6348991394042969e+00" cType="1" res="5.1924563013017178e-04" rms="3.4348997473716736e-01" purity="5.2733105421066284e-01" nType="0">
              <Node pos="l" depth="4" NCoef="0" IVar="-1" Cut="0.0000000000000000e+00" cType="1" res="1.1219727457500994e-04" rms="3.4252959489822388e-01" purity="5.2621275186538696e-01" nType="-99"/>
              <Node pos="r" depth="4" NCoef="0" IVar="-1" Cut="0.0000000000000000e+00" cType="1" res="1.2047835625708103e-02" rms="3.8507938385009766e-01" purity="5.7930475473403931e-01" nType="-99"/>
            </Node>
            <Node pos="r" depth="3" NCoef="0" IVar="6" Cut="2.2795381250000000e+05" cType="1" res="-3.4588181879371405e-03" rms="2.9328250885009766e-01" purity="4.2389672994613647e-01" nType="0">
              <Node pos="l" depth="4" NCoef="0" IVar="-1" Cut="0.0000000000000000e+00" cType="1" res="-2.3872453719377518e-02" rms="3.2419639825820923e-01" purity="3.7622848153114319e-01" nType="-99"/>
              <Node pos="r" depth="4" NCoef="0" IVar="-1" Cut="0.0000000000000000e+00" cType="1" res="3.9893244393169880e-03" rms="2.8380885720252991e-01" purity="4.3699669837951660e-01" nType="-99"/>
            </Node>
          </Node>
          <Node pos="r" depth="2" NCoef="0" IVar="3" Cut="2.0987165625000000e+05" cType="1" res="-4.7327419742941856e-03" rms="3.2386362552642822e-01" purity="4.9837711453437805e-01" nType="0">
            <Node pos="l" depth="3" NCoef="0" IVar="6" Cut="1.3673409375000000e+05" cType="1" res="-1.2936200946569443e-02" rms="3.4456568956375122e-01" purity="5.0248718261718750e-01" nType="0">
              <Node pos="l" depth="4" NCoef="0" IVar="-1" Cut="0.0000000000000000e+00" cType="1" res="-1.4054650673642755e-03" rms="3.6342829465866089e-01" purity="5.0942790508270264e-01" nType="-99"/>
              <Node pos="r" depth="4" NCoef="0" IVar="-1" Cut="0.0000000000000000e+00" cType="1" res="-2.2785002365708351e-02" rms="3.2219842076301575e-01" purity="4.9487900733947754e-01" nType="-99"/>
            </Node>
            <Node pos="r" depth="3" NCoef="0" IVar="-1" Cut="0.0000000000000000e+00" cType="1" res="9.4158081337809563e-03" rms="2.8867965936660767e-01" purity="4.9205392599105835e-01" nType="-99"/>
          </Node>
        </Node>
        <Node pos="r" depth="1" NCoef="0" IVar="17" Cut="3.1078956250000000e+05" cType="1" res="2.3297951556742191e-03" rms="2.8292447328567505e-01" purity="2.0795036852359772e-01" nType="0">
          <Node pos="l" depth="2" NCoef="0" IVar="17" Cut="1.9224856250000000e+05" cType="1" res="-4.4042928493581712e-04" rms="2.9900714755058289e-01" purity="2.2806215286254883e-01" nType="0">
            <Node pos="l" depth="3" NCoef="0" IVar="10" Cut="1.1646107812500000e+05" cType="1" res="5.6699630804359913e-03" rms="3.1309875845909119e-01" purity="2.4260772764682770e-01" nType="0">
              <Node pos="l" depth="4" NCoef="0" IVar="-1" Cut="0.0000000000000000e+00" cType="1" res="1.3289337046444416e-02" rms="3.4900754690170288e-01" purity="2.7307182550430298e-01" nType="-99"/>
              <Node pos="r" depth="4" NCoef="0" IVar="-1" Cut="0.0000000000000000e+00" cType="1" res="-4.7320825979113579e-03" rms="2.7510562539100647e-01" purity="2.1422728896141052e-01" nType="-99"/>
            </Node>
            <Node pos="r" depth="3" NCoef="0" IVar="-1" Cut="0.0000000000000000e+00" cType="1" res="-1.8904335796833038e-02" rms="2.6233848929405212e-01" purity="1.9384744763374329e-01" nType="-99"/>
          </Node>
          <Node pos="r" depth="2" NCoef="0" IVar="-1" Cut="0.0000000000000000e+00" cType="1" res="2.0483428612351418e-02" rms="2.2357650101184845e-01" purity="1.4357593655586243e-01" nType="-99"/>
        </Node>
      </Node>
    </BinaryTree>
    <BinaryTree type="DecisionTree" boostWeight="1.0000000000000000e+00" itree="299">
      <Node pos="s" depth="0" NCoef="0" IVar="14" Cut="1.2873336076736450e+00" cType="1" res="-2.4485436824761564e-06" rms="3.3523467183113098e-01" purity="5.0000000000000000e-01" nType="0">
        <Node pos="l" depth="1" NCoef="0" IVar="16" Cut="2.8335232734680176e+00" cType="1" res="-9.3858427135273814e-04" rms="3.4714353084564209e-01" purity="4.4710662961006165e-01" nType="0">
          <Node pos="l" depth="2" NCoef="0" IVar="16" Cut="2.1611020565032959e+00" cType="1" res="-1.6575320623815060e-03" rms="3.4808680415153503e-01" purity="4.5910558104515076e-01" nType="0">
            <Node pos="l" depth="3" NCoef="0" IVar="16" Cut="1.9561779499053955e+00" cType="1" res="7.0679932832717896e-05" rms="3.4763187170028687e-01" purity="4.9904575943946838e-01" nType="0">
              <Node pos="l" depth="4" NCoef="0" IVar="-1" Cut="0.0000000000000000e+00" cType="1" res="-1.8068483332172036e-03" rms="3.4438377618789673e-01" purity="5.1801717281341553e-01" nType="-99"/>
              <Node pos="r" depth="4" NCoef="0" IVar="-1" Cut="0.0000000000000000e+00" cType="1" res="1.3153417035937309e-02" rms="3.7068840861320496e-01" purity="3.5632368922233582e-01" nType="-99"/>
            </Node>
            <Node pos="r" depth="3" NCoef="0" IVar="13" Cut="2.2324006557464600e+00" cType="1" res="-7.4251322075724602e-03" rms="3.4953895211219788e-01" purity="3.2581239938735962e-01" nType="0">
              <Node pos="l" depth="4" NCoef="0" IVar="-1" Cut="0.0000000000000000e+00" cType="1" res="6.5174750052392483e-03" rms="3.1170919537544250e-01" purity="2.0117455720901489e-01" nType="-99"/>
              <Node pos="r" depth="4" NCoef="0" IVar="-1" Cut="0.0000000000000000e+00" cType="1" res="-1.1530248448252678e-02" rms="3.7377953529357910e-01" purity="4.1436448693275452e-01" nType="-99"/>
            </Node>
          </Node>
          <Node pos="r" depth="2" NCoef="0" IVar="11" Cut="1.5377967357635498e+00" cType="1" res="7.3135350830852985e-03" rms="3.3601689338684082e-01" purity="3.0938196182250977e-01" nType="0">
            <Node pos="l" depth="3" NCoef="0" IVar="-1" Cut="0.0000000000000000e+00" cType="1" res="2.0425315015017986e-03" rms="3.7279778718948364e-01" purity="4.4292524456977844e-01" nType="-99"/>
            <Node pos="r" depth="3" NCoef="0" IVar="-1" Cut="0.0000000000000000e+00" cType="1" res="1.2970526702702045e-02" rms="2.9595184326171875e-01" purity="1.7984634637832642e-01" nType="-99"/>
          </Node>
        </Node>
        <Node pos="r" depth="1" NCoef="0" IVar="11" Cut="1.4541230201721191e+00" cType="1" res="3.1578179914504290e-04" rms="3.3108824491500854e-01" purity="5.1798057556152344e-01" nType="0">
          <Node pos="l" depth="2" NCoef="0" IVar="0" Cut="2.3333332538604736e+00" cType="1" res="9.8756304942071438e-04" rms="3.3663094043731689e-01" purity="6.0799843072891235e-01" nType="0">
            <Node pos="l" depth="3" NCoef="0" IVar="1" Cut="1.4060160937500000e+05" cType="1" res="-3.0317327473312616e-03" rms="3.5601437091827393e-01" purity="5.4621535539627075e-01" nType="0">
              <Node pos="l" depth="4" NCoef="0" IVar="-1" Cut="0.0000000000000000e+00" cType="1" res="-3.9736740291118622e-03" rms="3.5721376538276672e-01" purity="5.4059302806854248e-01" nType="-99"/>
              <Node pos="r" depth="4" NCoef="0" IVar="-1" Cut="0.0000000000000000e+00" cType="1" res="1.4619049616158009e-02" rms="3.4420967102050781e-01" purity="5.9740966558456421e-01" nType="-99"/>
            </Node>
            <Node pos="r" depth="3" NCoef="0" IVar="0" Cut="5.1428570747375488e+00" cType="1" res="2.2523989900946617e-03" rms="3.3028581738471985e-01" purity="6.2744104862213135e-01" nType="0">
              <Node pos="l" depth="4" NCoef="0" IVar="-1" Cut="0.0000000000000000e+00" cType="1" res="7.8725321218371391e-03" rms="2.7568122744560242e-01" purity="8.3880877494812012e-01" nType="-99"/>
              <Node pos="r" depth="4" NCoef="0" IVar="-1" Cut="0.0000000000000000e+00" cType="1" res="6.4193358412012458e-05" rms="3.5570156574249268e-01" purity="5.1598131656646729e-01" nType="-99"/>
            </Node>
          </Node>
          <Node pos="r" depth="2" NCoef="0" IVar="16" Cut="1.7487796545028687e+00" cType="1" res="-1.3202329864725471e-03" rms="3.1717899441719055e-01" purity="2.9875659942626953e-01" nType="0">
            <Node pos="l" depth="3" NCoef="0" IVar="12" Cut="2.0389742851257324e+00" cType="1" res="2.2776268888264894e-03" rms="3.2753953337669373e-01" purity="3.6434182524681091e-01" nType="0">
              <Node pos="l" depth="4" NCoef="0" IVar="-1" Cut="0.0000000000000000e+00" cType="1" res="-1.7475333064794540e-02" rms="3.4171456098556519e-01" purity="4.4517183303833008e-01" nType="-99"/>
              <Node pos="r" depth="4" NCoef="0" IVar="-1" Cut="0.0000000000000000e+00" cType="1" res="3.9210086688399315e-03" rms="3.2619997859001160e-01" purity="3.5735884308815002e-01" nType="-99"/>
            </Node>
            <Node pos="r" depth="3" NCoef="0" IVar="2" Cut="3.7603859375000000e+05" cType="1" res="-6.8555776961147785e-03" rms="3.0045849084854126e-01" purity="1.9785310328006744e-01" nType="0">
              <Node pos="l" depth="4" NCoef="0" IVar="-1" Cut="0.0000000000000000e+00" cType="1" res="-1.4617473818361759e-02" rms="3.4479916095733643e-01" purity="2.6680010557174683e-01" nType="-99"/>
              <Node pos="r" depth="4" NCoef="0" IVar="-1" Cut="0.0000000000000000e+00" cType="1" res="2.8690209146589041e-03" rms="2.6278409361839294e-01" purity="1.4717732369899750e-01" nType="-99"/>
            </Node>
          </Node>
        </Node>
      </Node>
    </BinaryTree>
    <BinaryTree type="DecisionTree" boostWeight="1.0000000000000000e+00" itree="300">
      <Node pos="s" depth="0" NCoef="0" IVar="12" Cut="2.3394594192504883e+00" cType="1" res="-1.9368044377188198e-06" rms="3.3519425988197327e-01" purity="5.0000000000000000e-01" nType="0">
        <Node pos="l" depth="1" NCoef="0" IVar="3" Cut="2.8713443750000000e+05" cType="1" res="6.6861457889899611e-04" rms="3.5558679699897766e-01" purity="4.2162412405014038e-01" nType="0">
          <Node pos="l" depth="2" NCoef="0" IVar="9" Cut="1.2189635937500000e+05" cType="1" res="-4.4243432057555765e-05" rms="3.6106550693511963e-01" purity="4.3801712989807129e-01" nType="0">
            <Node pos="l" depth="3" NCoef="0" IVar="7" Cut="5.7613976562500000e+04" cType="1" res="2.2054684814065695e-03" rms="3.6822307109832764e-01" purity="4.5581611990928650e-01" nType="0">
              <Node pos="l" depth="4" NCoef="0" IVar="-1" Cut="0.0000000000000000e+00" cType="1" res="-8.1979448441416025e-04" rms="3.7529921531677246e-01" purity="5.4014146327972412e-01" nType="-99"/>
              <Node pos="r" depth="4" NCoef="0" IVar="-1" Cut="0.0000000000000000e+00" cType="1" res="5.7317516766488552e-03" rms="3.5692352056503296e-01" purity="3.2523080706596375e-01" nType="-99"/>
            </Node>
            <Node pos="r" depth="3" NCoef="0" IVar="5" Cut="3.0873184375000000e+05" cType="1" res="-1.6331808641552925e-02" rms="3.0376780033111572e-01" purity="3.0915519595146179e-01" nType="0">
              <Node pos="l" depth="4" NCoef="0" IVar="-1" Cut="0.0000000000000000e+00" cType="1" res="-2.4857059121131897e-02" rms="3.1949618458747864e-01" purity="3.6650732159614563e-01" nType="-99"/>
              <Node pos="r" depth="4" NCoef="0" IVar="-1" Cut="0.0000000000000000e+00" cType="1" res="1.0059781372547150e-02" rms="2.6490235328674316e-01" purity="1.8487516045570374e-01" nType="-99"/>
            </Node>
          </Node>
          <Node pos="r" depth="2" NCoef="0" IVar="-1" Cut="0.0000000000000000e+00" cType="1" res="2.0892761647701263e-02" rms="2.4885711073875427e-01" purity="1.5288199484348297e-01" nType="-99"/>
        </Node>
        <Node pos="r" depth="1" NCoef="0" IVar="13" Cut="8.2276010513305664e-01" cType="1" res="-2.9300418100319803e-04" rms="3.2594516873359680e-01" purity="5.3402078151702881e-01" nType="0">
          <Node pos="l" depth="2" NCoef="0" IVar="-1" Cut="0.0000000000000000e+00" cType="1" res="7.5282067991793156e-03" rms="2.6317125558853149e-01" purity="1.3153682649135590e-01" nType="-99"/>
          <Node pos="r" depth="2" NCoef="0" IVar="11" Cut="2.0306975841522217e+00" cType="1" res="-4.3844358879141510e-04" rms="3.2741948962211609e-01" purity="5.4451358318328857e-01" nType="0">
            <Node pos="l" depth="3" NCoef="0" IVar="15" Cut="9.9066817760467529e-01" cType="1" res="6.5769403590820730e-05" rms="3.3673536777496338e-01" purity="6.2196660041809082e-01" nType="0">
              <Node pos="l" depth="4" NCoef="0" IVar="-1" Cut="0.0000000000000000e+00" cType="1" res="-3.1285963486880064e-03" rms="3.6365741491317749e-01" purity="5.7243078947067261e-01" nType="-99"/>
              <Node pos="r" depth="4" NCoef="0" IVar="-1" Cut="0.0000000000000000e+00" cType="1" res="7.0701667573302984e-04" rms="3.3189308643341064e-01" purity="6.3046187162399292e-01" nType="-99"/>
            </Node>
            <Node pos="r" depth="3" NCoef="0" IVar="1" Cut="8.3566031250000000e+04" cType="1" res="-2.8507497627288103e-03" rms="2.7855896949768066e-01" purity="1.7395550012588501e-01" nType="0">
              <Node pos="l" depth="4" NCoef="0" IVar="-1" Cut="0.0000000000000000e+00" cType="1" res="9.7527008620090783e-05" rms="2.7758508920669556e-01" purity="1.6115954518318176e-01" nType="-99"/>
              <Node pos="r" depth="4" NCoef="0" IVar="-1" Cut="0.0000000000000000e+00" cType="1" res="-1.6403796151280403e-02" rms="2.8212836384773254e-01" purity="2.2531993687152863e-01" nType="-99"/>
            </Node>
          </Node>
        </Node>
      </Node>
    </BinaryTree>
    <BinaryTree type="DecisionTree" boostWeight="1.0000000000000000e+00" itree="301">
      <Node pos="s" depth="0" NCoef="0" IVar="16" Cut="2.2361018657684326e+00" cType="1" res="-2.2564036044059321e-06" rms="3.3515819907188416e-01" purity="5.0000000000000000e-01" nType="0">
        <Node pos="l" depth="1" NCoef="0" IVar="19" Cut="9.1065351562500000e+04" cType="1" res="-2.2906302183400840e-04" rms="3.3337894082069397e-01" purity="5.5145055055618286e-01" nType="0">
          <Node pos="l" depth="2" NCoef="0" IVar="11" Cut="1.3517328500747681e+00" cType="1" res="5.0165003631263971e-04" rms="3.3297514915466309e-01" purity="6.1473941802978516e-01" nType="0">
            <Node pos="l" depth="3" NCoef="0" IVar="0" Cut="2.3333332538604736e+00" cType="1" res="-1.1579026468098164e-03" rms="3.2805106043815613e-01" purity="7.2698551416397095e-01" nType="0">
              <Node pos="l" depth="4" NCoef="0" IVar="-1" Cut="0.0000000000000000e+00" cType="1" res="-4.5166076160967350e-03" rms="3.5639119148254395e-01" purity="6.7684698104858398e-01" nType="-99"/>
              <Node pos="r" depth="4" NCoef="0" IVar="-1" Cut="0.0000000000000000e+00" cType="1" res="2.7031818171963096e-04" rms="3.1881156563758850e-01" purity="7.4241131544113159e-01" nType="-99"/>
            </Node>
            <Node pos="r" depth="3" NCoef="0" IVar="2" Cut="2.4976210937500000e+05" cType="1" res="3.7554912269115448e-03" rms="3.4240081906318665e-01" purity="3.9466151595115662e-01" nType="0">
              <Node pos="l" depth="4" NCoef="0" IVar="-1" Cut="0.0000000000000000e+00" cType="1" res="7.3356311768293381e-03" rms="3.7089866399765015e-01" purity="4.6855640411376953e-01" nType="-99"/>
              <Node pos="r" depth="4" NCoef="0" IVar="-1" Cut="0.0000000000000000e+00" cType="1" res="-1.0647413000697270e-04" rms="3.2557764649391174e-01" purity="3.5396426916122437e-01" nType="-99"/>
            </Node>
          </Node>
          <Node pos="r" depth="2" NCoef="0" IVar="6" Cut="2.1568593750000000e+05" cType="1" res="-3.1304461881518364e-03" rms="3.3496177196502686e-01" purity="3.0015480518341064e-01" nType="0">
            <Node pos="l" depth="3" NCoef="0" IVar="0" Cut="6.3333334922790527e+00" cType="1" res="-1.1024081148207188e-02" rms="3.7745058536529541e-01" purity="3.4586545825004578e-01" nType="0">
              <Node pos="l" depth="4" NCoef="0" IVar="-1" Cut="0.0000000000000000e+00" cType="1" res="-1.3781780377030373e-02" rms="3.8102295994758606e-01" purity="3.9871391654014587e-01" nType="-99"/>
              <Node pos="r" depth="4" NCoef="0" IVar="-1" Cut="0.0000000000000000e+00" cType="1" res="1.6927614342421293e-03" rms="3.7204539775848389e-01" purity="2.7300095558166504e-01" nType="-99"/>
            </Node>
            <Node pos="r" depth="3" NCoef="0" IVar="10" Cut="1.1677993750000000e+05" cType="1" res="4.6649849973618984e-03" rms="2.8667771816253662e-01" purity="2.5501281023025513e-01" nType="0">
              <Node pos="l" depth="4" NCoef="0" IVar="-1" Cut="0.0000000000000000e+00" cType="1" res="-1.8595857545733452e-02" rms="2.4072736501693726e-01" purity="1.3334408402442932e-01" nType="-99"/>
              <Node pos="r" depth="4" NCoef="0" IVar="-1" Cut="0.0000000000000000e+00" cType="1" res="9.5513081178069115e-03" rms="2.9697465896606445e-01" purity="2.8560182452201843e-01" nType="-99"/>
            </Node>
          </Node>
        </Node>
        <Node pos="r" depth="1" NCoef="0" IVar="5" Cut="1.7008951562500000e+05" cType="1" res="8.5606990614905953e-04" rms="3.4180638194084167e-01" purity="3.0529049038887024e-01" nType="0">
          <Node pos="l" depth="2" NCoef="0" IVar="12" Cut="2.1476359367370605e+00" cType="1" res="-2.3924815468490124e-03" rms="3.5045966506004333e-01" purity="3.3872127532958984e-01" nType="0">
            <Node pos="l" depth="3" NCoef="0" IVar="1" Cut="3.5338273437500000e+04" cType="1" res="8.5381278768181801e-03" rms="3.7509569525718689e-01" purity="3.6219716072082520e-01" nType="0">
              <Node pos="l" depth="4" NCoef="0" IVar="-1" Cut="0.0000000000000000e+00" cType="1" res="2.1907487884163857e-02" rms="3.4281545877456665e-01" purity="2.1208482980728149e-01" nType="-99"/>
              <Node pos="r" depth="4" NCoef="0" IVar="-1" Cut="0.0000000000000000e+00" cType="1" res="-1.2753572082147002e-03" rms="3.9472740888595581e-01" purity="4.6194908022880554e-01" nType="-99"/>
            </Node>
            <Node pos="r" depth="3" NCoef="0" IVar="1" Cut="1.0603838281250000e+05" cType="1" res="-6.2439325265586376e-03" rms="3.4127229452133179e-01" purity="3.3044943213462830e-01" nType="0">
              <Node pos="l" depth="4" NCoef="0" IVar="-1" Cut="0.0000000000000000e+00" cType="1" res="-7.0158625021576881e-03" rms="3.4108749032020569e-01" purity="2.9995355010032654e-01" nType="-99"/>
              <Node pos="r" depth="4" NCoef="0" IVar="-1" Cut="0.0000000000000000e+00" cType="1" res="9.8152598366141319e-03" rms="3.4200429916381836e-01" purity="5.5109751224517822e-01" nType="-99"/>
            </Node>
          </Node>
          <Node pos="r" depth="2" NCoef="0" IVar="13" Cut="2.9489095211029053e+00" cType="1" res="6.7346920259296894e-03" rms="3.2548069953918457e-01" purity="2.4479366838932037e-01" nType="0">
            <Node pos="l" depth="3" NCoef="0" IVar="12" Cut="2.6168961524963379e+00" cType="1" res="3.0441170092672110e-03" rms="3.1918099522590637e-01" purity="2.1753653883934021e-01" nType="0">
              <Node pos="l" depth="4" NCoef="0" IVar="-1" Cut="0.0000000000000000e+00" cType="1" res="-2.8473821002990007e-03" rms="3.1674820184707642e-01" purity="2.0310343801975250e-01" nType="-99"/>
              <Node pos="r" depth="4" NCoef="0" IVar="-1" Cut="0.0000000000000000e+00" cType="1" res="1.6967250034213066e-02" rms="3.2452452182769775e-01" purity="2.5253030657768250e-01" nType="-99"/>
            </Node>
            <Node pos="r" depth="3" NCoef="0" IVar="-1" Cut="0.0000000000000000e+00" cType="1" res="1.8515625968575478e-02" rms="3.5353454947471619e-01" purity="3.7517288327217102e-01" nType="-99"/>
          </Node>
        </Node>
      </Node>
    </BinaryTree>
    <BinaryTree type="DecisionTree" boostWeight="1.0000000000000000e+00" itree="302">
      <Node pos="s" depth="0" NCoef="0" IVar="16" Cut="9.9912786483764648e-01" cType="1" res="-3.1283875614462886e-06" rms="3.3510076999664307e-01" purity="5.0000000000000000e-01" nType="0">
        <Node pos="l" depth="1" NCoef="0" IVar="19" Cut="8.1751718750000000e+04" cType="1" res="-6.9712719414383173e-04" rms="3.0186581611633301e-01" purity="7.2007471323013306e-01" nType="0">
          <Node pos="l" depth="2" NCoef="0" IVar="19" Cut="4.2699867187500000e+04" cType="1" res="2.6392523432150483e-04" rms="3.0139496922492981e-01" purity="7.3999035358428955e-01" nType="0">
            <Node pos="l" depth="3" NCoef="0" IVar="4" Cut="2.0138764062500000e+05" cType="1" res="-2.7259809430688620e-03" rms="3.1717443466186523e-01" purity="6.9062560796737671e-01" nType="0">
              <Node pos="l" depth="4" NCoef="0" IVar="-1" Cut="0.0000000000000000e+00" cType="1" res="-7.7614109031856060e-03" rms="3.7242683768272400e-01" purity="5.6335884332656860e-01" nType="-99"/>
              <Node pos="r" depth="4" NCoef="0" IVar="-1" Cut="0.0000000000000000e+00" cType="1" res="4.3199889478273690e-04" rms="2.9407495260238647e-01" purity="7.3766684532165527e-01" nType="-99"/>
            </Node>
            <Node pos="r" depth="3" NCoef="0" IVar="16" Cut="8.8271701335906982e-01" cType="1" res="4.6076229773461819e-03" rms="2.7681559324264526e-01" purity="8.1170678138732910e-01" nType="0">
              <Node pos="l" depth="4" NCoef="0" IVar="-1" Cut="0.0000000000000000e+00" cType="1" res="9.8893456161022186e-03" rms="2.6592424511909485e-01" purity="8.3065861463546753e-01" nType="-99"/>
              <Node pos="r" depth="4" NCoef="0" IVar="-1" Cut="0.0000000000000000e+00" cType="1" res="-5.2071698009967804e-03" rms="3.1090128421783447e-01" purity="7.4705827236175537e-01" nType="-99"/>
            </Node>
          </Node>
          <Node pos="r" depth="2" NCoef="0" IVar="-1" Cut="0.0000000000000000e+00" cType="1" res="-1.5638070181012154e-02" rms="3.0901885032653809e-01" purity="3.9542677998542786e-01" nType="-99"/>
        </Node>
        <Node pos="r" depth="1" NCoef="0" IVar="2" Cut="3.7264334375000000e+05" cType="1" res="3.2804516376927495e-04" rms="3.4984883666038513e-01" purity="3.9498117566108704e-01" nType="0">
          <Node pos="l" depth="2" NCoef="0" IVar="18" Cut="9.1364906250000000e+04" cType="1" res="-1.3465821975842118e-03" rms="3.7440690398216248e-01" purity="4.7620615363121033e-01" nType="0">
            <Node pos="l" depth="3" NCoef="0" IVar="5" Cut="1.7994337500000000e+05" cType="1" res="1.1926095467060804e-03" rms="3.7646624445915222e-01" purity="4.7415560483932495e-01" nType="0">
              <Node pos="l" depth="4" NCoef="0" IVar="-1" Cut="0.0000000000000000e+00" cType="1" res="-4.1842521750368178e-04" rms="3.7415337562561035e-01" purity="4.6985712647438049e-01" nType="-99"/>
              <Node pos="r" depth="4" NCoef="0" IVar="-1" Cut="0.0000000000000000e+00" cType="1" res="2.2873993963003159e-02" rms="4.2138874530792236e-01" purity="5.6683850288391113e-01" nType="-99"/>
            </Node>
            <Node pos="r" depth="3" NCoef="0" IVar="16" Cut="1.6158391237258911e+00" cType="1" res="-1.4440098777413368e-02" rms="3.6332106590270996e-01" purity="4.8678007721900940e-01" nType="0">
              <Node pos="l" depth="4" NCoef="0" IVar="-1" Cut="0.0000000000000000e+00" cType="1" res="-4.4315389823168516e-04" rms="3.6085626482963562e-01" purity="6.4507657289505005e-01" nType="-99"/>
              <Node pos="r" depth="4" NCoef="0" IVar="-1" Cut="0.0000000000000000e+00" cType="1" res="-1.9776593893766403e-02" rms="3.6524012684822083e-01" purity="3.2904553413391113e-01" nType="-99"/>
            </Node>
          </Node>
          <Node pos="r" depth="2" NCoef="0" IVar="4" Cut="3.1558512500000000e+05" cType="1" res="1.9327774643898010e-03" rms="3.2456895709037781e-01" purity="3.1714633107185364e-01" nType="0">
            <Node pos="l" depth="3" NCoef="0" IVar="3" Cut="1.6421134375000000e+05" cType="1" res="6.7590004764497280e-03" rms="3.5341078042984009e-01" purity="4.1319689154624939e-01" nType="0">
              <Node pos="l" depth="4" NCoef="0" IVar="-1" Cut="0.0000000000000000e+00" cType="1" res="1.4177061617374420e-02" rms="3.8196587562561035e-01" purity="4.6590590476989746e-01" nType="-99"/>
              <Node pos="r" depth="4" NCoef="0" IVar="-1" Cut="0.0000000000000000e+00" cType="1" res="-3.4784891176968813e-03" rms="3.3113953471183777e-01" purity="3.7564313411712646e-01" nType="-99"/>
            </Node>
            <Node pos="r" depth="3" NCoef="0" IVar="13" Cut="3.5654273033142090e+00" cType="1" res="2.8226620634086430e-04" rms="3.1408122181892395e-01" purity="2.8429821133613586e-01" nType="0">
              <Node pos="l" depth="4" NCoef="0" IVar="-1" Cut="0.0000000000000000e+00" cType="1" res="1.0446708183735609e-03" rms="3.1530189514160156e-01" purity="2.8694429993629456e-01" nType="-99"/>
              <Node pos="r" depth="4" NCoef="0" IVar="-1" Cut="0.0000000000000000e+00" cType="1" res="-2.0283021032810211e-02" rms="2.8317800164222717e-01" purity="2.2200959920883179e-01" nType="-99"/>
            </Node>
          </Node>
        </Node>
      </Node>
    </BinaryTree>
    <BinaryTree type="DecisionTree" boostWeight="1.0000000000000000e+00" itree="303">
      <Node pos="s" depth="0" NCoef="0" IVar="0" Cut="5.3333334922790527e+00" cType="1" res="-2.1393386759882560e-06" rms="3.3504325151443481e-01" purity="5.0000000000000000e-01" nType="0">
        <Node pos="l" depth="1" NCoef="0" IVar="17" Cut="3.0076831250000000e+05" cType="1" res="4.6194094466045499e-04" rms="3.2428085803985596e-01" purity="5.9258693456649780e-01" nType="0">
          <Node pos="l" depth="2" NCoef="0" IVar="16" Cut="2.9811358451843262e+00" cType="1" res="7.4718194082379341e-04" rms="3.2584312558174133e-01" purity="6.0097861289978027e-01" nType="0">
            <Node pos="l" depth="3" NCoef="0" IVar="16" Cut="1.1517834663391113e+00" cType="1" res="2.8967150137759745e-04" rms="3.2500860095024109e-01" purity="6.0927802324295044e-01" nType="0">
              <Node pos="l" depth="4" NCoef="0" IVar="-1" Cut="0.0000000000000000e+00" cType="1" res="3.4689798485487700e-03" rms="2.8621292114257812e-01" purity="7.7131539583206177e-01" nType="-99"/>
              <Node pos="r" depth="4" NCoef="0" IVar="-1" Cut="0.0000000000000000e+00" cType="1" res="-1.4934572391211987e-03" rms="3.5362309217453003e-01" purity="4.7650793194770813e-01" nType="-99"/>
            </Node>
            <Node pos="r" depth="3" NCoef="0" IVar="-1" Cut="0.0000000000000000e+00" cType="1" res="9.1532068327069283e-03" rms="3.4572187066078186e-01" purity="3.9494147896766663e-01" nType="-99"/>
          </Node>
          <Node pos="r" depth="2" NCoef="0" IVar="-1" Cut="0.0000000000000000e+00" cType="1" res="-1.5988694503903389e-02" rms="2.5586640834808350e-01" purity="2.6569977402687073e-01" nType="-99"/>
        </Node>
        <Node pos="r" depth="1" NCoef="0" IVar="16" Cut="2.9688622951507568e+00" cType="1" res="-4.4250610517337918e-04" rms="3.4494477510452271e-01" purity="4.1214406490325928e-01" nType="0">
          <Node pos="l" depth="2" NCoef="0" IVar="16" Cut="1.2778240442276001e+00" cType="1" res="-8.4476894699037075e-05" rms="3.4624063968658447e-01" purity="4.2298063635826111e-01" nType="0">
            <Node pos="l" depth="3" NCoef="0" IVar="13" Cut="1.3211213350296021e+00" cType="1" res="-2.3202777374535799e-03" rms="3.3846837282180786e-01" purity="5.9289693832397461e-01" nType="0">
              <Node pos="l" depth="4" NCoef="0" IVar="-1" Cut="0.0000000000000000e+00" cType="1" res="9.0597290545701981e-03" rms="3.2770884037017822e-01" purity="2.4322478473186493e-01" nType="-99"/>
              <Node pos="r" depth="4" NCoef="0" IVar="-1" Cut="0.0000000000000000e+00" cType="1" res="-2.8044905047863722e-03" rms="3.3933719992637634e-01" purity="6.2237113714218140e-01" nType="-99"/>
            </Node>
            <Node pos="r" depth="3" NCoef="0" IVar="10" Cut="1.1677993750000000e+05" cType="1" res="1.6588185681030154e-03" rms="3.5217195749282837e-01" purity="2.9049372673034668e-01" nType="0">
              <Node pos="l" depth="4" NCoef="0" IVar="-1" Cut="0.0000000000000000e+00" cType="1" res="-7.6975871343165636e-04" rms="3.5968726873397827e-01" purity="2.8256946802139282e-01" nType="-99"/>
              <Node pos="r" depth="4" NCoef="0" IVar="-1" Cut="0.0000000000000000e+00" cType="1" res="4.8193018883466721e-03" rms="3.4013152122497559e-01" purity="3.0279761552810669e-01" nType="-99"/>
            </Node>
          </Node>
          <Node pos="r" depth="2" NCoef="0" IVar="16" Cut="3.1802887916564941e+00" cType="1" res="-7.3918602429330349e-03" rms="3.1867054104804993e-01" purity="2.0180611312389374e-01" nType="0">
            <Node pos="l" depth="3" NCoef="0" IVar="-1" Cut="0.0000000000000000e+00" cType="1" res="-1.8511120229959488e-02" rms="3.0674844980239868e-01" purity="1.9107428193092346e-01" nType="-99"/>
            <Node pos="r" depth="3" NCoef="0" IVar="-1" Cut="0.0000000000000000e+00" cType="1" res="5.3064529784023762e-03" rms="3.2991907000541687e-01" purity="2.1282573044300079e-01" nType="-99"/>
          </Node>
        </Node>
      </Node>
    </BinaryTree>
    <BinaryTree type="DecisionTree" boostWeight="1.0000000000000000e+00" itree="304">
      <Node pos="s" depth="0" NCoef="0" IVar="5" Cut="6.3952118750000000e+05" cType="1" res="-1.9555909602786414e-06" rms="3.3502227067947388e-01" purity="5.0000000000000000e-01" nType="0">
        <Node pos="l" depth="1" NCoef="0" IVar="12" Cut="1.0277870893478394e+00" cType="1" res="-6.1121347243897617e-05" rms="3.3629155158996582e-01" purity="5.0660079717636108e-01" nType="0">
          <Node pos="l" depth="2" NCoef="0" IVar="0" Cut="6.3333334922790527e+00" cType="1" res="-6.4490321092307568e-03" rms="3.4747245907783508e-01" purity="2.3288382589817047e-01" nType="0">
            <Node pos="l" depth="3" NCoef="0" IVar="-1" Cut="0.0000000000000000e+00" cType="1" res="-1.0878680273890495e-02" rms="3.5479304194450378e-01" purity="2.7376362681388855e-01" nType="-99"/>
            <Node pos="r" depth="3" NCoef="0" IVar="-1" Cut="0.0000000000000000e+00" cType="1" res="4.1650459170341492e-03" rms="3.3773821592330933e-01" purity="1.8167477846145630e-01" nType="-99"/>
          </Node>
          <Node pos="r" depth="2" NCoef="0" IVar="11" Cut="5.2268707752227783e-01" cType="1" res="9.0350207756273448e-05" rms="3.3602043986320496e-01" purity="5.1309120655059814e-01" nType="0">
            <Node pos="l" depth="3" NCoef="0" IVar="13" Cut="1.7690519094467163e+00" cType="1" res="2.2144247777760029e-03" rms="3.1494805216789246e-01" purity="7.4444234371185303e-01" nType="0">
              <Node pos="l" depth="4" NCoef="0" IVar="-1" Cut="0.0000000000000000e+00" cType="1" res="1.0380101390182972e-02" rms="3.6203208565711975e-01" purity="3.6998343467712402e-01" nType="-99"/>
              <Node pos="r" depth="4" NCoef="0" IVar="-1" Cut="0.0000000000000000e+00" cType="1" res="9.4974483363330364e-04" rms="3.0975213646888733e-01" purity="7.8237658739089966e-01" nType="-99"/>
            </Node>
            <Node pos="r" depth="3" NCoef="0" IVar="5" Cut="4.9317425000000000e+05" cType="1" res="-3.1533470610156655e-04" rms="3.3989506959915161e-01" purity="4.6890461444854736e-01" nType="0">
              <Node pos="l" depth="4" NCoef="0" IVar="-1" Cut="0.0000000000000000e+00" cType="1" res="-1.1251836258452386e-04" rms="3.4099259972572327e-01" purity="4.7380387783050537e-01" nType="-99"/>
              <Node pos="r" depth="4" NCoef="0" IVar="-1" Cut="0.0000000000000000e+00" cType="1" res="-1.3061887584626675e-02" rms="2.6563888788223267e-01" purity="1.7487944662570953e-01" nType="-99"/>
            </Node>
          </Node>
        </Node>
        <Node pos="r" depth="1" NCoef="0" IVar="-1" Cut="0.0000000000000000e+00" cType="1" res="5.0975107587873936e-03" rms="2.5334510207176208e-01" purity="1.2781611084938049e-01" nType="-99"/>
      </Node>
    </BinaryTree>
    <BinaryTree type="DecisionTree" boostWeight="1.0000000000000000e+00" itree="305">
      <Node pos="s" depth="0" NCoef="0" IVar="14" Cut="1.2873336076736450e+00" cType="1" res="-1.8666125924937660e-06" rms="3.3501753211021423e-01" purity="5.0000000000000000e-01" nType="0">
        <Node pos="l" depth="1" NCoef="0" IVar="17" Cut="3.9079890625000000e+04" cType="1" res="-7.4039516039192677e-04" rms="3.4688347578048706e-01" purity="4.4710662961006165e-01" nType="0">
          <Node pos="l" depth="2" NCoef="0" IVar="13" Cut="2.5309960842132568e+00" cType="1" res="1.2493173126131296e-03" rms="3.5069110989570618e-01" purity="4.9820676445960999e-01" nType="0">
            <Node pos="l" depth="3" NCoef="0" IVar="2" Cut="2.1736315625000000e+05" cType="1" res="-6.5356562845408916e-03" rms="3.4427440166473389e-01" purity="3.5667854547500610e-01" nType="0">
              <Node pos="l" depth="4" NCoef="0" IVar="-1" Cut="0.0000000000000000e+00" cType="1" res="4.5723556540906429e-03" rms="3.6802637577056885e-01" purity="4.1222092509269714e-01" nType="-99"/>
              <Node pos="r" depth="4" NCoef="0" IVar="-1" Cut="0.0000000000000000e+00" cType="1" res="-1.1395690031349659e-02" rms="3.3033204078674316e-01" purity="3.2627943158149719e-01" nType="-99"/>
            </Node>
            <Node pos="r" depth="3" NCoef="0" IVar="14" Cut="9.8199313879013062e-01" cType="1" res="7.7404705807566643e-03" rms="3.5582277178764343e-01" purity="6.1621385812759399e-01" nType="0">
              <Node pos="l" depth="4" NCoef="0" IVar="-1" Cut="0.0000000000000000e+00" cType="1" res="9.4467180315405130e-04" rms="3.5747629404067993e-01" purity="6.0356122255325317e-01" nType="-99"/>
              <Node pos="r" depth="4" NCoef="0" IVar="-1" Cut="0.0000000000000000e+00" cType="1" res="1.4589343219995499e-02" rms="3.5236218571662903e-01" purity="6.4008462429046631e-01" nType="-99"/>
            </Node>
          </Node>
          <Node pos="r" depth="2" NCoef="0" IVar="1" Cut="7.9088960937500000e+04" cType="1" res="-4.0788981132209301e-03" rms="3.4037292003631592e-01" purity="3.6136654019355774e-01" nType="0">
            <Node pos="l" depth="3" NCoef="0" IVar="14" Cut="9.9206966161727905e-01" cType="1" res="3.8381312042474747e-03" rms="3.3842101693153381e-01" purity="3.2628265023231506e-01" nType="0">
              <Node pos="l" depth="4" NCoef="0" IVar="-1" Cut="0.0000000000000000e+00" cType="1" res="1.9600937142968178e-02" rms="3.4288361668586731e-01" purity="3.3433476090431213e-01" nType="-99"/>
              <Node pos="r" depth="4" NCoef="0" IVar="-1" Cut="0.0000000000000000e+00" cType="1" res="-9.1280555352568626e-03" rms="3.3413612842559814e-01" purity="3.1987294554710388e-01" nType="-99"/>
            </Node>
            <Node pos="r" depth="3" NCoef="0" IVar="6" Cut="1.6359110937500000e+05" cType="1" res="-1.6913147643208504e-02" rms="3.4312573075294495e-01" purity="4.1824090480804443e-01" nType="0">
              <Node pos="l" depth="4" NCoef="0" IVar="-1" Cut="0.0000000000000000e+00" cType="1" res="-2.3597650229930878e-02" rms="4.0331703424453735e-01" purity="5.0473773479461670e-01" nType="-99"/>
              <Node pos="r" depth="4" NCoef="0" IVar="-1" Cut="0.0000000000000000e+00" cType="1" res="-6.6132694482803345e-03" rms="3.0882692337036133e-01" purity="3.7583702802658081e-01" nType="-99"/>
            </Node>
          </Node>
        </Node>
        <Node pos="r" depth="1" NCoef="0" IVar="10" Cut="3.5151593750000000e+05" cType="1" res="2.4918909184634686e-04" rms="3.3088654279708862e-01" purity="5.1798057556152344e-01" nType="0">
          <Node pos="l" depth="2" NCoef="0" IVar="11" Cut="1.2282739877700806e+00" cType="1" res="4.0533763240091503e-04" rms="3.3272728323936462e-01" purity="5.2535599470138550e-01" nType="0">
            <Node pos="l" depth="3" NCoef="0" IVar="8" Cut="2.7176337890625000e+04" cType="1" res="1.5375341754406691e-03" rms="3.3494755625724792e-01" purity="6.3615196943283081e-01" nType="0">
              <Node pos="l" depth="4" NCoef="0" IVar="-1" Cut="0.0000000000000000e+00" cType="1" res="-2.2478406317532063e-03" rms="3.4775906801223755e-01" purity="5.9920316934585571e-01" nType="-99"/>
              <Node pos="r" depth="4" NCoef="0" IVar="-1" Cut="0.0000000000000000e+00" cType="1" res="3.6439881660044193e-03" rms="3.2742360234260559e-01" purity="6.5713161230087280e-01" nType="-99"/>
            </Node>
            <Node pos="r" depth="3" NCoef="0" IVar="19" Cut="8.6423640625000000e+04" cType="1" res="-1.3709921622648835e-03" rms="3.2920581102371216e-01" purity="3.5152560472488403e-01" nType="0">
              <Node pos="l" depth="4" NCoef="0" IVar="-1" Cut="0.0000000000000000e+00" cType="1" res="1.9616072531789541e-03" rms="3.4297707676887512e-01" purity="4.2250460386276245e-01" nType="-99"/>
              <Node pos="r" depth="4" NCoef="0" IVar="-1" Cut="0.0000000000000000e+00" cType="1" res="-1.1220712214708328e-02" rms="2.9317671060562134e-01" purity="1.8049959838390350e-01" nType="-99"/>
            </Node>
          </Node>
          <Node pos="r" depth="2" NCoef="0" IVar="-1" Cut="0.0000000000000000e+00" cType="1" res="-9.2804292216897011e-03" rms="2.4346587061882019e-01" purity="2.1507538855075836e-01" nType="-99"/>
        </Node>
      </Node>
    </BinaryTree>
    <BinaryTree type="DecisionTree" boostWeight="1.0000000000000000e+00" itree="306">
      <Node pos="s" depth="0" NCoef="0" IVar="16" Cut="9.9912786483764648e-01" cType="1" res="-1.8439872064845986e-06" rms="3.3496388792991638e-01" purity="5.0000000000000000e-01" nType="0">
        <Node pos="l" depth="1" NCoef="0" IVar="19" Cut="8.1751718750000000e+04" cType="1" res="-8.5069396300241351e-04" rms="3.0177354812622070e-01" purity="7.2007471323013306e-01" nType="0">
          <Node pos="l" depth="2" NCoef="0" IVar="19" Cut="4.6604886718750000e+04" cType="1" res="-1.0360892338212579e-04" rms="3.0131891369819641e-01" purity="7.3999035358428955e-01" nType="0">
            <Node pos="l" depth="3" NCoef="0" IVar="14" Cut="2.3024656772613525e+00" cType="1" res="-2.2588802967220545e-03" rms="3.1223002076148987e-01" purity="7.0664358139038086e-01" nType="0">
              <Node pos="l" depth="4" NCoef="0" IVar="-1" Cut="0.0000000000000000e+00" cType="1" res="-5.5179065093398094e-03" rms="3.2851475477218628e-01" purity="6.6479736566543579e-01" nType="-99"/>
              <Node pos="r" depth="4" NCoef="0" IVar="-1" Cut="0.0000000000000000e+00" cType="1" res="3.5236894618719816e-03" rms="2.8768101334571838e-01" purity="7.6550608873367310e-01" nType="-99"/>
            </Node>
            <Node pos="r" depth="3" NCoef="0" IVar="9" Cut="8.0712734375000000e+04" cType="1" res="4.2170449160039425e-03" rms="2.7810919284820557e-01" purity="8.0684024095535278e-01" nType="0">
              <Node pos="l" depth="4" NCoef="0" IVar="-1" Cut="0.0000000000000000e+00" cType="1" res="-9.3609560281038284e-03" rms="3.2706168293952942e-01" purity="7.6959675550460815e-01" nType="-99"/>
              <Node pos="r" depth="4" NCoef="0" IVar="-1" Cut="0.0000000000000000e+00" cType="1" res="1.0582836344838142e-02" rms="2.6404726505279541e-01" purity="8.1633639335632324e-01" nType="-99"/>
            </Node>
          </Node>
          <Node pos="r" depth="2" NCoef="0" IVar="-1" Cut="0.0000000000000000e+00" cType="1" res="-1.2430441565811634e-02" rms="3.0883553624153137e-01" purity="3.9542677998542786e-01" nType="-99"/>
        </Node>
        <Node pos="r" depth="1" NCoef="0" IVar="1" Cut="2.1656515625000000e+05" cType="1" res="4.0322393761016428e-04" rms="3.4969291090965271e-01" purity="3.9498117566108704e-01" nType="0">
          <Node pos="l" depth="2" NCoef="0" IVar="1" Cut="3.1055443359375000e+04" cType="1" res="6.3153076916933060e-04" rms="3.5041877627372742e-01" purity="3.9803442358970642e-01" nType="0">
            <Node pos="l" depth="3" NCoef="0" IVar="16" Cut="1.3996964693069458e+00" cType="1" res="-2.9557410161942244e-03" rms="3.1880691647529602e-01" purity="2.3246316611766815e-01" nType="0">
              <Node pos="l" depth="4" NCoef="0" IVar="-1" Cut="0.0000000000000000e+00" cType="1" res="-1.1127541773021221e-02" rms="3.4119793772697449e-01" purity="3.4976550936698914e-01" nType="-99"/>
              <Node pos="r" depth="4" NCoef="0" IVar="-1" Cut="0.0000000000000000e+00" cType="1" res="4.4444235390983522e-04" rms="3.1143146753311157e-01" purity="1.9595815241336823e-01" nType="-99"/>
            </Node>
            <Node pos="r" depth="3" NCoef="0" IVar="16" Cut="1.5989378690719604e+00" cType="1" res="1.9373953109607100e-03" rms="3.6123138666152954e-01" purity="4.5830687880516052e-01" nType="0">
              <Node pos="l" depth="4" NCoef="0" IVar="-1" Cut="0.0000000000000000e+00" cType="1" res="4.2841350659728050e-03" rms="3.5866111516952515e-01" purity="5.6908810138702393e-01" nType="-99"/>
              <Node pos="r" depth="4" NCoef="0" IVar="-1" Cut="0.0000000000000000e+00" cType="1" res="-3.5586697049438953e-04" rms="3.6285156011581421e-01" purity="3.8716512918472290e-01" nType="-99"/>
            </Node>
          </Node>
          <Node pos="r" depth="2" NCoef="0" IVar="-1" Cut="0.0000000000000000e+00" cType="1" res="-9.1380663216114044e-03" rms="3.1605592370033264e-01" purity="2.6105502247810364e-01" nType="-99"/>
        </Node>
      </Node>
    </BinaryTree>
    <BinaryTree type="DecisionTree" boostWeight="1.0000000000000000e+00" itree="307">
      <Node pos="s" depth="0" NCoef="0" IVar="16" Cut="1.7413122653961182e+00" cType="1" res="-3.7794688978465274e-07" rms="3.3493545651435852e-01" purity="5.0000000000000000e-01" nType="0">
        <Node pos="l" depth="1" NCoef="0" IVar="19" Cut="1.3101314062500000e+05" cType="1" res="-4.4536689529195428e-04" rms="3.2794803380966187e-01" purity="6.0570436716079712e-01" nType="0">
          <Node pos="l" depth="2" NCoef="0" IVar="12" Cut="3.2701823711395264e+00" cType="1" res="-5.0512768211774528e-05" rms="3.2970470190048218e-01" purity="6.2573611736297607e-01" nType="0">
            <Node pos="l" depth="3" NCoef="0" IVar="1" Cut="6.2196730468750000e+04" cType="1" res="-6.5154879121109843e-04" rms="3.3061802387237549e-01" purity="6.2823432683944702e-01" nType="0">
              <Node pos="l" depth="4" NCoef="0" IVar="-1" Cut="0.0000000000000000e+00" cType="1" res="-3.0874756630510092e-03" rms="3.4483057260513306e-01" purity="5.3557103872299194e-01" nType="-99"/>
              <Node pos="r" depth="4" NCoef="0" IVar="-1" Cut="0.0000000000000000e+00" cType="1" res="2.8604161925613880e-03" rms="3.1332245469093323e-01" purity="7.3549777269363403e-01" nType="-99"/>
            </Node>
            <Node pos="r" depth="3" NCoef="0" IVar="18" Cut="1.0534458593750000e+05" cType="1" res="4.5890570618212223e-03" rms="3.2252970337867737e-01" purity="6.0645198822021484e-01" nType="0">
              <Node pos="l" depth="4" NCoef="0" IVar="-1" Cut="0.0000000000000000e+00" cType="1" res="9.9274311214685440e-03" rms="3.3236902952194214e-01" purity="5.9919750690460205e-01" nType="-99"/>
              <Node pos="r" depth="4" NCoef="0" IVar="-1" Cut="0.0000000000000000e+00" cType="1" res="-1.2857096269726753e-02" rms="2.9721403121948242e-01" purity="6.2369602918624878e-01" nType="-99"/>
            </Node>
          </Node>
          <Node pos="r" depth="2" NCoef="0" IVar="4" Cut="6.3902012500000000e+05" cType="1" res="-8.3127627149224281e-03" rms="2.9063072800636292e-01" purity="2.0657478272914886e-01" nType="0">
            <Node pos="l" depth="3" NCoef="0" IVar="-1" Cut="0.0000000000000000e+00" cType="1" res="-2.1666740998625755e-02" rms="3.3686533570289612e-01" purity="2.8826671838760376e-01" nType="-99"/>
            <Node pos="r" depth="3" NCoef="0" IVar="-1" Cut="0.0000000000000000e+00" cType="1" res="1.2718847952783108e-02" rms="2.4024832248687744e-01" purity="1.3278856873512268e-01" nType="-99"/>
          </Node>
        </Node>
        <Node pos="r" depth="1" NCoef="0" IVar="2" Cut="3.7521815625000000e+05" cType="1" res="7.6022191205993295e-04" rms="3.4655141830444336e-01" purity="3.1932428479194641e-01" nType="0">
          <Node pos="l" depth="2" NCoef="0" IVar="18" Cut="9.1374648437500000e+04" cType="1" res="-2.7832982596009970e-03" rms="3.7687158584594727e-01" purity="3.8188683986663818e-01" nType="0">
            <Node pos="l" depth="3" NCoef="0" IVar="9" Cut="8.5878265625000000e+04" cType="1" res="5.3078611381351948e-04" rms="3.7873905897140503e-01" purity="3.9513239264488220e-01" nType="0">
              <Node pos="l" depth="4" NCoef="0" IVar="-1" Cut="0.0000000000000000e+00" cType="1" res="4.6943640336394310e-03" rms="3.8363704085350037e-01" purity="3.9726793766021729e-01" nType="-99"/>
              <Node pos="r" depth="4" NCoef="0" IVar="-1" Cut="0.0000000000000000e+00" cType="1" res="-6.5729133784770966e-03" rms="3.7106609344482422e-01" purity="3.9193782210350037e-01" nType="-99"/>
            </Node>
            <Node pos="r" depth="3" NCoef="0" IVar="0" Cut="5.3333334922790527e+00" cType="1" res="-2.2093638777732849e-02" rms="3.6520305275917053e-01" purity="3.0470830202102661e-01" nType="0">
              <Node pos="l" depth="4" NCoef="0" IVar="-1" Cut="0.0000000000000000e+00" cType="1" res="-3.2721132040023804e-02" rms="3.5022383928298950e-01" purity="3.6596363782882690e-01" nType="-99"/>
              <Node pos="r" depth="4" NCoef="0" IVar="-1" Cut="0.0000000000000000e+00" cType="1" res="-3.2293866388499737e-03" rms="3.7502226233482361e-01" purity="2.5905230641365051e-01" nType="-99"/>
            </Node>
          </Node>
          <Node pos="r" depth="2" NCoef="0" IVar="11" Cut="1.1373426914215088e+00" cType="1" res="3.5094546619802713e-03" rms="3.2103410363197327e-01" purity="2.7078524231910706e-01" nType="0">
            <Node pos="l" depth="3" NCoef="0" IVar="2" Cut="6.7250900000000000e+05" cType="1" res="8.3581674844026566e-03" rms="3.6094143986701965e-01" purity="3.7498044967651367e-01" nType="0">
              <Node pos="l" depth="4" NCoef="0" IVar="-1" Cut="0.0000000000000000e+00" cType="1" res="9.4562014564871788e-03" rms="3.8878476619720459e-01" purity="4.4482526183128357e-01" nType="-99"/>
              <Node pos="r" depth="4" NCoef="0" IVar="-1" Cut="0.0000000000000000e+00" cType="1" res="-3.8763677002862096e-04" rms="3.1795462965965271e-01" purity="2.7777931094169617e-01" nType="-99"/>
            </Node>
            <Node pos="r" depth="3" NCoef="0" IVar="1" Cut="7.0506367187500000e+04" cType="1" res="-1.5034250682219863e-03" rms="2.7363505959510803e-01" purity="1.6306224465370178e-01" nType="0">
              <Node pos="l" depth="4" NCoef="0" IVar="-1" Cut="0.0000000000000000e+00" cType="1" res="-7.5227054767310619e-03" rms="2.5729128718376160e-01" purity="1.2468777596950531e-01" nType="-99"/>
              <Node pos="r" depth="4" NCoef="0" IVar="-1" Cut="0.0000000000000000e+00" cType="1" res="5.5311447940766811e-03" rms="3.0011996626853943e-01" purity="2.3060595989227295e-01" nType="-99"/>
            </Node>
          </Node>
        </Node>
      </Node>
    </BinaryTree>
    <BinaryTree type="DecisionTree" boostWeight="1.0000000000000000e+00" itree="308">
      <Node pos="s" depth="0" NCoef="0" IVar="16" Cut="1.4939174652099609e+00" cType="1" res="-7.0499322646355722e-07" rms="3.3488157391548157e-01" purity="5.0000000000000000e-01" nType="0">
        <Node pos="l" depth="1" NCoef="0" IVar="12" Cut="3.5218746662139893e+00" cType="1" res="-4.8460674588568509e-04" rms="3.2288226485252380e-01" purity="6.4082282781600952e-01" nType="0">
          <Node pos="l" depth="2" NCoef="0" IVar="2" Cut="3.3400731250000000e+05" cType="1" res="-1.1948437168030068e-04" rms="3.2338824868202209e-01" purity="6.4355015754699707e-01" nType="0">
            <Node pos="l" depth="3" NCoef="0" IVar="4" Cut="1.8768396875000000e+05" cType="1" res="3.9847297593951225e-03" rms="3.4158167243003845e-01" purity="6.8407052755355835e-01" nType="0">
              <Node pos="l" depth="4" NCoef="0" IVar="-1" Cut="0.0000000000000000e+00" cType="1" res="-3.9254236035048962e-03" rms="3.8500213623046875e-01" purity="5.0738590955734253e-01" nType="-99"/>
              <Node pos="r" depth="4" NCoef="0" IVar="-1" Cut="0.0000000000000000e+00" cType="1" res="7.4196192435920238e-03" rms="3.2149505615234375e-01" purity="7.5832676887512207e-01" nType="-99"/>
            </Node>
            <Node pos="r" depth="3" NCoef="0" IVar="6" Cut="1.7262453125000000e+05" cType="1" res="-3.8488919381052256e-03" rms="3.0587166547775269e-01" purity="6.0673022270202637e-01" nType="0">
              <Node pos="l" depth="4" NCoef="0" IVar="-1" Cut="0.0000000000000000e+00" cType="1" res="-9.7471848130226135e-03" rms="3.5741698741912842e-01" purity="6.2852913141250610e-01" nType="-99"/>
              <Node pos="r" depth="4" NCoef="0" IVar="-1" Cut="0.0000000000000000e+00" cType="1" res="-2.8922929777763784e-04" rms="2.8249487280845642e-01" purity="5.9798967838287354e-01" nType="-99"/>
            </Node>
          </Node>
          <Node pos="r" depth="2" NCoef="0" IVar="0" Cut="6.3333334922790527e+00" cType="1" res="-7.7054854482412338e-03" rms="3.1261974573135376e-01" purity="5.8688539266586304e-01" nType="0">
            <Node pos="l" depth="3" NCoef="0" IVar="-1" Cut="0.0000000000000000e+00" cType="1" res="1.7485045827925205e-04" rms="2.9721492528915405e-01" purity="6.7768120765686035e-01" nType="-99"/>
            <Node pos="r" depth="3" NCoef="0" IVar="-1" Cut="0.0000000000000000e+00" cType="1" res="-1.5362977981567383e-02" rms="3.3224070072174072e-01" purity="4.6265918016433716e-01" nType="-99"/>
          </Node>
        </Node>
        <Node pos="r" depth="1" NCoef="0" IVar="2" Cut="3.7264334375000000e+05" cType="1" res="5.6632439373061061e-04" rms="3.4841591119766235e-01" purity="3.3498573303222656e-01" nType="0">
          <Node pos="l" depth="2" NCoef="0" IVar="1" Cut="6.1828992187500000e+04" cType="1" res="-2.1994363050907850e-03" rms="3.7774035334587097e-01" purity="4.0347757935523987e-01" nType="0">
            <Node pos="l" depth="3" NCoef="0" IVar="4" Cut="2.8263009375000000e+05" cType="1" res="3.4690983593463898e-03" rms="3.6511912941932678e-01" purity="3.0666062235832214e-01" nType="0">
              <Node pos="l" depth="4" NCoef="0" IVar="-1" Cut="0.0000000000000000e+00" cType="1" res="3.0478654662147164e-04" rms="3.6376640200614929e-01" purity="3.0261206626892090e-01" nType="-99"/>
              <Node pos="r" depth="4" NCoef="0" IVar="-1" Cut="0.0000000000000000e+00" cType="1" res="2.0658746361732483e-02" rms="3.7528812885284424e-01" purity="3.4054642915725708e-01" nType="-99"/>
            </Node>
            <Node pos="r" depth="3" NCoef="0" IVar="17" Cut="8.0936468750000000e+04" cType="1" res="-1.2928290292620659e-02" rms="4.0032172203063965e-01" purity="5.8672338724136353e-01" nType="0">
              <Node pos="l" depth="4" NCoef="0" IVar="-1" Cut="0.0000000000000000e+00" cType="1" res="-4.7793937847018242e-03" rms="4.0124568343162537e-01" purity="6.0392194986343384e-01" nType="-99"/>
              <Node pos="r" depth="4" NCoef="0" IVar="-1" Cut="0.0000000000000000e+00" cType="1" res="-2.3394407704472542e-02" rms="3.9489865303039551e-01" purity="5.0326341390609741e-01" nType="-99"/>
            </Node>
          </Node>
          <Node pos="r" depth="2" NCoef="0" IVar="4" Cut="3.1558512500000000e+05" cType="1" res="2.8478859458118677e-03" rms="3.2220482826232910e-01" purity="2.7848473191261292e-01" nType="0">
            <Node pos="l" depth="3" NCoef="0" IVar="19" Cut="1.2461856250000000e+05" cType="1" res="9.4796270132064819e-03" rms="3.5162028670310974e-01" purity="3.7581762671470642e-01" nType="0">
              <Node pos="l" depth="4" NCoef="0" IVar="-1" Cut="0.0000000000000000e+00" cType="1" res="1.3178696855902672e-02" rms="3.5246080160140991e-01" purity="4.0191480517387390e-01" nType="-99"/>
              <Node pos="r" depth="4" NCoef="0" IVar="-1" Cut="0.0000000000000000e+00" cType="1" res="-9.0337954461574554e-03" rms="3.4837824106216431e-01" purity="3.0461269617080688e-01" nType="-99"/>
            </Node>
            <Node pos="r" depth="3" NCoef="0" IVar="11" Cut="8.8441413640975952e-01" cType="1" res="3.9342552190646529e-04" rms="3.1057652831077576e-01" purity="2.4246101081371307e-01" nType="0">
              <Node pos="l" depth="4" NCoef="0" IVar="-1" Cut="0.0000000000000000e+00" cType="1" res="-3.2172743231058121e-03" rms="3.5652837157249451e-01" purity="3.6890617012977600e-01" nType="-99"/>
              <Node pos="r" depth="4" NCoef="0" IVar="-1" Cut="0.0000000000000000e+00" cType="1" res="4.7424705699086189e-03" rms="2.7318727970123291e-01" purity="1.5254010260105133e-01" nType="-99"/>
            </Node>
          </Node>
        </Node>
      </Node>
    </BinaryTree>
    <BinaryTree type="DecisionTree" boostWeight="1.0000000000000000e+00" itree="309">
      <Node pos="s" depth="0" NCoef="0" IVar="5" Cut="4.3468087500000000e+05" cType="1" res="1.9343318058417935e-07" rms="3.3481425046920776e-01" purity="5.0000000000000000e-01" nType="0">
        <Node pos="l" depth="1" NCoef="0" IVar="14" Cut="3.0833916664123535e+00" cType="1" res="-1.1396381160011515e-04" rms="3.3736133575439453e-01" purity="5.1539814472198486e-01" nType="0">
          <Node pos="l" depth="2" NCoef="0" IVar="18" Cut="3.2438793750000000e+05" cType="1" res="7.3236034950241446e-05" rms="3.3800926804542542e-01" purity="5.1619863510131836e-01" nType="0">
            <Node pos="l" depth="3" NCoef="0" IVar="10" Cut="2.1203204687500000e+05" cType="1" res="2.2354650718625635e-04" rms="3.3901485800743103e-01" purity="5.1911836862564087e-01" nType="0">
              <Node pos="l" depth="4" NCoef="0" IVar="-1" Cut="0.0000000000000000e+00" cType="1" res="6.4624520018696785e-04" rms="3.4384110569953918e-01" purity="5.2925550937652588e-01" nType="-99"/>
              <Node pos="r" depth="4" NCoef="0" IVar="-1" Cut="0.0000000000000000e+00" cType="1" res="-4.8955851234495640e-03" rms="2.9510709643363953e-01" purity="4.3355745077133179e-01" nType="-99"/>
            </Node>
            <Node pos="r" depth="3" NCoef="0" IVar="-1" Cut="0.0000000000000000e+00" cType="1" res="-1.5008253976702690e-02" rms="2.5005981326103210e-01" purity="2.9494881629943848e-01" nType="-99"/>
          </Node>
          <Node pos="r" depth="2" NCoef="0" IVar="18" Cut="7.3449234375000000e+04" cType="1" res="-4.0947324596345425e-03" rms="3.2325056195259094e-01" purity="4.9837711453437805e-01" nType="0">
            <Node pos="l" depth="3" NCoef="0" IVar="-1" Cut="0.0000000000000000e+00" cType="1" res="-1.8349610269069672e-02" rms="3.2867792248725891e-01" purity="4.1075223684310913e-01" nType="-99"/>
            <Node pos="r" depth="3" NCoef="0" IVar="12" Cut="2.6092591285705566e+00" cType="1" res="2.2770438808947802e-03" rms="3.2099059224128723e-01" purity="5.3070372343063354e-01" nType="0">
              <Node pos="l" depth="4" NCoef="0" IVar="-1" Cut="0.0000000000000000e+00" cType="1" res="-8.2172434777021408e-03" rms="3.3574381470680237e-01" purity="3.5801336169242859e-01" nType="-99"/>
              <Node pos="r" depth="4" NCoef="0" IVar="-1" Cut="0.0000000000000000e+00" cType="1" res="1.0761933401226997e-02" rms="3.1036803126335144e-01" purity="6.4724546670913696e-01" nType="-99"/>
            </Node>
          </Node>
        </Node>
        <Node pos="r" depth="1" NCoef="0" IVar="0" Cut="4.3333334922790527e+00" cType="1" res="2.1653603762388229e-03" rms="2.8217607736587524e-01" purity="2.0795036852359772e-01" nType="0">
          <Node pos="l" depth="2" NCoef="0" IVar="14" Cut="1.8203589916229248e+00" cType="1" res="-3.1143925152719021e-03" rms="3.0686965584754944e-01" purity="2.4077777564525604e-01" nType="0">
            <Node pos="l" depth="3" NCoef="0" IVar="-1" Cut="0.0000000000000000e+00" cType="1" res="2.2206597495824099e-03" rms="3.0764651298522949e-01" purity="2.3812136054039001e-01" nType="-99"/>
            <Node pos="r" depth="3" NCoef="0" IVar="-1" Cut="0.0000000000000000e+00" cType="1" res="-9.0114977210760117e-03" rms="3.0600211024284363e-01" purity="2.4342484772205353e-01" nType="-99"/>
          </Node>
          <Node pos="r" depth="2" NCoef="0" IVar="1" Cut="1.0871892187500000e+05" cType="1" res="5.7131745852530003e-03" rms="2.6423066854476929e-01" purity="1.8589149415493011e-01" nType="0">
            <Node pos="l" depth="3" NCoef="0" IVar="-1" Cut="0.0000000000000000e+00" cType="1" res="-7.8821793431416154e-04" rms="2.4603250622749329e-01" purity="1.4230211079120636e-01" nType="-99"/>
            <Node pos="r" depth="3" NCoef="0" IVar="-1" Cut="0.0000000000000000e+00" cType="1" res="1.5981519594788551e-02" rms="2.8819525241851807e-01" purity="2.4868546426296234e-01" nType="-99"/>
          </Node>
        </Node>
      </Node>
    </BinaryTree>
    <BinaryTree type="DecisionTree" boostWeight="1.0000000000000000e+00" itree="310">
      <Node pos="s" depth="0" NCoef="0" IVar="0" Cut="5.3333334922790527e+00" cType="1" res="7.6418494643348822e-08" rms="3.3479756116867065e-01" purity="5.0000000000000000e-01" nType="0">
        <Node pos="l" depth="1" NCoef="0" IVar="10" Cut="9.8189859375000000e+04" cType="1" res="5.2012922242283821e-04" rms="3.2407522201538086e-01" purity="5.9258693456649780e-01" nType="0">
          <Node pos="l" depth="2" NCoef="0" IVar="1" Cut="5.1289734375000000e+04" cType="1" res="2.6929003652185202e-03" rms="3.4584677219390869e-01" purity="5.4441696405410767e-01" nType="0">
            <Node pos="l" depth="3" NCoef="0" IVar="17" Cut="7.9521453125000000e+04" cType="1" res="7.5194030068814754e-03" rms="3.4217289090156555e-01" purity="4.1957944631576538e-01" nType="0">
              <Node pos="l" depth="4" NCoef="0" IVar="-1" Cut="0.0000000000000000e+00" cType="1" res="1.3516301987692714e-03" rms="3.4844732284545898e-01" purity="3.9086213707923889e-01" nType="-99"/>
              <Node pos="r" depth="4" NCoef="0" IVar="-1" Cut="0.0000000000000000e+00" cType="1" res="1.6145801171660423e-02" rms="3.3039847016334534e-01" purity="4.7096440196037292e-01" nType="-99"/>
            </Node>
            <Node pos="r" depth="3" NCoef="0" IVar="9" Cut="7.0904179687500000e+04" cType="1" res="-1.3896940508857369e-03" rms="3.4887209534645081e-01" purity="6.5001326799392700e-01" nType="0">
              <Node pos="l" depth="4" NCoef="0" IVar="-1" Cut="0.0000000000000000e+00" cType="1" res="4.7455551102757454e-03" rms="3.8300487399101257e-01" purity="6.8690216541290283e-01" nType="-99"/>
              <Node pos="r" depth="4" NCoef="0" IVar="-1" Cut="0.0000000000000000e+00" cType="1" res="-6.5899845212697983e-03" rms="3.2520237565040588e-01" purity="6.2657195329666138e-01" nType="-99"/>
            </Node>
          </Node>
          <Node pos="r" depth="2" NCoef="0" IVar="20" Cut="5.9170558593750000e+04" cType="1" res="-1.1729616671800613e-03" rms="3.0602768063545227e-01" purity="6.3012242317199707e-01" nType="0">
            <Node pos="l" depth="3" NCoef="0" IVar="11" Cut="3.8279870152473450e-01" cType="1" res="-3.1670362222939730e-03" rms="3.1541734933853149e-01" purity="7.8639912605285645e-01" nType="0">
              <Node pos="l" depth="4" NCoef="0" IVar="-1" Cut="0.0000000000000000e+00" cType="1" res="1.2546104378998280e-02" rms="2.6423910260200500e-01" purity="8.4642791748046875e-01" nType="-99"/>
              <Node pos="r" depth="4" NCoef="0" IVar="-1" Cut="0.0000000000000000e+00" cType="1" res="-5.4693329147994518e-03" rms="3.2514831423759460e-01" purity="7.7369469404220581e-01" nType="-99"/>
            </Node>
            <Node pos="r" depth="3" NCoef="0" IVar="0" Cut="2.1428570747375488e+00" cType="1" res="2.9860630165785551e-03" rms="2.8540676832199097e-01" purity="3.0417743325233459e-01" nType="0">
              <Node pos="l" depth="4" NCoef="0" IVar="-1" Cut="0.0000000000000000e+00" cType="1" res="-1.7243768088519573e-03" rms="2.6978778839111328e-01" purity="1.9363935291767120e-01" nType="-99"/>
              <Node pos="r" depth="4" NCoef="0" IVar="-1" Cut="0.0000000000000000e+00" cType="1" res="1.0261178947985172e-02" rms="3.0903956294059753e-01" purity="4.8429283499717712e-01" nType="-99"/>
            </Node>
          </Node>
        </Node>
        <Node pos="r" depth="1" NCoef="0" IVar="12" Cut="3.4113523960113525e+00" cType="1" res="-4.9340276746079326e-04" rms="3.4466299414634705e-01" purity="4.1214406490325928e-01" nType="0">
          <Node pos="l" depth="2" NCoef="0" IVar="7" Cut="1.3343996875000000e+05" cType="1" res="-9.1210106620565057e-04" rms="3.4627321362495422e-01" purity="4.1604068875312805e-01" nType="0">
            <Node pos="l" depth="3" NCoef="0" IVar="1" Cut="7.9088960937500000e+04" cType="1" res="-1.5344661660492420e-03" rms="3.5427150130271912e-01" purity="4.1571360826492310e-01" nType="0">
              <Node pos="l" depth="4" NCoef="0" IVar="-1" Cut="0.0000000000000000e+00" cType="1" res="-3.4192171879112720e-03" rms="3.5693681240081787e-01" purity="3.5494023561477661e-01" nType="-99"/>
              <Node pos="r" depth="4" NCoef="0" IVar="-1" Cut="0.0000000000000000e+00" cType="1" res="4.3433201499283314e-03" rms="3.4768465161323547e-01" purity="5.6154000759124756e-01" nType="-99"/>
            </Node>
            <Node pos="r" depth="3" NCoef="0" IVar="9" Cut="1.8298865625000000e+05" cType="1" res="4.6951160766184330e-03" rms="2.6341667771339417e-01" purity="4.1898715496063232e-01" nType="0">
              <Node pos="l" depth="4" NCoef="0" IVar="-1" Cut="0.0000000000000000e+00" cType="1" res="1.4778506942093372e-02" rms="3.0365166068077087e-01" purity="5.1728534698486328e-01" nType="-99"/>
              <Node pos="r" depth="4" NCoef="0" IVar="-1" Cut="0.0000000000000000e+00" cType="1" res="-1.3099749572575092e-02" rms="2.0600245893001556e-01" purity="3.0373352766036987e-01" nType="-99"/>
            </Node>
          </Node>
          <Node pos="r" depth="2" NCoef="0" IVar="12" Cut="3.7559113502502441e+00" cType="1" res="4.0187193080782890e-03" rms="3.2677307724952698e-01" purity="3.7015232443809509e-01" nType="0">
            <Node pos="l" depth="3" NCoef="0" IVar="16" Cut="1.4630365371704102e+00" cType="1" res="1.0388714261353016e-02" rms="3.3836278319358826e-01" purity="4.1225376725196838e-01" nType="0">
              <Node pos="l" depth="4" NCoef="0" IVar="-1" Cut="0.0000000000000000e+00" cType="1" res="-7.2639039717614651e-04" rms="3.3245611190795898e-01" purity="5.6027650833129883e-01" nType="-99"/>
              <Node pos="r" depth="4" NCoef="0" IVar="-1" Cut="0.0000000000000000e+00" cType="1" res="1.8466653302311897e-02" rms="3.4376782178878784e-01" purity="2.6517349481582642e-01" nType="-99"/>
            </Node>
            <Node pos="r" depth="3" NCoef="0" IVar="-1" Cut="0.0000000000000000e+00" cType="1" res="-5.6661344133317471e-03" rms="3.0763009190559387e-01" purity="3.0470556020736694e-01" nType="-99"/>
          </Node>
        </Node>
      </Node>
    </BinaryTree>
    <BinaryTree type="DecisionTree" boostWeight="1.0000000000000000e+00" itree="311">
      <Node pos="s" depth="0" NCoef="0" IVar="13" Cut="3.2910404205322266e+00" cType="1" res="8.5525590520774131e-07" rms="3.3475568890571594e-01" purity="5.0000000000000000e-01" nType="0">
        <Node pos="l" depth="1" NCoef="0" IVar="16" Cut="3.2256813049316406e+00" cType="1" res="-1.5846310998313129e-04" rms="3.3380389213562012e-01" purity="4.9753779172897339e-01" nType="0">
          <Node pos="l" depth="2" NCoef="0" IVar="12" Cut="3.3562664985656738e+00" cType="1" res="-4.9844678869703785e-05" rms="3.3387398719787598e-01" purity="5.0161218643188477e-01" nType="0">
            <Node pos="l" depth="3" NCoef="0" IVar="6" Cut="1.8895317187500000e+05" cType="1" res="1.8029363127425313e-04" rms="3.3506858348846436e-01" purity="5.0864297151565552e-01" nType="0">
              <Node pos="l" depth="4" NCoef="0" IVar="-1" Cut="0.0000000000000000e+00" cType="1" res="-6.7694974131882191e-04" rms="3.6340025067329407e-01" purity="5.2530133724212646e-01" nType="-99"/>
              <Node pos="r" depth="4" NCoef="0" IVar="-1" Cut="0.0000000000000000e+00" cType="1" res="2.2120128851383924e-03" rms="2.8601878881454468e-01" purity="4.8300206661224365e-01" nType="-99"/>
            </Node>
            <Node pos="r" depth="3" NCoef="0" IVar="10" Cut="1.5123928125000000e+05" cType="1" res="-3.3220441546291113e-03" rms="3.1638264656066895e-01" purity="4.0164557099342346e-01" nType="0">
              <Node pos="l" depth="4" NCoef="0" IVar="-1" Cut="0.0000000000000000e+00" cType="1" res="2.0913607440888882e-03" rms="3.2778924703598022e-01" purity="4.2493683099746704e-01" nType="-99"/>
              <Node pos="r" depth="4" NCoef="0" IVar="-1" Cut="0.0000000000000000e+00" cType="1" res="-2.1136105060577393e-02" rms="2.8525879979133606e-01" purity="3.4317848086357117e-01" nType="-99"/>
            </Node>
          </Node>
          <Node pos="r" depth="2" NCoef="0" IVar="-1" Cut="0.0000000000000000e+00" cType="1" res="-5.3514088504016399e-03" rms="3.2971754670143127e-01" purity="2.6487025618553162e-01" nType="-99"/>
        </Node>
        <Node pos="r" depth="1" NCoef="0" IVar="15" Cut="1.2837932109832764e+00" cType="1" res="1.5158157330006361e-03" rms="3.4367105364799500e-01" purity="5.2341330051422119e-01" nType="0">
          <Node pos="l" depth="2" NCoef="0" IVar="14" Cut="1.2825324535369873e+00" cType="1" res="9.5622595399618149e-03" rms="3.6910632252693176e-01" purity="4.9148994684219360e-01" nType="0">
            <Node pos="l" depth="3" NCoef="0" IVar="-1" Cut="0.0000000000000000e+00" cType="1" res="-3.7280048127286136e-04" rms="3.6723658442497253e-01" purity="5.3522980213165283e-01" nType="-99"/>
            <Node pos="r" depth="3" NCoef="0" IVar="-1" Cut="0.0000000000000000e+00" cType="1" res="1.4822016470134258e-02" rms="3.7077820301055908e-01" purity="4.4513592123985291e-01" nType="-99"/>
          </Node>
          <Node pos="r" depth="2" NCoef="0" IVar="16" Cut="1.9683004617691040e+00" cType="1" res="-9.9301431328058243e-04" rms="3.3530670404434204e-01" purity="5.3336685895919800e-01" nType="0">
            <Node pos="l" depth="3" NCoef="0" IVar="12" Cut="2.6232001781463623e+00" cType="1" res="-5.1089166663587093e-03" rms="3.3100691437721252e-01" purity="6.0161745548248291e-01" nType="0">
              <Node pos="l" depth="4" NCoef="0" IVar="-1" Cut="0.0000000000000000e+00" cType="1" res="-1.5518687665462494e-02" rms="3.4877198934555054e-01" purity="5.0082433223724365e-01" nType="-99"/>
              <Node pos="r" depth="4" NCoef="0" IVar="-1" Cut="0.0000000000000000e+00" cType="1" res="-1.4104107394814491e-03" rms="3.2658305764198303e-01" purity="6.2535458803176880e-01" nType="-99"/>
            </Node>
            <Node pos="r" depth="3" NCoef="0" IVar="-1" Cut="0.0000000000000000e+00" cType="1" res="7.8606298193335533e-03" rms="3.4640181064605713e-01" purity="3.4915611147880554e-01" nType="-99"/>
          </Node>
        </Node>
      </Node>
    </BinaryTree>
    <BinaryTree type="DecisionTree" boostWeight="1.0000000000000000e+00" itree="312">
      <Node pos="s" depth="0" NCoef="0" IVar="12" Cut="3.9472987651824951e+00" cType="1" res="7.9099237382251886e-07" rms="3.3473739027976990e-01" purity="5.0000000000000000e-01" nType="0">
        <Node pos="l" depth="1" NCoef="0" IVar="11" Cut="1.1137193441390991e+00" cType="1" res="-6.1605758673977107e-05" rms="3.3525672554969788e-01" purity="5.0248736143112183e-01" nType="0">
          <Node pos="l" depth="2" NCoef="0" IVar="13" Cut="2.1480140686035156e+00" cType="1" res="5.9551268350332975e-04" rms="3.3676755428314209e-01" purity="6.3051575422286987e-01" nType="0">
            <Node pos="l" depth="3" NCoef="0" IVar="8" Cut="3.5190839843750000e+04" cType="1" res="3.5219986457377672e-03" rms="3.5568794608116150e-01" purity="3.7703916430473328e-01" nType="0">
              <Node pos="l" depth="4" NCoef="0" IVar="-1" Cut="0.0000000000000000e+00" cType="1" res="-1.2448709458112717e-03" rms="3.6908316612243652e-01" purity="3.9439275860786438e-01" nType="-99"/>
              <Node pos="r" depth="4" NCoef="0" IVar="-1" Cut="0.0000000000000000e+00" cType="1" res="1.1387585662305355e-02" rms="3.3122527599334717e-01" purity="3.4724101424217224e-01" nType="-99"/>
            </Node>
            <Node pos="r" depth="3" NCoef="0" IVar="19" Cut="9.7094625000000000e+04" cType="1" res="-4.6701062819920480e-04" rms="3.2962304353713989e-01" purity="7.2254586219787598e-01" nType="0">
              <Node pos="l" depth="4" NCoef="0" IVar="-1" Cut="0.0000000000000000e+00" cType="1" res="-2.1425485610961914e-03" rms="3.1241676211357117e-01" purity="7.9260849952697754e-01" nType="-99"/>
              <Node pos="r" depth="4" NCoef="0" IVar="-1" Cut="0.0000000000000000e+00" cType="1" res="3.6613238044083118e-03" rms="3.8527512550354004e-01" purity="4.6991187334060669e-01" nType="-99"/>
            </Node>
          </Node>
          <Node pos="r" depth="2" NCoef="0" IVar="12" Cut="3.5445559024810791e+00" cType="1" res="-8.1355863949283957e-04" rms="3.3351784944534302e-01" purity="3.5598203539848328e-01" nType="0">
            <Node pos="l" depth="3" NCoef="0" IVar="13" Cut="2.1445400714874268e+00" cType="1" res="-2.9921726672910154e-04" rms="3.3549883961677551e-01" purity="3.5879012942314148e-01" nType="0">
              <Node pos="l" depth="4" NCoef="0" IVar="-1" Cut="0.0000000000000000e+00" cType="1" res="-2.9437886551022530e-03" rms="3.0680060386657715e-01" purity="2.2638183832168579e-01" nType="-99"/>
              <Node pos="r" depth="4" NCoef="0" IVar="-1" Cut="0.0000000000000000e+00" cType="1" res="1.1377396294847131e-03" rms="3.5348173975944519e-01" purity="4.4784721732139587e-01" nType="-99"/>
            </Node>
            <Node pos="r" depth="3" NCoef="0" IVar="15" Cut="1.9142833948135376e+00" cType="1" res="-1.0961059480905533e-02" rms="2.9151132702827454e-01" purity="3.0058196187019348e-01" nType="0">
              <Node pos="l" depth="4" NCoef="0" IVar="-1" Cut="0.0000000000000000e+00" cType="1" res="-2.3765377700328827e-02" rms="2.8007999062538147e-01" purity="2.5514334440231323e-01" nType="-99"/>
              <Node pos="r" depth="4" NCoef="0" IVar="-1" Cut="0.0000000000000000e+00" cType="1" res="2.0422798115760088e-03" rms="3.0267813801765442e-01" purity="3.4899997711181641e-01" nType="-99"/>
            </Node>
          </Node>
        </Node>
        <Node pos="r" depth="1" NCoef="0" IVar="-1" Cut="0.0000000000000000e+00" cType="1" res="3.3602963667362928e-03" rms="3.0498006939888000e-01" purity="3.6399823427200317e-01" nType="-99"/>
      </Node>
    </BinaryTree>
    <BinaryTree type="DecisionTree" boostWeight="1.0000000000000000e+00" itree="313">
      <Node pos="s" depth="0" NCoef="0" IVar="12" Cut="3.6793255805969238e+00" cType="1" res="4.0345898355553800e-07" rms="3.3471664786338806e-01" purity="5.0000000000000000e-01" nType="0">
        <Node pos="l" depth="1" NCoef="0" IVar="14" Cut="3.3399713039398193e+00" cType="1" res="-1.0586523421807215e-04" rms="3.3569163084030151e-01" purity="5.0389510393142700e-01" nType="0">
          <Node pos="l" depth="2" NCoef="0" IVar="14" Cut="6.3975137472152710e-01" cType="1" res="1.0870179721678142e-05" rms="3.3575063943862915e-01" purity="5.0568026304244995e-01" nType="0">
            <Node pos="l" depth="3" NCoef="0" IVar="1" Cut="8.5529320312500000e+04" cType="1" res="2.9340609908103943e-03" rms="3.5126301646232605e-01" purity="4.5985016226768494e-01" nType="0">
              <Node pos="l" depth="4" NCoef="0" IVar="-1" Cut="0.0000000000000000e+00" cType="1" res="-3.0610391404479742e-03" rms="3.4700810909271240e-01" purity="4.1375961899757385e-01" nType="-99"/>
              <Node pos="r" depth="4" NCoef="0" IVar="-1" Cut="0.0000000000000000e+00" cType="1" res="1.6007626429200172e-02" rms="3.6155033111572266e-01" purity="5.8054524660110474e-01" nType="-99"/>
            </Node>
            <Node pos="r" depth="3" NCoef="0" IVar="15" Cut="5.1103079319000244e-01" cType="1" res="-1.5844164590816945e-04" rms="3.3482936024665833e-01" purity="5.0833481550216675e-01" nType="0">
              <Node pos="l" depth="4" NCoef="0" IVar="-1" Cut="0.0000000000000000e+00" cType="1" res="-7.7868876978754997e-03" rms="3.5220110416412354e-01" purity="4.7134837508201599e-01" nType="-99"/>
              <Node pos="r" depth="4" NCoef="0" IVar="-1" Cut="0.0000000000000000e+00" cType="1" res="6.7982902692165226e-05" rms="3.3440431952476501e-01" purity="5.0920861959457397e-01" nType="-99"/>
            </Node>
          </Node>
          <Node pos="r" depth="2" NCoef="0" IVar="-1" Cut="0.0000000000000000e+00" cType="1" res="-7.4127363041043282e-03" rms="3.3143249154090881e-01" purity="3.7893399596214294e-01" nType="-99"/>
        </Node>
        <Node pos="r" depth="1" NCoef="0" IVar="0" Cut="6.3333334922790527e+00" cType="1" res="2.7015197556465864e-03" rms="3.0889105796813965e-01" purity="4.0099611878395081e-01" nType="0">
          <Node pos="l" depth="2" NCoef="0" IVar="-1" Cut="0.0000000000000000e+00" cType="1" res="1.0541576892137527e-02" rms="3.0781099200248718e-01" purity="5.0973355770111084e-01" nType="-99"/>
          <Node pos="r" depth="2" NCoef="0" IVar="-1" Cut="0.0000000000000000e+00" cType="1" res="-6.3853561878204346e-03" rms="3.0983105301856995e-01" purity="2.7882751822471619e-01" nType="-99"/>
        </Node>
      </Node>
    </BinaryTree>
    <BinaryTree type="DecisionTree" boostWeight="1.0000000000000000e+00" itree="314">
      <Node pos="s" depth="0" NCoef="0" IVar="12" Cut="3.6793255805969238e+00" cType="1" res="5.4697835594197386e-07" rms="3.3470478653907776e-01" purity="5.0000000000000000e-01" nType="0">
        <Node pos="l" depth="1" NCoef="0" IVar="16" Cut="3.2256813049316406e+00" cType="1" res="-8.4504077676683664e-05" rms="3.3568328619003296e-01" purity="5.0389510393142700e-01" nType="0">
          <Node pos="l" depth="2" NCoef="0" IVar="12" Cut="1.0251002311706543e+00" cType="1" res="4.3638443457894027e-05" rms="3.3576536178588867e-01" purity="5.0801199674606323e-01" nType="0">
            <Node pos="l" depth="3" NCoef="0" IVar="19" Cut="7.6199062500000000e+04" cType="1" res="-6.8966215476393700e-03" rms="3.3973190188407898e-01" purity="2.2039359807968140e-01" nType="0">
              <Node pos="l" depth="4" NCoef="0" IVar="-1" Cut="0.0000000000000000e+00" cType="1" res="-1.2883680872619152e-02" rms="3.4056091308593750e-01" purity="2.6309156417846680e-01" nType="-99"/>
              <Node pos="r" depth="4" NCoef="0" IVar="-1" Cut="0.0000000000000000e+00" cType="1" res="1.6372592654079199e-03" rms="3.3878177404403687e-01" purity="1.8446810543537140e-01" nType="-99"/>
            </Node>
            <Node pos="r" depth="3" NCoef="0" IVar="16" Cut="1.6941847801208496e+00" cType="1" res="2.2194519988261163e-04" rms="3.3566096425056458e-01" purity="5.1540142297744751e-01" nType="0">
              <Node pos="l" depth="4" NCoef="0" IVar="-1" Cut="0.0000000000000000e+00" cType="1" res="-4.2590760858729482e-04" rms="3.2708910107612610e-01" purity="6.1784946918487549e-01" nType="-99"/>
              <Node pos="r" depth="4" NCoef="0" IVar="-1" Cut="0.0000000000000000e+00" cType="1" res="1.1253245174884796e-03" rms="3.5020318627357483e-01" purity="3.3549299836158752e-01" nType="-99"/>
            </Node>
          </Node>
          <Node pos="r" depth="2" NCoef="0" IVar="-1" Cut="0.0000000000000000e+00" cType="1" res="-5.8965240605175495e-03" rms="3.3100214600563049e-01" purity="2.7462315559387207e-01" nType="-99"/>
        </Node>
        <Node pos="r" depth="1" NCoef="0" IVar="0" Cut="6.3333334922790527e+00" cType="1" res="2.1623575594276190e-03" rms="3.0878573656082153e-01" purity="4.0099611878395081e-01" nType="0">
          <Node pos="l" depth="2" NCoef="0" IVar="-1" Cut="0.0000000000000000e+00" cType="1" res="8.4586888551712036e-03" rms="3.0768129229545593e-01" purity="5.0973355770111084e-01" nType="-99"/>
          <Node pos="r" depth="2" NCoef="0" IVar="-1" Cut="0.0000000000000000e+00" cType="1" res="-5.1159677095711231e-03" rms="3.0984967947006226e-01" purity="2.7882751822471619e-01" nType="-99"/>
        </Node>
      </Node>
    </BinaryTree>
    <BinaryTree type="DecisionTree" boostWeight="1.0000000000000000e+00" itree="315">
      <Node pos="s" depth="0" NCoef="0" IVar="13" Cut="1.9197735786437988e+00" cType="1" res="3.0069801937315788e-07" rms="3.3470001816749573e-01" purity="5.0000000000000000e-01" nType="0">
        <Node pos="l" depth="1" NCoef="0" IVar="0" Cut="6.3333334922790527e+00" cType="1" res="6.3963566208258271e-04" rms="3.2185941934585571e-01" purity="2.5426813960075378e-01" nType="0">
          <Node pos="l" depth="2" NCoef="0" IVar="15" Cut="1.4631620645523071e+00" cType="1" res="2.8074900619685650e-03" rms="3.2998418807983398e-01" purity="3.0444964766502380e-01" nType="0">
            <Node pos="l" depth="3" NCoef="0" IVar="15" Cut="7.7047073841094971e-01" cType="1" res="-5.1193810068070889e-03" rms="3.3770680427551270e-01" purity="3.1816738843917847e-01" nType="0">
              <Node pos="l" depth="4" NCoef="0" IVar="-1" Cut="0.0000000000000000e+00" cType="1" res="1.1803256347775459e-02" rms="3.6220860481262207e-01" purity="3.6131519079208374e-01" nType="-99"/>
              <Node pos="r" depth="4" NCoef="0" IVar="-1" Cut="0.0000000000000000e+00" cType="1" res="-1.1166865006089211e-02" rms="3.2712128758430481e-01" purity="3.0103352665901184e-01" nType="-99"/>
            </Node>
            <Node pos="r" depth="3" NCoef="0" IVar="0" Cut="3.1428570747375488e+00" cType="1" res="6.0423882678151131e-03" rms="3.2672497630119324e-01" purity="2.9885151982307434e-01" nType="0">
              <Node pos="l" depth="4" NCoef="0" IVar="-1" Cut="0.0000000000000000e+00" cType="1" res="7.1206456050276756e-04" rms="3.2114994525909424e-01" purity="2.2498427331447601e-01" nType="-99"/>
              <Node pos="r" depth="4" NCoef="0" IVar="-1" Cut="0.0000000000000000e+00" cType="1" res="1.1813563294708729e-02" rms="3.3510017395019531e-01" purity="4.1448092460632324e-01" nType="-99"/>
            </Node>
          </Node>
          <Node pos="r" depth="2" NCoef="0" IVar="0" Cut="7.0476188659667969e+00" cType="1" res="-2.3162416182458401e-03" rms="3.1041440367698669e-01" purity="1.8584547936916351e-01" nType="0">
            <Node pos="l" depth="3" NCoef="0" IVar="16" Cut="1.6481096744537354e+00" cType="1" res="0.0000000000000000e+00" rms="0.0000000000000000e+00" purity="2.0540083944797516e-01" nType="0">
              <Node pos="l" depth="4" NCoef="0" IVar="-1" Cut="0.0000000000000000e+00" cType="1" res="3.9469948969781399e-03" rms="3.4448096156120300e-01" purity="3.0264413356781006e-01" nType="-99"/>
              <Node pos="r" depth="4" NCoef="0" IVar="-1" Cut="0.0000000000000000e+00" cType="1" res="-2.1183775737881660e-02" rms="2.8807380795478821e-01" purity="1.3192586600780487e-01" nType="-99"/>
            </Node>
            <Node pos="r" depth="3" NCoef="0" IVar="2" Cut="6.4536900000000000e+05" cType="1" res="0.0000000000000000e+00" rms="0.0000000000000000e+00" purity="1.7393425107002258e-01" nType="0">
              <Node pos="l" depth="4" NCoef="0" IVar="-1" Cut="0.0000000000000000e+00" cType="1" res="5.1168068312108517e-03" rms="3.3054542541503906e-01" purity="2.0426391065120697e-01" nType="-99"/>
              <Node pos="r" depth="4" NCoef="0" IVar="-1" Cut="0.0000000000000000e+00" cType="1" res="-1.9528429955244064e-02" rms="2.0494814217090607e-01" purity="6.1683688312768936e-02" nType="-99"/>
            </Node>
          </Node>
        </Node>
        <Node pos="r" depth="1" NCoef="0" IVar="0" Cut="6.3333334922790527e+00" cType="1" res="-2.2088519472163171e-04" rms="3.3902886509895325e-01" purity="5.8501398563385010e-01" nType="0">
          <Node pos="l" depth="2" NCoef="0" IVar="13" Cut="3.6862761974334717e+00" cType="1" res="-1.0502559598535299e-03" rms="3.2678720355033875e-01" purity="6.5647989511489868e-01" nType="0">
            <Node pos="l" depth="3" NCoef="0" IVar="6" Cut="1.7834171875000000e+05" cType="1" res="-1.4292950509116054e-03" rms="3.2615345716476440e-01" purity="6.6070657968521118e-01" nType="0">
              <Node pos="l" depth="4" NCoef="0" IVar="-1" Cut="0.0000000000000000e+00" cType="1" res="-2.7733626775443554e-03" rms="3.5334962606430054e-01" purity="6.6856181621551514e-01" nType="-99"/>
              <Node pos="r" depth="4" NCoef="0" IVar="-1" Cut="0.0000000000000000e+00" cType="1" res="1.2472927337512374e-03" rms="2.9194089770317078e-01" purity="6.5172302722930908e-01" nType="-99"/>
            </Node>
            <Node pos="r" depth="3" NCoef="0" IVar="-1" Cut="0.0000000000000000e+00" cType="1" res="7.7952691353857517e-03" rms="3.4334024786949158e-01" purity="5.4206126928329468e-01" nType="-99"/>
          </Node>
          <Node pos="r" depth="2" NCoef="0" IVar="11" Cut="8.5603642463684082e-01" cType="1" res="1.1379680363461375e-03" rms="3.5817849636077881e-01" purity="4.6792325377464294e-01" nType="0">
            <Node pos="l" depth="3" NCoef="0" IVar="8" Cut="5.5482039062500000e+04" cType="1" res="-2.8418586589396000e-03" rms="3.6185416579246521e-01" purity="6.1488461494445801e-01" nType="0">
              <Node pos="l" depth="4" NCoef="0" IVar="-1" Cut="0.0000000000000000e+00" cType="1" res="-3.8553067133761942e-04" rms="3.7059944868087769e-01" purity="6.6792303323745728e-01" nType="-99"/>
              <Node pos="r" depth="4" NCoef="0" IVar="-1" Cut="0.0000000000000000e+00" cType="1" res="-1.9662687554955482e-02" rms="2.9736307263374329e-01" purity="2.6503050327301025e-01" nType="-99"/>
            </Node>
            <Node pos="r" depth="3" NCoef="0" IVar="15" Cut="2.1810362339019775e+00" cType="1" res="3.6871836055070162e-03" rms="3.5578078031539917e-01" purity="3.7378945946693420e-01" nType="0">
              <Node pos="l" depth="4" NCoef="0" IVar="-1" Cut="0.0000000000000000e+00" cType="1" res="4.9615069292485714e-03" rms="3.6452820897102356e-01" purity="3.6688771843910217e-01" nType="-99"/>
              <Node pos="r" depth="4" NCoef="0" IVar="-1" Cut="0.0000000000000000e+00" cType="1" res="-1.9651537295430899e-03" rms="3.3802700042724609e-01" purity="3.8721933960914612e-01" nType="-99"/>
            </Node>
          </Node>
        </Node>
      </Node>
    </BinaryTree>
    <BinaryTree type="DecisionTree" boostWeight="1.0000000000000000e+00" itree="316">
      <Node pos="s" depth="0" NCoef="0" IVar="15" Cut="3.0486736297607422e+00" cType="1" res="-1.2944768741363077e-06" rms="3.3466288447380066e-01" purity="5.0000000000000000e-01" nType="0">
        <Node pos="l" depth="1" NCoef="0" IVar="14" Cut="7.3034286499023438e-01" cType="1" res="-1.0306912736268714e-04" rms="3.3524915575981140e-01" purity="5.0211989879608154e-01" nType="0">
          <Node pos="l" depth="2" NCoef="0" IVar="11" Cut="1.9258494377136230e+00" cType="1" res="-2.5735183153301477e-03" rms="3.4862017631530762e-01" purity="4.4663748145103455e-01" nType="0">
            <Node pos="l" depth="3" NCoef="0" IVar="11" Cut="1.4838814735412598e+00" cType="1" res="1.5398352406919003e-03" rms="3.6812970042228699e-01" purity="5.2989012002944946e-01" nType="0">
              <Node pos="l" depth="4" NCoef="0" IVar="-1" Cut="0.0000000000000000e+00" cType="1" res="-2.2933429572731256e-03" rms="3.6263036727905273e-01" purity="5.6637477874755859e-01" nType="-99"/>
              <Node pos="r" depth="4" NCoef="0" IVar="-1" Cut="0.0000000000000000e+00" cType="1" res="1.4698252081871033e-02" rms="3.8860291242599487e-01" purity="3.8515877723693848e-01" nType="-99"/>
            </Node>
            <Node pos="r" depth="3" NCoef="0" IVar="-1" Cut="0.0000000000000000e+00" cType="1" res="-2.2616518661379814e-02" rms="2.6089581847190857e-01" purity="1.3013736903667450e-01" nType="-99"/>
          </Node>
          <Node pos="r" depth="2" NCoef="0" IVar="5" Cut="6.3952118750000000e+05" cType="1" res="1.0839262540685013e-04" rms="3.3407890796661377e-01" purity="5.0686907768249512e-01" nType="0">
            <Node pos="l" depth="3" NCoef="0" IVar="5" Cut="2.8836612500000000e+05" cType="1" res="-2.8726466553052887e-05" rms="3.3524951338768005e-01" purity="5.1348859071731567e-01" nType="0">
              <Node pos="l" depth="4" NCoef="0" IVar="-1" Cut="0.0000000000000000e+00" cType="1" res="4.1300719021819532e-04" rms="3.3772468566894531e-01" purity="5.3578466176986694e-01" nType="-99"/>
              <Node pos="r" depth="4" NCoef="0" IVar="-1" Cut="0.0000000000000000e+00" cType="1" res="-4.0880702435970306e-03" rms="3.1434896588325500e-01" purity="3.3203256130218506e-01" nType="-99"/>
            </Node>
            <Node pos="r" depth="3" NCoef="0" IVar="-1" Cut="0.0000000000000000e+00" cType="1" res="1.1557660996913910e-02" rms="2.5992882251739502e-01" purity="1.3525925576686859e-01" nType="-99"/>
          </Node>
        </Node>
        <Node pos="r" depth="1" NCoef="0" IVar="12" Cut="2.0032291412353516e+00" cType="1" res="1.7744131619110703e-03" rms="3.2425850629806519e-01" purity="4.6301230788230896e-01" nType="0">
          <Node pos="l" depth="2" NCoef="0" IVar="-1" Cut="0.0000000000000000e+00" cType="1" res="-9.5935957506299019e-03" rms="3.2725596427917480e-01" purity="2.7484464645385742e-01" nType="-99"/>
          <Node pos="r" depth="2" NCoef="0" IVar="12" Cut="2.5154743194580078e+00" cType="1" res="5.1584579050540924e-03" rms="3.2339531183242798e-01" purity="5.1149451732635498e-01" nType="0">
            <Node pos="l" depth="3" NCoef="0" IVar="-1" Cut="0.0000000000000000e+00" cType="1" res="2.2841241210699081e-02" rms="3.4955427050590515e-01" purity="4.9794942140579224e-01" nType="-99"/>
            <Node pos="r" depth="3" NCoef="0" IVar="8" Cut="5.7079109375000000e+04" cType="1" res="-2.2295597009360790e-03" rms="3.1371214985847473e-01" purity="5.1607525348663330e-01" nType="0">
              <Node pos="l" depth="4" NCoef="0" IVar="-1" Cut="0.0000000000000000e+00" cType="1" res="-8.7025221437215805e-03" rms="3.3494260907173157e-01" purity="7.2443944215774536e-01" nType="-99"/>
              <Node pos="r" depth="4" NCoef="0" IVar="-1" Cut="0.0000000000000000e+00" cType="1" res="9.4344904646277428e-03" rms="2.8448665142059326e-01" purity="2.5428020954132080e-01" nType="-99"/>
            </Node>
          </Node>
        </Node>
      </Node>
    </BinaryTree>
    <BinaryTree type="DecisionTree" boostWeight="1.0000000000000000e+00" itree="317">
      <Node pos="s" depth="0" NCoef="0" IVar="11" Cut="1.9319025278091431e+00" cType="1" res="-1.6453938087579445e-06" rms="3.3464545011520386e-01" purity="5.0000000000000000e-01" nType="0">
        <Node pos="l" depth="1" NCoef="0" IVar="15" Cut="1.7212938070297241e+00" cType="1" res="-2.0354632579255849e-04" rms="3.4322959184646606e-01" purity="5.6063216924667358e-01" nType="0">
          <Node pos="l" depth="2" NCoef="0" IVar="11" Cut="1.7519575357437134e+00" cType="1" res="-1.5936169074848294e-03" rms="3.6272805929183960e-01" purity="5.4142034053802490e-01" nType="0">
            <Node pos="l" depth="3" NCoef="0" IVar="18" Cut="4.7473621093750000e+04" cType="1" res="-7.1422499604523182e-04" rms="3.6368885636329651e-01" purity="5.5544400215148926e-01" nType="0">
              <Node pos="l" depth="4" NCoef="0" IVar="-1" Cut="0.0000000000000000e+00" cType="1" res="1.5440124552696943e-03" rms="3.6386054754257202e-01" purity="5.8397066593170166e-01" nType="-99"/>
              <Node pos="r" depth="4" NCoef="0" IVar="-1" Cut="0.0000000000000000e+00" cType="1" res="-3.4277341328561306e-03" rms="3.6341822147369385e-01" purity="5.1658076047897339e-01" nType="-99"/>
            </Node>
            <Node pos="r" depth="3" NCoef="0" IVar="20" Cut="6.1503234375000000e+04" cType="1" res="-1.3327167369425297e-02" rms="3.4944429993629456e-01" purity="3.5430514812469482e-01" nType="0">
              <Node pos="l" depth="4" NCoef="0" IVar="-1" Cut="0.0000000000000000e+00" cType="1" res="-1.9494485110044479e-02" rms="3.9051407575607300e-01" purity="5.0701528787612915e-01" nType="-99"/>
              <Node pos="r" depth="4" NCoef="0" IVar="-1" Cut="0.0000000000000000e+00" cType="1" res="4.3390565551817417e-03" rms="3.0741435289382935e-01" purity="2.1891190111637115e-01" nType="-99"/>
            </Node>
          </Node>
          <Node pos="r" depth="2" NCoef="0" IVar="14" Cut="1.8158493041992188e+00" cType="1" res="7.2216294938698411e-04" rms="3.2960224151611328e-01" purity="5.7342618703842163e-01" nType="0">
            <Node pos="l" depth="3" NCoef="0" IVar="19" Cut="8.8900156250000000e+04" cType="1" res="5.2630458958446980e-03" rms="3.4746888279914856e-01" purity="4.9661681056022644e-01" nType="0">
              <Node pos="l" depth="4" NCoef="0" IVar="-1" Cut="0.0000000000000000e+00" cType="1" res="7.1166241541504860e-03" rms="3.5494303703308105e-01" purity="5.9696894884109497e-01" nType="-99"/>
              <Node pos="r" depth="4" NCoef="0" IVar="-1" Cut="0.0000000000000000e+00" cType="1" res="-3.6365573760122061e-03" rms="3.2961457967758179e-01" purity="2.6807618141174316e-01" nType="-99"/>
            </Node>
            <Node pos="r" depth="3" NCoef="0" IVar="11" Cut="1.6588445901870728e+00" cType="1" res="-7.0653995499014854e-04" rms="3.2376381754875183e-01" purity="5.9759277105331421e-01" nType="0">
              <Node pos="l" depth="4" NCoef="0" IVar="-1" Cut="0.0000000000000000e+00" cType="1" res="-2.0565684826578945e-04" rms="3.2415795326232910e-01" purity="6.1298120021820068e-01" nType="-99"/>
              <Node pos="r" depth="4" NCoef="0" IVar="-1" Cut="0.0000000000000000e+00" cType="1" res="-7.8316871076822281e-03" rms="3.1696861982345581e-01" purity="3.3935880661010742e-01" nType="-99"/>
            </Node>
          </Node>
        </Node>
        <Node pos="r" depth="1" NCoef="0" IVar="12" Cut="2.6607019901275635e+00" cType="1" res="1.0232180356979370e-03" rms="2.8713896870613098e-01" purity="1.9222681224346161e-01" nType="0">
          <Node pos="l" depth="2" NCoef="0" IVar="9" Cut="8.4562593750000000e+04" cType="1" res="7.9678148031234741e-03" rms="3.2121175527572632e-01" purity="2.5561109185218811e-01" nType="0">
            <Node pos="l" depth="3" NCoef="0" IVar="15" Cut="1.6942090988159180e+00" cType="1" res="2.2273467853665352e-02" rms="3.8298687338829041e-01" purity="3.7744182348251343e-01" nType="0">
              <Node pos="l" depth="4" NCoef="0" IVar="-1" Cut="0.0000000000000000e+00" cType="1" res="2.0053666085004807e-02" rms="4.0079209208488464e-01" purity="4.4698363542556763e-01" nType="-99"/>
              <Node pos="r" depth="4" NCoef="0" IVar="-1" Cut="0.0000000000000000e+00" cType="1" res="9.7535857930779457e-03" rms="3.6474025249481201e-01" purity="3.1040081381797791e-01" nType="-99"/>
            </Node>
            <Node pos="r" depth="3" NCoef="0" IVar="-1" Cut="0.0000000000000000e+00" cType="1" res="-1.4157440513372421e-02" rms="2.2895832359790802e-01" purity="1.1489407718181610e-01" nType="-99"/>
          </Node>
          <Node pos="r" depth="2" NCoef="0" IVar="16" Cut="1.9944630861282349e+00" cType="1" res="-1.3101190561428666e-03" rms="2.7470457553863525e-01" purity="1.7093008756637573e-01" nType="0">
            <Node pos="l" depth="3" NCoef="0" IVar="0" Cut="5.3333334922790527e+00" cType="1" res="-4.5075900852680206e-03" rms="2.8450226783752441e-01" purity="1.9874423742294312e-01" nType="0">
              <Node pos="l" depth="4" NCoef="0" IVar="-1" Cut="0.0000000000000000e+00" cType="1" res="-1.0686340741813183e-02" rms="2.9292595386505127e-01" purity="2.5542056560516357e-01" nType="-99"/>
              <Node pos="r" depth="4" NCoef="0" IVar="-1" Cut="0.0000000000000000e+00" cType="1" res="-3.3875487861223519e-04" rms="2.7751892805099487e-01" purity="1.5348178148269653e-01" nType="-99"/>
            </Node>
            <Node pos="r" depth="3" NCoef="0" IVar="11" Cut="2.2276918888092041e+00" cType="1" res="3.6530690267682076e-03" rms="2.5868430733680725e-01" purity="1.2775637209415436e-01" nType="0">
              <Node pos="l" depth="4" NCoef="0" IVar="-1" Cut="0.0000000000000000e+00" cType="1" res="2.7171444147825241e-02" rms="3.2020154595375061e-01" purity="2.1291771531105042e-01" nType="-99"/>
              <Node pos="r" depth="4" NCoef="0" IVar="-1" Cut="0.0000000000000000e+00" cType="1" res="-7.4031371623277664e-03" rms="2.3229901492595673e-01" purity="9.7383923828601837e-02" nType="-99"/>
            </Node>
          </Node>
        </Node>
      </Node>
    </BinaryTree>
    <BinaryTree type="DecisionTree" boostWeight="1.0000000000000000e+00" itree="318">
      <Node pos="s" depth="0" NCoef="0" IVar="0" Cut="5.3333334922790527e+00" cType="1" res="-2.1423088583105709e-06" rms="3.3460986614227295e-01" purity="5.0000000000000000e-01" nType="0">
        <Node pos="l" depth="1" NCoef="0" IVar="10" Cut="9.8189859375000000e+04" cType="1" res="4.6587016549892724e-04" rms="3.2390099763870239e-01" purity="5.9258693456649780e-01" nType="0">
          <Node pos="l" depth="2" NCoef="0" IVar="4" Cut="2.2520978125000000e+05" cType="1" res="2.6680626906454563e-03" rms="3.4565031528472900e-01" purity="5.4441696405410767e-01" nType="0">
            <Node pos="l" depth="3" NCoef="0" IVar="12" Cut="2.0326995849609375e+00" cType="1" res="7.6572010293602943e-03" rms="3.6190950870513916e-01" purity="5.5227470397949219e-01" nType="0">
              <Node pos="l" depth="4" NCoef="0" IVar="-1" Cut="0.0000000000000000e+00" cType="1" res="1.7167594283819199e-02" rms="3.7805506587028503e-01" purity="5.5592137575149536e-01" nType="-99"/>
              <Node pos="r" depth="4" NCoef="0" IVar="-1" Cut="0.0000000000000000e+00" cType="1" res="1.5844863373786211e-03" rms="3.5681417584419250e-01" purity="5.5119723081588745e-01" nType="-99"/>
            </Node>
            <Node pos="r" depth="3" NCoef="0" IVar="4" Cut="3.7323800000000000e+05" cType="1" res="-1.0758042335510254e-03" rms="3.3287918567657471e-01" purity="5.3852051496505737e-01" nType="0">
              <Node pos="l" depth="4" NCoef="0" IVar="-1" Cut="0.0000000000000000e+00" cType="1" res="-6.3150590285658836e-03" rms="3.2993340492248535e-01" purity="5.9883874654769897e-01" nType="-99"/>
              <Node pos="r" depth="4" NCoef="0" IVar="-1" Cut="0.0000000000000000e+00" cType="1" res="9.3860449269413948e-03" rms="3.3801102638244629e-01" purity="4.2597624659538269e-01" nType="-99"/>
            </Node>
          </Node>
          <Node pos="r" depth="2" NCoef="0" IVar="13" Cut="2.0416600704193115e+00" cType="1" res="-1.2501467717811465e-03" rms="3.0587211251258850e-01" purity="6.3012242317199707e-01" nType="0">
            <Node pos="l" depth="3" NCoef="0" IVar="9" Cut="1.2234227343750000e+05" cType="1" res="-1.0125502012670040e-02" rms="2.6669412851333618e-01" purity="2.1197748184204102e-01" nType="0">
              <Node pos="l" depth="4" NCoef="0" IVar="-1" Cut="0.0000000000000000e+00" cType="1" res="-2.0846564322710037e-02" rms="3.0448284745216370e-01" purity="2.7504834532737732e-01" nType="-99"/>
              <Node pos="r" depth="4" NCoef="0" IVar="-1" Cut="0.0000000000000000e+00" cType="1" res="1.0305956238880754e-03" rms="2.2491768002510071e-01" purity="1.5265366435050964e-01" nType="-99"/>
            </Node>
            <Node pos="r" depth="3" NCoef="0" IVar="14" Cut="9.4113856554031372e-01" cType="1" res="-3.6146485945209861e-04" rms="3.0950796604156494e-01" purity="6.7199093103408813e-01" nType="0">
              <Node pos="l" depth="4" NCoef="0" IVar="-1" Cut="0.0000000000000000e+00" cType="1" res="-6.3794543966650963e-03" rms="3.3298799395561218e-01" purity="5.9731644392013550e-01" nType="-99"/>
              <Node pos="r" depth="4" NCoef="0" IVar="-1" Cut="0.0000000000000000e+00" cType="1" res="7.4629118898883462e-04" rms="3.0573722720146179e-01" purity="6.8342995643615723e-01" nType="-99"/>
            </Node>
          </Node>
        </Node>
        <Node pos="r" depth="1" NCoef="0" IVar="12" Cut="3.4113523960113525e+00" cType="1" res="-4.4624033034779131e-04" rms="3.4446322917938232e-01" purity="4.1214406490325928e-01" nType="0">
          <Node pos="l" depth="2" NCoef="0" IVar="13" Cut="3.1635565757751465e+00" cType="1" res="-9.0795702999457717e-04" rms="3.4608471393585205e-01" purity="4.1604068875312805e-01" nType="0">
            <Node pos="l" depth="3" NCoef="0" IVar="8" Cut="1.0118523437500000e+05" cType="1" res="-2.1807877055834979e-04" rms="3.4420067071914673e-01" purity="4.0851897001266479e-01" nType="0">
              <Node pos="l" depth="4" NCoef="0" IVar="-1" Cut="0.0000000000000000e+00" cType="1" res="4.2879980173893273e-04" rms="3.6812764406204224e-01" purity="4.7192531824111938e-01" nType="-99"/>
              <Node pos="r" depth="4" NCoef="0" IVar="-1" Cut="0.0000000000000000e+00" cType="1" res="-2.8967380523681641e-02" rms="1.1338906735181808e-01" purity="1.5718100592494011e-02" nType="-99"/>
            </Node>
            <Node pos="r" depth="3" NCoef="0" IVar="9" Cut="1.1200782031250000e+05" cType="1" res="-6.1993105337023735e-03" rms="3.6016392707824707e-01" purity="4.7373190522193909e-01" nType="0">
              <Node pos="l" depth="4" NCoef="0" IVar="-1" Cut="0.0000000000000000e+00" cType="1" res="-9.7339525818824768e-03" rms="3.9455094933509827e-01" purity="4.9369651079177856e-01" nType="-99"/>
              <Node pos="r" depth="4" NCoef="0" IVar="-1" Cut="0.0000000000000000e+00" cType="1" res="2.4921600706875324e-03" rms="3.2452538609504700e-01" purity="4.5509025454521179e-01" nType="-99"/>
            </Node>
          </Node>
          <Node pos="r" depth="2" NCoef="0" IVar="18" Cut="1.2172628125000000e+05" cType="1" res="4.5294719748198986e-03" rms="3.2643708586692810e-01" purity="3.7015232443809509e-01" nType="0">
            <Node pos="l" depth="3" NCoef="0" IVar="18" Cut="5.3624438476562500e+03" cType="1" res="8.3712209016084671e-03" rms="3.3609896898269653e-01" purity="3.7524035573005676e-01" nType="0">
              <Node pos="l" depth="4" NCoef="0" IVar="-1" Cut="0.0000000000000000e+00" cType="1" res="2.2206418216228485e-02" rms="3.4120637178421021e-01" purity="3.6627483367919922e-01" nType="-99"/>
              <Node pos="r" depth="4" NCoef="0" IVar="-1" Cut="0.0000000000000000e+00" cType="1" res="-4.1558369994163513e-03" rms="3.3159491419792175e-01" purity="3.8195607066154480e-01" nType="-99"/>
            </Node>
            <Node pos="r" depth="3" NCoef="0" IVar="-1" Cut="0.0000000000000000e+00" cType="1" res="-9.4498330727219582e-03" rms="2.9151391983032227e-01" purity="3.5316899418830872e-01" nType="-99"/>
          </Node>
        </Node>
      </Node>
    </BinaryTree>
    <BinaryTree type="DecisionTree" boostWeight="1.0000000000000000e+00" itree="319">
      <Node pos="s" depth="0" NCoef="0" IVar="11" Cut="1.9319025278091431e+00" cType="1" res="-3.1071251669345656e-06" rms="3.3457037806510925e-01" purity="5.0000000000000000e-01" nType="0">
        <Node pos="l" depth="1" NCoef="0" IVar="8" Cut="1.2449911718750000e+05" cType="1" res="-2.0933061023242772e-04" rms="3.4315913915634155e-01" purity="5.6063216924667358e-01" nType="0">
          <Node pos="l" depth="2" NCoef="0" IVar="6" Cut="1.5006078125000000e+05" cType="1" res="-4.6254655899247155e-05" rms="3.4786140918731689e-01" purity="5.7617664337158203e-01" nType="0">
            <Node pos="l" depth="3" NCoef="0" IVar="19" Cut="3.3630324218750000e+04" cType="1" res="-2.7522633317857981e-03" rms="3.8080754876136780e-01" purity="5.5696302652359009e-01" nType="0">
              <Node pos="l" depth="4" NCoef="0" IVar="-1" Cut="0.0000000000000000e+00" cType="1" res="2.1777832880616188e-03" rms="3.7613362073898315e-01" purity="5.3456252813339233e-01" nType="-99"/>
              <Node pos="r" depth="4" NCoef="0" IVar="-1" Cut="0.0000000000000000e+00" cType="1" res="-3.8140206597745419e-03" rms="3.8322156667709351e-01" purity="5.6882649660110474e-01" nType="-99"/>
            </Node>
            <Node pos="r" depth="3" NCoef="0" IVar="8" Cut="3.3626066406250000e+04" cType="1" res="1.7681533936411142e-03" rms="3.2388657331466675e-01" purity="5.8905965089797974e-01" nType="0">
              <Node pos="l" depth="4" NCoef="0" IVar="-1" Cut="0.0000000000000000e+00" cType="1" res="-3.2923619728535414e-03" rms="3.2338315248489380e-01" purity="7.1172142028808594e-01" nType="-99"/>
              <Node pos="r" depth="4" NCoef="0" IVar="-1" Cut="0.0000000000000000e+00" cType="1" res="3.7204453255981207e-03" rms="3.2407695055007935e-01" purity="5.3591609001159668e-01" nType="-99"/>
            </Node>
          </Node>
          <Node pos="r" depth="2" NCoef="0" IVar="10" Cut="1.9566107812500000e+05" cType="1" res="-6.0812896117568016e-03" rms="2.6848677545785904e-02" purity="9.1358885401859879e-04" nType="0">
            <Node pos="l" depth="3" NCoef="0" IVar="-1" Cut="0.0000000000000000e+00" cType="1" res="-9.3564487993717194e-02" rms="3.5064306110143661e-02" purity="1.7019956139847636e-03" nType="-99"/>
            <Node pos="r" depth="3" NCoef="0" IVar="-1" Cut="0.0000000000000000e+00" cType="1" res="-1.0378927737474442e-01" rms="1.0983557440340519e-02" purity="0.0000000000000000e+00" nType="-99"/>
          </Node>
        </Node>
        <Node pos="r" depth="1" NCoef="0" IVar="16" Cut="7.6604604721069336e-01" cType="1" res="1.0436979355290532e-03" rms="2.8703483939170837e-01" purity="1.9222681224346161e-01" nType="0">
          <Node pos="l" depth="2" NCoef="0" IVar="-1" Cut="0.0000000000000000e+00" cType="1" res="-1.0220807045698166e-02" rms="3.0467295646667480e-01" purity="3.1074234843254089e-01" nType="-99"/>
          <Node pos="r" depth="2" NCoef="0" IVar="14" Cut="7.4057900905609131e-01" cType="1" res="2.4007651954889297e-03" rms="2.8474754095077515e-01" purity="1.7756523191928864e-01" nType="0">
            <Node pos="l" depth="3" NCoef="0" IVar="-1" Cut="0.0000000000000000e+00" cType="1" res="-1.7581405118107796e-02" rms="2.5750601291656494e-01" purity="1.1789821088314056e-01" nType="-99"/>
            <Node pos="r" depth="3" NCoef="0" IVar="20" Cut="1.0317183593750000e+05" cType="1" res="4.2485278099775314e-03" rms="2.8768250346183777e-01" purity="1.8448415398597717e-01" nType="0">
              <Node pos="l" depth="4" NCoef="0" IVar="-1" Cut="0.0000000000000000e+00" cType="1" res="6.7891334183514118e-03" rms="3.4422668814659119e-01" purity="2.6650467514991760e-01" nType="-99"/>
              <Node pos="r" depth="4" NCoef="0" IVar="-1" Cut="0.0000000000000000e+00" cType="1" res="-4.9084536731243134e-02" rms="6.6819831728935242e-02" purity="5.0099249929189682e-03" nType="-99"/>
            </Node>
          </Node>
        </Node>
      </Node>
    </BinaryTree>
    <BinaryTree type="DecisionTree" boostWeight="1.0000000000000000e+00" itree="320">
      <Node pos="s" depth="0" NCoef="0" IVar="11" Cut="7.3745375871658325e-01" cType="1" res="-6.5923695728997700e-06" rms="3.3454152941703796e-01" purity="5.0000000000000000e-01" nType="0">
        <Node pos="l" depth="1" NCoef="0" IVar="2" Cut="3.1807462500000000e+05" cType="1" res="7.1032281266525388e-04" rms="3.2338884472846985e-01" purity="6.6764646768569946e-01" nType="0">
          <Node pos="l" depth="2" NCoef="0" IVar="6" Cut="1.1048395312500000e+05" cType="1" res="3.6565444897860289e-03" rms="3.3165845274925232e-01" purity="7.0126271247863770e-01" nType="0">
            <Node pos="l" depth="3" NCoef="0" IVar="20" Cut="1.5209544921875000e+04" cType="1" res="1.6048137098550797e-02" rms="3.7661573290824890e-01" purity="4.4733878970146179e-01" nType="0">
              <Node pos="l" depth="4" NCoef="0" IVar="-1" Cut="0.0000000000000000e+00" cType="1" res="1.0629844618961215e-03" rms="3.5974964499473572e-01" purity="3.7266507744789124e-01" nType="-99"/>
              <Node pos="r" depth="4" NCoef="0" IVar="-1" Cut="0.0000000000000000e+00" cType="1" res="1.9676048308610916e-02" rms="3.9321109652519226e-01" purity="5.2695244550704956e-01" nType="-99"/>
            </Node>
            <Node pos="r" depth="3" NCoef="0" IVar="20" Cut="1.9048488281250000e+04" cType="1" res="-7.0102239260450006e-04" rms="3.1420838832855225e-01" purity="7.9055631160736084e-01" nType="0">
              <Node pos="l" depth="4" NCoef="0" IVar="-1" Cut="0.0000000000000000e+00" cType="1" res="-1.1927660554647446e-02" rms="3.4331509470939636e-01" purity="6.6259646415710449e-01" nType="-99"/>
              <Node pos="r" depth="4" NCoef="0" IVar="-1" Cut="0.0000000000000000e+00" cType="1" res="5.5924039334058762e-03" rms="3.0085173249244690e-01" purity="8.4463965892791748e-01" nType="-99"/>
            </Node>
          </Node>
          <Node pos="r" depth="2" NCoef="0" IVar="17" Cut="1.5516185937500000e+05" cType="1" res="-6.1266944976523519e-04" rms="3.1959697604179382e-01" purity="6.5255117416381836e-01" nType="0">
            <Node pos="l" depth="3" NCoef="0" IVar="16" Cut="2.5814869403839111e+00" cType="1" res="-2.5260476395487785e-03" rms="3.2696750760078430e-01" purity="6.7245340347290039e-01" nType="0">
              <Node pos="l" depth="4" NCoef="0" IVar="-1" Cut="0.0000000000000000e+00" cType="1" res="-4.3113548308610916e-03" rms="3.1932711601257324e-01" purity="7.0089197158813477e-01" nType="-99"/>
              <Node pos="r" depth="4" NCoef="0" IVar="-1" Cut="0.0000000000000000e+00" cType="1" res="9.5659932121634483e-03" rms="3.8256064057350159e-01" purity="4.4341906905174255e-01" nType="-99"/>
            </Node>
            <Node pos="r" depth="3" NCoef="0" IVar="17" Cut="3.0334218750000000e+05" cType="1" res="3.9719226770102978e-03" rms="3.0115425586700439e-01" purity="6.0486418008804321e-01" nType="0">
              <Node pos="l" depth="4" NCoef="0" IVar="-1" Cut="0.0000000000000000e+00" cType="1" res="6.9625023752450943e-03" rms="3.0572474002838135e-01" purity="6.6860860586166382e-01" nType="-99"/>
              <Node pos="r" depth="4" NCoef="0" IVar="-1" Cut="0.0000000000000000e+00" cType="1" res="-8.8343340903520584e-03" rms="2.8244724869728088e-01" purity="3.5780778527259827e-01" nType="-99"/>
            </Node>
          </Node>
        </Node>
        <Node pos="r" depth="1" NCoef="0" IVar="15" Cut="3.0486736297607422e+00" cType="1" res="-3.3464553416706622e-04" rms="3.3952224254608154e-01" purity="4.2328667640686035e-01" nType="0">
          <Node pos="l" depth="2" NCoef="0" IVar="16" Cut="2.7263977527618408e+00" cType="1" res="-6.0257280711084604e-04" rms="3.4023675322532654e-01" purity="4.2497059702873230e-01" nType="0">
            <Node pos="l" depth="3" NCoef="0" IVar="16" Cut="2.3406257629394531e+00" cType="1" res="-1.2198631156934425e-04" rms="3.4177997708320618e-01" purity="4.4153878092765808e-01" nType="0">
              <Node pos="l" depth="4" NCoef="0" IVar="-1" Cut="0.0000000000000000e+00" cType="1" res="-6.4844032749533653e-04" rms="3.4177193045616150e-01" purity="4.5973324775695801e-01" nType="-99"/>
              <Node pos="r" depth="4" NCoef="0" IVar="-1" Cut="0.0000000000000000e+00" cType="1" res="4.3349964544177055e-03" rms="3.4179633855819702e-01" purity="2.9315468668937683e-01" nType="-99"/>
            </Node>
            <Node pos="r" depth="3" NCoef="0" IVar="11" Cut="1.2949061393737793e+00" cType="1" res="-5.7116188108921051e-03" rms="3.2333201169967651e-01" purity="2.4883688986301422e-01" nType="0">
              <Node pos="l" depth="4" NCoef="0" IVar="-1" Cut="0.0000000000000000e+00" cType="1" res="-1.0427504777908325e-02" rms="3.5574084520339966e-01" purity="3.2677137851715088e-01" nType="-99"/>
              <Node pos="r" depth="4" NCoef="0" IVar="-1" Cut="0.0000000000000000e+00" cType="1" res="-3.8248798227868974e-04" rms="3.0271068215370178e-01" purity="2.0339430868625641e-01" nType="-99"/>
            </Node>
          </Node>
          <Node pos="r" depth="2" NCoef="0" IVar="12" Cut="2.8260147571563721e+00" cType="1" res="4.4543044641613960e-03" rms="3.2645010948181152e-01" purity="3.9318758249282837e-01" nType="0">
            <Node pos="l" depth="3" NCoef="0" IVar="10" Cut="9.8819351562500000e+04" cType="1" res="1.1050336062908173e-02" rms="3.3436623215675354e-01" purity="3.9276272058486938e-01" nType="0">
              <Node pos="l" depth="4" NCoef="0" IVar="-1" Cut="0.0000000000000000e+00" cType="1" res="1.3115903362631798e-02" rms="3.4883993864059448e-01" purity="3.6950367689132690e-01" nType="-99"/>
              <Node pos="r" depth="4" NCoef="0" IVar="-1" Cut="0.0000000000000000e+00" cType="1" res="4.9825240857899189e-03" rms="3.1841704249382019e-01" purity="4.1708645224571228e-01" nType="-99"/>
            </Node>
            <Node pos="r" depth="3" NCoef="0" IVar="-1" Cut="0.0000000000000000e+00" cType="1" res="-4.1446792893111706e-03" rms="3.1554335355758667e-01" purity="3.9374560117721558e-01" nType="-99"/>
          </Node>
        </Node>
      </Node>
    </BinaryTree>
    <BinaryTree type="DecisionTree" boostWeight="1.0000000000000000e+00" itree="321">
      <Node pos="s" depth="0" NCoef="0" IVar="5" Cut="2.2984054687500000e+05" cType="1" res="-5.0720277613436338e-06" rms="3.3450883626937866e-01" purity="5.0000000000000000e-01" nType="0">
        <Node pos="l" depth="1" NCoef="0" IVar="19" Cut="5.1726859375000000e+04" cType="1" res="-2.0085087453480810e-04" rms="3.3880627155303955e-01" purity="5.3397262096405029e-01" nType="0">
          <Node pos="l" depth="2" NCoef="0" IVar="15" Cut="9.1183429956436157e-01" cType="1" res="-1.3275885721668601e-03" rms="3.3041849732398987e-01" purity="5.7043373584747314e-01" nType="0">
            <Node pos="l" depth="3" NCoef="0" IVar="2" Cut="2.8682868750000000e+05" cType="1" res="-8.9616691693663597e-03" rms="3.4812876582145691e-01" purity="4.9998572468757629e-01" nType="0">
              <Node pos="l" depth="4" NCoef="0" IVar="-1" Cut="0.0000000000000000e+00" cType="1" res="-4.1238844278268516e-04" rms="3.6928308010101318e-01" purity="5.3823173046112061e-01" nType="-99"/>
              <Node pos="r" depth="4" NCoef="0" IVar="-1" Cut="0.0000000000000000e+00" cType="1" res="-2.0035335794091225e-02" rms="3.1157109141349792e-01" purity="4.3992152810096741e-01" nType="-99"/>
            </Node>
            <Node pos="r" depth="3" NCoef="0" IVar="0" Cut="7.3333334922790527e+00" cType="1" res="-2.6041196542792022e-04" rms="3.2785236835479736e-01" purity="5.8028173446655273e-01" nType="0">
              <Node pos="l" depth="4" NCoef="0" IVar="-1" Cut="0.0000000000000000e+00" cType="1" res="1.1685403296723962e-03" rms="3.2133743166923523e-01" purity="6.2774956226348877e-01" nType="-99"/>
              <Node pos="r" depth="4" NCoef="0" IVar="-1" Cut="0.0000000000000000e+00" cType="1" res="-4.7227367758750916e-03" rms="3.5105961561203003e-01" purity="4.0297952294349670e-01" nType="-99"/>
            </Node>
          </Node>
          <Node pos="r" depth="2" NCoef="0" IVar="16" Cut="1.0875445604324341e+00" cType="1" res="9.7979779820889235e-04" rms="3.4737426042556763e-01" purity="4.9576696753501892e-01" nType="0">
            <Node pos="l" depth="3" NCoef="0" IVar="5" Cut="1.7131509375000000e+05" cType="1" res="7.0080556906759739e-03" rms="2.8416717052459717e-01" purity="7.8743231296539307e-01" nType="0">
              <Node pos="l" depth="4" NCoef="0" IVar="-1" Cut="0.0000000000000000e+00" cType="1" res="1.5355532988905907e-02" rms="2.8059610724449158e-01" purity="8.0273300409317017e-01" nType="-99"/>
              <Node pos="r" depth="4" NCoef="0" IVar="-1" Cut="0.0000000000000000e+00" cType="1" res="-1.3914749026298523e-02" rms="2.9407745599746704e-01" purity="7.4014133214950562e-01" nType="-99"/>
            </Node>
            <Node pos="r" depth="3" NCoef="0" IVar="1" Cut="1.2420907031250000e+05" cType="1" res="-4.7852992429398000e-04" rms="3.6099126935005188e-01" purity="4.2520865797996521e-01" nType="0">
              <Node pos="l" depth="4" NCoef="0" IVar="-1" Cut="0.0000000000000000e+00" cType="1" res="2.5288821780122817e-04" rms="3.6167678236961365e-01" purity="4.1502085328102112e-01" nType="-99"/>
              <Node pos="r" depth="4" NCoef="0" IVar="-1" Cut="0.0000000000000000e+00" cType="1" res="-7.3893228545784950e-03" rms="3.5297715663909912e-01" purity="5.4092723131179810e-01" nType="-99"/>
            </Node>
          </Node>
        </Node>
        <Node pos="r" depth="1" NCoef="0" IVar="11" Cut="6.9075554609298706e-01" cType="1" res="8.1086438149213791e-04" rms="3.1596851348876953e-01" purity="3.5841417312622070e-01" nType="0">
          <Node pos="l" depth="2" NCoef="0" IVar="16" Cut="1.2047272920608521e+00" cType="1" res="-3.2152053900063038e-03" rms="3.2742607593536377e-01" purity="4.8312690854072571e-01" nType="0">
            <Node pos="l" depth="3" NCoef="0" IVar="-1" Cut="0.0000000000000000e+00" cType="1" res="5.0232186913490295e-03" rms="3.0502483248710632e-01" purity="7.0884704589843750e-01" nType="-99"/>
            <Node pos="r" depth="3" NCoef="0" IVar="12" Cut="2.5023748874664307e+00" cType="1" res="-9.7308009862899780e-03" rms="3.4396943449974060e-01" purity="3.0463582277297974e-01" nType="0">
              <Node pos="l" depth="4" NCoef="0" IVar="-1" Cut="0.0000000000000000e+00" cType="1" res="-2.4507532361894846e-03" rms="3.3710727095603943e-01" purity="2.4461814761161804e-01" nType="-99"/>
              <Node pos="r" depth="4" NCoef="0" IVar="-1" Cut="0.0000000000000000e+00" cType="1" res="-1.8207347020506859e-02" rms="3.5958686470985413e-01" purity="4.5066526532173157e-01" nType="-99"/>
            </Node>
          </Node>
          <Node pos="r" depth="2" NCoef="0" IVar="16" Cut="7.7084559202194214e-01" cType="1" res="2.9274378903210163e-03" rms="3.0975419282913208e-01" purity="2.9285052418708801e-01" nType="0">
            <Node pos="l" depth="3" NCoef="0" IVar="-1" Cut="0.0000000000000000e+00" cType="1" res="-8.2366876304149628e-03" rms="3.1713694334030151e-01" purity="5.6218940019607544e-01" nType="-99"/>
            <Node pos="r" depth="3" NCoef="0" IVar="13" Cut="1.6086554527282715e+00" cType="1" res="5.0132954493165016e-03" rms="3.0834969878196716e-01" purity="2.4397861957550049e-01" nType="0">
              <Node pos="l" depth="4" NCoef="0" IVar="-1" Cut="0.0000000000000000e+00" cType="1" res="-4.0248064324259758e-03" rms="2.5792506337165833e-01" purity="1.1874695867300034e-01" nType="-99"/>
              <Node pos="r" depth="4" NCoef="0" IVar="-1" Cut="0.0000000000000000e+00" cType="1" res="7.4873375706374645e-03" rms="3.2704514265060425e-01" purity="2.9623958468437195e-01" nType="-99"/>
            </Node>
          </Node>
        </Node>
      </Node>
    </BinaryTree>
    <BinaryTree type="DecisionTree" boostWeight="1.0000000000000000e+00" itree="322">
      <Node pos="s" depth="0" NCoef="0" IVar="11" Cut="7.3745375871658325e-01" cType="1" res="-2.5744343474798370e-06" rms="3.3447101712226868e-01" purity="5.0000000000000000e-01" nType="0">
        <Node pos="l" depth="1" NCoef="0" IVar="20" Cut="2.1785007812500000e+04" cType="1" res="7.1028049569576979e-04" rms="3.2326313853263855e-01" purity="6.6764646768569946e-01" nType="0">
          <Node pos="l" depth="2" NCoef="0" IVar="20" Cut="1.3671291015625000e+04" cType="1" res="3.4148585982620716e-03" rms="3.5319235920906067e-01" purity="5.6996273994445801e-01" nType="0">
            <Node pos="l" depth="3" NCoef="0" IVar="12" Cut="2.3406798839569092e+00" cType="1" res="-1.0582229122519493e-02" rms="3.4819161891937256e-01" purity="4.5020040869712830e-01" nType="0">
              <Node pos="l" depth="4" NCoef="0" IVar="-1" Cut="0.0000000000000000e+00" cType="1" res="1.2072991812601686e-03" rms="3.6276051402091980e-01" purity="3.3052709698677063e-01" nType="-99"/>
              <Node pos="r" depth="4" NCoef="0" IVar="-1" Cut="0.0000000000000000e+00" cType="1" res="-1.7368953675031662e-02" rms="3.3210930228233337e-01" purity="5.7303154468536377e-01" nType="-99"/>
            </Node>
            <Node pos="r" depth="3" NCoef="0" IVar="8" Cut="2.0308169921875000e+04" cType="1" res="7.0922779850661755e-03" rms="3.5440281033515930e-01" purity="6.0142767429351807e-01" nType="0">
              <Node pos="l" depth="4" NCoef="0" IVar="-1" Cut="0.0000000000000000e+00" cType="1" res="2.9113879427313805e-03" rms="3.5395446419715881e-01" purity="5.8542919158935547e-01" nType="-99"/>
              <Node pos="r" depth="4" NCoef="0" IVar="-1" Cut="0.0000000000000000e+00" cType="1" res="1.6728369519114494e-02" rms="3.5601678490638733e-01" purity="6.7126238346099854e-01" nType="-99"/>
            </Node>
          </Node>
          <Node pos="r" depth="2" NCoef="0" IVar="11" Cut="4.2209556698799133e-01" cType="1" res="-8.3756033563986421e-04" rms="3.0480441451072693e-01" purity="7.2355127334594727e-01" nType="0">
            <Node pos="l" depth="3" NCoef="0" IVar="15" Cut="2.0390915870666504e+00" cType="1" res="6.4287539571523666e-03" rms="2.8164607286453247e-01" purity="7.7525764703750610e-01" nType="0">
              <Node pos="l" depth="4" NCoef="0" IVar="-1" Cut="0.0000000000000000e+00" cType="1" res="1.4986114576458931e-02" rms="2.9731002449989319e-01" purity="7.7175241708755493e-01" nType="-99"/>
              <Node pos="r" depth="4" NCoef="0" IVar="-1" Cut="0.0000000000000000e+00" cType="1" res="-1.2081531167495996e-04" rms="2.6857897639274597e-01" purity="7.7799910306930542e-01" nType="-99"/>
            </Node>
            <Node pos="r" depth="3" NCoef="0" IVar="16" Cut="9.5507872104644775e-01" cType="1" res="-3.1940261833369732e-03" rms="3.1190934777259827e-01" purity="7.0678287744522095e-01" nType="0">
              <Node pos="l" depth="4" NCoef="0" IVar="-1" Cut="0.0000000000000000e+00" cType="1" res="4.7016260214149952e-03" rms="2.5140115618705750e-01" purity="8.7452834844589233e-01" nType="-99"/>
              <Node pos="r" depth="4" NCoef="0" IVar="-1" Cut="0.0000000000000000e+00" cType="1" res="-5.9661492705345154e-03" rms="3.4793806076049805e-01" purity="5.8955371379852295e-01" nType="-99"/>
            </Node>
          </Node>
        </Node>
        <Node pos="r" depth="1" NCoef="0" IVar="11" Cut="1.5565065145492554e+00" cType="1" res="-3.2876967452466488e-04" rms="3.3947575092315674e-01" purity="4.2328667640686035e-01" nType="0">
          <Node pos="l" depth="2" NCoef="0" IVar="11" Cut="1.4004820585250854e+00" cType="1" res="-1.1640726588666439e-03" rms="3.5666641592979431e-01" purity="5.3028565645217896e-01" nType="0">
            <Node pos="l" depth="3" NCoef="0" IVar="16" Cut="1.5057002305984497e+00" cType="1" res="-3.0714931199327111e-04" rms="3.5699245333671570e-01" purity="5.4568850994110107e-01" nType="0">
              <Node pos="l" depth="4" NCoef="0" IVar="-1" Cut="0.0000000000000000e+00" cType="1" res="-2.7474416419863701e-03" rms="3.4176203608512878e-01" purity="6.7566835880279541e-01" nType="-99"/>
              <Node pos="r" depth="4" NCoef="0" IVar="-1" Cut="0.0000000000000000e+00" cType="1" res="2.4491762742400169e-03" rms="3.7559324502944946e-01" purity="3.7892881035804749e-01" nType="-99"/>
            </Node>
            <Node pos="r" depth="3" NCoef="0" IVar="16" Cut="1.5210561752319336e+00" cType="1" res="-6.1381654813885689e-03" rms="3.5472711920738220e-01" purity="4.4087857007980347e-01" nType="0">
              <Node pos="l" depth="4" NCoef="0" IVar="-1" Cut="0.0000000000000000e+00" cType="1" res="2.3735004942864180e-03" rms="3.6037299036979675e-01" purity="5.5942219495773315e-01" nType="-99"/>
              <Node pos="r" depth="4" NCoef="0" IVar="-1" Cut="0.0000000000000000e+00" cType="1" res="-1.2415202334523201e-02" rms="3.4782710671424866e-01" purity="3.0491143465042114e-01" nType="-99"/>
            </Node>
          </Node>
          <Node pos="r" depth="2" NCoef="0" IVar="0" Cut="2.3333332538604736e+00" cType="1" res="8.9033873518928885e-04" rms="3.1269067525863647e-01" purity="2.6712369918823242e-01" nType="0">
            <Node pos="l" depth="3" NCoef="0" IVar="11" Cut="1.7033499479293823e+00" cType="1" res="6.7468122579157352e-03" rms="3.0815330147743225e-01" purity="2.3728801310062408e-01" nType="0">
              <Node pos="l" depth="4" NCoef="0" IVar="-1" Cut="0.0000000000000000e+00" cType="1" res="1.8993424251675606e-02" rms="3.6111474037170410e-01" purity="3.9529496431350708e-01" nType="-99"/>
              <Node pos="r" depth="4" NCoef="0" IVar="-1" Cut="0.0000000000000000e+00" cType="1" res="2.7492172084748745e-03" rms="2.9487329721450806e-01" purity="2.0201489329338074e-01" nType="-99"/>
            </Node>
            <Node pos="r" depth="3" NCoef="0" IVar="1" Cut="1.4024484375000000e+05" cType="1" res="-1.0412291157990694e-03" rms="3.1414887309074402e-01" purity="2.7696400880813599e-01" nType="0">
              <Node pos="l" depth="4" NCoef="0" IVar="-1" Cut="0.0000000000000000e+00" cType="1" res="2.9256640118546784e-04" rms="3.1641578674316406e-01" purity="2.7707874774932861e-01" nType="-99"/>
              <Node pos="r" depth="4" NCoef="0" IVar="-1" Cut="0.0000000000000000e+00" cType="1" res="-2.3991197347640991e-02" rms="2.7641272544860840e-01" purity="2.7521142363548279e-01" nType="-99"/>
            </Node>
          </Node>
        </Node>
      </Node>
    </BinaryTree>
    <BinaryTree type="DecisionTree" boostWeight="1.0000000000000000e+00" itree="323">
      <Node pos="s" depth="0" NCoef="0" IVar="0" Cut="3.3333332538604736e+00" cType="1" res="-1.4699475059387623e-06" rms="3.3442544937133789e-01" purity="5.0000000000000000e-01" nType="0">
        <Node pos="l" depth="1" NCoef="0" IVar="10" Cut="1.9651206250000000e+05" cType="1" res="-6.1348581220954657e-04" rms="3.4632220864295959e-01" purity="4.7118261456489563e-01" nType="0">
          <Node pos="l" depth="2" NCoef="0" IVar="5" Cut="1.5695798437500000e+05" cType="1" res="3.6090490175411105e-04" rms="3.5393044352531433e-01" purity="4.8340648412704468e-01" nType="0">
            <Node pos="l" depth="3" NCoef="0" IVar="3" Cut="1.0151807812500000e+05" cType="1" res="-3.2935384660959244e-03" rms="3.5945606231689453e-01" purity="5.0566554069519043e-01" nType="0">
              <Node pos="l" depth="4" NCoef="0" IVar="-1" Cut="0.0000000000000000e+00" cType="1" res="-1.0133252479135990e-02" rms="3.7662866711616516e-01" purity="3.2355916500091553e-01" nType="-99"/>
              <Node pos="r" depth="4" NCoef="0" IVar="-1" Cut="0.0000000000000000e+00" cType="1" res="-6.5529264975339174e-04" rms="3.5603880882263184e-01" purity="5.4036015272140503e-01" nType="-99"/>
            </Node>
            <Node pos="r" depth="3" NCoef="0" IVar="15" Cut="1.8535871505737305e+00" cType="1" res="7.3472554795444012e-03" rms="3.4301093220710754e-01" purity="4.4085279107093811e-01" nType="0">
              <Node pos="l" depth="4" NCoef="0" IVar="-1" Cut="0.0000000000000000e+00" cType="1" res="1.2472397647798061e-02" rms="3.6640986800193787e-01" purity="4.3548142910003662e-01" nType="-99"/>
              <Node pos="r" depth="4" NCoef="0" IVar="-1" Cut="0.0000000000000000e+00" cType="1" res="-5.3586461581289768e-04" rms="3.2264637947082520e-01" purity="4.4519352912902832e-01" nType="-99"/>
            </Node>
          </Node>
          <Node pos="r" depth="2" NCoef="0" IVar="16" Cut="1.8903771638870239e+00" cType="1" res="-6.1298073269426823e-03" rms="2.9956910014152527e-01" purity="4.0197977423667908e-01" nType="0">
            <Node pos="l" depth="3" NCoef="0" IVar="15" Cut="1.8449679613113403e+00" cType="1" res="1.5050170477479696e-03" rms="3.0313152074813843e-01" purity="4.9681445956230164e-01" nType="0">
              <Node pos="l" depth="4" NCoef="0" IVar="-1" Cut="0.0000000000000000e+00" cType="1" res="1.2401863932609558e-02" rms="3.1502389907836914e-01" purity="4.8904010653495789e-01" nType="-99"/>
              <Node pos="r" depth="4" NCoef="0" IVar="-1" Cut="0.0000000000000000e+00" cType="1" res="-7.3563302867114544e-03" rms="2.9394009709358215e-01" purity="5.0244265794754028e-01" nType="-99"/>
            </Node>
            <Node pos="r" depth="3" NCoef="0" IVar="-1" Cut="0.0000000000000000e+00" cType="1" res="-2.0549714565277100e-02" rms="2.9194733500480652e-01" purity="2.1758653223514557e-01" nType="-99"/>
          </Node>
        </Node>
        <Node pos="r" depth="1" NCoef="0" IVar="14" Cut="3.0833916664123535e+00" cType="1" res="3.1148735433816910e-04" rms="3.2817491888999939e-01" purity="5.1473593711853027e-01" nType="0">
          <Node pos="l" depth="2" NCoef="0" IVar="15" Cut="3.1167590618133545e+00" cType="1" res="4.3525105866137892e-05" rms="3.2829928398132324e-01" purity="5.1509994268417358e-01" nType="0">
            <Node pos="l" depth="3" NCoef="0" IVar="14" Cut="1.3239674568176270e+00" cType="1" res="3.3026505843736231e-04" rms="3.2878908514976501e-01" purity="5.1775640249252319e-01" nType="0">
              <Node pos="l" depth="4" NCoef="0" IVar="-1" Cut="0.0000000000000000e+00" cType="1" res="2.2746310569345951e-03" rms="3.4376582503318787e-01" purity="4.6407455205917358e-01" nType="-99"/>
              <Node pos="r" depth="4" NCoef="0" IVar="-1" Cut="0.0000000000000000e+00" cType="1" res="-5.7330832350999117e-04" rms="3.2272416353225708e-01" purity="5.3879749774932861e-01" nType="-99"/>
            </Node>
            <Node pos="r" depth="3" NCoef="0" IVar="-1" Cut="0.0000000000000000e+00" cType="1" res="-9.3061309307813644e-03" rms="3.1092795729637146e-01" purity="4.2426183819770813e-01" nType="-99"/>
          </Node>
          <Node pos="r" depth="2" NCoef="0" IVar="9" Cut="9.4885257812500000e+04" cType="1" res="5.5741546675562859e-03" rms="3.2567813992500305e-01" purity="5.0758659839630127e-01" nType="0">
            <Node pos="l" depth="3" NCoef="0" IVar="-1" Cut="0.0000000000000000e+00" cType="1" res="-5.4170596413314342e-03" rms="3.5878384113311768e-01" purity="4.3469777703285217e-01" nType="-99"/>
            <Node pos="r" depth="3" NCoef="0" IVar="-1" Cut="0.0000000000000000e+00" cType="1" res="1.3951711356639862e-02" rms="3.0581670999526978e-01" purity="5.4747766256332397e-01" nType="-99"/>
          </Node>
        </Node>
      </Node>
    </BinaryTree>
    <BinaryTree type="DecisionTree" boostWeight="1.0000000000000000e+00" itree="324">
      <Node pos="s" depth="0" NCoef="0" IVar="15" Cut="2.2873806953430176e+00" cType="1" res="-1.3758310615230585e-06" rms="3.3439698815345764e-01" purity="5.0000000000000000e-01" nType="0">
        <Node pos="l" depth="1" NCoef="0" IVar="18" Cut="6.2517085937500000e+04" cType="1" res="-3.1132411095313728e-04" rms="3.4460306167602539e-01" purity="4.8790642619132996e-01" nType="0">
          <Node pos="l" depth="2" NCoef="0" IVar="15" Cut="2.0698602199554443e+00" cType="1" res="8.9246744755655527e-04" rms="3.5353764891624451e-01" purity="5.0363898277282715e-01" nType="0">
            <Node pos="l" depth="3" NCoef="0" IVar="15" Cut="1.9714554548263550e+00" cType="1" res="1.7769203986972570e-03" rms="3.5494875907897949e-01" purity="5.0709444284439087e-01" nType="0">
              <Node pos="l" depth="4" NCoef="0" IVar="-1" Cut="0.0000000000000000e+00" cType="1" res="6.7609752295538783e-04" rms="3.5552629828453064e-01" purity="5.0667721033096313e-01" nType="-99"/>
              <Node pos="r" depth="4" NCoef="0" IVar="-1" Cut="0.0000000000000000e+00" cType="1" res="1.5548553317785263e-02" rms="3.4268328547477722e-01" purity="5.1546382904052734e-01" nType="-99"/>
            </Node>
            <Node pos="r" depth="3" NCoef="0" IVar="10" Cut="9.8189859375000000e+04" cType="1" res="-9.5846159383654594e-03" rms="3.3619463443756104e-01" purity="4.6270635724067688e-01" nType="0">
              <Node pos="l" depth="4" NCoef="0" IVar="-1" Cut="0.0000000000000000e+00" cType="1" res="-1.7056073993444443e-02" rms="3.3509504795074463e-01" purity="3.8248726725578308e-01" nType="-99"/>
              <Node pos="r" depth="4" NCoef="0" IVar="-1" Cut="0.0000000000000000e+00" cType="1" res="3.0843992717564106e-03" rms="3.3694437146186829e-01" purity="5.5269426107406616e-01" nType="-99"/>
            </Node>
          </Node>
          <Node pos="r" depth="2" NCoef="0" IVar="13" Cut="2.6252539157867432e+00" cType="1" res="-2.0273802801966667e-03" rms="3.3144280314445496e-01" purity="4.6547895669937134e-01" nType="0">
            <Node pos="l" depth="3" NCoef="0" IVar="13" Cut="2.1253323554992676e+00" cType="1" res="-5.6634512729942799e-03" rms="3.2668310403823853e-01" purity="3.6150929331779480e-01" nType="0">
              <Node pos="l" depth="4" NCoef="0" IVar="-1" Cut="0.0000000000000000e+00" cType="1" res="6.6539284307509661e-04" rms="3.1898409128189087e-01" purity="2.7085494995117188e-01" nType="-99"/>
              <Node pos="r" depth="4" NCoef="0" IVar="-1" Cut="0.0000000000000000e+00" cType="1" res="-1.2187093496322632e-02" rms="3.3707162737846375e-01" purity="4.8979374766349792e-01" nType="-99"/>
            </Node>
            <Node pos="r" depth="3" NCoef="0" IVar="13" Cut="3.4500429630279541e+00" cType="1" res="1.7138544935733080e-03" rms="3.3622878789901733e-01" purity="5.7245564460754395e-01" nType="0">
              <Node pos="l" depth="4" NCoef="0" IVar="-1" Cut="0.0000000000000000e+00" cType="1" res="3.2500126399099827e-03" rms="3.3823585510253906e-01" purity="5.9752839803695679e-01" nType="-99"/>
              <Node pos="r" depth="4" NCoef="0" IVar="-1" Cut="0.0000000000000000e+00" cType="1" res="-1.5086611732840538e-02" rms="3.1736150383949280e-01" purity="3.5144400596618652e-01" nType="-99"/>
            </Node>
          </Node>
        </Node>
        <Node pos="r" depth="1" NCoef="0" IVar="14" Cut="2.0570728778839111e+00" cType="1" res="5.9387157671153545e-04" rms="3.1386625766754150e-01" purity="5.2322542667388916e-01" nType="0">
          <Node pos="l" depth="2" NCoef="0" IVar="16" Cut="2.1551415920257568e+00" cType="1" res="5.2048168145120144e-03" rms="3.1708270311355591e-01" purity="3.6848676204681396e-01" nType="0">
            <Node pos="l" depth="3" NCoef="0" IVar="8" Cut="7.0279539062500000e+04" cType="1" res="1.0622548870742321e-02" rms="3.3278927206993103e-01" purity="4.6703115105628967e-01" nType="0">
              <Node pos="l" depth="4" NCoef="0" IVar="-1" Cut="0.0000000000000000e+00" cType="1" res="1.2565891258418560e-02" rms="3.6753815412521362e-01" purity="6.5219467878341675e-01" nType="-99"/>
              <Node pos="r" depth="4" NCoef="0" IVar="-1" Cut="0.0000000000000000e+00" cType="1" res="-3.5557025112211704e-03" rms="2.5564208626747131e-01" purity="1.2359646707773209e-01" nType="-99"/>
            </Node>
            <Node pos="r" depth="3" NCoef="0" IVar="17" Cut="3.4175226562500000e+04" cType="1" res="-6.3447472639381886e-03" rms="2.8033113479614258e-01" purity="1.5840908885002136e-01" nType="0">
              <Node pos="l" depth="4" NCoef="0" IVar="-1" Cut="0.0000000000000000e+00" cType="1" res="-2.7099652215838432e-02" rms="2.6366055011749268e-01" purity="1.4628173410892487e-01" nType="-99"/>
              <Node pos="r" depth="4" NCoef="0" IVar="-1" Cut="0.0000000000000000e+00" cType="1" res="3.5400679334998131e-03" rms="2.8861066699028015e-01" purity="1.6504049301147461e-01" nType="-99"/>
            </Node>
          </Node>
          <Node pos="r" depth="2" NCoef="0" IVar="10" Cut="3.0305515625000000e+05" cType="1" res="-1.2727802386507392e-03" rms="3.1253540515899658e-01" purity="5.8586829900741577e-01" nType="0">
            <Node pos="l" depth="3" NCoef="0" IVar="3" Cut="3.2761500000000000e+05" cType="1" res="-5.7081930572167039e-04" rms="3.1475299596786499e-01" purity="5.9672522544860840e-01" nType="0">
              <Node pos="l" depth="4" NCoef="0" IVar="-1" Cut="0.0000000000000000e+00" cType="1" res="-1.5119877643883228e-03" rms="3.1696343421936035e-01" purity="6.0665863752365112e-01" nType="-99"/>
              <Node pos="r" depth="4" NCoef="0" IVar="-1" Cut="0.0000000000000000e+00" cType="1" res="1.9674789160490036e-02" rms="2.7963271737098694e-01" purity="4.5005017518997192e-01" nType="-99"/>
            </Node>
            <Node pos="r" depth="3" NCoef="0" IVar="-1" Cut="0.0000000000000000e+00" cType="1" res="-2.1841598674654961e-02" rms="2.5718101859092712e-01" purity="3.4176883101463318e-01" nType="-99"/>
          </Node>
        </Node>
      </Node>
    </BinaryTree>
    <BinaryTree type="DecisionTree" boostWeight="1.0000000000000000e+00" itree="325">
      <Node pos="s" depth="0" NCoef="0" IVar="16" Cut="2.2361018657684326e+00" cType="1" res="-1.1174902283528354e-06" rms="3.3434584736824036e-01" purity="5.0000000000000000e-01" nType="0">
        <Node pos="l" depth="1" NCoef="0" IVar="13" Cut="3.8395471572875977e+00" cType="1" res="-2.4305090482812375e-04" rms="3.3259725570678711e-01" purity="5.5145055055618286e-01" nType="0">
          <Node pos="l" depth="2" NCoef="0" IVar="13" Cut="3.4736108779907227e+00" cType="1" res="-4.3590346467681229e-04" rms="3.3229082822799683e-01" purity="5.5250841379165649e-01" nType="0">
            <Node pos="l" depth="3" NCoef="0" IVar="15" Cut="4.7906082868576050e-01" cType="1" res="-1.0424137144582346e-04" rms="3.3215421438217163e-01" purity="5.5226862430572510e-01" nType="0">
              <Node pos="l" depth="4" NCoef="0" IVar="-1" Cut="0.0000000000000000e+00" cType="1" res="5.9746000915765762e-03" rms="3.4709003567695618e-01" purity="5.1923710107803345e-01" nType="-99"/>
              <Node pos="r" depth="4" NCoef="0" IVar="-1" Cut="0.0000000000000000e+00" cType="1" res="-2.2916217858437449e-04" rms="3.3182615041732788e-01" purity="5.5297386646270752e-01" nType="-99"/>
            </Node>
            <Node pos="r" depth="3" NCoef="0" IVar="15" Cut="2.1112675666809082e+00" cType="1" res="-9.6819726750254631e-03" rms="3.3594486117362976e-01" purity="5.5919086933135986e-01" nType="0">
              <Node pos="l" depth="4" NCoef="0" IVar="-1" Cut="0.0000000000000000e+00" cType="1" res="-1.4515548013150692e-02" rms="3.4573379158973694e-01" purity="5.0502717494964600e-01" nType="-99"/>
              <Node pos="r" depth="4" NCoef="0" IVar="-1" Cut="0.0000000000000000e+00" cType="1" res="-1.2683615786954761e-03" rms="3.2689976692199707e-01" purity="6.0667967796325684e-01" nType="-99"/>
            </Node>
          </Node>
          <Node pos="r" depth="2" NCoef="0" IVar="-1" Cut="0.0000000000000000e+00" cType="1" res="8.8230157271027565e-03" rms="3.4961822628974915e-01" purity="4.9051591753959656e-01" nType="-99"/>
        </Node>
        <Node pos="r" depth="1" NCoef="0" IVar="5" Cut="1.7008951562500000e+05" cType="1" res="9.1445463476702571e-04" rms="3.4088045358657837e-01" purity="3.0529049038887024e-01" nType="0">
          <Node pos="l" depth="2" NCoef="0" IVar="3" Cut="1.6909540625000000e+05" cType="1" res="-1.4453676994889975e-03" rms="3.4955009818077087e-01" purity="3.3872127532958984e-01" nType="0">
            <Node pos="l" depth="3" NCoef="0" IVar="2" Cut="2.8109856250000000e+05" cType="1" res="3.4157645422965288e-03" rms="3.6983615159988403e-01" purity="3.6241614818572998e-01" nType="0">
              <Node pos="l" depth="4" NCoef="0" IVar="-1" Cut="0.0000000000000000e+00" cType="1" res="-6.0175280086696148e-03" rms="3.6920031905174255e-01" purity="3.5837858915328979e-01" nType="-99"/>
              <Node pos="r" depth="4" NCoef="0" IVar="-1" Cut="0.0000000000000000e+00" cType="1" res="1.1320405639708042e-02" rms="3.7007045745849609e-01" purity="3.6675298213958740e-01" nType="-99"/>
            </Node>
            <Node pos="r" depth="3" NCoef="0" IVar="2" Cut="4.8691662500000000e+05" cType="1" res="-7.1863960474729538e-03" rms="3.2386627793312073e-01" purity="3.1073746085166931e-01" nType="0">
              <Node pos="l" depth="4" NCoef="0" IVar="-1" Cut="0.0000000000000000e+00" cType="1" res="-1.1536281555891037e-02" rms="3.4165033698081970e-01" purity="3.3772921562194824e-01" nType="-99"/>
              <Node pos="r" depth="4" NCoef="0" IVar="-1" Cut="0.0000000000000000e+00" cType="1" res="4.4697606936097145e-03" rms="2.9463049769401550e-01" purity="2.6999348402023315e-01" nType="-99"/>
            </Node>
          </Node>
          <Node pos="r" depth="2" NCoef="0" IVar="0" Cut="1.3333333730697632e+00" cType="1" res="5.1848203875124454e-03" rms="3.2456001639366150e-01" purity="2.4479366838932037e-01" nType="0">
            <Node pos="l" depth="3" NCoef="0" IVar="-1" Cut="0.0000000000000000e+00" cType="1" res="2.1381258964538574e-02" rms="3.1670388579368591e-01" purity="2.0231488347053528e-01" nType="-99"/>
            <Node pos="r" depth="3" NCoef="0" IVar="13" Cut="2.9489095211029053e+00" cType="1" res="2.4849751498550177e-03" rms="3.2572346925735474e-01" purity="2.5161704421043396e-01" nType="0">
              <Node pos="l" depth="4" NCoef="0" IVar="-1" Cut="0.0000000000000000e+00" cType="1" res="-1.2665918329730630e-03" rms="3.1883260607719421e-01" purity="2.2280658781528473e-01" nType="-99"/>
              <Node pos="r" depth="4" NCoef="0" IVar="-1" Cut="0.0000000000000000e+00" cType="1" res="1.5547790564596653e-02" rms="3.5549509525299072e-01" purity="3.8571771979331970e-01" nType="-99"/>
            </Node>
          </Node>
        </Node>
      </Node>
    </BinaryTree>
    <BinaryTree type="DecisionTree" boostWeight="1.0000000000000000e+00" itree="326">
      <Node pos="s" depth="0" NCoef="0" IVar="13" Cut="3.2910404205322266e+00" cType="1" res="-1.4971976725064451e-06" rms="3.3431559801101685e-01" purity="5.0000000000000000e-01" nType="0">
        <Node pos="l" depth="1" NCoef="0" IVar="12" Cut="2.5661182403564453e+00" cType="1" res="-1.6821139433886856e-04" rms="3.3339598774909973e-01" purity="4.9753779172897339e-01" nType="0">
          <Node pos="l" depth="2" NCoef="0" IVar="8" Cut="5.5781242187500000e+04" cType="1" res="-1.0033966973423958e-03" rms="3.4953826665878296e-01" purity="4.4848352670669556e-01" nType="0">
            <Node pos="l" depth="3" NCoef="0" IVar="4" Cut="2.5710562500000000e+05" cType="1" res="1.6884698998183012e-03" rms="3.6912965774536133e-01" purity="5.3873747587203979e-01" nType="0">
              <Node pos="l" depth="4" NCoef="0" IVar="-1" Cut="0.0000000000000000e+00" cType="1" res="3.5837248433381319e-03" rms="3.7802577018737793e-01" purity="5.3268057107925415e-01" nType="-99"/>
              <Node pos="r" depth="4" NCoef="0" IVar="-1" Cut="0.0000000000000000e+00" cType="1" res="-1.1322660138830543e-03" rms="3.6125659942626953e-01" purity="5.4395681619644165e-01" nType="-99"/>
            </Node>
            <Node pos="r" depth="3" NCoef="0" IVar="13" Cut="2.9775912761688232e+00" cType="1" res="-6.8157548084855080e-03" rms="3.0286335945129395e-01" purity="2.5360438227653503e-01" nType="0">
              <Node pos="l" depth="4" NCoef="0" IVar="-1" Cut="0.0000000000000000e+00" cType="1" res="-1.1876947246491909e-02" rms="2.9136463999748230e-01" purity="2.1358370780944824e-01" nType="-99"/>
              <Node pos="r" depth="4" NCoef="0" IVar="-1" Cut="0.0000000000000000e+00" cType="1" res="7.7158156782388687e-03" rms="3.4958907961845398e-01" purity="4.3412649631500244e-01" nType="-99"/>
            </Node>
          </Node>
          <Node pos="r" depth="2" NCoef="0" IVar="13" Cut="9.4027531147003174e-01" cType="1" res="4.8223682097159326e-04" rms="3.2025966048240662e-01" purity="5.3574156761169434e-01" nType="0">
            <Node pos="l" depth="3" NCoef="0" IVar="-1" Cut="0.0000000000000000e+00" cType="1" res="1.4949760399758816e-02" rms="2.5879123806953430e-01" purity="1.2455615401268005e-01" nType="-99"/>
            <Node pos="r" depth="3" NCoef="0" IVar="13" Cut="1.1642520427703857e+00" cType="1" res="1.1480389366624877e-04" rms="3.2246622443199158e-01" purity="5.5216580629348755e-01" nType="0">
              <Node pos="l" depth="4" NCoef="0" IVar="-1" Cut="0.0000000000000000e+00" cType="1" res="-2.5641134008765221e-02" rms="2.2363018989562988e-01" purity="1.0947424918413162e-01" nType="-99"/>
              <Node pos="r" depth="4" NCoef="0" IVar="-1" Cut="0.0000000000000000e+00" cType="1" res="4.7575883218087256e-04" rms="3.2446226477622986e-01" purity="5.6281650066375732e-01" nType="-99"/>
            </Node>
          </Node>
        </Node>
        <Node pos="r" depth="1" NCoef="0" IVar="3" Cut="2.1333771875000000e+05" cType="1" res="1.5837901737540960e-03" rms="3.4293293952941895e-01" purity="5.2341330051422119e-01" nType="0">
          <Node pos="l" depth="2" NCoef="0" IVar="3" Cut="1.6976454687500000e+05" cType="1" res="7.6881647109985352e-03" rms="3.8250702619552612e-01" purity="6.5373742580413818e-01" nType="0">
            <Node pos="l" depth="3" NCoef="0" IVar="-1" Cut="0.0000000000000000e+00" cType="1" res="1.1891958303749561e-02" rms="3.9118328690528870e-01" purity="6.7400449514389038e-01" nType="-99"/>
            <Node pos="r" depth="3" NCoef="0" IVar="-1" Cut="0.0000000000000000e+00" cType="1" res="-4.5276805758476257e-03" rms="3.7029400467872620e-01" purity="6.2703901529312134e-01" nType="-99"/>
          </Node>
          <Node pos="r" depth="2" NCoef="0" IVar="13" Cut="3.7611930370330811e+00" cType="1" res="-2.4941014125943184e-03" rms="3.1366112828254700e-01" purity="4.3635323643684387e-01" nType="0">
            <Node pos="l" depth="3" NCoef="0" IVar="15" Cut="1.4077590703964233e+00" cType="1" res="-6.7738690413534641e-03" rms="3.1046944856643677e-01" purity="4.6679523587226868e-01" nType="0">
              <Node pos="l" depth="4" NCoef="0" IVar="-1" Cut="0.0000000000000000e+00" cType="1" res="5.7949665933847427e-03" rms="3.3829078078269958e-01" purity="4.3017625808715820e-01" nType="-99"/>
              <Node pos="r" depth="4" NCoef="0" IVar="-1" Cut="0.0000000000000000e+00" cType="1" res="-1.2667602859437466e-02" rms="2.9763495922088623e-01" purity="4.8240119218826294e-01" nType="-99"/>
            </Node>
            <Node pos="r" depth="3" NCoef="0" IVar="-1" Cut="0.0000000000000000e+00" cType="1" res="5.3886147215962410e-03" rms="3.1969910860061646e-01" purity="3.7626919150352478e-01" nType="-99"/>
          </Node>
        </Node>
      </Node>
    </BinaryTree>
    <BinaryTree type="DecisionTree" boostWeight="1.0000000000000000e+00" itree="327">
      <Node pos="s" depth="0" NCoef="0" IVar="13" Cut="2.7425336837768555e+00" cType="1" res="-2.0555607989081182e-06" rms="3.3428674936294556e-01" purity="5.0000000000000000e-01" nType="0">
        <Node pos="l" depth="1" NCoef="0" IVar="10" Cut="1.1658386718750000e+05" cType="1" res="4.1903599048964679e-04" rms="3.3388265967369080e-01" purity="4.1426411271095276e-01" nType="0">
          <Node pos="l" depth="2" NCoef="0" IVar="10" Cut="9.9823085937500000e+04" cType="1" res="1.6466724919155240e-03" rms="3.4598514437675476e-01" purity="4.1204687952995300e-01" nType="0">
            <Node pos="l" depth="3" NCoef="0" IVar="16" Cut="4.9992260336875916e-01" cType="1" res="2.8669356834143400e-04" rms="3.4747892618179321e-01" purity="3.9720252156257629e-01" nType="0">
              <Node pos="l" depth="4" NCoef="0" IVar="-1" Cut="0.0000000000000000e+00" cType="1" res="-1.2241900898516178e-02" rms="3.2655426859855652e-01" purity="5.7448297739028931e-01" nType="-99"/>
              <Node pos="r" depth="4" NCoef="0" IVar="-1" Cut="0.0000000000000000e+00" cType="1" res="6.4905383624136448e-04" rms="3.4824964404106140e-01" purity="3.9036181569099426e-01" nType="-99"/>
            </Node>
            <Node pos="r" depth="3" NCoef="0" IVar="10" Cut="1.0301677343750000e+05" cType="1" res="1.0033628903329372e-02" rms="3.3650511503219604e-01" purity="5.0359141826629639e-01" nType="0">
              <Node pos="l" depth="4" NCoef="0" IVar="-1" Cut="0.0000000000000000e+00" cType="1" res="2.5500137358903885e-02" rms="3.3670794963836670e-01" purity="5.2943837642669678e-01" nType="-99"/>
              <Node pos="r" depth="4" NCoef="0" IVar="-1" Cut="0.0000000000000000e+00" cType="1" res="3.7000735756009817e-03" rms="3.3622014522552490e-01" purity="4.9647796154022217e-01" nType="-99"/>
            </Node>
          </Node>
          <Node pos="r" depth="2" NCoef="0" IVar="14" Cut="9.4048106670379639e-01" cType="1" res="-2.7960299048572779e-03" rms="2.9985788464546204e-01" purity="4.2007082700729370e-01" nType="0">
            <Node pos="l" depth="3" NCoef="0" IVar="5" Cut="1.4031485937500000e+05" cType="1" res="-1.5182785689830780e-02" rms="3.0191943049430847e-01" purity="3.3512419462203979e-01" nType="0">
              <Node pos="l" depth="4" NCoef="0" IVar="-1" Cut="0.0000000000000000e+00" cType="1" res="-2.3922929540276527e-02" rms="3.0335685610771179e-01" purity="4.1117560863494873e-01" nType="-99"/>
              <Node pos="r" depth="4" NCoef="0" IVar="-1" Cut="0.0000000000000000e+00" cType="1" res="-5.1209651865065098e-03" rms="3.0000340938568115e-01" purity="2.5185957551002502e-01" nType="-99"/>
            </Node>
            <Node pos="r" depth="3" NCoef="0" IVar="0" Cut="2.3333332538604736e+00" cType="1" res="-8.7841821368783712e-04" rms="2.9949167370796204e-01" purity="4.3322154879570007e-01" nType="0">
              <Node pos="l" depth="4" NCoef="0" IVar="-1" Cut="0.0000000000000000e+00" cType="1" res="-9.3065397813916206e-03" rms="3.0054864287376404e-01" purity="3.6200737953186035e-01" nType="-99"/>
              <Node pos="r" depth="4" NCoef="0" IVar="-1" Cut="0.0000000000000000e+00" cType="1" res="2.2571906447410583e-03" rms="2.9905721545219421e-01" purity="4.5860087871551514e-01" nType="-99"/>
            </Node>
          </Node>
        </Node>
        <Node pos="r" depth="1" NCoef="0" IVar="19" Cut="2.9273018750000000e+05" cType="1" res="-6.0327042592689395e-04" rms="3.3486193418502808e-01" purity="6.2240970134735107e-01" nType="0">
          <Node pos="l" depth="2" NCoef="0" IVar="19" Cut="2.2285710937500000e+05" cType="1" res="-2.5512496358714998e-04" rms="3.3572235703468323e-01" purity="6.3238215446472168e-01" nType="0">
            <Node pos="l" depth="3" NCoef="0" IVar="11" Cut="2.4386377334594727e+00" cType="1" res="-6.5962033113464713e-04" rms="3.3546110987663269e-01" purity="6.4024573564529419e-01" nType="0">
              <Node pos="l" depth="4" NCoef="0" IVar="-1" Cut="0.0000000000000000e+00" cType="1" res="-9.4327412080019712e-04" rms="3.3657819032669067e-01" purity="6.5502887964248657e-01" nType="-99"/>
              <Node pos="r" depth="4" NCoef="0" IVar="-1" Cut="0.0000000000000000e+00" cType="1" res="1.4698800630867481e-02" rms="3.0089548230171204e-01" purity="2.1077197790145874e-01" nType="-99"/>
            </Node>
            <Node pos="r" depth="3" NCoef="0" IVar="-1" Cut="0.0000000000000000e+00" cType="1" res="1.1268923990428448e-02" rms="3.4480983018875122e-01" purity="3.4498739242553711e-01" nType="-99"/>
          </Node>
          <Node pos="r" depth="2" NCoef="0" IVar="-1" Cut="0.0000000000000000e+00" cType="1" res="-1.4165978878736496e-02" rms="2.9835984110832214e-01" purity="2.2630707919597626e-01" nType="-99"/>
        </Node>
      </Node>
    </BinaryTree>
    <BinaryTree type="DecisionTree" boostWeight="1.0000000000000000e+00" itree="328">
      <Node pos="s" depth="0" NCoef="0" IVar="13" Cut="3.2910404205322266e+00" cType="1" res="-1.5311666174966376e-06" rms="3.3425107598304749e-01" purity="5.0000000000000000e-01" nType="0">
        <Node pos="l" depth="1" NCoef="0" IVar="14" Cut="5.1759451627731323e-01" cType="1" res="-1.4351324352901429e-04" rms="3.3333173394203186e-01" purity="4.9753779172897339e-01" nType="0">
          <Node pos="l" depth="2" NCoef="0" IVar="10" Cut="8.8472843750000000e+04" cType="1" res="3.6740931682288647e-03" rms="3.4742647409439087e-01" purity="4.6996033191680908e-01" nType="0">
            <Node pos="l" depth="3" NCoef="0" IVar="-1" Cut="0.0000000000000000e+00" cType="1" res="-6.6153751686215401e-03" rms="3.4934094548225403e-01" purity="3.6525756120681763e-01" nType="-99"/>
            <Node pos="r" depth="3" NCoef="0" IVar="-1" Cut="0.0000000000000000e+00" cType="1" res="9.7057437524199486e-03" rms="3.4590005874633789e-01" purity="5.3971731662750244e-01" nType="-99"/>
          </Node>
          <Node pos="r" depth="2" NCoef="0" IVar="14" Cut="3.0711803436279297e+00" cType="1" res="-2.5322407600469887e-04" rms="3.3291721343994141e-01" purity="4.9833029508590698e-01" nType="0">
            <Node pos="l" depth="3" NCoef="0" IVar="12" Cut="3.8206775188446045e+00" cType="1" res="-7.7954588050488383e-05" rms="3.3340701460838318e-01" purity="5.0014597177505493e-01" nType="0">
              <Node pos="l" depth="4" NCoef="0" IVar="-1" Cut="0.0000000000000000e+00" cType="1" res="-1.7998158000409603e-04" rms="3.3396276831626892e-01" purity="5.0292241573333740e-01" nType="-99"/>
              <Node pos="r" depth="4" NCoef="0" IVar="-1" Cut="0.0000000000000000e+00" cType="1" res="1.0136420838534832e-02" rms="2.9073417186737061e-01" purity="3.0146086215972900e-01" nType="-99"/>
            </Node>
            <Node pos="r" depth="3" NCoef="0" IVar="5" Cut="1.5488910937500000e+05" cType="1" res="-3.8717812858521938e-03" rms="3.2261720299720764e-01" purity="4.6084415912628174e-01" nType="0">
              <Node pos="l" depth="4" NCoef="0" IVar="-1" Cut="0.0000000000000000e+00" cType="1" res="-1.1077807284891605e-02" rms="3.2632455229759216e-01" purity="4.9596938490867615e-01" nType="-99"/>
              <Node pos="r" depth="4" NCoef="0" IVar="-1" Cut="0.0000000000000000e+00" cType="1" res="7.3436358943581581e-03" rms="3.1745049357414246e-01" purity="4.1581043601036072e-01" nType="-99"/>
            </Node>
          </Node>
        </Node>
        <Node pos="r" depth="1" NCoef="0" IVar="15" Cut="2.8020777702331543e+00" cType="1" res="1.3485781382769346e-03" rms="3.4286698698997498e-01" purity="5.2341330051422119e-01" nType="0">
          <Node pos="l" depth="2" NCoef="0" IVar="0" Cut="7.3333334922790527e+00" cType="1" res="-5.3046882385388017e-04" rms="3.4662282466888428e-01" purity="5.0423127412796021e-01" nType="0">
            <Node pos="l" depth="3" NCoef="0" IVar="16" Cut="2.4527897834777832e+00" cType="1" res="2.9400265775620937e-03" rms="3.4672328829765320e-01" purity="5.5814629793167114e-01" nType="0">
              <Node pos="l" depth="4" NCoef="0" IVar="-1" Cut="0.0000000000000000e+00" cType="1" res="-1.4222677564248443e-03" rms="3.4185799956321716e-01" purity="5.9198653697967529e-01" nType="-99"/>
              <Node pos="r" depth="4" NCoef="0" IVar="-1" Cut="0.0000000000000000e+00" cType="1" res="1.6231609508395195e-02" rms="3.6565902829170227e-01" purity="4.1710633039474487e-01" nType="-99"/>
            </Node>
            <Node pos="r" depth="3" NCoef="0" IVar="-1" Cut="0.0000000000000000e+00" cType="1" res="-9.0853208675980568e-03" rms="3.4605073928833008e-01" purity="3.2784026861190796e-01" nType="-99"/>
          </Node>
          <Node pos="r" depth="2" NCoef="0" IVar="-1" Cut="0.0000000000000000e+00" cType="1" res="9.5545854419469833e-03" rms="3.2410439848899841e-01" purity="6.1538326740264893e-01" nType="-99"/>
        </Node>
      </Node>
    </BinaryTree>
    <BinaryTree type="DecisionTree" boostWeight="1.0000000000000000e+00" itree="329">
      <Node pos="s" depth="0" NCoef="0" IVar="13" Cut="2.7425336837768555e+00" cType="1" res="-1.2050600162183400e-06" rms="3.3423423767089844e-01" purity="5.0000000000000000e-01" nType="0">
        <Node pos="l" depth="1" NCoef="0" IVar="10" Cut="1.7524593750000000e+05" cType="1" res="3.8277456769719720e-04" rms="3.3382618427276611e-01" purity="4.1426411271095276e-01" nType="0">
          <Node pos="l" depth="2" NCoef="0" IVar="1" Cut="2.1029792187500000e+05" cType="1" res="9.3370443210005760e-04" rms="3.3956626057624817e-01" purity="4.2466828227043152e-01" nType="0">
            <Node pos="l" depth="3" NCoef="0" IVar="1" Cut="1.4023998437500000e+05" cType="1" res="1.1739565525203943e-03" rms="3.3986499905586243e-01" purity="4.2653161287307739e-01" nType="0">
              <Node pos="l" depth="4" NCoef="0" IVar="-1" Cut="0.0000000000000000e+00" cType="1" res="4.2661870247684419e-04" rms="3.3914238214492798e-01" purity="4.1796445846557617e-01" nType="-99"/>
              <Node pos="r" depth="4" NCoef="0" IVar="-1" Cut="0.0000000000000000e+00" cType="1" res="9.1079324483871460e-03" rms="3.5078722238540649e-01" purity="5.6017559766769409e-01" nType="-99"/>
            </Node>
            <Node pos="r" depth="3" NCoef="0" IVar="-1" Cut="0.0000000000000000e+00" cType="1" res="-9.3279685825109482e-03" rms="3.2517775893211365e-01" purity="3.3803868293762207e-01" nType="-99"/>
          </Node>
          <Node pos="r" depth="2" NCoef="0" IVar="20" Cut="7.1506710937500000e+04" cType="1" res="-4.9615791067481041e-03" rms="2.7186870574951172e-01" purity="3.1333717703819275e-01" nType="0">
            <Node pos="l" depth="3" NCoef="0" IVar="18" Cut="1.7231245312500000e+05" cType="1" res="-1.1043767444789410e-02" rms="3.4513086080551147e-01" purity="5.5870217084884644e-01" nType="0">
              <Node pos="l" depth="4" NCoef="0" IVar="-1" Cut="0.0000000000000000e+00" cType="1" res="-1.4121835120022297e-02" rms="3.4159356355667114e-01" purity="5.9706372022628784e-01" nType="-99"/>
              <Node pos="r" depth="4" NCoef="0" IVar="-1" Cut="0.0000000000000000e+00" cType="1" res="1.2588752433657646e-03" rms="3.5102039575576782e-01" purity="4.9005216360092163e-01" nType="-99"/>
            </Node>
            <Node pos="r" depth="3" NCoef="0" IVar="16" Cut="1.7515007257461548e+00" cType="1" res="1.6592941246926785e-03" rms="1.5691493451595306e-01" purity="4.6240873634815216e-02" nType="0">
              <Node pos="l" depth="4" NCoef="0" IVar="-1" Cut="0.0000000000000000e+00" cType="1" res="2.0944317802786827e-02" rms="1.9391532242298126e-01" purity="7.6725549995899200e-02" nType="-99"/>
              <Node pos="r" depth="4" NCoef="0" IVar="-1" Cut="0.0000000000000000e+00" cType="1" res="-2.6063878089189529e-02" rms="1.0746009647846222e-01" purity="1.5691503882408142e-02" nType="-99"/>
            </Node>
          </Node>
        </Node>
        <Node pos="r" depth="1" NCoef="0" IVar="18" Cut="1.2264396093750000e+05" cType="1" res="-5.4943328723311424e-04" rms="3.3481517434120178e-01" purity="6.2240970134735107e-01" nType="0">
          <Node pos="l" depth="2" NCoef="0" IVar="17" Cut="1.5461879687500000e+05" cType="1" res="-1.7632361268624663e-03" rms="3.4608259797096252e-01" purity="6.2463515996932983e-01" nType="0">
            <Node pos="l" depth="3" NCoef="0" IVar="1" Cut="8.3228843750000000e+04" cType="1" res="-6.6409044666215777e-04" rms="3.4972670674324036e-01" purity="6.3048517704010010e-01" nType="0">
              <Node pos="l" depth="4" NCoef="0" IVar="-1" Cut="0.0000000000000000e+00" cType="1" res="-2.5038714520633221e-03" rms="3.5916432738304138e-01" purity="5.8497941493988037e-01" nType="-99"/>
              <Node pos="r" depth="4" NCoef="0" IVar="-1" Cut="0.0000000000000000e+00" cType="1" res="5.9226937592029572e-03" rms="3.2309618592262268e-01" purity="7.5186967849731445e-01" nType="-99"/>
            </Node>
            <Node pos="r" depth="3" NCoef="0" IVar="-1" Cut="0.0000000000000000e+00" cType="1" res="-2.1316671743988991e-02" rms="2.8452539443969727e-01" purity="5.3576004505157471e-01" nType="-99"/>
          </Node>
          <Node pos="r" depth="2" NCoef="0" IVar="12" Cut="2.2607796192169189e+00" cType="1" res="3.0159926973283291e-03" rms="2.9924654960632324e-01" purity="6.1587274074554443e-01" nType="0">
            <Node pos="l" depth="3" NCoef="0" IVar="-1" Cut="0.0000000000000000e+00" cType="1" res="1.4206279069185257e-02" rms="3.3832907676696777e-01" purity="4.9032446742057800e-01" nType="-99"/>
            <Node pos="r" depth="3" NCoef="0" IVar="0" Cut="6.3333334922790527e+00" cType="1" res="8.9344504522159696e-04" rms="2.9270488023757935e-01" purity="6.3521337509155273e-01" nType="0">
              <Node pos="l" depth="4" NCoef="0" IVar="-1" Cut="0.0000000000000000e+00" cType="1" res="5.5336104705929756e-03" rms="2.7848589420318604e-01" purity="7.2249966859817505e-01" nType="-99"/>
              <Node pos="r" depth="4" NCoef="0" IVar="-1" Cut="0.0000000000000000e+00" cType="1" res="-4.9464344047009945e-03" rms="3.1489056348800659e-01" purity="4.8969414830207825e-01" nType="-99"/>
            </Node>
          </Node>
        </Node>
      </Node>
    </BinaryTree>
    <BinaryTree type="DecisionTree" boostWeight="1.0000000000000000e+00" itree="330">
      <Node pos="s" depth="0" NCoef="0" IVar="11" Cut="7.3745375871658325e-01" cType="1" res="-4.9991740525001660e-07" rms="3.3420726656913757e-01" purity="5.0000000000000000e-01" nType="0">
        <Node pos="l" depth="1" NCoef="0" IVar="12" Cut="3.0149750709533691e+00" cType="1" res="6.9645355688408017e-04" rms="3.2300910353660583e-01" purity="6.6764646768569946e-01" nType="0">
          <Node pos="l" depth="2" NCoef="0" IVar="11" Cut="6.3506704568862915e-01" cType="1" res="-5.9740507276728749e-04" rms="3.2789304852485657e-01" purity="6.2829548120498657e-01" nType="0">
            <Node pos="l" depth="3" NCoef="0" IVar="4" Cut="5.3185218750000000e+05" cType="1" res="9.2291494365781546e-04" rms="3.2319667935371399e-01" purity="6.4344114065170288e-01" nType="0">
              <Node pos="l" depth="4" NCoef="0" IVar="-1" Cut="0.0000000000000000e+00" cType="1" res="2.6078312657773495e-03" rms="3.2487758994102478e-01" purity="7.0082259178161621e-01" nType="-99"/>
              <Node pos="r" depth="4" NCoef="0" IVar="-1" Cut="0.0000000000000000e+00" cType="1" res="-7.0760245434939861e-03" rms="3.1595826148986816e-01" purity="4.0443536639213562e-01" nType="-99"/>
            </Node>
            <Node pos="r" depth="3" NCoef="0" IVar="12" Cut="1.7729499340057373e+00" cType="1" res="-6.0855932533740997e-03" rms="3.4425806999206543e-01" purity="5.7362157106399536e-01" nType="0">
              <Node pos="l" depth="4" NCoef="0" IVar="-1" Cut="0.0000000000000000e+00" cType="1" res="-1.5513322316110134e-02" rms="3.4041762351989746e-01" purity="2.8327375650405884e-01" nType="-99"/>
              <Node pos="r" depth="4" NCoef="0" IVar="-1" Cut="0.0000000000000000e+00" cType="1" res="-1.3441205956041813e-03" rms="3.4535610675811768e-01" purity="6.6637718677520752e-01" nType="-99"/>
            </Node>
          </Node>
          <Node pos="r" depth="2" NCoef="0" IVar="20" Cut="1.9614304687500000e+04" cType="1" res="4.1693444363772869e-03" rms="3.0949240922927856e-01" purity="7.7326971292495728e-01" nType="0">
            <Node pos="l" depth="3" NCoef="0" IVar="-1" Cut="0.0000000000000000e+00" cType="1" res="1.2498436495661736e-02" rms="3.4674525260925293e-01" purity="6.9202905893325806e-01" nType="-99"/>
            <Node pos="r" depth="3" NCoef="0" IVar="20" Cut="3.3349957031250000e+04" cType="1" res="1.0049887350760400e-04" rms="2.9576507210731506e-01" purity="8.0066233873367310e-01" nType="0">
              <Node pos="l" depth="4" NCoef="0" IVar="-1" Cut="0.0000000000000000e+00" cType="1" res="-6.5797995775938034e-03" rms="3.0677920579910278e-01" purity="8.2698643207550049e-01" nType="-99"/>
              <Node pos="r" depth="4" NCoef="0" IVar="-1" Cut="0.0000000000000000e+00" cType="1" res="8.0987196415662766e-03" rms="2.8340220451354980e-01" purity="7.7262228727340698e-01" nType="-99"/>
            </Node>
          </Node>
        </Node>
        <Node pos="r" depth="1" NCoef="0" IVar="14" Cut="2.8268120288848877e+00" cType="1" res="-3.1941878842189908e-04" rms="3.3920767903327942e-01" purity="4.2328667640686035e-01" nType="0">
          <Node pos="l" depth="2" NCoef="0" IVar="0" Cut="6.3333334922790527e+00" cType="1" res="-6.8595691118389368e-04" rms="3.4080502390861511e-01" purity="4.1783323884010315e-01" nType="0">
            <Node pos="l" depth="3" NCoef="0" IVar="0" Cut="2.1904761791229248e+00" cType="1" res="-1.5863267472013831e-03" rms="3.4070888161659241e-01" purity="4.8090216517448425e-01" nType="0">
              <Node pos="l" depth="4" NCoef="0" IVar="-1" Cut="0.0000000000000000e+00" cType="1" res="9.4788428395986557e-04" rms="3.4443649649620056e-01" purity="3.7926435470581055e-01" nType="-99"/>
              <Node pos="r" depth="4" NCoef="0" IVar="-1" Cut="0.0000000000000000e+00" cType="1" res="-2.9700696468353271e-03" rms="3.3806484937667847e-01" purity="5.5196094512939453e-01" nType="-99"/>
            </Node>
            <Node pos="r" depth="3" NCoef="0" IVar="14" Cut="1.3483989238739014e+00" cType="1" res="6.6940847318619490e-04" rms="3.4094518423080444e-01" purity="3.2289293408393860e-01" nType="0">
              <Node pos="l" depth="4" NCoef="0" IVar="-1" Cut="0.0000000000000000e+00" cType="1" res="4.4803707860410213e-03" rms="3.4912610054016113e-01" purity="3.1124487519264221e-01" nType="-99"/>
              <Node pos="r" depth="4" NCoef="0" IVar="-1" Cut="0.0000000000000000e+00" cType="1" res="-1.5545976348221302e-03" rms="3.3665144443511963e-01" purity="3.2885611057281494e-01" nType="-99"/>
            </Node>
          </Node>
          <Node pos="r" depth="2" NCoef="0" IVar="10" Cut="8.0456218750000000e+04" cType="1" res="2.8189762961119413e-03" rms="3.2519283890724182e-01" purity="4.6998003125190735e-01" nType="0">
            <Node pos="l" depth="3" NCoef="0" IVar="14" Cut="3.0712032318115234e+00" cType="1" res="1.0673470795154572e-02" rms="3.4597283601760864e-01" purity="4.3660795688629150e-01" nType="0">
              <Node pos="l" depth="4" NCoef="0" IVar="-1" Cut="0.0000000000000000e+00" cType="1" res="1.7256136983633041e-02" rms="3.5013306140899658e-01" purity="4.8813089728355408e-01" nType="-99"/>
              <Node pos="r" depth="4" NCoef="0" IVar="-1" Cut="0.0000000000000000e+00" cType="1" res="-4.7780959866940975e-03" rms="3.3944696187973022e-01" purity="3.6540380120277405e-01" nType="-99"/>
            </Node>
            <Node pos="r" depth="3" NCoef="0" IVar="15" Cut="2.0582587718963623e+00" cType="1" res="-1.7035176279023290e-03" rms="3.1251245737075806e-01" purity="4.8919513821601868e-01" nType="0">
              <Node pos="l" depth="4" NCoef="0" IVar="-1" Cut="0.0000000000000000e+00" cType="1" res="-1.7221095040440559e-02" rms="2.9375463724136353e-01" purity="3.4578871726989746e-01" nType="-99"/>
              <Node pos="r" depth="4" NCoef="0" IVar="-1" Cut="0.0000000000000000e+00" cType="1" res="2.7676809113472700e-03" rms="3.1785520911216736e-01" purity="5.3280007839202881e-01" nType="-99"/>
            </Node>
          </Node>
        </Node>
      </Node>
    </BinaryTree>
    <BinaryTree type="DecisionTree" boostWeight="1.0000000000000000e+00" itree="331">
      <Node pos="s" depth="0" NCoef="0" IVar="14" Cut="1.2873336076736450e+00" cType="1" res="-1.7824672227106930e-07" rms="3.3417972922325134e-01" purity="5.0000000000000000e-01" nType="0">
        <Node pos="l" depth="1" NCoef="0" IVar="8" Cut="8.6915000000000000e+04" cType="1" res="-8.5730745922774076e-04" rms="3.4592121839523315e-01" purity="4.4710662961006165e-01" nType="0">
          <Node pos="l" depth="2" NCoef="0" IVar="20" Cut="1.6582091796875000e+04" cType="1" res="-2.0206996705383062e-03" rms="3.7012124061584473e-01" purity="5.2278196811676025e-01" nType="0">
            <Node pos="l" depth="3" NCoef="0" IVar="-1" Cut="0.0000000000000000e+00" cType="1" res="-1.4357417821884155e-02" rms="3.5584107041358948e-01" purity="4.1247835755348206e-01" nType="-99"/>
            <Node pos="r" depth="3" NCoef="0" IVar="6" Cut="1.3918668750000000e+05" cType="1" res="-4.8675286234356463e-04" rms="3.7121987342834473e-01" purity="5.3177994489669800e-01" nType="0">
              <Node pos="l" depth="4" NCoef="0" IVar="-1" Cut="0.0000000000000000e+00" cType="1" res="-4.1373861022293568e-03" rms="3.8932344317436218e-01" purity="4.6912583708763123e-01" nType="-99"/>
              <Node pos="r" depth="4" NCoef="0" IVar="-1" Cut="0.0000000000000000e+00" cType="1" res="2.7118909638375044e-03" rms="3.5839027166366577e-01" purity="5.7418251037597656e-01" nType="-99"/>
            </Node>
          </Node>
          <Node pos="r" depth="2" NCoef="0" IVar="21" Cut="1.0226458593750000e+05" cType="1" res="5.3149401210248470e-03" rms="1.6638264060020447e-01" purity="4.5619469135999680e-02" nType="0">
            <Node pos="l" depth="3" NCoef="0" IVar="-1" Cut="0.0000000000000000e+00" cType="1" res="3.2594025135040283e-02" rms="2.6443350315093994e-01" purity="1.3172684609889984e-01" nType="-99"/>
            <Node pos="r" depth="3" NCoef="0" IVar="10" Cut="1.0637302343750000e+05" cType="1" res="-2.2021365293767303e-04" rms="1.1255645751953125e-01" purity="1.5253487974405289e-02" nType="0">
              <Node pos="l" depth="4" NCoef="0" IVar="-1" Cut="0.0000000000000000e+00" cType="1" res="4.6158485114574432e-02" rms="1.5370635688304901e-01" purity="2.7233297005295753e-02" nType="-99"/>
              <Node pos="r" depth="4" NCoef="0" IVar="-1" Cut="0.0000000000000000e+00" cType="1" res="-4.0119528770446777e-02" rms="8.0886095762252808e-02" purity="8.6186788976192474e-03" nType="-99"/>
            </Node>
          </Node>
        </Node>
        <Node pos="r" depth="1" NCoef="0" IVar="13" Cut="8.2268905639648438e-01" cType="1" res="2.9119459213688970e-04" rms="3.3009269833564758e-01" purity="5.1798057556152344e-01" nType="0">
          <Node pos="l" depth="2" NCoef="0" IVar="9" Cut="9.0413226562500000e+04" cType="1" res="-3.5092735197395086e-03" rms="3.0657798051834106e-01" purity="1.8005020916461945e-01" nType="0">
            <Node pos="l" depth="3" NCoef="0" IVar="14" Cut="2.3452348709106445e+00" cType="1" res="1.3234637444838881e-03" rms="3.4252336621284485e-01" purity="2.2755868732929230e-01" nType="0">
              <Node pos="l" depth="4" NCoef="0" IVar="-1" Cut="0.0000000000000000e+00" cType="1" res="-6.9680470041930676e-03" rms="3.2895928621292114e-01" purity="2.0574328303337097e-01" nType="-99"/>
              <Node pos="r" depth="4" NCoef="0" IVar="-1" Cut="0.0000000000000000e+00" cType="1" res="1.0734037496149540e-02" rms="3.5923421382904053e-01" purity="2.5634944438934326e-01" nType="-99"/>
            </Node>
            <Node pos="r" depth="3" NCoef="0" IVar="-1" Cut="0.0000000000000000e+00" cType="1" res="-4.0796224027872086e-02" rms="1.7463703453540802e-01" purity="5.1247812807559967e-02" nType="-99"/>
          </Node>
          <Node pos="r" depth="2" NCoef="0" IVar="12" Cut="2.2408330440521240e+00" cType="1" res="4.9978768220171332e-04" rms="3.3133375644683838e-01" purity="5.3652828931808472e-01" nType="0">
            <Node pos="l" depth="3" NCoef="0" IVar="12" Cut="1.1320288181304932e+00" cType="1" res="2.3878454230725765e-03" rms="3.5481375455856323e-01" purity="4.3578591942787170e-01" nType="0">
              <Node pos="l" depth="4" NCoef="0" IVar="-1" Cut="0.0000000000000000e+00" cType="1" res="1.0926044546067715e-02" rms="3.5578483343124390e-01" purity="2.8908979892730713e-01" nType="-99"/>
              <Node pos="r" depth="4" NCoef="0" IVar="-1" Cut="0.0000000000000000e+00" cType="1" res="9.3607767485082150e-04" rms="3.5470008850097656e-01" purity="4.4966909289360046e-01" nType="-99"/>
            </Node>
            <Node pos="r" depth="3" NCoef="0" IVar="12" Cut="2.4114606380462646e+00" cType="1" res="-1.4395224570762366e-04" rms="3.2293564081192017e-01" purity="5.7087677717208862e-01" nType="0">
              <Node pos="l" depth="4" NCoef="0" IVar="-1" Cut="0.0000000000000000e+00" cType="1" res="-3.9295484311878681e-03" rms="3.4859076142311096e-01" purity="5.2919328212738037e-01" nType="-99"/>
              <Node pos="r" depth="4" NCoef="0" IVar="-1" Cut="0.0000000000000000e+00" cType="1" res="3.4623724059201777e-04" rms="3.2000717520713806e-01" purity="5.7542568445205688e-01" nType="-99"/>
            </Node>
          </Node>
        </Node>
      </Node>
    </BinaryTree>
    <BinaryTree type="DecisionTree" boostWeight="1.0000000000000000e+00" itree="332">
      <Node pos="s" depth="0" NCoef="0" IVar="12" Cut="1.2675663232803345e+00" cType="1" res="-3.1227943964040605e-06" rms="3.3415061235427856e-01" purity="5.0000000000000000e-01" nType="0">
        <Node pos="l" depth="1" NCoef="0" IVar="20" Cut="2.4724835937500000e+04" cType="1" res="-2.3084655404090881e-03" rms="3.4128484129905701e-01" purity="2.4588495492935181e-01" nType="0">
          <Node pos="l" depth="2" NCoef="0" IVar="13" Cut="9.5288974046707153e-01" cType="1" res="2.7416590601205826e-03" rms="3.5238888859748840e-01" purity="2.6402410864830017e-01" nType="0">
            <Node pos="l" depth="3" NCoef="0" IVar="-1" Cut="0.0000000000000000e+00" cType="1" res="-5.0898734480142593e-03" rms="3.3448603749275208e-01" purity="2.0977559685707092e-01" nType="-99"/>
            <Node pos="r" depth="3" NCoef="0" IVar="-1" Cut="0.0000000000000000e+00" cType="1" res="9.0837404131889343e-03" rms="3.7159380316734314e-01" purity="3.2629421353340149e-01" nType="-99"/>
          </Node>
          <Node pos="r" depth="2" NCoef="0" IVar="-1" Cut="0.0000000000000000e+00" cType="1" res="-7.7576236799359322e-03" rms="3.2646283507347107e-01" purity="2.2275155782699585e-01" nType="-99"/>
        </Node>
        <Node pos="r" depth="1" NCoef="0" IVar="11" Cut="7.3745375871658325e-01" cType="1" res="1.0624583956087008e-04" rms="3.3380797505378723e-01" purity="5.1205557584762573e-01" nType="0">
          <Node pos="l" depth="2" NCoef="0" IVar="2" Cut="3.1039903125000000e+05" cType="1" res="9.6423825016245246e-04" rms="3.2147037982940674e-01" purity="7.1425062417984009e-01" nType="0">
            <Node pos="l" depth="3" NCoef="0" IVar="6" Cut="9.4837148437500000e+04" cType="1" res="4.5092077925801277e-03" rms="3.2876101136207581e-01" purity="7.3836308717727661e-01" nType="0">
              <Node pos="l" depth="4" NCoef="0" IVar="-1" Cut="0.0000000000000000e+00" cType="1" res="1.7850363627076149e-02" rms="3.8577604293823242e-01" purity="4.4902962446212769e-01" nType="-99"/>
              <Node pos="r" depth="4" NCoef="0" IVar="-1" Cut="0.0000000000000000e+00" cType="1" res="4.6254665357992053e-04" rms="3.1772229075431824e-01" purity="7.8827041387557983e-01" nType="-99"/>
            </Node>
            <Node pos="r" depth="3" NCoef="0" IVar="0" Cut="2.3333332538604736e+00" cType="1" res="-4.9499073065817356e-04" rms="3.1840935349464417e-01" purity="7.0432507991790771e-01" nType="0">
              <Node pos="l" depth="4" NCoef="0" IVar="-1" Cut="0.0000000000000000e+00" cType="1" res="-5.6219128891825676e-03" rms="3.5751837491989136e-01" purity="6.2037146091461182e-01" nType="-99"/>
              <Node pos="r" depth="4" NCoef="0" IVar="-1" Cut="0.0000000000000000e+00" cType="1" res="1.8219521734863520e-03" rms="3.0438202619552612e-01" purity="7.3200291395187378e-01" nType="-99"/>
            </Node>
          </Node>
          <Node pos="r" depth="2" NCoef="0" IVar="14" Cut="1.8004931211471558e+00" cType="1" res="-2.5654956698417664e-04" rms="3.3888909220695496e-01" purity="4.2655897140502930e-01" nType="0">
            <Node pos="l" depth="3" NCoef="0" IVar="17" Cut="1.0428966406250000e+05" cType="1" res="-1.3867879752069712e-03" rms="3.4535798430442810e-01" purity="3.9016467332839966e-01" nType="0">
              <Node pos="l" depth="4" NCoef="0" IVar="-1" Cut="0.0000000000000000e+00" cType="1" res="-1.7755244334693998e-04" rms="3.5390731692314148e-01" purity="4.1532021760940552e-01" nType="-99"/>
              <Node pos="r" depth="4" NCoef="0" IVar="-1" Cut="0.0000000000000000e+00" cType="1" res="-1.8131965771317482e-02" rms="2.5091174244880676e-01" purity="1.5374496579170227e-01" nType="-99"/>
            </Node>
            <Node pos="r" depth="3" NCoef="0" IVar="12" Cut="1.4845184087753296e+00" cType="1" res="8.4105908172205091e-04" rms="3.3248284459114075e-01" purity="4.6190255880355835e-01" nType="0">
              <Node pos="l" depth="4" NCoef="0" IVar="-1" Cut="0.0000000000000000e+00" cType="1" res="1.0885357856750488e-02" rms="3.5587030649185181e-01" purity="3.1831070780754089e-01" nType="-99"/>
              <Node pos="r" depth="4" NCoef="0" IVar="-1" Cut="0.0000000000000000e+00" cType="1" res="3.5533876507543027e-04" rms="3.3168330788612366e-01" purity="4.6658745408058167e-01" nType="-99"/>
            </Node>
          </Node>
        </Node>
      </Node>
    </BinaryTree>
    <BinaryTree type="DecisionTree" boostWeight="1.0000000000000000e+00" itree="333">
      <Node pos="s" depth="0" NCoef="0" IVar="5" Cut="4.3468087500000000e+05" cType="1" res="-3.0337396310642362e-06" rms="3.3413335680961609e-01" purity="5.0000000000000000e-01" nType="0">
        <Node pos="l" depth="1" NCoef="0" IVar="5" Cut="3.5664606250000000e+05" cType="1" res="-1.0863903298741207e-04" rms="3.3668902516365051e-01" purity="5.1539814472198486e-01" nType="0">
          <Node pos="l" depth="2" NCoef="0" IVar="12" Cut="1.3114439249038696e+00" cType="1" res="-2.7047609910368919e-04" rms="3.3735775947570801e-01" purity="5.2139735221862793e-01" nType="0">
            <Node pos="l" depth="3" NCoef="0" IVar="9" Cut="4.6712914062500000e+04" cType="1" res="-5.3544510155916214e-03" rms="3.6012959480285645e-01" purity="2.8438881039619446e-01" nType="0">
              <Node pos="l" depth="4" NCoef="0" IVar="-1" Cut="0.0000000000000000e+00" cType="1" res="1.3239852851256728e-03" rms="3.7869593501091003e-01" purity="3.3312448859214783e-01" nType="-99"/>
              <Node pos="r" depth="4" NCoef="0" IVar="-1" Cut="0.0000000000000000e+00" cType="1" res="-2.2284211590886116e-02" rms="3.0969136953353882e-01" purity="1.6597811877727509e-01" nType="-99"/>
            </Node>
            <Node pos="r" depth="3" NCoef="0" IVar="5" Cut="2.9347156250000000e+05" cType="1" res="-5.1668146625161171e-05" rms="3.3634135127067566e-01" purity="5.3159791231155396e-01" nType="0">
              <Node pos="l" depth="4" NCoef="0" IVar="-1" Cut="0.0000000000000000e+00" cType="1" res="1.9012330449186265e-04" rms="3.3693486452102661e-01" purity="5.3725898265838623e-01" nType="-99"/>
              <Node pos="r" depth="4" NCoef="0" IVar="-1" Cut="0.0000000000000000e+00" cType="1" res="-5.9060263447463512e-03" rms="3.2239091396331787e-01" purity="4.0200895071029663e-01" nType="-99"/>
            </Node>
          </Node>
          <Node pos="r" depth="2" NCoef="0" IVar="2" Cut="6.5339300000000000e+05" cType="1" res="4.7294879332184792e-03" rms="3.1600615382194519e-01" purity="3.3605244755744934e-01" nType="0">
            <Node pos="l" depth="3" NCoef="0" IVar="-1" Cut="0.0000000000000000e+00" cType="1" res="1.6969548538327217e-02" rms="3.6691567301750183e-01" purity="5.0717961788177490e-01" nType="-99"/>
            <Node pos="r" depth="3" NCoef="0" IVar="-1" Cut="0.0000000000000000e+00" cType="1" res="-6.9499295204877853e-03" rms="2.8343859314918518e-01" purity="2.4155229330062866e-01" nType="-99"/>
          </Node>
        </Node>
        <Node pos="r" depth="1" NCoef="0" IVar="13" Cut="2.6363556385040283e+00" cType="1" res="1.9999323412775993e-03" rms="2.8129160404205322e-01" purity="2.0795036852359772e-01" nType="0">
          <Node pos="l" depth="2" NCoef="0" IVar="18" Cut="1.4799370312500000e+05" cType="1" res="4.9592037685215473e-03" rms="2.7869886159896851e-01" purity="1.7606230080127716e-01" nType="0">
            <Node pos="l" depth="3" NCoef="0" IVar="-1" Cut="0.0000000000000000e+00" cType="1" res="-6.4482335001230240e-03" rms="2.9044261574745178e-01" purity="1.7966321110725403e-01" nType="-99"/>
            <Node pos="r" depth="3" NCoef="0" IVar="15" Cut="2.2136006355285645e+00" cType="1" res="1.0801175609230995e-02" rms="2.7216193079948425e-01" purity="1.7417582869529724e-01" nType="0">
              <Node pos="l" depth="4" NCoef="0" IVar="-1" Cut="0.0000000000000000e+00" cType="1" res="2.6952262967824936e-02" rms="2.8829103708267212e-01" purity="1.7831005156040192e-01" nType="-99"/>
              <Node pos="r" depth="4" NCoef="0" IVar="-1" Cut="0.0000000000000000e+00" cType="1" res="3.3030016347765923e-03" rms="2.5740495324134827e-01" purity="1.7067091166973114e-01" nType="-99"/>
            </Node>
          </Node>
          <Node pos="r" depth="2" NCoef="0" IVar="-1" Cut="0.0000000000000000e+00" cType="1" res="-5.7109827175736427e-03" rms="2.8751024603843689e-01" purity="2.8730565309524536e-01" nType="-99"/>
        </Node>
      </Node>
    </BinaryTree>
    <BinaryTree type="DecisionTree" boostWeight="1.0000000000000000e+00" itree="334">
      <Node pos="s" depth="0" NCoef="0" IVar="5" Cut="2.2984054687500000e+05" cType="1" res="-3.3306239402008941e-06" rms="3.3411297202110291e-01" purity="5.0000000000000000e-01" nType="0">
        <Node pos="l" depth="1" NCoef="0" IVar="5" Cut="2.0057528125000000e+05" cType="1" res="-2.0211558148730546e-04" rms="3.3844888210296631e-01" purity="5.3397262096405029e-01" nType="0">
          <Node pos="l" depth="2" NCoef="0" IVar="5" Cut="1.7549257812500000e+05" cType="1" res="-4.6900668530724943e-04" rms="3.3872395753860474e-01" purity="5.3552520275115967e-01" nType="0">
            <Node pos="l" depth="3" NCoef="0" IVar="0" Cut="3.3333332538604736e+00" cType="1" res="5.2643135859398171e-05" rms="3.3951821923255920e-01" purity="5.3652304410934448e-01" nType="0">
              <Node pos="l" depth="4" NCoef="0" IVar="-1" Cut="0.0000000000000000e+00" cType="1" res="-1.7388536361977458e-03" rms="3.5248282551765442e-01" purity="5.0222319364547729e-01" nType="-99"/>
              <Node pos="r" depth="4" NCoef="0" IVar="-1" Cut="0.0000000000000000e+00" cType="1" res="1.0485075181350112e-03" rms="3.3284801244735718e-01" purity="5.5365371704101562e-01" nType="-99"/>
            </Node>
            <Node pos="r" depth="3" NCoef="0" IVar="17" Cut="1.1436646875000000e+05" cType="1" res="-7.3690679855644703e-03" rms="3.2795897126197815e-01" purity="5.2232539653778076e-01" nType="0">
              <Node pos="l" depth="4" NCoef="0" IVar="-1" Cut="0.0000000000000000e+00" cType="1" res="-1.4280409552156925e-02" rms="3.4281119704246521e-01" purity="4.9949607253074646e-01" nType="-99"/>
              <Node pos="r" depth="4" NCoef="0" IVar="-1" Cut="0.0000000000000000e+00" cType="1" res="9.3368273228406906e-03" rms="3.0296656489372253e-01" purity="5.5743551254272461e-01" nType="-99"/>
            </Node>
          </Node>
          <Node pos="r" depth="2" NCoef="0" IVar="14" Cut="2.2510862350463867e+00" cType="1" res="3.8049919530749321e-03" rms="3.3426633477210999e-01" purity="5.1066303253173828e-01" nType="0">
            <Node pos="l" depth="3" NCoef="0" IVar="16" Cut="1.8717420101165771e+00" cType="1" res="1.4499248936772346e-02" rms="3.5170203447341919e-01" purity="4.8531407117843628e-01" nType="0">
              <Node pos="l" depth="4" NCoef="0" IVar="-1" Cut="0.0000000000000000e+00" cType="1" res="4.3834960088133812e-03" rms="3.4420204162597656e-01" purity="5.6537282466888428e-01" nType="-99"/>
              <Node pos="r" depth="4" NCoef="0" IVar="-1" Cut="0.0000000000000000e+00" cType="1" res="2.4449162185192108e-02" rms="3.6434641480445862e-01" purity="3.3968913555145264e-01" nType="-99"/>
            </Node>
            <Node pos="r" depth="3" NCoef="0" IVar="-1" Cut="0.0000000000000000e+00" cType="1" res="-1.3833350501954556e-02" rms="3.0307811498641968e-01" purity="5.5176180601119995e-01" nType="-99"/>
          </Node>
        </Node>
        <Node pos="r" depth="1" NCoef="0" IVar="14" Cut="2.8629062175750732e+00" cType="1" res="8.2513416418805718e-04" rms="3.1539985537528992e-01" purity="3.5841417312622070e-01" nType="0">
          <Node pos="l" depth="2" NCoef="0" IVar="0" Cut="3.3333332538604736e+00" cType="1" res="-1.1168271885253489e-04" rms="3.1657931208610535e-01" purity="3.5490873456001282e-01" nType="0">
            <Node pos="l" depth="3" NCoef="0" IVar="2" Cut="7.4174050000000000e+05" cType="1" res="4.8897061496973038e-03" rms="3.2647812366485596e-01" purity="3.5185194015502930e-01" nType="0">
              <Node pos="l" depth="4" NCoef="0" IVar="-1" Cut="0.0000000000000000e+00" cType="1" res="8.3672218024730682e-03" rms="3.5541549324989319e-01" purity="4.7256332635879517e-01" nType="-99"/>
              <Node pos="r" depth="4" NCoef="0" IVar="-1" Cut="0.0000000000000000e+00" cType="1" res="-4.3753567151725292e-03" rms="2.8193286061286926e-01" purity="1.8684495985507965e-01" nType="-99"/>
            </Node>
            <Node pos="r" depth="3" NCoef="0" IVar="14" Cut="1.3775677680969238e+00" cType="1" res="-2.9105863068252802e-03" rms="3.1086707115173340e-01" purity="3.5661938786506653e-01" nType="0">
              <Node pos="l" depth="4" NCoef="0" IVar="-1" Cut="0.0000000000000000e+00" cType="1" res="4.8829815350472927e-03" rms="3.2474946975708008e-01" purity="3.1085398793220520e-01" nType="-99"/>
              <Node pos="r" depth="4" NCoef="0" IVar="-1" Cut="0.0000000000000000e+00" cType="1" res="-6.5006846562027931e-03" rms="3.0452707409858704e-01" purity="3.7663403153419495e-01" nType="-99"/>
            </Node>
          </Node>
          <Node pos="r" depth="2" NCoef="0" IVar="0" Cut="6.3333334922790527e+00" cType="1" res="7.7246264554560184e-03" rms="3.0648544430732727e-01" purity="3.8423100113868713e-01" nType="0">
            <Node pos="l" depth="3" NCoef="0" IVar="-1" Cut="0.0000000000000000e+00" cType="1" res="-2.1032509393990040e-03" rms="3.0293753743171692e-01" purity="4.6073848009109497e-01" nType="-99"/>
            <Node pos="r" depth="3" NCoef="0" IVar="-1" Cut="0.0000000000000000e+00" cType="1" res="2.0510761067271233e-02" rms="3.1029093265533447e-01" purity="2.9235166311264038e-01" nType="-99"/>
          </Node>
        </Node>
      </Node>
    </BinaryTree>
    <BinaryTree type="DecisionTree" boostWeight="1.0000000000000000e+00" itree="335">
      <Node pos="s" depth="0" NCoef="0" IVar="14" Cut="1.2873336076736450e+00" cType="1" res="-2.8000863494526129e-06" rms="3.3407866954803467e-01" purity="5.0000000000000000e-01" nType="0">
        <Node pos="l" depth="1" NCoef="0" IVar="17" Cut="3.9079890625000000e+04" cType="1" res="-8.4343203343451023e-04" rms="3.4580814838409424e-01" purity="4.4710662961006165e-01" nType="0">
          <Node pos="l" depth="2" NCoef="0" IVar="2" Cut="3.9502146875000000e+05" cType="1" res="1.1020936071872711e-03" rms="3.4977152943611145e-01" purity="4.9820676445960999e-01" nType="0">
            <Node pos="l" depth="3" NCoef="0" IVar="5" Cut="1.3540215625000000e+05" cType="1" res="4.0408666245639324e-03" rms="3.5831296443939209e-01" purity="5.3912007808685303e-01" nType="0">
              <Node pos="l" depth="4" NCoef="0" IVar="-1" Cut="0.0000000000000000e+00" cType="1" res="-1.3407228107098490e-04" rms="3.5498529672622681e-01" purity="5.2915209531784058e-01" nType="-99"/>
              <Node pos="r" depth="4" NCoef="0" IVar="-1" Cut="0.0000000000000000e+00" cType="1" res="2.3797495290637016e-02" rms="3.8073262572288513e-01" purity="6.1342412233352661e-01" nType="-99"/>
            </Node>
            <Node pos="r" depth="3" NCoef="0" IVar="5" Cut="8.5838890625000000e+04" cType="1" res="-9.4029447063803673e-03" rms="3.1714242696762085e-01" purity="3.5195690393447876e-01" nType="0">
              <Node pos="l" depth="4" NCoef="0" IVar="-1" Cut="0.0000000000000000e+00" cType="1" res="1.4577708207070827e-02" rms="3.0097532272338867e-01" purity="4.0202587842941284e-01" nType="-99"/>
              <Node pos="r" depth="4" NCoef="0" IVar="-1" Cut="0.0000000000000000e+00" cType="1" res="-1.7046567052602768e-02" rms="3.2356244325637817e-01" purity="3.2945930957794189e-01" nType="-99"/>
            </Node>
          </Node>
          <Node pos="r" depth="2" NCoef="0" IVar="20" Cut="7.0664492187500000e+04" cType="1" res="-4.1077947244048119e-03" rms="3.3902892470359802e-01" purity="3.6136654019355774e-01" nType="0">
            <Node pos="l" depth="3" NCoef="0" IVar="4" Cut="4.1341600000000000e+05" cType="1" res="-1.1056791990995407e-02" rms="3.8878330588340759e-01" purity="5.1196891069412231e-01" nType="0">
              <Node pos="l" depth="4" NCoef="0" IVar="-1" Cut="0.0000000000000000e+00" cType="1" res="-1.4458718709647655e-02" rms="4.0010827779769897e-01" purity="5.5309808254241943e-01" nType="-99"/>
              <Node pos="r" depth="4" NCoef="0" IVar="-1" Cut="0.0000000000000000e+00" cType="1" res="3.8759398739784956e-03" rms="3.7152940034866333e-01" purity="4.5375898480415344e-01" nType="-99"/>
            </Node>
            <Node pos="r" depth="3" NCoef="0" IVar="14" Cut="9.9108463525772095e-01" cType="1" res="8.2879392430186272e-03" rms="2.2384269535541534e-01" purity="9.2719674110412598e-02" nType="0">
              <Node pos="l" depth="4" NCoef="0" IVar="-1" Cut="0.0000000000000000e+00" cType="1" res="4.4821705669164658e-02" rms="2.4290467798709869e-01" purity="1.1625074595212936e-01" nType="-99"/>
              <Node pos="r" depth="4" NCoef="0" IVar="-1" Cut="0.0000000000000000e+00" cType="1" res="-1.6864782199263573e-02" rms="2.0031264424324036e-01" purity="6.7624434828758240e-02" nType="-99"/>
            </Node>
          </Node>
        </Node>
        <Node pos="r" depth="1" NCoef="0" IVar="11" Cut="1.9319025278091431e+00" cType="1" res="2.8296469827182591e-04" rms="3.2999593019485474e-01" purity="5.1798057556152344e-01" nType="0">
          <Node pos="l" depth="2" NCoef="0" IVar="11" Cut="1.3858686685562134e+00" cType="1" res="-6.9152985815890133e-05" rms="3.3647570013999939e-01" purity="5.7093822956085205e-01" nType="0">
            <Node pos="l" depth="3" NCoef="0" IVar="15" Cut="1.0073994398117065e+00" cType="1" res="7.8585301525890827e-04" rms="3.3509531617164612e-01" purity="6.1403912305831909e-01" nType="0">
              <Node pos="l" depth="4" NCoef="0" IVar="-1" Cut="0.0000000000000000e+00" cType="1" res="-5.2715041674673557e-03" rms="3.6610069870948792e-01" purity="5.5366986989974976e-01" nType="-99"/>
              <Node pos="r" depth="4" NCoef="0" IVar="-1" Cut="0.0000000000000000e+00" cType="1" res="1.0459928307682276e-03" rms="3.3339720964431763e-01" purity="6.1718076467514038e-01" nType="-99"/>
            </Node>
            <Node pos="r" depth="3" NCoef="0" IVar="4" Cut="2.2798975000000000e+05" cType="1" res="-3.4758371766656637e-03" rms="3.4189903736114502e-01" purity="3.9920708537101746e-01" nType="0">
              <Node pos="l" depth="4" NCoef="0" IVar="-1" Cut="0.0000000000000000e+00" cType="1" res="-7.9497015103697777e-03" rms="3.8241398334503174e-01" purity="4.8855736851692200e-01" nType="-99"/>
              <Node pos="r" depth="4" NCoef="0" IVar="-1" Cut="0.0000000000000000e+00" cType="1" res="1.9165240228176117e-03" rms="3.1461235880851746e-01" purity="3.4490886330604553e-01" nType="-99"/>
            </Node>
          </Node>
          <Node pos="r" depth="2" NCoef="0" IVar="12" Cut="2.6607019901275635e+00" cType="1" res="2.3307192604988813e-03" rms="2.8944352269172668e-01" purity="2.1000342071056366e-01" nType="0">
            <Node pos="l" depth="3" NCoef="0" IVar="4" Cut="2.6853906250000000e+05" cType="1" res="1.1324502527713776e-02" rms="3.2400581240653992e-01" purity="2.6458117365837097e-01" nType="0">
              <Node pos="l" depth="4" NCoef="0" IVar="-1" Cut="0.0000000000000000e+00" cType="1" res="2.1079724654555321e-02" rms="3.7028157711029053e-01" purity="3.6470705270767212e-01" nType="-99"/>
              <Node pos="r" depth="4" NCoef="0" IVar="-1" Cut="0.0000000000000000e+00" cType="1" res="-1.6169011592864990e-02" rms="2.4756561219692230e-01" purity="1.3106645643711090e-01" nType="-99"/>
            </Node>
            <Node pos="r" depth="3" NCoef="0" IVar="0" Cut="1.3333333730697632e+00" cType="1" res="-7.4517366010695696e-04" rms="2.7656686305999756e-01" purity="1.9133770465850830e-01" nType="0">
              <Node pos="l" depth="4" NCoef="0" IVar="-1" Cut="0.0000000000000000e+00" cType="1" res="-2.6825087144970894e-02" rms="2.2308540344238281e-01" purity="8.4852926433086395e-02" nType="-99"/>
              <Node pos="r" depth="4" NCoef="0" IVar="-1" Cut="0.0000000000000000e+00" cType="1" res="1.7733541317284107e-03" rms="2.8331863880157471e-01" purity="2.0656493306159973e-01" nType="-99"/>
            </Node>
          </Node>
        </Node>
      </Node>
    </BinaryTree>
    <BinaryTree type="DecisionTree" boostWeight="1.0000000000000000e+00" itree="336">
      <Node pos="s" depth="0" NCoef="0" IVar="0" Cut="5.3333334922790527e+00" cType="1" res="-4.2528358790150378e-06" rms="3.3400020003318787e-01" purity="5.0000000000000000e-01" nType="0">
        <Node pos="l" depth="1" NCoef="0" IVar="12" Cut="3.3343746662139893e+00" cType="1" res="4.8881943803280592e-04" rms="3.2325890660285950e-01" purity="5.9258693456649780e-01" nType="0">
          <Node pos="l" depth="2" NCoef="0" IVar="2" Cut="5.9644443750000000e+05" cType="1" res="9.9986081477254629e-04" rms="3.2491934299468994e-01" purity="5.9925371408462524e-01" nType="0">
            <Node pos="l" depth="3" NCoef="0" IVar="2" Cut="2.2528168750000000e+05" cType="1" res="-3.1350580684375018e-05" rms="3.2877451181411743e-01" purity="6.4507627487182617e-01" nType="0">
              <Node pos="l" depth="4" NCoef="0" IVar="-1" Cut="0.0000000000000000e+00" cType="1" res="5.9830704703927040e-03" rms="3.5875710844993591e-01" purity="6.1539804935455322e-01" nType="-99"/>
              <Node pos="r" depth="4" NCoef="0" IVar="-1" Cut="0.0000000000000000e+00" cType="1" res="-1.8367270240560174e-03" rms="3.2123112678527832e-01" purity="6.5210694074630737e-01" nType="-99"/>
            </Node>
            <Node pos="r" depth="3" NCoef="0" IVar="13" Cut="1.2733106613159180e+00" cType="1" res="5.7187583297491074e-03" rms="3.0661585927009583e-01" purity="3.8956651091575623e-01" nType="0">
              <Node pos="l" depth="4" NCoef="0" IVar="-1" Cut="0.0000000000000000e+00" cType="1" res="2.5990776717662811e-02" rms="2.8886592388153076e-01" purity="1.5113487839698792e-01" nType="-99"/>
              <Node pos="r" depth="4" NCoef="0" IVar="-1" Cut="0.0000000000000000e+00" cType="1" res="3.1185478437691927e-03" rms="3.0956578254699707e-01" purity="4.3154397606849670e-01" nType="-99"/>
            </Node>
          </Node>
          <Node pos="r" depth="2" NCoef="0" IVar="16" Cut="1.6939322948455811e+00" cType="1" res="-4.5684915967285633e-03" rms="3.0629634857177734e-01" purity="5.2661186456680298e-01" nType="0">
            <Node pos="l" depth="3" NCoef="0" IVar="-1" Cut="0.0000000000000000e+00" cType="1" res="1.5287298010662198e-03" rms="3.0160260200500488e-01" purity="6.5909284353256226e-01" nType="-99"/>
            <Node pos="r" depth="3" NCoef="0" IVar="-1" Cut="0.0000000000000000e+00" cType="1" res="-1.1980700306594372e-02" rms="3.1286171078681946e-01" purity="3.3180168271064758e-01" nType="-99"/>
          </Node>
        </Node>
        <Node pos="r" depth="1" NCoef="0" IVar="11" Cut="1.4541230201721191e+00" cType="1" res="-4.7213013749569654e-04" rms="3.4388190507888794e-01" purity="4.1214406490325928e-01" nType="0">
          <Node pos="l" depth="2" NCoef="0" IVar="16" Cut="2.9517924785614014e+00" cType="1" res="-1.4619524590671062e-03" rms="3.5921618342399597e-01" purity="5.0785040855407715e-01" nType="0">
            <Node pos="l" depth="3" NCoef="0" IVar="16" Cut="1.8308264017105103e+00" cType="1" res="-7.4958184268325567e-04" rms="3.5985359549522400e-01" purity="5.2016854286193848e-01" nType="0">
              <Node pos="l" depth="4" NCoef="0" IVar="-1" Cut="0.0000000000000000e+00" cType="1" res="-2.3236763663589954e-03" rms="3.5224077105522156e-01" purity="6.0667949914932251e-01" nType="-99"/>
              <Node pos="r" depth="4" NCoef="0" IVar="-1" Cut="0.0000000000000000e+00" cType="1" res="3.1452260445803404e-03" rms="3.7688753008842468e-01" purity="3.1924465298652649e-01" nType="-99"/>
            </Node>
            <Node pos="r" depth="3" NCoef="0" IVar="-1" Cut="0.0000000000000000e+00" cType="1" res="-1.2498599477112293e-02" rms="3.4480080008506775e-01" purity="2.4176077544689178e-01" nType="-99"/>
          </Node>
          <Node pos="r" depth="2" NCoef="0" IVar="3" Cut="2.3695359375000000e+05" cType="1" res="1.4607247430831194e-03" rms="3.1176233291625977e-01" purity="2.2525557875633240e-01" nType="0">
            <Node pos="l" depth="3" NCoef="0" IVar="3" Cut="8.2056109375000000e+04" cType="1" res="4.5515717938542366e-03" rms="3.4692972898483276e-01" purity="2.8392580151557922e-01" nType="0">
              <Node pos="l" depth="4" NCoef="0" IVar="-1" Cut="0.0000000000000000e+00" cType="1" res="-1.0014354251325130e-02" rms="3.3299276232719421e-01" purity="2.4053138494491577e-01" nType="-99"/>
              <Node pos="r" depth="4" NCoef="0" IVar="-1" Cut="0.0000000000000000e+00" cType="1" res="5.8858767151832581e-03" rms="3.4908580780029297e-01" purity="2.9107904434204102e-01" nType="-99"/>
            </Node>
            <Node pos="r" depth="3" NCoef="0" IVar="2" Cut="7.4203662500000000e+05" cType="1" res="-7.1418737061321735e-03" rms="1.8061739206314087e-01" purity="6.1961710453033447e-02" nType="0">
              <Node pos="l" depth="4" NCoef="0" IVar="-1" Cut="0.0000000000000000e+00" cType="1" res="-2.6426959782838821e-02" rms="1.9206458330154419e-01" purity="7.2702273726463318e-02" nType="-99"/>
              <Node pos="r" depth="4" NCoef="0" IVar="-1" Cut="0.0000000000000000e+00" cType="1" res="2.8744267299771309e-02" rms="1.4809700846672058e-01" purity="3.5637468099594116e-02" nType="-99"/>
            </Node>
          </Node>
        </Node>
      </Node>
    </BinaryTree>
    <BinaryTree type="DecisionTree" boostWeight="1.0000000000000000e+00" itree="337">
      <Node pos="s" depth="0" NCoef="0" IVar="13" Cut="3.2910404205322266e+00" cType="1" res="-5.3704234233009629e-06" rms="3.3396697044372559e-01" purity="5.0000000000000000e-01" nType="0">
        <Node pos="l" depth="1" NCoef="0" IVar="12" Cut="2.5661182403564453e+00" cType="1" res="-1.7543934518471360e-04" rms="3.3305296301841736e-01" purity="4.9753779172897339e-01" nType="0">
          <Node pos="l" depth="2" NCoef="0" IVar="8" Cut="5.5781242187500000e+04" cType="1" res="-1.0268166661262512e-03" rms="3.4913840889930725e-01" purity="4.4848352670669556e-01" nType="0">
            <Node pos="l" depth="3" NCoef="0" IVar="7" Cut="2.8528208984375000e+04" cType="1" res="1.1538128601387143e-03" rms="3.6878028512001038e-01" purity="5.3873747587203979e-01" nType="0">
              <Node pos="l" depth="4" NCoef="0" IVar="-1" Cut="0.0000000000000000e+00" cType="1" res="-2.9183691367506981e-03" rms="3.3455988764762878e-01" purity="6.1904907226562500e-01" nType="-99"/>
              <Node pos="r" depth="4" NCoef="0" IVar="-1" Cut="0.0000000000000000e+00" cType="1" res="2.2826315835118294e-03" rms="3.8494488596916199e-01" purity="4.9802625179290771e-01" nType="-99"/>
            </Node>
            <Node pos="r" depth="3" NCoef="0" IVar="13" Cut="2.9775912761688232e+00" cType="1" res="-5.7352962903678417e-03" rms="3.0235293507575989e-01" purity="2.5360438227653503e-01" nType="0">
              <Node pos="l" depth="4" NCoef="0" IVar="-1" Cut="0.0000000000000000e+00" cType="1" res="-9.9190296605229378e-03" rms="2.9090842604637146e-01" purity="2.1358370780944824e-01" nType="-99"/>
              <Node pos="r" depth="4" NCoef="0" IVar="-1" Cut="0.0000000000000000e+00" cType="1" res="6.1317873187363148e-03" rms="3.4902942180633545e-01" purity="4.3412649631500244e-01" nType="-99"/>
            </Node>
          </Node>
          <Node pos="r" depth="2" NCoef="0" IVar="15" Cut="2.6940798759460449e+00" cType="1" res="4.8761931248009205e-04" rms="3.1996431946754456e-01" purity="5.3574156761169434e-01" nType="0">
            <Node pos="l" depth="3" NCoef="0" IVar="18" Cut="1.4538035937500000e+05" cType="1" res="1.2800411786884069e-03" rms="3.2426807284355164e-01" purity="5.2984827756881714e-01" nType="0">
              <Node pos="l" depth="4" NCoef="0" IVar="-1" Cut="0.0000000000000000e+00" cType="1" res="1.9869374227710068e-04" rms="3.2883512973785400e-01" purity="5.3576785326004028e-01" nType="-99"/>
              <Node pos="r" depth="4" NCoef="0" IVar="-1" Cut="0.0000000000000000e+00" cType="1" res="1.0829036124050617e-02" rms="2.8738242387771606e-01" purity="4.8521575331687927e-01" nType="-99"/>
            </Node>
            <Node pos="r" depth="3" NCoef="0" IVar="13" Cut="2.5074844360351562e+00" cType="1" res="-3.8047386333346367e-03" rms="2.9552802443504333e-01" purity="5.6766414642333984e-01" nType="0">
              <Node pos="l" depth="4" NCoef="0" IVar="-1" Cut="0.0000000000000000e+00" cType="1" res="4.8733102157711983e-03" rms="3.0018800497055054e-01" purity="3.6529037356376648e-01" nType="-99"/>
              <Node pos="r" depth="4" NCoef="0" IVar="-1" Cut="0.0000000000000000e+00" cType="1" res="-1.0958091355860233e-02" rms="2.9199343919754028e-01" purity="7.1262133121490479e-01" nType="-99"/>
            </Node>
          </Node>
        </Node>
        <Node pos="r" depth="1" NCoef="0" IVar="6" Cut="2.5767478125000000e+05" cType="1" res="1.6118171624839306e-03" rms="3.4253209829330444e-01" purity="5.2341330051422119e-01" nType="0">
          <Node pos="l" depth="2" NCoef="0" IVar="3" Cut="1.6934006250000000e+05" cType="1" res="3.2431143335998058e-03" rms="3.5507404804229736e-01" purity="5.6728184223175049e-01" nType="0">
            <Node pos="l" depth="3" NCoef="0" IVar="-1" Cut="0.0000000000000000e+00" cType="1" res="9.1877700760960579e-03" rms="3.9062252640724182e-01" purity="6.7385083436965942e-01" nType="-99"/>
            <Node pos="r" depth="3" NCoef="0" IVar="6" Cut="1.3787504687500000e+05" cType="1" res="-7.2613998781889677e-04" rms="3.4113362431526184e-01" purity="5.2850145101547241e-01" nType="0">
              <Node pos="l" depth="4" NCoef="0" IVar="-1" Cut="0.0000000000000000e+00" cType="1" res="-1.2748717330396175e-02" rms="3.6759316921234131e-01" purity="5.0658363103866577e-01" nType="-99"/>
              <Node pos="r" depth="4" NCoef="0" IVar="-1" Cut="0.0000000000000000e+00" cType="1" res="6.2835039570927620e-03" rms="3.2863178849220276e-01" purity="5.3804743289947510e-01" nType="-99"/>
            </Node>
          </Node>
          <Node pos="r" depth="2" NCoef="0" IVar="-1" Cut="0.0000000000000000e+00" cType="1" res="-9.7442995756864548e-03" rms="2.6281806826591492e-01" purity="2.8194448351860046e-01" nType="-99"/>
        </Node>
      </Node>
    </BinaryTree>
    <BinaryTree type="DecisionTree" boostWeight="1.0000000000000000e+00" itree="338">
      <Node pos="s" depth="0" NCoef="0" IVar="14" Cut="1.2873336076736450e+00" cType="1" res="-4.0940280996437650e-06" rms="3.3393242955207825e-01" purity="5.0000000000000000e-01" nType="0">
        <Node pos="l" depth="1" NCoef="0" IVar="16" Cut="2.8335232734680176e+00" cType="1" res="-7.6729245483875275e-04" rms="3.4552279114723206e-01" purity="4.4710662961006165e-01" nType="0">
          <Node pos="l" depth="2" NCoef="0" IVar="12" Cut="2.0259089469909668e+00" cType="1" res="-1.4886524295434356e-03" rms="3.4650200605392456e-01" purity="4.5910558104515076e-01" nType="0">
            <Node pos="l" depth="3" NCoef="0" IVar="0" Cut="5.3333334922790527e+00" cType="1" res="-9.4158621504902840e-03" rms="3.6104610562324524e-01" purity="3.8982170820236206e-01" nType="0">
              <Node pos="l" depth="4" NCoef="0" IVar="-1" Cut="0.0000000000000000e+00" cType="1" res="1.1302286293357611e-03" rms="3.6000347137451172e-01" purity="4.8408877849578857e-01" nType="-99"/>
              <Node pos="r" depth="4" NCoef="0" IVar="-1" Cut="0.0000000000000000e+00" cType="1" res="-1.4097415842115879e-02" rms="3.6170017719268799e-01" purity="3.0446317791938782e-01" nType="-99"/>
            </Node>
            <Node pos="r" depth="3" NCoef="0" IVar="16" Cut="2.1659765243530273e+00" cType="1" res="-2.3733831767458469e-05" rms="3.4372693300247192e-01" purity="4.7190898656845093e-01" nType="0">
              <Node pos="l" depth="4" NCoef="0" IVar="-1" Cut="0.0000000000000000e+00" cType="1" res="2.1032474469393492e-03" rms="3.4340485930442810e-01" purity="5.2119809389114380e-01" nType="-99"/>
              <Node pos="r" depth="4" NCoef="0" IVar="-1" Cut="0.0000000000000000e+00" cType="1" res="-6.4320294186472893e-03" rms="3.4460860490798950e-01" purity="3.1686699390411377e-01" nType="-99"/>
            </Node>
          </Node>
          <Node pos="r" depth="2" NCoef="0" IVar="19" Cut="1.2932296875000000e+05" cType="1" res="7.5125135481357574e-03" rms="3.3396625518798828e-01" purity="3.0938196182250977e-01" nType="0">
            <Node pos="l" depth="3" NCoef="0" IVar="-1" Cut="0.0000000000000000e+00" cType="1" res="9.2926397919654846e-03" rms="3.3614283800125122e-01" purity="3.5718002915382385e-01" nType="-99"/>
            <Node pos="r" depth="3" NCoef="0" IVar="-1" Cut="0.0000000000000000e+00" cType="1" res="2.8009607922285795e-03" rms="3.3167406916618347e-01" purity="2.6051905751228333e-01" nType="-99"/>
          </Node>
        </Node>
        <Node pos="r" depth="1" NCoef="0" IVar="12" Cut="3.6793255805969238e+00" cType="1" res="2.5534795713610947e-04" rms="3.2989928126335144e-01" purity="5.1798057556152344e-01" nType="0">
          <Node pos="l" depth="2" NCoef="0" IVar="14" Cut="3.0467398166656494e+00" cType="1" res="9.5175280875992030e-05" rms="3.3081957697868347e-01" purity="5.2160912752151489e-01" nType="0">
            <Node pos="l" depth="3" NCoef="0" IVar="14" Cut="1.3711173534393311e+00" cType="1" res="3.8435313035733998e-04" rms="3.3145362138748169e-01" purity="5.2429842948913574e-01" nType="0">
              <Node pos="l" depth="4" NCoef="0" IVar="-1" Cut="0.0000000000000000e+00" cType="1" res="5.3727831691503525e-03" rms="3.5609325766563416e-01" purity="4.6470612287521362e-01" nType="-99"/>
              <Node pos="r" depth="4" NCoef="0" IVar="-1" Cut="0.0000000000000000e+00" cType="1" res="6.4928091887850314e-05" rms="3.3020177483558655e-01" purity="5.2720487117767334e-01" nType="-99"/>
            </Node>
            <Node pos="r" depth="3" NCoef="0" IVar="5" Cut="1.5488910937500000e+05" cType="1" res="-3.9457404054701328e-03" rms="3.2180181145668030e-01" purity="4.8402944207191467e-01" nType="0">
              <Node pos="l" depth="4" NCoef="0" IVar="-1" Cut="0.0000000000000000e+00" cType="1" res="-8.4027284756302834e-03" rms="3.2634392380714417e-01" purity="5.1848310232162476e-01" nType="-99"/>
              <Node pos="r" depth="4" NCoef="0" IVar="-1" Cut="0.0000000000000000e+00" cType="1" res="3.4032373223453760e-03" rms="3.1571620702743530e-01" purity="4.3973919749259949e-01" nType="-99"/>
            </Node>
          </Node>
          <Node pos="r" depth="2" NCoef="0" IVar="0" Cut="6.3333334922790527e+00" cType="1" res="4.0199910290539265e-03" rms="3.0745249986648560e-01" purity="4.3269604444503784e-01" nType="0">
            <Node pos="l" depth="3" NCoef="0" IVar="-1" Cut="0.0000000000000000e+00" cType="1" res="1.2952457182109356e-02" rms="3.0270177125930786e-01" purity="5.4932153224945068e-01" nType="-99"/>
            <Node pos="r" depth="3" NCoef="0" IVar="-1" Cut="0.0000000000000000e+00" cType="1" res="-6.1474097892642021e-03" rms="3.1246730685234070e-01" purity="2.9918289184570312e-01" nType="-99"/>
          </Node>
        </Node>
      </Node>
    </BinaryTree>
    <BinaryTree type="DecisionTree" boostWeight="1.0000000000000000e+00" itree="339">
      <Node pos="s" depth="0" NCoef="0" IVar="13" Cut="3.2910404205322266e+00" cType="1" res="-3.3935241390281590e-06" rms="3.3391526341438293e-01" purity="5.0000000000000000e-01" nType="0">
        <Node pos="l" depth="1" NCoef="0" IVar="13" Cut="3.1342511177062988e+00" cType="1" res="-1.2759072706103325e-04" rms="3.3300766348838806e-01" purity="4.9753779172897339e-01" nType="0">
          <Node pos="l" depth="2" NCoef="0" IVar="14" Cut="5.1759451627731323e-01" cType="1" res="5.0069618737325072e-05" rms="3.3293312788009644e-01" purity="4.8628890514373779e-01" nType="0">
            <Node pos="l" depth="3" NCoef="0" IVar="11" Cut="1.2291971445083618e+00" cType="1" res="5.4669240489602089e-03" rms="3.4648478031158447e-01" purity="4.6333581209182739e-01" nType="0">
              <Node pos="l" depth="4" NCoef="0" IVar="-1" Cut="0.0000000000000000e+00" cType="1" res="-8.6074456339702010e-04" rms="3.5581284761428833e-01" purity="6.0040414333343506e-01" nType="-99"/>
              <Node pos="r" depth="4" NCoef="0" IVar="-1" Cut="0.0000000000000000e+00" cType="1" res="1.1254478245973587e-02" rms="3.3562853932380676e-01" purity="3.1056386232376099e-01" nType="-99"/>
            </Node>
            <Node pos="r" depth="3" NCoef="0" IVar="14" Cut="1.2140374183654785e+00" cType="1" res="-1.0672066127881408e-04" rms="3.3253133296966553e-01" purity="4.8695328831672668e-01" nType="0">
              <Node pos="l" depth="4" NCoef="0" IVar="-1" Cut="0.0000000000000000e+00" cType="1" res="-1.8735610647127032e-03" rms="3.4416264295578003e-01" purity="4.2871558666229248e-01" nType="-99"/>
              <Node pos="r" depth="4" NCoef="0" IVar="-1" Cut="0.0000000000000000e+00" cType="1" res="4.0902590262703598e-04" rms="3.2945770025253296e-01" purity="5.0199663639068604e-01" nType="-99"/>
            </Node>
          </Node>
          <Node pos="r" depth="2" NCoef="0" IVar="13" Cut="3.1566414833068848e+00" cType="1" res="-2.3774337023496628e-03" rms="3.3394208550453186e-01" purity="6.3999027013778687e-01" nType="0">
            <Node pos="l" depth="3" NCoef="0" IVar="-1" Cut="0.0000000000000000e+00" cType="1" res="1.4948134310543537e-02" rms="3.3075347542762756e-01" purity="6.9677674770355225e-01" nType="-99"/>
            <Node pos="r" depth="3" NCoef="0" IVar="1" Cut="4.9230804687500000e+04" cType="1" res="-8.4672169759869576e-03" rms="3.3467471599578857e-01" purity="6.2262284755706787e-01" nType="0">
              <Node pos="l" depth="4" NCoef="0" IVar="-1" Cut="0.0000000000000000e+00" cType="1" res="-1.4316859655082226e-02" rms="3.5218167304992676e-01" purity="4.9908474087715149e-01" nType="-99"/>
              <Node pos="r" depth="4" NCoef="0" IVar="-1" Cut="0.0000000000000000e+00" cType="1" res="-1.3912766007706523e-03" rms="3.2236823439598083e-01" purity="7.0445448160171509e-01" nType="-99"/>
            </Node>
          </Node>
        </Node>
        <Node pos="r" depth="1" NCoef="0" IVar="8" Cut="5.9296796875000000e+04" cType="1" res="1.1775993043556809e-03" rms="3.4242314100265503e-01" purity="5.2341330051422119e-01" nType="0">
          <Node pos="l" depth="2" NCoef="0" IVar="9" Cut="1.6046281250000000e+05" cType="1" res="-1.5579488826915622e-03" rms="3.6177733540534973e-01" purity="6.8700999021530151e-01" nType="0">
            <Node pos="l" depth="3" NCoef="0" IVar="13" Cut="3.4968838691711426e+00" cType="1" res="-7.4799065478146076e-03" rms="3.7086752057075500e-01" purity="6.8172818422317505e-01" nType="0">
              <Node pos="l" depth="4" NCoef="0" IVar="-1" Cut="0.0000000000000000e+00" cType="1" res="4.0705860592424870e-03" rms="3.6484676599502563e-01" purity="7.2378617525100708e-01" nType="-99"/>
              <Node pos="r" depth="4" NCoef="0" IVar="-1" Cut="0.0000000000000000e+00" cType="1" res="-1.4706735499203205e-02" rms="3.7706851959228516e-01" purity="6.3368213176727295e-01" nType="-99"/>
            </Node>
            <Node pos="r" depth="3" NCoef="0" IVar="-1" Cut="0.0000000000000000e+00" cType="1" res="7.3998365551233292e-03" rms="3.4389278292655945e-01" purity="6.9687044620513916e-01" nType="-99"/>
          </Node>
          <Node pos="r" depth="2" NCoef="0" IVar="12" Cut="2.6604044437408447e+00" cType="1" res="5.8607868850231171e-03" rms="3.0640816688537598e-01" purity="2.4333998560905457e-01" nType="0">
            <Node pos="l" depth="3" NCoef="0" IVar="-1" Cut="0.0000000000000000e+00" cType="1" res="2.4337472394108772e-02" rms="3.4885385632514954e-01" purity="3.2337716221809387e-01" nType="-99"/>
            <Node pos="r" depth="3" NCoef="0" IVar="15" Cut="2.0928151607513428e+00" cType="1" res="-4.3218992650508881e-03" rms="2.8443682193756104e-01" purity="2.0693725347518921e-01" nType="0">
              <Node pos="l" depth="4" NCoef="0" IVar="-1" Cut="0.0000000000000000e+00" cType="1" res="-1.7497036606073380e-02" rms="2.8065356612205505e-01" purity="1.6531328856945038e-01" nType="-99"/>
              <Node pos="r" depth="4" NCoef="0" IVar="-1" Cut="0.0000000000000000e+00" cType="1" res="7.5742509216070175e-03" rms="2.8810346126556396e-01" purity="2.5247305631637573e-01" nType="-99"/>
            </Node>
          </Node>
        </Node>
      </Node>
    </BinaryTree>
    <BinaryTree type="DecisionTree" boostWeight="1.0000000000000000e+00" itree="340">
      <Node pos="s" depth="0" NCoef="0" IVar="13" Cut="3.5652937889099121e+00" cType="1" res="-2.6455177248863038e-06" rms="3.3388108015060425e-01" purity="5.0000000000000000e-01" nType="0">
        <Node pos="l" depth="1" NCoef="0" IVar="12" Cut="3.8830318450927734e+00" cType="1" res="-9.2938775196671486e-05" rms="3.3366164565086365e-01" purity="5.0163477659225464e-01" nType="0">
          <Node pos="l" depth="2" NCoef="0" IVar="11" Cut="2.3797457218170166e+00" cType="1" res="-1.3659725482284557e-05" rms="3.3422967791557312e-01" purity="5.0422453880310059e-01" nType="0">
            <Node pos="l" depth="3" NCoef="0" IVar="11" Cut="2.1550748348236084e+00" cType="1" res="-3.1479063909500837e-04" rms="3.3919548988342285e-01" purity="5.3237748146057129e-01" nType="0">
              <Node pos="l" depth="4" NCoef="0" IVar="-1" Cut="0.0000000000000000e+00" cType="1" res="2.0227851109666517e-06" rms="3.4118887782096863e-01" purity="5.4657661914825439e-01" nType="-99"/>
              <Node pos="r" depth="4" NCoef="0" IVar="-1" Cut="0.0000000000000000e+00" cType="1" res="-8.8106980547308922e-03" rms="2.8688874840736389e-01" purity="1.9016127288341522e-01" nType="-99"/>
            </Node>
            <Node pos="r" depth="3" NCoef="0" IVar="13" Cut="2.7160165309906006e+00" cType="1" res="3.9466042071580887e-03" rms="2.6021769642829895e-01" purity="1.3397696614265442e-01" nType="0">
              <Node pos="l" depth="4" NCoef="0" IVar="-1" Cut="0.0000000000000000e+00" cType="1" res="1.2510947417467833e-03" rms="2.4929586052894592e-01" purity="1.1760401725769043e-01" nType="-99"/>
              <Node pos="r" depth="4" NCoef="0" IVar="-1" Cut="0.0000000000000000e+00" cType="1" res="2.3211281746625900e-02" rms="3.1241288781166077e-01" purity="2.2292989492416382e-01" nType="-99"/>
            </Node>
          </Node>
          <Node pos="r" depth="2" NCoef="0" IVar="-1" Cut="0.0000000000000000e+00" cType="1" res="-6.1183786019682884e-03" rms="2.9063993692398071e-01" purity="3.1850641965866089e-01" nType="-99"/>
        </Node>
        <Node pos="r" depth="1" NCoef="0" IVar="0" Cut="6.3333334922790527e+00" cType="1" res="1.9862921908497810e-03" rms="3.3867201209068298e-01" purity="4.6398901939392090e-01" nType="0">
          <Node pos="l" depth="2" NCoef="0" IVar="2" Cut="4.8487662500000000e+05" cType="1" res="7.6611004769802094e-03" rms="3.3743336796760559e-01" purity="5.6531894207000732e-01" nType="0">
            <Node pos="l" depth="3" NCoef="0" IVar="-1" Cut="0.0000000000000000e+00" cType="1" res="1.2051705271005630e-02" rms="3.5796484351158142e-01" purity="6.5320086479187012e-01" nType="-99"/>
            <Node pos="r" depth="3" NCoef="0" IVar="-1" Cut="0.0000000000000000e+00" cType="1" res="-3.1602301169186831e-03" rms="3.0705812573432922e-01" purity="4.4609451293945312e-01" nType="-99"/>
          </Node>
          <Node pos="r" depth="2" NCoef="0" IVar="-1" Cut="0.0000000000000000e+00" cType="1" res="-4.0123052895069122e-03" rms="3.4008848667144775e-01" purity="3.3659780025482178e-01" nType="-99"/>
        </Node>
      </Node>
    </BinaryTree>
    <BinaryTree type="DecisionTree" boostWeight="1.0000000000000000e+00" itree="341">
      <Node pos="s" depth="0" NCoef="0" IVar="18" Cut="1.4775275000000000e+05" cType="1" res="-2.4019825559662422e-06" rms="3.3387142419815063e-01" purity="5.0000000000000000e-01" nType="0">
        <Node pos="l" depth="1" NCoef="0" IVar="18" Cut="4.1739875000000000e+04" cType="1" res="1.9331938528921455e-04" rms="3.4198701381683350e-01" purity="5.1551795005798340e-01" nType="0">
          <Node pos="l" depth="2" NCoef="0" IVar="4" Cut="3.8813968750000000e+05" cType="1" res="-1.7192360246554017e-03" rms="3.4151476621627808e-01" purity="4.8729655146598816e-01" nType="0">
            <Node pos="l" depth="3" NCoef="0" IVar="1" Cut="3.4648937500000000e+04" cType="1" res="-3.8453444722108543e-04" rms="3.4880983829498291e-01" purity="5.0944256782531738e-01" nType="0">
              <Node pos="l" depth="4" NCoef="0" IVar="-1" Cut="0.0000000000000000e+00" cType="1" res="-5.9932982549071312e-03" rms="3.3153817057609558e-01" purity="3.0489858984947205e-01" nType="-99"/>
              <Node pos="r" depth="4" NCoef="0" IVar="-1" Cut="0.0000000000000000e+00" cType="1" res="2.2548199631273746e-03" rms="3.5731413960456848e-01" purity="6.1458259820938110e-01" nType="-99"/>
            </Node>
            <Node pos="r" depth="3" NCoef="0" IVar="20" Cut="7.4943578125000000e+04" cType="1" res="-1.2465756386518478e-02" rms="2.7559876441955566e-01" purity="3.0898502469062805e-01" nType="0">
              <Node pos="l" depth="4" NCoef="0" IVar="-1" Cut="0.0000000000000000e+00" cType="1" res="-1.7272418364882469e-02" rms="3.3623778820037842e-01" purity="4.9095159769058228e-01" nType="-99"/>
              <Node pos="r" depth="4" NCoef="0" IVar="-1" Cut="0.0000000000000000e+00" cType="1" res="8.9088128879666328e-04" rms="1.4389187097549438e-01" purity="3.9326820522546768e-02" nType="-99"/>
            </Node>
          </Node>
          <Node pos="r" depth="2" NCoef="0" IVar="2" Cut="3.0213493750000000e+05" cType="1" res="1.6495134914293885e-03" rms="3.4233897924423218e-01" purity="5.3700536489486694e-01" nType="0">
            <Node pos="l" depth="3" NCoef="0" IVar="5" Cut="1.4284478125000000e+05" cType="1" res="6.4012226648628712e-03" rms="3.6253240704536438e-01" purity="6.0803210735321045e-01" nType="0">
              <Node pos="l" depth="4" NCoef="0" IVar="-1" Cut="0.0000000000000000e+00" cType="1" res="1.2214073212817311e-03" rms="3.6248683929443359e-01" purity="5.9080898761749268e-01" nType="-99"/>
              <Node pos="r" depth="4" NCoef="0" IVar="-1" Cut="0.0000000000000000e+00" cType="1" res="2.6678791269659996e-02" rms="3.6129125952720642e-01" purity="7.2141373157501221e-01" nType="-99"/>
            </Node>
            <Node pos="r" depth="3" NCoef="0" IVar="6" Cut="1.5840429687500000e+05" cType="1" res="-6.0962390853092074e-04" rms="3.3228433132171631e-01" purity="5.0323659181594849e-01" nType="0">
              <Node pos="l" depth="4" NCoef="0" IVar="-1" Cut="0.0000000000000000e+00" cType="1" res="-4.3346607126295567e-03" rms="3.7616601586341858e-01" purity="5.0046074390411377e-01" nType="-99"/>
              <Node pos="r" depth="4" NCoef="0" IVar="-1" Cut="0.0000000000000000e+00" cType="1" res="2.7057661209255457e-03" rms="3.0450278520584106e-01" purity="5.0481373071670532e-01" nType="-99"/>
            </Node>
          </Node>
        </Node>
        <Node pos="r" depth="1" NCoef="0" IVar="10" Cut="2.3366242187500000e+05" cType="1" res="-8.7992986664175987e-04" rms="2.9474890232086182e-01" purity="4.3042436242103577e-01" nType="0">
          <Node pos="l" depth="2" NCoef="0" IVar="12" Cut="1.1572529077529907e+00" cType="1" res="-2.2967020049691200e-03" rms="3.0153289437294006e-01" purity="4.5285120606422424e-01" nType="0">
            <Node pos="l" depth="3" NCoef="0" IVar="-1" Cut="0.0000000000000000e+00" cType="1" res="1.0042143054306507e-02" rms="3.4327358007431030e-01" purity="1.9290280342102051e-01" nType="-99"/>
            <Node pos="r" depth="3" NCoef="0" IVar="0" Cut="2.3333332538604736e+00" cType="1" res="-3.3301403746008873e-03" rms="2.9811045527458191e-01" purity="4.7252571582794189e-01" nType="0">
              <Node pos="l" depth="4" NCoef="0" IVar="-1" Cut="0.0000000000000000e+00" cType="1" res="-1.4482227154076099e-02" rms="2.9802307486534119e-01" purity="4.0554144978523254e-01" nType="-99"/>
              <Node pos="r" depth="4" NCoef="0" IVar="-1" Cut="0.0000000000000000e+00" cType="1" res="4.3520069448277354e-04" rms="2.9804590344429016e-01" purity="4.9491459131240845e-01" nType="-99"/>
            </Node>
          </Node>
          <Node pos="r" depth="2" NCoef="0" IVar="10" Cut="3.3970378125000000e+05" cType="1" res="4.7832126729190350e-03" rms="2.6583331823348999e-01" purity="3.4077948331832886e-01" nType="0">
            <Node pos="l" depth="3" NCoef="0" IVar="10" Cut="2.7910778125000000e+05" cType="1" res="1.1661162599921227e-02" rms="2.8853476047515869e-01" purity="4.2336216568946838e-01" nType="0">
              <Node pos="l" depth="4" NCoef="0" IVar="-1" Cut="0.0000000000000000e+00" cType="1" res="3.2030125148594379e-03" rms="2.8800380229949951e-01" purity="4.3987759947776794e-01" nType="-99"/>
              <Node pos="r" depth="4" NCoef="0" IVar="-1" Cut="0.0000000000000000e+00" cType="1" res="2.8847103938460350e-02" rms="2.8880220651626587e-01" purity="4.0257900953292847e-01" nType="-99"/>
            </Node>
            <Node pos="r" depth="3" NCoef="0" IVar="-1" Cut="0.0000000000000000e+00" cType="1" res="-1.2157198973000050e-02" rms="2.2053694725036621e-01" purity="1.9768278300762177e-01" nType="-99"/>
          </Node>
        </Node>
      </Node>
    </BinaryTree>
    <BinaryTree type="DecisionTree" boostWeight="1.0000000000000000e+00" itree="342">
      <Node pos="s" depth="0" NCoef="0" IVar="12" Cut="1.2675663232803345e+00" cType="1" res="-1.1475837027319358e-06" rms="3.3382079005241394e-01" purity="5.0000000000000000e-01" nType="0">
        <Node pos="l" depth="1" NCoef="0" IVar="16" Cut="2.0019445419311523e+00" cType="1" res="-2.2653881460428238e-03" rms="3.4078836441040039e-01" purity="2.4588495492935181e-01" nType="0">
          <Node pos="l" depth="2" NCoef="0" IVar="12" Cut="1.0252537727355957e+00" cType="1" res="4.4356230646371841e-03" rms="3.4586626291275024e-01" purity="3.0231538414955139e-01" nType="0">
            <Node pos="l" depth="3" NCoef="0" IVar="-1" Cut="0.0000000000000000e+00" cType="1" res="-1.2201203498989344e-03" rms="3.4210518002510071e-01" purity="2.5322750210762024e-01" nType="-99"/>
            <Node pos="r" depth="3" NCoef="0" IVar="-1" Cut="0.0000000000000000e+00" cType="1" res="7.5106630101799965e-03" rms="3.4952947497367859e-01" purity="3.5201442241668701e-01" nType="-99"/>
          </Node>
          <Node pos="r" depth="2" NCoef="0" IVar="7" Cut="3.9366410156250000e+04" cType="1" res="-7.7557689510285854e-03" rms="3.3647128939628601e-01" purity="1.9964948296546936e-01" nType="0">
            <Node pos="l" depth="3" NCoef="0" IVar="-1" Cut="0.0000000000000000e+00" cType="1" res="-1.2977447360754013e-02" rms="3.6945506930351257e-01" purity="2.5155788660049438e-01" nType="-99"/>
            <Node pos="r" depth="3" NCoef="0" IVar="-1" Cut="0.0000000000000000e+00" cType="1" res="7.2418488562107086e-03" rms="2.9116067290306091e-01" purity="1.3705447316169739e-01" nType="-99"/>
          </Node>
        </Node>
        <Node pos="r" depth="1" NCoef="0" IVar="14" Cut="3.0833916664123535e+00" cType="1" res="1.0627110168570653e-04" rms="3.3348622918128967e-01" purity="5.1205557584762573e-01" nType="0">
          <Node pos="l" depth="2" NCoef="0" IVar="18" Cut="2.4595250000000000e+05" cType="1" res="-4.3213294702582061e-05" rms="3.3400437235832214e-01" purity="5.1224607229232788e-01" nType="0">
            <Node pos="l" depth="3" NCoef="0" IVar="5" Cut="5.6784493750000000e+05" cType="1" res="1.7123155703302473e-04" rms="3.3717560768127441e-01" purity="5.2258104085922241e-01" nType="0">
              <Node pos="l" depth="4" NCoef="0" IVar="-1" Cut="0.0000000000000000e+00" cType="1" res="2.6393437292426825e-04" rms="3.3789876103401184e-01" purity="5.2710735797882080e-01" nType="-99"/>
              <Node pos="r" depth="4" NCoef="0" IVar="-1" Cut="0.0000000000000000e+00" cType="1" res="-1.3491997495293617e-02" rms="2.7312052249908447e-01" purity="1.6139225661754608e-01" nType="-99"/>
            </Node>
            <Node pos="r" depth="3" NCoef="0" IVar="9" Cut="1.1168008593750000e+05" cType="1" res="-4.1876481845974922e-03" rms="2.6533970236778259e-01" purity="3.1250977516174316e-01" nType="0">
              <Node pos="l" depth="4" NCoef="0" IVar="-1" Cut="0.0000000000000000e+00" cType="1" res="-1.1004282161593437e-02" rms="3.0128380656242371e-01" purity="3.7448585033416748e-01" nType="-99"/>
              <Node pos="r" depth="4" NCoef="0" IVar="-1" Cut="0.0000000000000000e+00" cType="1" res="2.2862267214804888e-03" rms="2.3318651318550110e-01" purity="2.6394426822662354e-01" nType="-99"/>
            </Node>
          </Node>
          <Node pos="r" depth="2" NCoef="0" IVar="11" Cut="1.3609123229980469e+00" cType="1" res="3.3109039068222046e-03" rms="3.2216146588325500e-01" purity="5.0797122716903687e-01" nType="0">
            <Node pos="l" depth="3" NCoef="0" IVar="11" Cut="7.8668010234832764e-01" cType="1" res="-2.3716751020401716e-03" rms="3.2651361823081970e-01" purity="6.0616618394851685e-01" nType="0">
              <Node pos="l" depth="4" NCoef="0" IVar="-1" Cut="0.0000000000000000e+00" cType="1" res="7.7411467209458351e-03" rms="3.1622481346130371e-01" purity="6.7908650636672974e-01" nType="-99"/>
              <Node pos="r" depth="4" NCoef="0" IVar="-1" Cut="0.0000000000000000e+00" cType="1" res="-1.3022504746913910e-02" rms="3.3793118596076965e-01" purity="5.1930475234985352e-01" nType="-99"/>
            </Node>
            <Node pos="r" depth="3" NCoef="0" IVar="-1" Cut="0.0000000000000000e+00" cType="1" res="1.2806007638573647e-02" rms="3.1409066915512085e-01" purity="3.3483409881591797e-01" nType="-99"/>
          </Node>
        </Node>
      </Node>
    </BinaryTree>
    <BinaryTree type="DecisionTree" boostWeight="1.0000000000000000e+00" itree="343">
      <Node pos="s" depth="0" NCoef="0" IVar="12" Cut="1.2675663232803345e+00" cType="1" res="-1.2999116734135896e-06" rms="3.3380848169326782e-01" purity="5.0000000000000000e-01" nType="0">
        <Node pos="l" depth="1" NCoef="0" IVar="11" Cut="5.7531821727752686e-01" cType="1" res="-1.8187123350799084e-03" rms="3.4069499373435974e-01" purity="2.4588495492935181e-01" nType="0">
          <Node pos="l" depth="2" NCoef="0" IVar="-1" Cut="0.0000000000000000e+00" cType="1" res="-6.7189652472734451e-03" rms="3.3056345582008362e-01" purity="2.2248779237270355e-01" nType="-99"/>
          <Node pos="r" depth="2" NCoef="0" IVar="13" Cut="1.2003086805343628e+00" cType="1" res="3.1623349059373140e-03" rms="3.4824123978614807e-01" purity="2.6396661996841431e-01" nType="0">
            <Node pos="l" depth="3" NCoef="0" IVar="-1" Cut="0.0000000000000000e+00" cType="1" res="9.2638731002807617e-03" rms="3.4542202949523926e-01" purity="2.3066903650760651e-01" nType="-99"/>
            <Node pos="r" depth="3" NCoef="0" IVar="-1" Cut="0.0000000000000000e+00" cType="1" res="-4.5647337101399899e-03" rms="3.5118636488914490e-01" purity="3.0180725455284119e-01" nType="-99"/>
          </Node>
        </Node>
        <Node pos="r" depth="1" NCoef="0" IVar="5" Cut="4.3468087500000000e+05" cType="1" res="8.4920633526053280e-05" rms="3.3347800374031067e-01" purity="5.1205557584762573e-01" nType="0">
          <Node pos="l" depth="2" NCoef="0" IVar="5" Cut="1.2254311718750000e+05" cType="1" res="-3.8734375266358256e-05" rms="3.3562624454498291e-01" purity="5.2540582418441772e-01" nType="0">
            <Node pos="l" depth="3" NCoef="0" IVar="5" Cut="1.1789705468750000e+05" cType="1" res="-8.7018578778952360e-04" rms="3.4054848551750183e-01" purity="5.3319859504699707e-01" nType="0">
              <Node pos="l" depth="4" NCoef="0" IVar="-1" Cut="0.0000000000000000e+00" cType="1" res="-2.4503321037627757e-04" rms="3.4132498502731323e-01" purity="5.3205728530883789e-01" nType="-99"/>
              <Node pos="r" depth="4" NCoef="0" IVar="-1" Cut="0.0000000000000000e+00" cType="1" res="-1.5819601714611053e-02" rms="3.1565815210342407e-01" purity="5.6774508953094482e-01" nType="-99"/>
            </Node>
            <Node pos="r" depth="3" NCoef="0" IVar="16" Cut="1.9858937263488770e+00" cType="1" res="1.0989008005708456e-03" rms="3.2876858115196228e-01" purity="5.1474344730377197e-01" nType="0">
              <Node pos="l" depth="4" NCoef="0" IVar="-1" Cut="0.0000000000000000e+00" cType="1" res="-9.2744681751355529e-04" rms="3.2329252362251282e-01" purity="5.9527075290679932e-01" nType="-99"/>
              <Node pos="r" depth="4" NCoef="0" IVar="-1" Cut="0.0000000000000000e+00" cType="1" res="5.4085352458059788e-03" rms="3.4273290634155273e-01" purity="3.0230733752250671e-01" nType="-99"/>
            </Node>
          </Node>
          <Node pos="r" depth="2" NCoef="0" IVar="0" Cut="3.3333332538604736e+00" cType="1" res="2.7408492751419544e-03" rms="2.8342044353485107e-01" purity="2.2531051933765411e-01" nType="0">
            <Node pos="l" depth="3" NCoef="0" IVar="-1" Cut="0.0000000000000000e+00" cType="1" res="-6.7127482034265995e-03" rms="2.9322367906570435e-01" purity="2.0353201031684875e-01" nType="-99"/>
            <Node pos="r" depth="3" NCoef="0" IVar="2" Cut="1.1114768750000000e+06" cType="1" res="7.5068287551403046e-03" rms="2.7792155742645264e-01" purity="2.3695126175880432e-01" nType="0">
              <Node pos="l" depth="4" NCoef="0" IVar="-1" Cut="0.0000000000000000e+00" cType="1" res="1.5419460833072662e-02" rms="3.2180014252662659e-01" purity="3.2740887999534607e-01" nType="-99"/>
              <Node pos="r" depth="4" NCoef="0" IVar="-1" Cut="0.0000000000000000e+00" cType="1" res="-6.7215245217084885e-03" rms="2.1291798353195190e-01" purity="1.2807466089725494e-01" nType="-99"/>
            </Node>
          </Node>
        </Node>
      </Node>
    </BinaryTree>
    <BinaryTree type="DecisionTree" boostWeight="1.0000000000000000e+00" itree="344">
      <Node pos="s" depth="0" NCoef="0" IVar="0" Cut="5.3333334922790527e+00" cType="1" res="-1.3183736200517160e-06" rms="3.3378759026527405e-01" purity="5.0000000000000000e-01" nType="0">
        <Node pos="l" depth="1" NCoef="0" IVar="1" Cut="8.3570585937500000e+04" cType="1" res="4.0651927702128887e-04" rms="3.2305440306663513e-01" purity="5.9258693456649780e-01" nType="0">
          <Node pos="l" depth="2" NCoef="0" IVar="0" Cut="3.0952382087707520e+00" cType="1" res="1.4430793235078454e-03" rms="3.2572147250175476e-01" purity="5.5162805318832397e-01" nType="0">
            <Node pos="l" depth="3" NCoef="0" IVar="1" Cut="1.2061631835937500e+04" cType="1" res="-9.7850803285837173e-04" rms="3.4880319237709045e-01" purity="4.2403742671012878e-01" nType="0">
              <Node pos="l" depth="4" NCoef="0" IVar="-1" Cut="0.0000000000000000e+00" cType="1" res="-1.5868371352553368e-02" rms="3.0361798405647278e-01" purity="2.0759883522987366e-01" nType="-99"/>
              <Node pos="r" depth="4" NCoef="0" IVar="-1" Cut="0.0000000000000000e+00" cType="1" res="2.2576135233975947e-04" rms="3.5218003392219543e-01" purity="4.4157570600509644e-01" nType="-99"/>
            </Node>
            <Node pos="r" depth="3" NCoef="0" IVar="11" Cut="1.4893623590469360e+00" cType="1" res="7.8319329768419266e-03" rms="2.5487673282623291e-01" purity="8.8824921846389771e-01" nType="0">
              <Node pos="l" depth="4" NCoef="0" IVar="-1" Cut="0.0000000000000000e+00" cType="1" res="2.2611606866121292e-02" rms="2.1784979104995728e-01" purity="9.3992376327514648e-01" nType="-99"/>
              <Node pos="r" depth="4" NCoef="0" IVar="-1" Cut="0.0000000000000000e+00" cType="1" res="-7.3582585901021957e-03" rms="3.5161116719245911e-01" purity="7.1401619911193848e-01" nType="-99"/>
            </Node>
          </Node>
          <Node pos="r" depth="2" NCoef="0" IVar="20" Cut="4.7314632812500000e+04" cType="1" res="-1.9082252401858568e-03" rms="3.1700536608695984e-01" purity="6.8405222892761230e-01" nType="0">
            <Node pos="l" depth="3" NCoef="0" IVar="11" Cut="9.6069669723510742e-01" cType="1" res="2.7438297402113676e-03" rms="3.1725054979324341e-01" purity="8.2399886846542358e-01" nType="0">
              <Node pos="l" depth="4" NCoef="0" IVar="-1" Cut="0.0000000000000000e+00" cType="1" res="-2.5069375988095999e-03" rms="3.0331650376319885e-01" purity="8.3428031206130981e-01" nType="-99"/>
              <Node pos="r" depth="4" NCoef="0" IVar="-1" Cut="0.0000000000000000e+00" cType="1" res="1.0850206017494202e-02" rms="3.4595510363578796e-01" purity="8.0114477872848511e-01" nType="-99"/>
            </Node>
            <Node pos="r" depth="3" NCoef="0" IVar="6" Cut="1.8614756250000000e+05" cType="1" res="-8.9978324249386787e-03" rms="3.1649991869926453e-01" purity="4.7077748179435730e-01" nType="0">
              <Node pos="l" depth="4" NCoef="0" IVar="-1" Cut="0.0000000000000000e+00" cType="1" res="-2.2661253809928894e-02" rms="3.6105597019195557e-01" purity="5.6555265188217163e-01" nType="-99"/>
              <Node pos="r" depth="4" NCoef="0" IVar="-1" Cut="0.0000000000000000e+00" cType="1" res="4.5206868089735508e-03" rms="2.8509780764579773e-01" purity="4.1280281543731689e-01" nType="-99"/>
            </Node>
          </Node>
        </Node>
        <Node pos="r" depth="1" NCoef="0" IVar="12" Cut="3.4113523960113525e+00" cType="1" res="-3.8831637357361615e-04" rms="3.4366205334663391e-01" purity="4.1214406490325928e-01" nType="0">
          <Node pos="l" depth="2" NCoef="0" IVar="0" Cut="6.0952382087707520e+00" cType="1" res="-8.5394107736647129e-04" rms="3.4530931711196899e-01" purity="4.1604068875312805e-01" nType="0">
            <Node pos="l" depth="3" NCoef="0" IVar="4" Cut="2.0649676562500000e+05" cType="1" res="0.0000000000000000e+00" rms="0.0000000000000000e+00" purity="4.7826090455055237e-01" nType="0">
              <Node pos="l" depth="4" NCoef="0" IVar="-1" Cut="0.0000000000000000e+00" cType="1" res="-1.2143785133957863e-02" rms="3.8478589057922363e-01" purity="3.9032801985740662e-01" nType="-99"/>
              <Node pos="r" depth="4" NCoef="0" IVar="-1" Cut="0.0000000000000000e+00" cType="1" res="9.4330799765884876e-04" rms="3.2516676187515259e-01" purity="5.0871241092681885e-01" nType="-99"/>
            </Node>
            <Node pos="r" depth="3" NCoef="0" IVar="12" Cut="2.1863167285919189e+00" cType="1" res="2.2459497267846018e-04" rms="3.4648704528808594e-01" purity="3.9594712853431702e-01" nType="0">
              <Node pos="l" depth="4" NCoef="0" IVar="-1" Cut="0.0000000000000000e+00" cType="1" res="-3.0595778953284025e-03" rms="3.5268563032150269e-01" purity="2.9784673452377319e-01" nType="-99"/>
              <Node pos="r" depth="4" NCoef="0" IVar="-1" Cut="0.0000000000000000e+00" cType="1" res="1.4728965470567346e-03" rms="3.4404727816581726e-01" purity="4.3386828899383545e-01" nType="-99"/>
            </Node>
          </Node>
          <Node pos="r" depth="2" NCoef="0" IVar="18" Cut="1.2172628125000000e+05" cType="1" res="4.6295104548335075e-03" rms="3.2533916831016541e-01" purity="3.7015232443809509e-01" nType="0">
            <Node pos="l" depth="3" NCoef="0" IVar="9" Cut="1.8321246875000000e+05" cType="1" res="8.1753935664892197e-03" rms="3.3517923951148987e-01" purity="3.7524035573005676e-01" nType="0">
              <Node pos="l" depth="4" NCoef="0" IVar="-1" Cut="0.0000000000000000e+00" cType="1" res="1.3899173587560654e-02" rms="3.7282535433769226e-01" purity="4.8267266154289246e-01" nType="-99"/>
              <Node pos="r" depth="4" NCoef="0" IVar="-1" Cut="0.0000000000000000e+00" cType="1" res="-8.5569685325026512e-03" rms="2.7813667058944702e-01" purity="2.3593622446060181e-01" nType="-99"/>
            </Node>
            <Node pos="r" depth="3" NCoef="0" IVar="-1" Cut="0.0000000000000000e+00" cType="1" res="-8.2141002640128136e-03" rms="2.8977343440055847e-01" purity="3.5316899418830872e-01" nType="-99"/>
          </Node>
        </Node>
      </Node>
    </BinaryTree>
    <BinaryTree type="DecisionTree" boostWeight="1.0000000000000000e+00" itree="345">
      <Node pos="s" depth="0" NCoef="0" IVar="0" Cut="2.3333332538604736e+00" cType="1" res="2.2405608888220740e-06" rms="3.3373567461967468e-01" purity="5.0000000000000000e-01" nType="0">
        <Node pos="l" depth="1" NCoef="0" IVar="11" Cut="1.6112562417984009e+00" cType="1" res="8.7801454355940223e-04" rms="3.4594735503196716e-01" purity="4.4943743944168091e-01" nType="0">
          <Node pos="l" depth="2" NCoef="0" IVar="20" Cut="4.2642757812500000e+04" cType="1" res="-9.0066198026761413e-04" rms="3.5980895161628723e-01" purity="5.2885484695434570e-01" nType="0">
            <Node pos="l" depth="3" NCoef="0" IVar="19" Cut="7.7786687500000000e+04" cType="1" res="-4.4938111677765846e-03" rms="3.7591338157653809e-01" purity="5.8547794818878174e-01" nType="0">
              <Node pos="l" depth="4" NCoef="0" IVar="-1" Cut="0.0000000000000000e+00" cType="1" res="-6.5517085604369640e-03" rms="3.6063927412033081e-01" purity="6.6438400745391846e-01" nType="-99"/>
              <Node pos="r" depth="4" NCoef="0" IVar="-1" Cut="0.0000000000000000e+00" cType="1" res="2.2563396487385035e-03" rms="4.0437832474708557e-01" purity="4.2893925309181213e-01" nType="-99"/>
            </Node>
            <Node pos="r" depth="3" NCoef="0" IVar="7" Cut="7.5674953125000000e+04" cType="1" res="3.9577633142471313e-03" rms="3.3675038814544678e-01" purity="4.5229268074035645e-01" nType="0">
              <Node pos="l" depth="4" NCoef="0" IVar="-1" Cut="0.0000000000000000e+00" cType="1" res="7.2820298373699188e-03" rms="3.7380805611610413e-01" purity="6.3285523653030396e-01" nType="-99"/>
              <Node pos="r" depth="4" NCoef="0" IVar="-1" Cut="0.0000000000000000e+00" cType="1" res="-8.3314664661884308e-03" rms="2.6957854628562927e-01" purity="1.7427261173725128e-01" nType="-99"/>
            </Node>
          </Node>
          <Node pos="r" depth="2" NCoef="0" IVar="11" Cut="2.1880764961242676e+00" cType="1" res="5.9132296591997147e-03" rms="3.0323427915573120e-01" purity="2.2461669147014618e-01" nType="0">
            <Node pos="l" depth="3" NCoef="0" IVar="16" Cut="1.8663660287857056e+00" cType="1" res="1.3507880270481110e-02" rms="3.3789077401161194e-01" purity="3.0359879136085510e-01" nType="0">
              <Node pos="l" depth="4" NCoef="0" IVar="-1" Cut="0.0000000000000000e+00" cType="1" res="1.7753083258867264e-02" rms="3.5018870234489441e-01" purity="3.5885208845138550e-01" nType="-99"/>
              <Node pos="r" depth="4" NCoef="0" IVar="-1" Cut="0.0000000000000000e+00" cType="1" res="1.0567946446826681e-04" rms="3.1664609909057617e-01" purity="2.1469993889331818e-01" nType="-99"/>
            </Node>
            <Node pos="r" depth="3" NCoef="0" IVar="9" Cut="1.0681813281250000e+05" cType="1" res="-4.4849286787211895e-03" rms="2.4767471849918365e-01" purity="1.1647894978523254e-01" nType="0">
              <Node pos="l" depth="4" NCoef="0" IVar="-1" Cut="0.0000000000000000e+00" cType="1" res="5.7513997890055180e-03" rms="3.2844838500022888e-01" purity="1.9712720811367035e-01" nType="-99"/>
              <Node pos="r" depth="4" NCoef="0" IVar="-1" Cut="0.0000000000000000e+00" cType="1" res="-2.8029751032590866e-02" rms="1.7313715815544128e-01" purity="6.2343824654817581e-02" nType="-99"/>
            </Node>
          </Node>
        </Node>
        <Node pos="r" depth="1" NCoef="0" IVar="19" Cut="2.5873704687500000e+05" cType="1" res="-2.8328361804597080e-04" rms="3.2965606451034546e-01" purity="5.1648461818695068e-01" nType="0">
          <Node pos="l" depth="2" NCoef="0" IVar="16" Cut="2.1012504100799561e+00" cType="1" res="5.6415647122776136e-05" rms="3.3181864023208618e-01" purity="5.3105485439300537e-01" nType="0">
            <Node pos="l" depth="3" NCoef="0" IVar="19" Cut="8.5997015625000000e+04" cType="1" res="-7.9769274452701211e-04" rms="3.2644087076187134e-01" purity="5.8452188968658447e-01" nType="0">
              <Node pos="l" depth="4" NCoef="0" IVar="-1" Cut="0.0000000000000000e+00" cType="1" res="7.0789968594908714e-04" rms="3.2420149445533752e-01" purity="6.4104419946670532e-01" nType="-99"/>
              <Node pos="r" depth="4" NCoef="0" IVar="-1" Cut="0.0000000000000000e+00" cType="1" res="-6.2570115551352501e-03" rms="3.3559429645538330e-01" purity="3.4733507037162781e-01" nType="-99"/>
            </Node>
            <Node pos="r" depth="3" NCoef="0" IVar="2" Cut="3.6450618750000000e+05" cType="1" res="3.0751838348805904e-03" rms="3.5014790296554565e-01" purity="3.4208065271377563e-01" nType="0">
              <Node pos="l" depth="4" NCoef="0" IVar="-1" Cut="0.0000000000000000e+00" cType="1" res="-2.1479697898030281e-03" rms="3.6861005425453186e-01" purity="3.7756541371345520e-01" nType="-99"/>
              <Node pos="r" depth="4" NCoef="0" IVar="-1" Cut="0.0000000000000000e+00" cType="1" res="7.0514595136046410e-03" rms="3.3379277586936951e-01" purity="3.1232497096061707e-01" nType="-99"/>
            </Node>
          </Node>
          <Node pos="r" depth="2" NCoef="0" IVar="11" Cut="1.1210086345672607e+00" cType="1" res="-8.1199528649449348e-03" rms="2.7497050166130066e-01" purity="1.8035735189914703e-01" nType="0">
            <Node pos="l" depth="3" NCoef="0" IVar="-1" Cut="0.0000000000000000e+00" cType="1" res="-1.5439195558428764e-02" rms="2.9789707064628601e-01" purity="2.2452506422996521e-01" nType="-99"/>
            <Node pos="r" depth="3" NCoef="0" IVar="-1" Cut="0.0000000000000000e+00" cType="1" res="1.2406466994434595e-03" rms="2.4435845017433167e-01" purity="1.2739023566246033e-01" nType="-99"/>
          </Node>
        </Node>
      </Node>
    </BinaryTree>
    <BinaryTree type="DecisionTree" boostWeight="1.0000000000000000e+00" itree="346">
      <Node pos="s" depth="0" NCoef="0" IVar="11" Cut="7.3745375871658325e-01" cType="1" res="1.0873131941480096e-06" rms="3.3370161056518555e-01" purity="5.0000000000000000e-01" nType="0">
        <Node pos="l" depth="1" NCoef="0" IVar="20" Cut="7.2900312500000000e+04" cType="1" res="6.7576294532045722e-04" rms="3.2261037826538086e-01" purity="6.6764646768569946e-01" nType="0">
          <Node pos="l" depth="2" NCoef="0" IVar="8" Cut="3.5010656250000000e+04" cType="1" res="1.0150020243600011e-03" rms="3.2669371366500854e-01" purity="6.8951344490051270e-01" nType="0">
            <Node pos="l" depth="3" NCoef="0" IVar="11" Cut="5.6681174039840698e-01" cType="1" res="-6.4085255144163966e-04" rms="3.3502101898193359e-01" purity="6.6563963890075684e-01" nType="0">
              <Node pos="l" depth="4" NCoef="0" IVar="-1" Cut="0.0000000000000000e+00" cType="1" res="1.6431845724582672e-03" rms="3.2684192061424255e-01" purity="6.9356697797775269e-01" nType="-99"/>
              <Node pos="r" depth="4" NCoef="0" IVar="-1" Cut="0.0000000000000000e+00" cType="1" res="-5.1028411835432053e-03" rms="3.5413733124732971e-01" purity="5.9740322828292847e-01" nType="-99"/>
            </Node>
            <Node pos="r" depth="3" NCoef="0" IVar="14" Cut="1.8576762676239014e+00" cType="1" res="5.4464102722704411e-03" rms="3.0324107408523560e-01" purity="7.5340461730957031e-01" nType="0">
              <Node pos="l" depth="4" NCoef="0" IVar="-1" Cut="0.0000000000000000e+00" cType="1" res="1.4202117919921875e-02" rms="3.1740155816078186e-01" purity="7.4653208255767822e-01" nType="-99"/>
              <Node pos="r" depth="4" NCoef="0" IVar="-1" Cut="0.0000000000000000e+00" cType="1" res="-6.3223548932000995e-04" rms="2.9419660568237305e-01" purity="7.5755500793457031e-01" nType="-99"/>
            </Node>
          </Node>
          <Node pos="r" depth="2" NCoef="0" IVar="-1" Cut="0.0000000000000000e+00" cType="1" res="-2.1879136562347412e-02" rms="1.7662324011325836e-01" purity="6.7294858396053314e-02" nType="-99"/>
        </Node>
        <Node pos="r" depth="1" NCoef="0" IVar="15" Cut="3.0486736297607422e+00" cType="1" res="-3.0763744143769145e-04" rms="3.3865526318550110e-01" purity="4.2328667640686035e-01" nType="0">
          <Node pos="l" depth="2" NCoef="0" IVar="16" Cut="2.7263977527618408e+00" cType="1" res="-5.5321451509371400e-04" rms="3.3936643600463867e-01" purity="4.2497059702873230e-01" nType="0">
            <Node pos="l" depth="3" NCoef="0" IVar="14" Cut="1.8409607410430908e+00" cType="1" res="-1.1623059981502593e-04" rms="3.4092938899993896e-01" purity="4.4153878092765808e-01" nType="0">
              <Node pos="l" depth="4" NCoef="0" IVar="-1" Cut="0.0000000000000000e+00" cType="1" res="-1.2724567204713821e-03" rms="3.4767413139343262e-01" purity="4.0811833739280701e-01" nType="-99"/>
              <Node pos="r" depth="4" NCoef="0" IVar="-1" Cut="0.0000000000000000e+00" cType="1" res="1.2618207838386297e-03" rms="3.3357319235801697e-01" purity="4.7720691561698914e-01" nType="-99"/>
            </Node>
            <Node pos="r" depth="3" NCoef="0" IVar="11" Cut="1.2949061393737793e+00" cType="1" res="-5.1987278275191784e-03" rms="3.2224631309509277e-01" purity="2.4883688986301422e-01" nType="0">
              <Node pos="l" depth="4" NCoef="0" IVar="-1" Cut="0.0000000000000000e+00" cType="1" res="-9.4105685129761696e-03" rms="3.5469308495521545e-01" purity="3.2677137851715088e-01" nType="-99"/>
              <Node pos="r" depth="4" NCoef="0" IVar="-1" Cut="0.0000000000000000e+00" cType="1" res="-4.8227401566691697e-04" rms="3.0162039399147034e-01" purity="2.0339430868625641e-01" nType="-99"/>
            </Node>
          </Node>
          <Node pos="r" depth="2" NCoef="0" IVar="20" Cut="5.8231339843750000e+04" cType="1" res="4.0818238630890846e-03" rms="3.2565051317214966e-01" purity="3.9318758249282837e-01" nType="0">
            <Node pos="l" depth="3" NCoef="0" IVar="-1" Cut="0.0000000000000000e+00" cType="1" res="-1.5422675060108304e-03" rms="3.6565175652503967e-01" purity="5.6153678894042969e-01" nType="-99"/>
            <Node pos="r" depth="3" NCoef="0" IVar="-1" Cut="0.0000000000000000e+00" cType="1" res="1.4254015870392323e-02" rms="2.7670195698738098e-01" purity="2.1421156823635101e-01" nType="-99"/>
          </Node>
        </Node>
      </Node>
    </BinaryTree>
    <BinaryTree type="DecisionTree" boostWeight="1.0000000000000000e+00" itree="347">
      <Node pos="s" depth="0" NCoef="0" IVar="13" Cut="2.7425336837768555e+00" cType="1" res="9.5954999324021628e-07" rms="3.3368864655494690e-01" purity="5.0000000000000000e-01" nType="0">
        <Node pos="l" depth="1" NCoef="0" IVar="10" Cut="1.1658386718750000e+05" cType="1" res="3.9178511360660195e-04" rms="3.3331477642059326e-01" purity="4.1426411271095276e-01" nType="0">
          <Node pos="l" depth="2" NCoef="0" IVar="10" Cut="9.9823085937500000e+04" cType="1" res="1.3127967249602079e-03" rms="3.4542727470397949e-01" purity="4.1204687952995300e-01" nType="0">
            <Node pos="l" depth="3" NCoef="0" IVar="10" Cut="3.7569535156250000e+04" cType="1" res="2.0762781787198037e-04" rms="3.4691888093948364e-01" purity="3.9720252156257629e-01" nType="0">
              <Node pos="l" depth="4" NCoef="0" IVar="-1" Cut="0.0000000000000000e+00" cType="1" res="4.0611708536744118e-03" rms="3.4666514396667480e-01" purity="2.7313658595085144e-01" nType="-99"/>
              <Node pos="r" depth="4" NCoef="0" IVar="-1" Cut="0.0000000000000000e+00" cType="1" res="-9.6537458011880517e-04" rms="3.4697940945625305e-01" purity="4.3329626321792603e-01" nType="-99"/>
            </Node>
            <Node pos="r" depth="3" NCoef="0" IVar="16" Cut="2.2578237056732178e+00" cType="1" res="8.1283459439873695e-03" rms="3.3600199222564697e-01" purity="5.0359141826629639e-01" nType="0">
              <Node pos="l" depth="4" NCoef="0" IVar="-1" Cut="0.0000000000000000e+00" cType="1" res="2.4521800223737955e-03" rms="3.3337900042533875e-01" purity="5.4897505044937134e-01" nType="-99"/>
              <Node pos="r" depth="4" NCoef="0" IVar="-1" Cut="0.0000000000000000e+00" cType="1" res="2.2803189232945442e-02" rms="3.4499552845954895e-01" purity="3.3203420042991638e-01" nType="-99"/>
            </Node>
          </Node>
          <Node pos="r" depth="2" NCoef="0" IVar="11" Cut="6.5648549795150757e-01" cType="1" res="-2.0202586892992258e-03" rms="2.9926580190658569e-01" purity="4.2007082700729370e-01" nType="0">
            <Node pos="l" depth="3" NCoef="0" IVar="10" Cut="1.6967117187500000e+05" cType="1" res="4.5190453529357910e-03" rms="3.1569901108741760e-01" purity="6.4768749475479126e-01" nType="0">
              <Node pos="l" depth="4" NCoef="0" IVar="-1" Cut="0.0000000000000000e+00" cType="1" res="9.9612195044755936e-03" rms="3.1845429539680481e-01" purity="6.9525611400604248e-01" nType="-99"/>
              <Node pos="r" depth="4" NCoef="0" IVar="-1" Cut="0.0000000000000000e+00" cType="1" res="-5.3446129895746708e-03" rms="3.1102749705314636e-01" purity="5.7245415449142456e-01" nType="-99"/>
            </Node>
            <Node pos="r" depth="3" NCoef="0" IVar="14" Cut="9.3145775794982910e-01" cType="1" res="-4.7758291475474834e-03" rms="2.9202046990394592e-01" purity="3.2415640354156494e-01" nType="0">
              <Node pos="l" depth="4" NCoef="0" IVar="-1" Cut="0.0000000000000000e+00" cType="1" res="-1.9272642210125923e-02" rms="2.8967040777206421e-01" purity="2.6215943694114685e-01" nType="-99"/>
              <Node pos="r" depth="4" NCoef="0" IVar="-1" Cut="0.0000000000000000e+00" cType="1" res="-2.7775987982749939e-03" rms="2.9236716032028198e-01" purity="3.3492052555084229e-01" nType="-99"/>
            </Node>
          </Node>
        </Node>
        <Node pos="r" depth="1" NCoef="0" IVar="3" Cut="4.7258050000000000e+05" cType="1" res="-5.5704300757497549e-04" rms="3.3422094583511353e-01" purity="6.2240970134735107e-01" nType="0">
          <Node pos="l" depth="2" NCoef="0" IVar="9" Cut="1.8383615625000000e+05" cType="1" res="-9.7121665021404624e-04" rms="3.3870872855186462e-01" purity="6.4657455682754517e-01" nType="0">
            <Node pos="l" depth="3" NCoef="0" IVar="3" Cut="8.4562343750000000e+04" cType="1" res="8.1951258471235633e-04" rms="3.4632128477096558e-01" purity="6.5986621379852295e-01" nType="0">
              <Node pos="l" depth="4" NCoef="0" IVar="-1" Cut="0.0000000000000000e+00" cType="1" res="-1.1660317890346050e-02" rms="3.6030665040016174e-01" purity="4.0368047356605530e-01" nType="-99"/>
              <Node pos="r" depth="4" NCoef="0" IVar="-1" Cut="0.0000000000000000e+00" cType="1" res="1.2815316440537572e-03" rms="3.4574881196022034e-01" purity="6.6972070932388306e-01" nType="-99"/>
            </Node>
            <Node pos="r" depth="3" NCoef="0" IVar="10" Cut="1.7216593750000000e+05" cType="1" res="-8.9767165482044220e-03" rms="3.0221217870712280e-01" purity="5.8715373277664185e-01" nType="0">
              <Node pos="l" depth="4" NCoef="0" IVar="-1" Cut="0.0000000000000000e+00" cType="1" res="-2.7640705928206444e-02" rms="3.0775991082191467e-01" purity="6.1389744281768799e-01" nType="-99"/>
              <Node pos="r" depth="4" NCoef="0" IVar="-1" Cut="0.0000000000000000e+00" cType="1" res="3.5621065180748701e-03" rms="2.9768294095993042e-01" purity="5.6866961717605591e-01" nType="-99"/>
            </Node>
          </Node>
          <Node pos="r" depth="2" NCoef="0" IVar="10" Cut="4.1054709375000000e+05" cType="1" res="6.7731519229710102e-03" rms="2.4124316871166229e-01" purity="1.9473192095756531e-01" nType="0">
            <Node pos="l" depth="3" NCoef="0" IVar="-1" Cut="0.0000000000000000e+00" cType="1" res="2.2518383339047432e-02" rms="2.5236481428146362e-01" purity="2.3290243744850159e-01" nType="-99"/>
            <Node pos="r" depth="3" NCoef="0" IVar="-1" Cut="0.0000000000000000e+00" cType="1" res="-1.5057908603921533e-03" rms="2.3081803321838379e-01" purity="1.6138298809528351e-01" nType="-99"/>
          </Node>
        </Node>
      </Node>
    </BinaryTree>
    <BinaryTree type="DecisionTree" boostWeight="1.0000000000000000e+00" itree="348">
      <Node pos="s" depth="0" NCoef="0" IVar="0" Cut="1.3333333730697632e+00" cType="1" res="1.3179779898564448e-06" rms="3.3363753557205200e-01" purity="5.0000000000000000e-01" nType="0">
        <Node pos="l" depth="1" NCoef="0" IVar="4" Cut="2.4117856250000000e+05" cType="1" res="0.0000000000000000e+00" rms="0.0000000000000000e+00" purity="3.7987464666366577e-01" nType="0">
          <Node pos="l" depth="2" NCoef="0" IVar="4" Cut="1.7092385937500000e+05" cType="1" res="0.0000000000000000e+00" rms="0.0000000000000000e+00" purity="3.5674095153808594e-01" nType="0">
            <Node pos="l" depth="3" NCoef="0" IVar="-1" Cut="0.0000000000000000e+00" cType="1" res="5.6527098640799522e-03" rms="3.9079695940017700e-01" purity="2.9109162092208862e-01" nType="-99"/>
            <Node pos="r" depth="3" NCoef="0" IVar="6" Cut="1.3795946875000000e+05" cType="1" res="0.0000000000000000e+00" rms="0.0000000000000000e+00" purity="3.9538109302520752e-01" nType="0">
              <Node pos="l" depth="4" NCoef="0" IVar="-1" Cut="0.0000000000000000e+00" cType="1" res="-1.7864836379885674e-02" rms="3.7409669160842896e-01" purity="3.6601847410202026e-01" nType="-99"/>
              <Node pos="r" depth="4" NCoef="0" IVar="-1" Cut="0.0000000000000000e+00" cType="1" res="-2.9341883491724730e-03" rms="3.6116713285446167e-01" purity="4.2551764845848083e-01" nType="-99"/>
            </Node>
          </Node>
          <Node pos="r" depth="2" NCoef="0" IVar="14" Cut="9.5157921314239502e-01" cType="1" res="0.0000000000000000e+00" rms="0.0000000000000000e+00" purity="3.9041674137115479e-01" nType="0">
            <Node pos="l" depth="3" NCoef="0" IVar="-1" Cut="0.0000000000000000e+00" cType="1" res="2.1866653114557266e-02" rms="3.4248045086860657e-01" purity="3.8878706097602844e-01" nType="-99"/>
            <Node pos="r" depth="3" NCoef="0" IVar="15" Cut="2.7821111679077148e+00" cType="1" res="0.0000000000000000e+00" rms="0.0000000000000000e+00" purity="3.9069363474845886e-01" nType="0">
              <Node pos="l" depth="4" NCoef="0" IVar="-1" Cut="0.0000000000000000e+00" cType="1" res="4.0930057875812054e-03" rms="3.2670724391937256e-01" purity="3.9501553773880005e-01" nType="-99"/>
              <Node pos="r" depth="4" NCoef="0" IVar="-1" Cut="0.0000000000000000e+00" cType="1" res="-1.7711229622364044e-02" rms="2.9450413584709167e-01" purity="3.6686247587203979e-01" nType="-99"/>
            </Node>
          </Node>
        </Node>
        <Node pos="r" depth="1" NCoef="0" IVar="12" Cut="1.2675663232803345e+00" cType="1" res="-1.5339555102400482e-04" rms="3.3245536684989929e-01" purity="5.1624339818954468e-01" nType="0">
          <Node pos="l" depth="2" NCoef="0" IVar="4" Cut="3.0572228125000000e+05" cType="1" res="-4.2260061018168926e-03" rms="3.4136384725570679e-01" purity="2.5378838181495667e-01" nType="0">
            <Node pos="l" depth="3" NCoef="0" IVar="-1" Cut="0.0000000000000000e+00" cType="1" res="4.9363370053470135e-03" rms="3.7434616684913635e-01" purity="3.5966894030570984e-01" nType="-99"/>
            <Node pos="r" depth="3" NCoef="0" IVar="4" Cut="5.2217306250000000e+05" cType="1" res="-1.3047486543655396e-02" rms="3.1409388780593872e-01" purity="1.7443028092384338e-01" nType="0">
              <Node pos="l" depth="4" NCoef="0" IVar="-1" Cut="0.0000000000000000e+00" cType="1" res="-1.9144916906952858e-02" rms="3.5399278998374939e-01" purity="2.3090052604675293e-01" nType="-99"/>
              <Node pos="r" depth="4" NCoef="0" IVar="-1" Cut="0.0000000000000000e+00" cType="1" res="3.8087091525085270e-04" rms="2.6981812715530396e-01" purity="1.2043216824531555e-01" nType="-99"/>
            </Node>
          </Node>
          <Node pos="r" depth="2" NCoef="0" IVar="16" Cut="7.4937701225280762e-01" cType="1" res="3.3653715945547447e-05" rms="3.3203929662704468e-01" purity="5.2829760313034058e-01" nType="0">
            <Node pos="l" depth="3" NCoef="0" IVar="13" Cut="1.6536825895309448e+00" cType="1" res="1.6548637067899108e-03" rms="2.8129321336746216e-01" purity="7.7868038415908813e-01" nType="0">
              <Node pos="l" depth="4" NCoef="0" IVar="-1" Cut="0.0000000000000000e+00" cType="1" res="1.5376904979348183e-02" rms="3.4712120890617371e-01" purity="4.0273088216781616e-01" nType="-99"/>
              <Node pos="r" depth="4" NCoef="0" IVar="-1" Cut="0.0000000000000000e+00" cType="1" res="4.0679494850337505e-04" rms="2.7544766664505005e-01" purity="8.0803436040878296e-01" nType="-99"/>
            </Node>
            <Node pos="r" depth="3" NCoef="0" IVar="13" Cut="5.4850673675537109e-01" cType="1" res="-3.8401008350774646e-04" rms="3.4390056133270264e-01" purity="4.6379280090332031e-01" nType="0">
              <Node pos="l" depth="4" NCoef="0" IVar="-1" Cut="0.0000000000000000e+00" cType="1" res="1.3095687143504620e-02" rms="2.9787927865982056e-01" purity="1.8481847643852234e-01" nType="-99"/>
              <Node pos="r" depth="4" NCoef="0" IVar="-1" Cut="0.0000000000000000e+00" cType="1" res="-4.5946417958475649e-04" rms="3.4456500411033630e-01" purity="4.6813604235649109e-01" nType="-99"/>
            </Node>
          </Node>
        </Node>
      </Node>
    </BinaryTree>
    <BinaryTree type="DecisionTree" boostWeight="1.0000000000000000e+00" itree="349">
      <Node pos="s" depth="0" NCoef="0" IVar="13" Cut="5.4850673675537109e-01" cType="1" res="3.7557003906840691e-07" rms="3.3360758423805237e-01" purity="5.0000000000000000e-01" nType="0">
        <Node pos="l" depth="1" NCoef="0" IVar="12" Cut="1.5903397798538208e+00" cType="1" res="-3.2359000761061907e-03" rms="3.0680361390113831e-01" purity="1.6937981545925140e-01" nType="0">
          <Node pos="l" depth="2" NCoef="0" IVar="-1" Cut="0.0000000000000000e+00" cType="1" res="-1.0435795411467552e-02" rms="3.2325568795204163e-01" purity="1.7174468934535980e-01" nType="-99"/>
          <Node pos="r" depth="2" NCoef="0" IVar="-1" Cut="0.0000000000000000e+00" cType="1" res="5.8739762753248215e-03" rms="2.9006233811378479e-01" purity="1.6713199019432068e-01" nType="-99"/>
        </Node>
        <Node pos="r" depth="1" NCoef="0" IVar="13" Cut="4.0223908424377441e+00" cType="1" res="6.8779707362409681e-05" rms="3.3415058255195618e-01" purity="5.0698822736740112e-01" nType="0">
          <Node pos="l" depth="2" NCoef="0" IVar="12" Cut="3.6594169139862061e+00" cType="1" res="1.5186621749307960e-04" rms="3.3427599072456360e-01" purity="5.0862210988998413e-01" nType="0">
            <Node pos="l" depth="3" NCoef="0" IVar="14" Cut="3.3399713039398193e+00" cType="1" res="1.5599724065396003e-05" rms="3.3528923988342285e-01" purity="5.1241433620452881e-01" nType="0">
              <Node pos="l" depth="4" NCoef="0" IVar="-1" Cut="0.0000000000000000e+00" cType="1" res="9.7594667749945074e-05" rms="3.3530557155609131e-01" purity="5.1428645849227905e-01" nType="-99"/>
              <Node pos="r" depth="4" NCoef="0" IVar="-1" Cut="0.0000000000000000e+00" cType="1" res="-6.4026955515146255e-03" rms="3.3403870463371277e-01" purity="3.7804558873176575e-01" nType="-99"/>
            </Node>
            <Node pos="r" depth="3" NCoef="0" IVar="16" Cut="2.1718389987945557e+00" cType="1" res="3.8165117148309946e-03" rms="3.0574643611907959e-01" purity="4.0663695335388184e-01" nType="0">
              <Node pos="l" depth="4" NCoef="0" IVar="-1" Cut="0.0000000000000000e+00" cType="1" res="-1.7305115470662713e-03" rms="3.0704128742218018e-01" purity="4.8319166898727417e-01" nType="-99"/>
              <Node pos="r" depth="4" NCoef="0" IVar="-1" Cut="0.0000000000000000e+00" cType="1" res="1.5805313363671303e-02" rms="3.0267968773841858e-01" purity="2.4640254676342010e-01" nType="-99"/>
            </Node>
          </Node>
          <Node pos="r" depth="2" NCoef="0" IVar="-1" Cut="0.0000000000000000e+00" cType="1" res="-5.9713497757911682e-03" rms="3.2350188493728638e-01" purity="3.7140727043151855e-01" nType="-99"/>
        </Node>
      </Node>
    </BinaryTree>
    <BinaryTree type="DecisionTree" boostWeight="1.0000000000000000e+00" itree="350">
      <Node pos="s" depth="0" NCoef="0" IVar="14" Cut="2.5702321529388428e+00" cType="1" res="6.5480065813972033e-08" rms="3.3360043168067932e-01" purity="5.0000000000000000e-01" nType="0">
        <Node pos="l" depth="1" NCoef="0" IVar="13" Cut="5.4850673675537109e-01" cType="1" res="-1.9570020958781242e-04" rms="3.3779585361480713e-01" purity="4.8695713281631470e-01" nType="0">
          <Node pos="l" depth="2" NCoef="0" IVar="-1" Cut="0.0000000000000000e+00" cType="1" res="-9.3789268285036087e-03" rms="2.9428783059120178e-01" purity="1.5793041884899139e-01" nType="-99"/>
          <Node pos="r" depth="2" NCoef="0" IVar="9" Cut="4.2009631250000000e+05" cType="1" res="-1.4616136468248442e-05" rms="3.3863404393196106e-01" purity="4.9376004934310913e-01" nType="0">
            <Node pos="l" depth="3" NCoef="0" IVar="9" Cut="4.6038261718750000e+04" cType="1" res="1.5746185090392828e-04" rms="3.4066888689994812e-01" purity="5.0029230117797852e-01" nType="0">
              <Node pos="l" depth="4" NCoef="0" IVar="-1" Cut="0.0000000000000000e+00" cType="1" res="3.2439292408525944e-03" rms="3.9148128032684326e-01" purity="4.8565942049026489e-01" nType="-99"/>
              <Node pos="r" depth="4" NCoef="0" IVar="-1" Cut="0.0000000000000000e+00" cType="1" res="-3.4299769322387874e-04" rms="3.3454558253288269e-01" purity="5.0191730260848999e-01" nType="-99"/>
            </Node>
            <Node pos="r" depth="3" NCoef="0" IVar="-1" Cut="0.0000000000000000e+00" cType="1" res="-2.6432171463966370e-02" rms="1.7399074137210846e-01" purity="9.5432780683040619e-02" nType="-99"/>
          </Node>
        </Node>
        <Node pos="r" depth="1" NCoef="0" IVar="5" Cut="3.1517759375000000e+05" cType="1" res="7.4964470695704222e-04" rms="3.1702232360839844e-01" purity="5.4994070529937744e-01" nType="0">
          <Node pos="l" depth="2" NCoef="0" IVar="5" Cut="3.8817664062500000e+04" cType="1" res="2.0894694607704878e-03" rms="3.2097855210304260e-01" purity="5.8319813013076782e-01" nType="0">
            <Node pos="l" depth="3" NCoef="0" IVar="-1" Cut="0.0000000000000000e+00" cType="1" res="-1.2003448791801929e-02" rms="3.3665865659713745e-01" purity="4.8079109191894531e-01" nType="-99"/>
            <Node pos="r" depth="3" NCoef="0" IVar="10" Cut="7.5970226562500000e+04" cType="1" res="3.9063086733222008e-03" rms="3.1920239329338074e-01" purity="5.9415102005004883e-01" nType="0">
              <Node pos="l" depth="4" NCoef="0" IVar="-1" Cut="0.0000000000000000e+00" cType="1" res="8.9151160791516304e-03" rms="3.5475027561187744e-01" purity="4.6124014258384705e-01" nType="-99"/>
              <Node pos="r" depth="4" NCoef="0" IVar="-1" Cut="0.0000000000000000e+00" cType="1" res="6.1001715948805213e-04" rms="3.0275505781173706e-01" purity="6.5069776773452759e-01" nType="-99"/>
            </Node>
          </Node>
          <Node pos="r" depth="2" NCoef="0" IVar="14" Cut="2.8978774547576904e+00" cType="1" res="-1.0057049803435802e-02" rms="2.8286623954772949e-01" purity="2.8169417381286621e-01" nType="0">
            <Node pos="l" depth="3" NCoef="0" IVar="-1" Cut="0.0000000000000000e+00" cType="1" res="-3.0947038903832436e-02" rms="2.7553325891494751e-01" purity="2.7098596096038818e-01" nType="-99"/>
            <Node pos="r" depth="3" NCoef="0" IVar="-1" Cut="0.0000000000000000e+00" cType="1" res="7.4355490505695343e-03" rms="2.8947401046752930e-01" purity="2.9297831654548645e-01" nType="-99"/>
          </Node>
        </Node>
      </Node>
    </BinaryTree>
    <BinaryTree type="DecisionTree" boostWeight="1.0000000000000000e+00" itree="351">
      <Node pos="s" depth="0" NCoef="0" IVar="13" Cut="3.5652937889099121e+00" cType="1" res="-4.6508270656886452e-07" rms="3.3358368277549744e-01" purity="5.0000000000000000e-01" nType="0">
        <Node pos="l" depth="1" NCoef="0" IVar="15" Cut="2.4574902057647705e+00" cType="1" res="-8.8622829935047776e-05" rms="3.3336779475212097e-01" purity="5.0163477659225464e-01" nType="0">
          <Node pos="l" depth="2" NCoef="0" IVar="12" Cut="3.3703634738922119e+00" cType="1" res="-5.1157217239961028e-04" rms="3.4079277515411377e-01" purity="4.9424129724502563e-01" nType="0">
            <Node pos="l" depth="3" NCoef="0" IVar="16" Cut="2.1094293594360352e+00" cType="1" res="-5.7589048083173111e-05" rms="3.4264424443244934e-01" purity="5.0241827964782715e-01" nType="0">
              <Node pos="l" depth="4" NCoef="0" IVar="-1" Cut="0.0000000000000000e+00" cType="1" res="-8.4500364027917385e-04" rms="3.3843815326690674e-01" purity="5.4530364274978638e-01" nType="-99"/>
              <Node pos="r" depth="4" NCoef="0" IVar="-1" Cut="0.0000000000000000e+00" cType="1" res="2.3626738693565130e-03" rms="3.5660740733146667e-01" purity="3.5604605078697205e-01" nType="-99"/>
            </Node>
            <Node pos="r" depth="3" NCoef="0" IVar="16" Cut="1.8735527992248535e+00" cType="1" res="-6.3722189515829086e-03" rms="3.1586012244224548e-01" purity="3.8868135213851929e-01" nType="0">
              <Node pos="l" depth="4" NCoef="0" IVar="-1" Cut="0.0000000000000000e+00" cType="1" res="-7.7365210745483637e-04" rms="3.2045167684555054e-01" purity="4.8941397666931152e-01" nType="-99"/>
              <Node pos="r" depth="4" NCoef="0" IVar="-1" Cut="0.0000000000000000e+00" cType="1" res="-1.4916386455297470e-02" rms="3.0784025788307190e-01" purity="2.2091501951217651e-01" nType="-99"/>
            </Node>
          </Node>
          <Node pos="r" depth="2" NCoef="0" IVar="0" Cut="2.3333332538604736e+00" cType="1" res="1.0815279092639685e-03" rms="3.1190291047096252e-01" purity="5.2209001779556274e-01" nType="0">
            <Node pos="l" depth="3" NCoef="0" IVar="16" Cut="2.0033078193664551e+00" cType="1" res="6.7856288515031338e-03" rms="3.2377326488494873e-01" purity="4.6990650892257690e-01" nType="0">
              <Node pos="l" depth="4" NCoef="0" IVar="-1" Cut="0.0000000000000000e+00" cType="1" res="1.2127631343901157e-02" rms="3.3197766542434692e-01" purity="6.0568541288375854e-01" nType="-99"/>
              <Node pos="r" depth="4" NCoef="0" IVar="-1" Cut="0.0000000000000000e+00" cType="1" res="-8.6992913857102394e-03" rms="3.0458629131317139e-01" purity="1.7466337978839874e-01" nType="-99"/>
            </Node>
            <Node pos="r" depth="3" NCoef="0" IVar="0" Cut="3.2380952835083008e+00" cType="1" res="-6.9639179855585098e-04" rms="3.0808794498443604e-01" purity="5.3835523128509521e-01" nType="0">
              <Node pos="l" depth="4" NCoef="0" IVar="-1" Cut="0.0000000000000000e+00" cType="1" res="-9.9301300942897797e-03" rms="3.1772997975349426e-01" purity="5.2832013368606567e-01" nType="-99"/>
              <Node pos="r" depth="4" NCoef="0" IVar="-1" Cut="0.0000000000000000e+00" cType="1" res="7.0976599818095565e-04" rms="3.0671849846839905e-01" purity="5.3972840309143066e-01" nType="-99"/>
            </Node>
          </Node>
        </Node>
        <Node pos="r" depth="1" NCoef="0" IVar="9" Cut="1.7722460937500000e+05" cType="1" res="1.9414324779063463e-03" rms="3.3829855918884277e-01" purity="4.6398901939392090e-01" nType="0">
          <Node pos="l" depth="2" NCoef="0" IVar="8" Cut="5.7347847656250000e+04" cType="1" res="-2.8872224502265453e-03" rms="3.6230698227882385e-01" purity="5.1418358087539673e-01" nType="0">
            <Node pos="l" depth="3" NCoef="0" IVar="-1" Cut="0.0000000000000000e+00" cType="1" res="-1.1220429092645645e-02" rms="3.6871358752250671e-01" purity="6.4273828268051147e-01" nType="-99"/>
            <Node pos="r" depth="3" NCoef="0" IVar="-1" Cut="0.0000000000000000e+00" cType="1" res="1.5476504340767860e-02" rms="3.5110715031623840e-01" purity="3.1561493873596191e-01" nType="-99"/>
          </Node>
          <Node pos="r" depth="2" NCoef="0" IVar="-1" Cut="0.0000000000000000e+00" cType="1" res="9.3880519270896912e-03" rms="2.9764983057975769e-01" purity="3.8711726665496826e-01" nType="-99"/>
        </Node>
      </Node>
    </BinaryTree>
    <BinaryTree type="DecisionTree" boostWeight="1.0000000000000000e+00" itree="352">
      <Node pos="s" depth="0" NCoef="0" IVar="12" Cut="3.6793255805969238e+00" cType="1" res="-3.3298729817943240e-07" rms="3.3355841040611267e-01" purity="5.0000000000000000e-01" nType="0">
        <Node pos="l" depth="1" NCoef="0" IVar="12" Cut="3.0157248973846436e+00" cType="1" res="-7.7070806582923979e-05" rms="3.3457079529762268e-01" purity="5.0389510393142700e-01" nType="0">
          <Node pos="l" depth="2" NCoef="0" IVar="6" Cut="1.8604671875000000e+05" cType="1" res="-5.1744712982326746e-04" rms="3.4037086367607117e-01" purity="4.9368771910667419e-01" nType="0">
            <Node pos="l" depth="3" NCoef="0" IVar="9" Cut="1.3807589062500000e+05" cType="1" res="-1.5442037256434560e-03" rms="3.6895367503166199e-01" purity="5.1960718631744385e-01" nType="0">
              <Node pos="l" depth="4" NCoef="0" IVar="-1" Cut="0.0000000000000000e+00" cType="1" res="-1.9450466788839549e-04" rms="3.6997631192207336e-01" purity="5.2019858360290527e-01" nType="-99"/>
              <Node pos="r" depth="4" NCoef="0" IVar="-1" Cut="0.0000000000000000e+00" cType="1" res="-2.0868856459856033e-02" rms="3.4723380208015442e-01" purity="5.0794494152069092e-01" nType="-99"/>
            </Node>
            <Node pos="r" depth="3" NCoef="0" IVar="2" Cut="4.0525500000000000e+05" cType="1" res="1.0940891224890947e-03" rms="2.8987315297126770e-01" purity="4.5300602912902832e-01" nType="0">
              <Node pos="l" depth="4" NCoef="0" IVar="-1" Cut="0.0000000000000000e+00" cType="1" res="7.2794673033058643e-03" rms="3.0618956685066223e-01" purity="6.7720711231231689e-01" nType="-99"/>
              <Node pos="r" depth="4" NCoef="0" IVar="-1" Cut="0.0000000000000000e+00" cType="1" res="-1.8126319628208876e-03" rms="2.8233167529106140e-01" purity="3.5404652357101440e-01" nType="-99"/>
            </Node>
          </Node>
          <Node pos="r" depth="2" NCoef="0" IVar="15" Cut="1.2881981134414673e+00" cType="1" res="1.1863994877785444e-03" rms="3.1733879446983337e-01" purity="5.3318065404891968e-01" nType="0">
            <Node pos="l" depth="3" NCoef="0" IVar="16" Cut="2.3438484668731689e+00" cType="1" res="-4.7259968705475330e-03" rms="3.3569261431694031e-01" purity="4.8319229483604431e-01" nType="0">
              <Node pos="l" depth="4" NCoef="0" IVar="-1" Cut="0.0000000000000000e+00" cType="1" res="1.0138422949239612e-03" rms="3.3014851808547974e-01" purity="5.1201260089874268e-01" nType="-99"/>
              <Node pos="r" depth="4" NCoef="0" IVar="-1" Cut="0.0000000000000000e+00" cType="1" res="-2.2361597046256065e-02" rms="3.5805770754814148e-01" purity="3.5550832748413086e-01" nType="-99"/>
            </Node>
            <Node pos="r" depth="3" NCoef="0" IVar="10" Cut="1.1646107812500000e+05" cType="1" res="3.1525783706456423e-03" rms="3.1097039580345154e-01" purity="5.4980438947677612e-01" nType="0">
              <Node pos="l" depth="4" NCoef="0" IVar="-1" Cut="0.0000000000000000e+00" cType="1" res="6.5272687934339046e-03" rms="3.2210451364517212e-01" purity="5.1842451095581055e-01" nType="-99"/>
              <Node pos="r" depth="4" NCoef="0" IVar="-1" Cut="0.0000000000000000e+00" cType="1" res="-6.9790048291906714e-04" rms="2.9998341202735901e-01" purity="5.7955467700958252e-01" nType="-99"/>
            </Node>
          </Node>
        </Node>
        <Node pos="r" depth="1" NCoef="0" IVar="0" Cut="7.3333334922790527e+00" cType="1" res="1.9501735223457217e-03" rms="3.0669879913330078e-01" purity="4.0099611878395081e-01" nType="0">
          <Node pos="l" depth="2" NCoef="0" IVar="15" Cut="2.1176099777221680e+00" cType="1" res="-3.1800533179193735e-03" rms="3.0208176374435425e-01" purity="4.4986382126808167e-01" nType="0">
            <Node pos="l" depth="3" NCoef="0" IVar="-1" Cut="0.0000000000000000e+00" cType="1" res="5.3104842081665993e-03" rms="3.1593313813209534e-01" purity="3.9476266503334045e-01" nType="-99"/>
            <Node pos="r" depth="3" NCoef="0" IVar="-1" Cut="0.0000000000000000e+00" cType="1" res="-1.6274539753794670e-02" rms="2.8191310167312622e-01" purity="5.2398735284805298e-01" nType="-99"/>
          </Node>
          <Node pos="r" depth="2" NCoef="0" IVar="-1" Cut="0.0000000000000000e+00" cType="1" res="1.5116982161998749e-02" rms="3.1811243295669556e-01" purity="2.7265283465385437e-01" nType="-99"/>
        </Node>
      </Node>
    </BinaryTree>
    <BinaryTree type="DecisionTree" boostWeight="1.0000000000000000e+00" itree="353">
      <Node pos="s" depth="0" NCoef="0" IVar="16" Cut="9.9912786483764648e-01" cType="1" res="1.1629065710394570e-07" rms="3.3352130651473999e-01" purity="5.0000000000000000e-01" nType="0">
        <Node pos="l" depth="1" NCoef="0" IVar="15" Cut="2.0571131706237793e+00" cType="1" res="-6.6744425566866994e-04" rms="3.0068880319595337e-01" purity="7.2007471323013306e-01" nType="0">
          <Node pos="l" depth="2" NCoef="0" IVar="11" Cut="7.0876067876815796e-01" cType="1" res="-3.3317613415420055e-03" rms="3.1572824716567993e-01" purity="6.5952819585800171e-01" nType="0">
            <Node pos="l" depth="3" NCoef="0" IVar="13" Cut="2.4440824985504150e+00" cType="1" res="3.3401832915842533e-03" rms="2.8466337919235229e-01" purity="8.1121790409088135e-01" nType="0">
              <Node pos="l" depth="4" NCoef="0" IVar="-1" Cut="0.0000000000000000e+00" cType="1" res="1.6270076856017113e-02" rms="3.3593308925628662e-01" purity="6.4200717210769653e-01" nType="-99"/>
              <Node pos="r" depth="4" NCoef="0" IVar="-1" Cut="0.0000000000000000e+00" cType="1" res="-3.6646265070885420e-03" rms="2.6265692710876465e-01" purity="8.7457102537155151e-01" nType="-99"/>
            </Node>
            <Node pos="r" depth="3" NCoef="0" IVar="12" Cut="2.5679478645324707e+00" cType="1" res="-6.4527043141424656e-03" rms="3.2920846343040466e-01" purity="5.8857214450836182e-01" nType="0">
              <Node pos="l" depth="4" NCoef="0" IVar="-1" Cut="0.0000000000000000e+00" cType="1" res="-1.3287414796650410e-02" rms="3.4977844357490540e-01" purity="5.6864976882934570e-01" nType="-99"/>
              <Node pos="r" depth="4" NCoef="0" IVar="-1" Cut="0.0000000000000000e+00" cType="1" res="-3.1884718919172883e-04" rms="3.1639838218688965e-01" purity="6.0022467374801636e-01" nType="-99"/>
            </Node>
          </Node>
          <Node pos="r" depth="2" NCoef="0" IVar="15" Cut="2.1864271163940430e+00" cType="1" res="2.0027491264045238e-03" rms="2.8479549288749695e-01" purity="7.8075480461120605e-01" nType="0">
            <Node pos="l" depth="3" NCoef="0" IVar="-1" Cut="0.0000000000000000e+00" cType="1" res="1.4983050525188446e-02" rms="3.1465345621109009e-01" purity="7.3949849605560303e-01" nType="-99"/>
            <Node pos="r" depth="3" NCoef="0" IVar="2" Cut="4.5050825000000000e+05" cType="1" res="1.2386273010633886e-04" rms="2.8015688061714172e-01" purity="7.8673100471496582e-01" nType="0">
              <Node pos="l" depth="4" NCoef="0" IVar="-1" Cut="0.0000000000000000e+00" cType="1" res="4.7024497762322426e-03" rms="2.8159824013710022e-01" purity="8.2489615678787231e-01" nType="-99"/>
              <Node pos="r" depth="4" NCoef="0" IVar="-1" Cut="0.0000000000000000e+00" cType="1" res="-9.3478122726082802e-03" rms="2.7717822790145874e-01" purity="7.1254533529281616e-01" nType="-99"/>
            </Node>
          </Node>
        </Node>
        <Node pos="r" depth="1" NCoef="0" IVar="0" Cut="1.3333333730697632e+00" cType="1" res="3.1867358484305441e-04" rms="3.4809863567352295e-01" purity="3.9498117566108704e-01" nType="0">
          <Node pos="l" depth="2" NCoef="0" IVar="11" Cut="9.6946096420288086e-01" cType="1" res="0.0000000000000000e+00" rms="0.0000000000000000e+00" purity="2.8942066431045532e-01" nType="0">
            <Node pos="l" depth="3" NCoef="0" IVar="4" Cut="4.1152209375000000e+05" cType="1" res="0.0000000000000000e+00" rms="0.0000000000000000e+00" purity="4.1158497333526611e-01" nType="0">
              <Node pos="l" depth="4" NCoef="0" IVar="-1" Cut="0.0000000000000000e+00" cType="1" res="2.2054049186408520e-03" rms="3.9644896984100342e-01" purity="4.6975433826446533e-01" nType="-99"/>
              <Node pos="r" depth="4" NCoef="0" IVar="-1" Cut="0.0000000000000000e+00" cType="1" res="2.1083746105432510e-02" rms="3.6916083097457886e-01" purity="3.1375679373741150e-01" nType="-99"/>
            </Node>
            <Node pos="r" depth="3" NCoef="0" IVar="17" Cut="8.6826828125000000e+04" cType="1" res="0.0000000000000000e+00" rms="0.0000000000000000e+00" purity="2.0566704869270325e-01" nType="0">
              <Node pos="l" depth="4" NCoef="0" IVar="-1" Cut="0.0000000000000000e+00" cType="1" res="3.0573336407542229e-03" rms="3.4155404567718506e-01" purity="2.4659973382949829e-01" nType="-99"/>
              <Node pos="r" depth="4" NCoef="0" IVar="-1" Cut="0.0000000000000000e+00" cType="1" res="-2.0210025832056999e-02" rms="2.4936918914318085e-01" purity="1.1978779733181000e-01" nType="-99"/>
            </Node>
          </Node>
          <Node pos="r" depth="2" NCoef="0" IVar="14" Cut="5.1759451627731323e-01" cType="1" res="-1.7721862241160125e-04" rms="3.4840005636215210e-01" purity="4.1003942489624023e-01" nType="0">
            <Node pos="l" depth="3" NCoef="0" IVar="-1" Cut="0.0000000000000000e+00" cType="1" res="-7.3622749187052250e-03" rms="3.5483124852180481e-01" purity="3.9799663424491882e-01" nType="-99"/>
            <Node pos="r" depth="3" NCoef="0" IVar="14" Cut="2.1426134109497070e+00" cType="1" res="1.2877568951807916e-04" rms="3.4818887710571289e-01" purity="4.1042309999465942e-01" nType="0">
              <Node pos="l" depth="4" NCoef="0" IVar="-1" Cut="0.0000000000000000e+00" cType="1" res="1.0558825451880693e-03" rms="3.5163822770118713e-01" purity="4.0353035926818848e-01" nType="-99"/>
              <Node pos="r" depth="4" NCoef="0" IVar="-1" Cut="0.0000000000000000e+00" cType="1" res="-1.6248578904196620e-03" rms="3.4205082058906555e-01" purity="4.2249941825866699e-01" nType="-99"/>
            </Node>
          </Node>
        </Node>
      </Node>
    </BinaryTree>
    <BinaryTree type="DecisionTree" boostWeight="1.0000000000000000e+00" itree="354">
      <Node pos="s" depth="0" NCoef="0" IVar="5" Cut="2.2984054687500000e+05" cType="1" res="6.4412046185680083e-07" rms="3.3348780870437622e-01" purity="5.0000000000000000e-01" nType="0">
        <Node pos="l" depth="1" NCoef="0" IVar="15" Cut="3.3024377822875977e+00" cType="1" res="-2.0979404507670552e-04" rms="3.3785131573677063e-01" purity="5.3397262096405029e-01" nType="0">
          <Node pos="l" depth="2" NCoef="0" IVar="19" Cut="1.5226435937500000e+05" cType="1" res="-3.5632157232612371e-04" rms="3.3788532018661499e-01" purity="5.3545933961868286e-01" nType="0">
            <Node pos="l" depth="3" NCoef="0" IVar="19" Cut="5.0279082031250000e+04" cType="1" res="6.7206012317910790e-05" rms="3.3850622177124023e-01" purity="5.5505192279815674e-01" nType="0">
              <Node pos="l" depth="4" NCoef="0" IVar="-1" Cut="0.0000000000000000e+00" cType="1" res="-1.4707453083246946e-03" rms="3.2998982071876526e-01" purity="5.6556510925292969e-01" nType="-99"/>
              <Node pos="r" depth="4" NCoef="0" IVar="-1" Cut="0.0000000000000000e+00" cType="1" res="1.6866127261891961e-03" rms="3.4819409251213074e-01" purity="5.4275244474411011e-01" nType="-99"/>
            </Node>
            <Node pos="r" depth="3" NCoef="0" IVar="1" Cut="8.1444093750000000e+04" cType="1" res="-5.6355227716267109e-03" rms="3.3000221848487854e-01" purity="2.9124066233634949e-01" nType="0">
              <Node pos="l" depth="4" NCoef="0" IVar="-1" Cut="0.0000000000000000e+00" cType="1" res="-9.4825243577361107e-03" rms="3.1788760423660278e-01" purity="2.2910678386688232e-01" nType="-99"/>
              <Node pos="r" depth="4" NCoef="0" IVar="-1" Cut="0.0000000000000000e+00" cType="1" res="4.8046424053609371e-03" rms="3.5761028528213501e-01" purity="4.4320791959762573e-01" nType="-99"/>
            </Node>
          </Node>
          <Node pos="r" depth="2" NCoef="0" IVar="-1" Cut="0.0000000000000000e+00" cType="1" res="6.6413870081305504e-03" rms="3.3583781123161316e-01" purity="4.5066887140274048e-01" nType="-99"/>
        </Node>
        <Node pos="r" depth="1" NCoef="0" IVar="11" Cut="6.9075554609298706e-01" cType="1" res="8.7767536751925945e-04" rms="3.1464973092079163e-01" purity="3.5841417312622070e-01" nType="0">
          <Node pos="l" depth="2" NCoef="0" IVar="17" Cut="1.5516185937500000e+05" cType="1" res="-2.7909195050597191e-03" rms="3.2603707909584045e-01" purity="4.8312690854072571e-01" nType="0">
            <Node pos="l" depth="3" NCoef="0" IVar="17" Cut="8.1063609375000000e+04" cType="1" res="-9.9286204203963280e-03" rms="3.3963689208030701e-01" purity="4.8597231507301331e-01" nType="0">
              <Node pos="l" depth="4" NCoef="0" IVar="-1" Cut="0.0000000000000000e+00" cType="1" res="-1.8721744418144226e-02" rms="3.2954898476600647e-01" purity="4.0393683314323425e-01" nType="-99"/>
              <Node pos="r" depth="4" NCoef="0" IVar="-1" Cut="0.0000000000000000e+00" cType="1" res="1.4575850218534470e-04" rms="3.4642428159713745e-01" purity="5.4551297426223755e-01" nType="-99"/>
            </Node>
            <Node pos="r" depth="3" NCoef="0" IVar="2" Cut="9.8202268750000000e+05" cType="1" res="4.6322215348482132e-03" rms="3.1109005212783813e-01" purity="4.8016774654388428e-01" nType="0">
              <Node pos="l" depth="4" NCoef="0" IVar="-1" Cut="0.0000000000000000e+00" cType="1" res="9.8308054730296135e-03" rms="3.3380657434463501e-01" purity="6.1518830060958862e-01" nType="-99"/>
              <Node pos="r" depth="4" NCoef="0" IVar="-1" Cut="0.0000000000000000e+00" cType="1" res="-8.3480635657906532e-03" rms="2.6642376184463501e-01" purity="2.4434991180896759e-01" nType="-99"/>
            </Node>
          </Node>
          <Node pos="r" depth="2" NCoef="0" IVar="1" Cut="1.6731665625000000e+05" cType="1" res="2.8063182253390551e-03" rms="3.0847719311714172e-01" purity="2.9285052418708801e-01" nType="0">
            <Node pos="l" depth="3" NCoef="0" IVar="15" Cut="1.2397446632385254e+00" cType="1" res="9.1439078096300364e-04" rms="3.0625149607658386e-01" purity="2.8417512774467468e-01" nType="0">
              <Node pos="l" depth="4" NCoef="0" IVar="-1" Cut="0.0000000000000000e+00" cType="1" res="8.7417177855968475e-03" rms="3.4034231305122375e-01" purity="3.1030514836311340e-01" nType="-99"/>
              <Node pos="r" depth="4" NCoef="0" IVar="-1" Cut="0.0000000000000000e+00" cType="1" res="-2.0419321954250336e-03" rms="2.9470053315162659e-01" purity="2.7598634362220764e-01" nType="-99"/>
            </Node>
            <Node pos="r" depth="3" NCoef="0" IVar="-1" Cut="0.0000000000000000e+00" cType="1" res="1.3016356155276299e-02" rms="3.2099199295043945e-01" purity="3.4371441602706909e-01" nType="-99"/>
          </Node>
        </Node>
      </Node>
    </BinaryTree>
    <BinaryTree type="DecisionTree" boostWeight="1.0000000000000000e+00" itree="355">
      <Node pos="s" depth="0" NCoef="0" IVar="15" Cut="1.5260878801345825e+00" cType="1" res="2.3191496723029559e-07" rms="3.3346828818321228e-01" purity="5.0000000000000000e-01" nType="0">
        <Node pos="l" depth="1" NCoef="0" IVar="1" Cut="1.6699770312500000e+05" cType="1" res="6.1495031695812941e-04" rms="3.5315167903900146e-01" purity="4.8203909397125244e-01" nType="0">
          <Node pos="l" depth="2" NCoef="0" IVar="14" Cut="2.2897589206695557e+00" cType="1" res="1.2118204031139612e-03" rms="3.5483583807945251e-01" purity="4.8457232117652893e-01" nType="0">
            <Node pos="l" depth="3" NCoef="0" IVar="14" Cut="1.9640321731567383e+00" cType="1" res="2.0121894776821136e-03" rms="3.5757890343666077e-01" purity="4.9979320168495178e-01" nType="0">
              <Node pos="l" depth="4" NCoef="0" IVar="-1" Cut="0.0000000000000000e+00" cType="1" res="2.8413513791747391e-04" rms="3.5815870761871338e-01" purity="5.0567269325256348e-01" nType="-99"/>
              <Node pos="r" depth="4" NCoef="0" IVar="-1" Cut="0.0000000000000000e+00" cType="1" res="1.1589645408093929e-02" rms="3.5266178846359253e-01" purity="4.5300641655921936e-01" nType="-99"/>
            </Node>
            <Node pos="r" depth="3" NCoef="0" IVar="17" Cut="7.7035945312500000e+04" cType="1" res="-6.3075195066630840e-03" rms="3.2785105705261230e-01" purity="3.4157466888427734e-01" nType="0">
              <Node pos="l" depth="4" NCoef="0" IVar="-1" Cut="0.0000000000000000e+00" cType="1" res="-1.3498081825673580e-02" rms="3.4935206174850464e-01" purity="3.7729582190513611e-01" nType="-99"/>
              <Node pos="r" depth="4" NCoef="0" IVar="-1" Cut="0.0000000000000000e+00" cType="1" res="2.9560297261923552e-03" rms="3.0883282423019409e-01" purity="3.1234899163246155e-01" nType="-99"/>
            </Node>
          </Node>
          <Node pos="r" depth="2" NCoef="0" IVar="-1" Cut="0.0000000000000000e+00" cType="1" res="-9.2807468026876450e-03" rms="3.2008317112922668e-01" purity="4.3501490354537964e-01" nType="-99"/>
        </Node>
        <Node pos="r" depth="1" NCoef="0" IVar="16" Cut="3.2300150394439697e+00" cType="1" res="-3.1176398624666035e-04" rms="3.2301914691925049e-01" purity="5.0911593437194824e-01" nType="0">
          <Node pos="l" depth="2" NCoef="0" IVar="5" Cut="6.0535506250000000e+05" cType="1" res="-5.5511429673060775e-04" rms="3.2292708754539490e-01" purity="5.1443803310394287e-01" nType="0">
            <Node pos="l" depth="3" NCoef="0" IVar="18" Cut="7.9618031250000000e+04" cType="1" res="-7.5863493839278817e-04" rms="3.2386454939842224e-01" purity="5.2153819799423218e-01" nType="0">
              <Node pos="l" depth="4" NCoef="0" IVar="-1" Cut="0.0000000000000000e+00" cType="1" res="-2.1898422855883837e-03" rms="3.3709180355072021e-01" purity="5.0286030769348145e-01" nType="-99"/>
              <Node pos="r" depth="4" NCoef="0" IVar="-1" Cut="0.0000000000000000e+00" cType="1" res="5.4490601178258657e-04" rms="3.1417712569236755e-01" purity="5.3473430871963501e-01" nType="-99"/>
            </Node>
            <Node pos="r" depth="3" NCoef="0" IVar="-1" Cut="0.0000000000000000e+00" cType="1" res="1.3492787256836891e-02" rms="2.7186667919158936e-01" purity="1.6004192829132080e-01" nType="-99"/>
          </Node>
          <Node pos="r" depth="2" NCoef="0" IVar="-1" Cut="0.0000000000000000e+00" cType="1" res="9.8190698772668839e-03" rms="3.2711833715438843e-01" purity="2.5858071446418762e-01" nType="-99"/>
        </Node>
      </Node>
    </BinaryTree>
    <BinaryTree type="DecisionTree" boostWeight="1.0000000000000000e+00" itree="356">
      <Node pos="s" depth="0" NCoef="0" IVar="13" Cut="3.5652937889099121e+00" cType="1" res="5.4113868941385590e-08" rms="3.3345076441764832e-01" purity="5.0000000000000000e-01" nType="0">
        <Node pos="l" depth="1" NCoef="0" IVar="13" Cut="2.3768517971038818e+00" cType="1" res="-8.8515953393653035e-05" rms="3.3324429392814636e-01" purity="5.0163477659225464e-01" nType="0">
          <Node pos="l" depth="2" NCoef="0" IVar="1" Cut="1.0835192968750000e+05" cType="1" res="-7.2643638122826815e-04" rms="3.3098295331001282e-01" purity="3.3437728881835938e-01" nType="0">
            <Node pos="l" depth="3" NCoef="0" IVar="1" Cut="5.1667453125000000e+04" cType="1" res="4.8699896433390677e-04" rms="3.2912850379943848e-01" purity="3.1535392999649048e-01" nType="0">
              <Node pos="l" depth="4" NCoef="0" IVar="-1" Cut="0.0000000000000000e+00" cType="1" res="3.0191827099770308e-03" rms="3.1250298023223877e-01" purity="2.2410142421722412e-01" nType="-99"/>
              <Node pos="r" depth="4" NCoef="0" IVar="-1" Cut="0.0000000000000000e+00" cType="1" res="-2.4050876963883638e-03" rms="3.5116565227508545e-01" purity="4.4379493594169617e-01" nType="-99"/>
            </Node>
            <Node pos="r" depth="3" NCoef="0" IVar="2" Cut="6.4824350000000000e+05" cType="1" res="-7.2359377518296242e-03" rms="3.4068518877029419e-01" purity="4.3642860651016235e-01" nType="0">
              <Node pos="l" depth="4" NCoef="0" IVar="-1" Cut="0.0000000000000000e+00" cType="1" res="-1.1405944824218750e-02" rms="3.5942682623863220e-01" purity="5.3739392757415771e-01" nType="-99"/>
              <Node pos="r" depth="4" NCoef="0" IVar="-1" Cut="0.0000000000000000e+00" cType="1" res="9.5785548910498619e-03" rms="2.9784122109413147e-01" purity="2.2883883118629456e-01" nType="-99"/>
            </Node>
          </Node>
          <Node pos="r" depth="2" NCoef="0" IVar="13" Cut="2.4334499835968018e+00" cType="1" res="3.8680896977894008e-04" rms="3.3491855859756470e-01" purity="6.2626117467880249e-01" nType="0">
            <Node pos="l" depth="3" NCoef="0" IVar="14" Cut="1.7314960956573486e+00" cType="1" res="9.3154497444629669e-03" rms="3.5068795084953308e-01" purity="5.4646450281143188e-01" nType="0">
              <Node pos="l" depth="4" NCoef="0" IVar="-1" Cut="0.0000000000000000e+00" cType="1" res="-3.8137841038405895e-03" rms="3.6453086137771606e-01" purity="4.8253116011619568e-01" nType="-99"/>
              <Node pos="r" depth="4" NCoef="0" IVar="-1" Cut="0.0000000000000000e+00" cType="1" res="1.5912260860204697e-02" rms="3.4017261862754822e-01" purity="5.9173357486724854e-01" nType="-99"/>
            </Node>
            <Node pos="r" depth="3" NCoef="0" IVar="15" Cut="2.8824799060821533e+00" cType="1" res="-2.6109310056199320e-05" rms="3.3416551351547241e-01" purity="6.2995147705078125e-01" nType="0">
              <Node pos="l" depth="4" NCoef="0" IVar="-1" Cut="0.0000000000000000e+00" cType="1" res="4.8983114538714290e-04" rms="3.3657824993133545e-01" purity="6.2649661302566528e-01" nType="-99"/>
              <Node pos="r" depth="4" NCoef="0" IVar="-1" Cut="0.0000000000000000e+00" cType="1" res="-6.0276696458458900e-03" rms="3.0926123261451721e-01" purity="6.6407430171966553e-01" nType="-99"/>
            </Node>
          </Node>
        </Node>
        <Node pos="r" depth="1" NCoef="0" IVar="6" Cut="1.5255057812500000e+05" cType="1" res="1.9510340644046664e-03" rms="3.3796060085296631e-01" purity="4.6398901939392090e-01" nType="0">
          <Node pos="l" depth="2" NCoef="0" IVar="-1" Cut="0.0000000000000000e+00" cType="1" res="5.3838640451431274e-03" rms="3.7612727284431458e-01" purity="5.4829746484756470e-01" nType="-99"/>
          <Node pos="r" depth="2" NCoef="0" IVar="2" Cut="6.1395950000000000e+05" cType="1" res="-4.7009345144033432e-03" rms="2.9145792126655579e-01" purity="3.7371107935905457e-01" nType="0">
            <Node pos="l" depth="3" NCoef="0" IVar="-1" Cut="0.0000000000000000e+00" cType="1" res="-1.8252499401569366e-02" rms="3.0448374152183533e-01" purity="4.9540159106254578e-01" nType="-99"/>
            <Node pos="r" depth="3" NCoef="0" IVar="-1" Cut="0.0000000000000000e+00" cType="1" res="1.2119369581341743e-02" rms="2.7761042118072510e-01" purity="2.5663644075393677e-01" nType="-99"/>
          </Node>
        </Node>
      </Node>
    </BinaryTree>
    <BinaryTree type="DecisionTree" boostWeight="1.0000000000000000e+00" itree="357">
      <Node pos="s" depth="0" NCoef="0" IVar="14" Cut="2.5702321529388428e+00" cType="1" res="3.2943856353995216e-07" rms="3.3342179656028748e-01" purity="5.0000000000000000e-01" nType="0">
        <Node pos="l" depth="1" NCoef="0" IVar="11" Cut="2.6589043140411377e+00" cType="1" res="-1.8711261509452015e-04" rms="3.3763781189918518e-01" purity="4.8695713281631470e-01" nType="0">
          <Node pos="l" depth="2" NCoef="0" IVar="9" Cut="4.2009631250000000e+05" cType="1" res="6.1747618019580841e-05" rms="3.4181019663810730e-01" purity="5.0469499826431274e-01" nType="0">
            <Node pos="l" depth="3" NCoef="0" IVar="9" Cut="1.0508728906250000e+05" cType="1" res="1.9859652093145996e-04" rms="3.4357273578643799e-01" purity="5.1050436496734619e-01" nType="0">
              <Node pos="l" depth="4" NCoef="0" IVar="-1" Cut="0.0000000000000000e+00" cType="1" res="-1.1308860266581178e-03" rms="3.6455166339874268e-01" purity="5.0776273012161255e-01" nType="-99"/>
              <Node pos="r" depth="4" NCoef="0" IVar="-1" Cut="0.0000000000000000e+00" cType="1" res="2.0170668140053749e-03" rms="3.1912130117416382e-01" purity="5.1349347829818726e-01" nType="-99"/>
            </Node>
            <Node pos="r" depth="3" NCoef="0" IVar="-1" Cut="0.0000000000000000e+00" cType="1" res="-2.0853605121374130e-02" rms="1.8559533357620239e-01" purity="1.0891028493642807e-01" nType="-99"/>
          </Node>
          <Node pos="r" depth="2" NCoef="0" IVar="0" Cut="4.3333334922790527e+00" cType="1" res="-5.7987766340374947e-03" rms="2.2369734942913055e-01" purity="8.6977675557136536e-02" nType="0">
            <Node pos="l" depth="3" NCoef="0" IVar="-1" Cut="0.0000000000000000e+00" cType="1" res="1.1772107332944870e-02" rms="2.5003287196159363e-01" purity="1.2486229836940765e-01" nType="-99"/>
            <Node pos="r" depth="3" NCoef="0" IVar="-1" Cut="0.0000000000000000e+00" cType="1" res="-2.9953209683299065e-02" rms="2.0316635072231293e-01" purity="6.0958553105592728e-02" nType="-99"/>
          </Node>
        </Node>
        <Node pos="r" depth="1" NCoef="0" IVar="4" Cut="7.5765637500000000e+05" cType="1" res="7.1803783066570759e-04" rms="3.1675943732261658e-01" purity="5.4994070529937744e-01" nType="0">
          <Node pos="l" depth="2" NCoef="0" IVar="2" Cut="8.2910543750000000e+05" cType="1" res="1.5528087969869375e-03" rms="3.2175013422966003e-01" purity="5.7380467653274536e-01" nType="0">
            <Node pos="l" depth="3" NCoef="0" IVar="3" Cut="9.2352406250000000e+04" cType="1" res="2.6690927916206419e-04" rms="3.2359129190444946e-01" purity="5.9288924932479858e-01" nType="0">
              <Node pos="l" depth="4" NCoef="0" IVar="-1" Cut="0.0000000000000000e+00" cType="1" res="-9.7617320716381073e-03" rms="3.7136754393577576e-01" purity="3.2771131396293640e-01" nType="-99"/>
              <Node pos="r" depth="4" NCoef="0" IVar="-1" Cut="0.0000000000000000e+00" cType="1" res="2.4520189035683870e-03" rms="3.1576663255691528e-01" purity="6.3252496719360352e-01" nType="-99"/>
            </Node>
            <Node pos="r" depth="3" NCoef="0" IVar="-1" Cut="0.0000000000000000e+00" cType="1" res="1.4711134135723114e-02" rms="3.0239775776863098e-01" purity="3.8272255659103394e-01" nType="-99"/>
          </Node>
          <Node pos="r" depth="2" NCoef="0" IVar="-1" Cut="0.0000000000000000e+00" cType="1" res="-3.0092595145106316e-02" rms="2.0341122150421143e-01" purity="1.1026502400636673e-01" nType="-99"/>
        </Node>
      </Node>
    </BinaryTree>
    <BinaryTree type="DecisionTree" boostWeight="1.0000000000000000e+00" itree="358">
      <Node pos="s" depth="0" NCoef="0" IVar="3" Cut="4.4626618750000000e+05" cType="1" res="-1.1687743608490564e-06" rms="3.3339968323707581e-01" purity="5.0000000000000000e-01" nType="0">
        <Node pos="l" depth="1" NCoef="0" IVar="10" Cut="3.1161009375000000e+05" cType="1" res="-8.8007676822599024e-05" rms="3.3740305900573730e-01" purity="5.1428800821304321e-01" nType="0">
          <Node pos="l" depth="2" NCoef="0" IVar="9" Cut="3.1054040625000000e+05" cType="1" res="1.4316206215880811e-04" rms="3.3790972828865051e-01" purity="5.1600414514541626e-01" nType="0">
            <Node pos="l" depth="3" NCoef="0" IVar="6" Cut="1.2778257812500000e+05" cType="1" res="3.6778469802811742e-04" rms="3.3878925442695618e-01" purity="5.1884388923645020e-01" nType="0">
              <Node pos="l" depth="4" NCoef="0" IVar="-1" Cut="0.0000000000000000e+00" cType="1" res="-1.5123820630833507e-03" rms="3.8063997030258179e-01" purity="4.7820547223091125e-01" nType="-99"/>
              <Node pos="r" depth="4" NCoef="0" IVar="-1" Cut="0.0000000000000000e+00" cType="1" res="1.4164784224703908e-03" rms="3.1910198926925659e-01" purity="5.3631973266601562e-01" nType="-99"/>
            </Node>
            <Node pos="r" depth="3" NCoef="0" IVar="-1" Cut="0.0000000000000000e+00" cType="1" res="-2.0969156175851822e-02" rms="2.6629859209060669e-01" purity="3.1083360314369202e-01" nType="-99"/>
          </Node>
          <Node pos="r" depth="2" NCoef="0" IVar="-1" Cut="0.0000000000000000e+00" cType="1" res="-1.7027171328663826e-02" rms="2.9789426922798157e-01" purity="3.8982468843460083e-01" nType="-99"/>
        </Node>
        <Node pos="r" depth="1" NCoef="0" IVar="16" Cut="1.2294298410415649e+00" cType="1" res="2.1266448311507702e-03" rms="2.1295116841793060e-01" purity="1.4990006387233734e-01" nType="0">
          <Node pos="l" depth="2" NCoef="0" IVar="-1" Cut="0.0000000000000000e+00" cType="1" res="1.4472144655883312e-02" rms="2.3876379430294037e-01" purity="2.8173142671585083e-01" nType="-99"/>
          <Node pos="r" depth="2" NCoef="0" IVar="6" Cut="4.2589296875000000e+05" cType="1" res="-1.4294162392616272e-03" rms="1.9814249873161316e-01" purity="8.1488400697708130e-02" nType="0">
            <Node pos="l" depth="3" NCoef="0" IVar="-1" Cut="0.0000000000000000e+00" cType="1" res="-1.3073981739580631e-02" rms="2.0438313484191895e-01" purity="7.4917711317539215e-02" nType="-99"/>
            <Node pos="r" depth="3" NCoef="0" IVar="-1" Cut="0.0000000000000000e+00" cType="1" res="6.6272197291254997e-03" rms="1.9236838817596436e-01" purity="8.7296694517135620e-02" nType="-99"/>
          </Node>
        </Node>
      </Node>
    </BinaryTree>
    <BinaryTree type="DecisionTree" boostWeight="1.0000000000000000e+00" itree="359">
      <Node pos="s" depth="0" NCoef="0" IVar="11" Cut="2.1707923412322998e+00" cType="1" res="-1.0042801932286238e-06" rms="3.3338683843612671e-01" purity="5.0000000000000000e-01" nType="0">
        <Node pos="l" depth="1" NCoef="0" IVar="11" Cut="2.0684080123901367e+00" cType="1" res="-1.4462502440437675e-04" rms="3.4060391783714294e-01" purity="5.4342734813690186e-01" nType="0">
          <Node pos="l" depth="2" NCoef="0" IVar="11" Cut="1.8733750581741333e+00" cType="1" res="3.9525115425931290e-05" rms="3.4157270193099976e-01" purity="5.5058479309082031e-01" nType="0">
            <Node pos="l" depth="3" NCoef="0" IVar="11" Cut="1.6968971490859985e+00" cType="1" res="-2.2322805307339877e-04" rms="3.4205022454261780e-01" purity="5.6490945816040039e-01" nType="0">
              <Node pos="l" depth="4" NCoef="0" IVar="-1" Cut="0.0000000000000000e+00" cType="1" res="8.4181257989257574e-05" rms="3.4244668483734131e-01" purity="5.7912057638168335e-01" nType="-99"/>
              <Node pos="r" depth="4" NCoef="0" IVar="-1" Cut="0.0000000000000000e+00" cType="1" res="-4.1943411342799664e-03" rms="3.3592805266380310e-01" purity="3.4894278645515442e-01" nType="-99"/>
            </Node>
            <Node pos="r" depth="3" NCoef="0" IVar="15" Cut="1.7235115766525269e+00" cType="1" res="4.6183858066797256e-03" rms="3.3310821652412415e-01" purity="3.0095621943473816e-01" nType="0">
              <Node pos="l" depth="4" NCoef="0" IVar="-1" Cut="0.0000000000000000e+00" cType="1" res="1.2949652038514614e-02" rms="3.5437729954719543e-01" purity="3.3815222978591919e-01" nType="-99"/>
              <Node pos="r" depth="4" NCoef="0" IVar="-1" Cut="0.0000000000000000e+00" cType="1" res="-6.2928032130002975e-03" rms="3.1068110466003418e-01" purity="2.6489046216011047e-01" nType="-99"/>
            </Node>
          </Node>
          <Node pos="r" depth="2" NCoef="0" IVar="11" Cut="2.1171650886535645e+00" cType="1" res="-7.9677160829305649e-03" rms="2.9643350839614868e-01" purity="2.3936416208744049e-01" nType="0">
            <Node pos="l" depth="3" NCoef="0" IVar="-1" Cut="0.0000000000000000e+00" cType="1" res="-1.2796684168279171e-03" rms="3.0909606814384460e-01" purity="2.6034286618232727e-01" nType="-99"/>
            <Node pos="r" depth="3" NCoef="0" IVar="-1" Cut="0.0000000000000000e+00" cType="1" res="-1.4847906306385994e-02" rms="2.8281071782112122e-01" purity="2.1801955997943878e-01" nType="-99"/>
          </Node>
        </Node>
        <Node pos="r" depth="1" NCoef="0" IVar="12" Cut="2.6811311244964600e+00" cType="1" res="1.1366003891453147e-03" rms="2.6947399973869324e-01" purity="1.5601629018783569e-01" nType="0">
          <Node pos="l" depth="2" NCoef="0" IVar="-1" Cut="0.0000000000000000e+00" cType="1" res="1.4091241173446178e-02" rms="3.0824598670005798e-01" purity="2.2011421620845795e-01" nType="-99"/>
          <Node pos="r" depth="2" NCoef="0" IVar="15" Cut="2.8042936325073242e+00" cType="1" res="-1.3987702550366521e-03" rms="2.6051002740859985e-01" purity="1.4252735674381256e-01" nType="0">
            <Node pos="l" depth="3" NCoef="0" IVar="15" Cut="9.5021963119506836e-01" cType="1" res="-3.2343349885195494e-03" rms="2.6080107688903809e-01" purity="1.4175768196582794e-01" nType="0">
              <Node pos="l" depth="4" NCoef="0" IVar="-1" Cut="0.0000000000000000e+00" cType="1" res="9.2099811881780624e-03" rms="2.9258826375007629e-01" purity="1.7981544137001038e-01" nType="-99"/>
              <Node pos="r" depth="4" NCoef="0" IVar="-1" Cut="0.0000000000000000e+00" cType="1" res="-7.8311478719115257e-03" rms="2.5383982062339783e-01" purity="1.3407118618488312e-01" nType="-99"/>
            </Node>
            <Node pos="r" depth="3" NCoef="0" IVar="-1" Cut="0.0000000000000000e+00" cType="1" res="1.8943497911095619e-02" rms="2.5783866643905640e-01" purity="1.4841936528682709e-01" nType="-99"/>
          </Node>
        </Node>
      </Node>
    </BinaryTree>
    <BinaryTree type="DecisionTree" boostWeight="1.0000000000000000e+00" itree="360">
      <Node pos="s" depth="0" NCoef="0" IVar="18" Cut="1.4775275000000000e+05" cType="1" res="-1.6355477328033885e-06" rms="3.3337128162384033e-01" purity="5.0000000000000000e-01" nType="0">
        <Node pos="l" depth="1" NCoef="0" IVar="2" Cut="3.3400731250000000e+05" cType="1" res="1.8722556706052274e-04" rms="3.4150263667106628e-01" purity="5.1551795005798340e-01" nType="0">
          <Node pos="l" depth="2" NCoef="0" IVar="5" Cut="1.6994451562500000e+05" cType="1" res="1.6497003380209208e-03" rms="3.5707873106002808e-01" purity="5.7041960954666138e-01" nType="0">
            <Node pos="l" depth="3" NCoef="0" IVar="6" Cut="1.3012723437500000e+05" cType="1" res="2.6202664594165981e-04" rms="3.5576501488685608e-01" purity="5.6347686052322388e-01" nType="0">
              <Node pos="l" depth="4" NCoef="0" IVar="-1" Cut="0.0000000000000000e+00" cType="1" res="-2.5926008820533752e-03" rms="3.7809967994689941e-01" purity="4.6731719374656677e-01" nType="-99"/>
              <Node pos="r" depth="4" NCoef="0" IVar="-1" Cut="0.0000000000000000e+00" cType="1" res="3.7357606925070286e-03" rms="3.3224436640739441e-01" purity="6.5821731090545654e-01" nType="-99"/>
            </Node>
            <Node pos="r" depth="3" NCoef="0" IVar="-1" Cut="0.0000000000000000e+00" cType="1" res="1.7740871757268906e-02" rms="3.7859922647476196e-01" purity="6.9245833158493042e-01" nType="-99"/>
          </Node>
          <Node pos="r" depth="2" NCoef="0" IVar="16" Cut="1.5057002305984497e+00" cType="1" res="-1.3364378828555346e-03" rms="3.2447353005409241e-01" purity="4.5831930637359619e-01" nType="0">
            <Node pos="l" depth="3" NCoef="0" IVar="1" Cut="9.7847046875000000e+04" cType="1" res="-4.7630239278078079e-03" rms="3.0972960591316223e-01" purity="6.0166186094284058e-01" nType="0">
              <Node pos="l" depth="4" NCoef="0" IVar="-1" Cut="0.0000000000000000e+00" cType="1" res="-7.3521425947546959e-03" rms="3.1200313568115234e-01" purity="5.7719308137893677e-01" nType="-99"/>
              <Node pos="r" depth="4" NCoef="0" IVar="-1" Cut="0.0000000000000000e+00" cType="1" res="3.8723060861229897e-03" rms="3.0257967114448547e-01" purity="6.7579293251037598e-01" nType="-99"/>
            </Node>
            <Node pos="r" depth="3" NCoef="0" IVar="4" Cut="2.4564425000000000e+05" cType="1" res="2.0853267051279545e-03" rms="3.3852195739746094e-01" purity="3.1517839431762695e-01" nType="0">
              <Node pos="l" depth="4" NCoef="0" IVar="-1" Cut="0.0000000000000000e+00" cType="1" res="8.6249122396111488e-03" rms="3.5869491100311279e-01" purity="3.8118547201156616e-01" nType="-99"/>
              <Node pos="r" depth="4" NCoef="0" IVar="-1" Cut="0.0000000000000000e+00" cType="1" res="-1.2226123362779617e-04" rms="3.3376771211624146e-01" purity="3.0030521750450134e-01" nType="-99"/>
            </Node>
          </Node>
        </Node>
        <Node pos="r" depth="1" NCoef="0" IVar="16" Cut="1.4999334812164307e+00" cType="1" res="-8.4840506315231323e-04" rms="2.9416215419769287e-01" purity="4.3042436242103577e-01" nType="0">
          <Node pos="l" depth="2" NCoef="0" IVar="12" Cut="1.9360440969467163e+00" cType="1" res="1.6031395643949509e-03" rms="2.9326537251472473e-01" purity="6.1556088924407959e-01" nType="0">
            <Node pos="l" depth="3" NCoef="0" IVar="-1" Cut="0.0000000000000000e+00" cType="1" res="1.4402559027075768e-02" rms="3.3522704243659973e-01" purity="4.4654983282089233e-01" nType="-99"/>
            <Node pos="r" depth="3" NCoef="0" IVar="13" Cut="2.3730983734130859e+00" cType="1" res="-2.4360457609873265e-04" rms="2.8794977068901062e-01" purity="6.3514983654022217e-01" nType="0">
              <Node pos="l" depth="4" NCoef="0" IVar="-1" Cut="0.0000000000000000e+00" cType="1" res="-1.4084278605878353e-02" rms="3.0112391710281372e-01" purity="4.0844219923019409e-01" nType="-99"/>
              <Node pos="r" depth="4" NCoef="0" IVar="-1" Cut="0.0000000000000000e+00" cType="1" res="3.0758208595216274e-03" rms="2.8467383980751038e-01" purity="6.8865716457366943e-01" nType="-99"/>
            </Node>
          </Node>
          <Node pos="r" depth="2" NCoef="0" IVar="4" Cut="3.4099150000000000e+05" cType="1" res="-3.6031021736562252e-03" rms="2.9514232277870178e-01" purity="2.2239425778388977e-01" nType="0">
            <Node pos="l" depth="3" NCoef="0" IVar="-1" Cut="0.0000000000000000e+00" cType="1" res="-1.3306888751685619e-02" rms="3.3939138054847717e-01" purity="3.2590937614440918e-01" nType="-99"/>
            <Node pos="r" depth="3" NCoef="0" IVar="13" Cut="1.3126450777053833e+00" cType="1" res="-3.9328000275418162e-04" rms="2.8399011492729187e-01" purity="1.9878749549388885e-01" nType="0">
              <Node pos="l" depth="4" NCoef="0" IVar="-1" Cut="0.0000000000000000e+00" cType="1" res="1.5653654932975769e-02" rms="2.6724198460578918e-01" purity="1.1594110727310181e-01" nType="-99"/>
              <Node pos="r" depth="4" NCoef="0" IVar="-1" Cut="0.0000000000000000e+00" cType="1" res="-5.3578414954245090e-03" rms="2.9019322991371155e-01" purity="2.3138512670993805e-01" nType="-99"/>
            </Node>
          </Node>
        </Node>
      </Node>
    </BinaryTree>
    <BinaryTree type="DecisionTree" boostWeight="1.0000000000000000e+00" itree="361">
      <Node pos="s" depth="0" NCoef="0" IVar="13" Cut="3.5652937889099121e+00" cType="1" res="-8.8326078184763901e-07" rms="3.3332681655883789e-01" purity="5.0000000000000000e-01" nType="0">
        <Node pos="l" depth="1" NCoef="0" IVar="15" Cut="2.4574902057647705e+00" cType="1" res="-8.3878687291871756e-05" rms="3.3312878012657166e-01" purity="5.0163477659225464e-01" nType="0">
          <Node pos="l" depth="2" NCoef="0" IVar="15" Cut="2.3406188488006592e+00" cType="1" res="-4.7878877376206219e-04" rms="3.4055563807487488e-01" purity="4.9424129724502563e-01" nType="0">
            <Node pos="l" depth="3" NCoef="0" IVar="0" Cut="6.3333334922790527e+00" cType="1" res="-5.7638921134639531e-05" rms="3.4253412485122681e-01" purity="4.9236688017845154e-01" nType="0">
              <Node pos="l" depth="4" NCoef="0" IVar="-1" Cut="0.0000000000000000e+00" cType="1" res="-1.0354641126468778e-03" rms="3.3586227893829346e-01" purity="5.5909109115600586e-01" nType="-99"/>
              <Node pos="r" depth="4" NCoef="0" IVar="-1" Cut="0.0000000000000000e+00" cType="1" res="1.3684271834790707e-03" rms="3.5276433825492859e-01" purity="3.8742485642433167e-01" nType="-99"/>
            </Node>
            <Node pos="r" depth="3" NCoef="0" IVar="18" Cut="5.7123378906250000e+04" cType="1" res="-6.2266746535897255e-03" rms="3.1224563717842102e-01" purity="5.1982295513153076e-01" nType="0">
              <Node pos="l" depth="4" NCoef="0" IVar="-1" Cut="0.0000000000000000e+00" cType="1" res="-2.5160489603877068e-02" rms="3.1079405546188354e-01" purity="4.2701700329780579e-01" nType="-99"/>
              <Node pos="r" depth="4" NCoef="0" IVar="-1" Cut="0.0000000000000000e+00" cType="1" res="3.3457842073403299e-04" rms="3.1239822506904602e-01" purity="5.4842931032180786e-01" nType="-99"/>
            </Node>
          </Node>
          <Node pos="r" depth="2" NCoef="0" IVar="2" Cut="9.0896331250000000e+05" cType="1" res="1.0086974361911416e-03" rms="3.1165790557861328e-01" purity="5.2209001779556274e-01" nType="0">
            <Node pos="l" depth="3" NCoef="0" IVar="2" Cut="5.1397312500000000e+05" cType="1" res="6.7151486291550100e-05" rms="3.1661221385002136e-01" purity="5.5143851041793823e-01" nType="0">
              <Node pos="l" depth="4" NCoef="0" IVar="-1" Cut="0.0000000000000000e+00" cType="1" res="2.7038292028009892e-03" rms="3.2104530930519104e-01" purity="5.9887498617172241e-01" nType="-99"/>
              <Node pos="r" depth="4" NCoef="0" IVar="-1" Cut="0.0000000000000000e+00" cType="1" res="-7.6398830860853195e-03" rms="3.0473232269287109e-01" purity="4.2886075377464294e-01" nType="-99"/>
            </Node>
            <Node pos="r" depth="3" NCoef="0" IVar="6" Cut="3.3476340625000000e+05" cType="1" res="9.6040088683366776e-03" rms="2.6197987794876099e-01" purity="2.5417000055313110e-01" nType="0">
              <Node pos="l" depth="4" NCoef="0" IVar="-1" Cut="0.0000000000000000e+00" cType="1" res="2.0891971886157990e-02" rms="3.2388672232627869e-01" purity="3.8575109839439392e-01" nType="-99"/>
              <Node pos="r" depth="4" NCoef="0" IVar="-1" Cut="0.0000000000000000e+00" cType="1" res="-1.4683210290968418e-02" rms="1.6040277481079102e-01" purity="1.0002527385950089e-01" nType="-99"/>
            </Node>
          </Node>
        </Node>
        <Node pos="r" depth="1" NCoef="0" IVar="13" Cut="3.9832093715667725e+00" cType="1" res="1.8273012246936560e-03" rms="3.3765479922294617e-01" purity="4.6398901939392090e-01" nType="0">
          <Node pos="l" depth="2" NCoef="0" IVar="7" Cut="7.7284890625000000e+04" cType="1" res="5.4000755771994591e-03" rms="3.4368523955345154e-01" purity="4.9919712543487549e-01" nType="0">
            <Node pos="l" depth="3" NCoef="0" IVar="-1" Cut="0.0000000000000000e+00" cType="1" res="1.0233838111162186e-02" rms="3.7662014365196228e-01" purity="6.0855942964553833e-01" nType="-99"/>
            <Node pos="r" depth="3" NCoef="0" IVar="-1" Cut="0.0000000000000000e+00" cType="1" res="-1.2944862246513367e-02" rms="2.7549839019775391e-01" purity="3.0665513873100281e-01" nType="-99"/>
          </Node>
          <Node pos="r" depth="2" NCoef="0" IVar="-1" Cut="0.0000000000000000e+00" cType="1" res="-5.7026473805308342e-03" rms="3.2290995121002197e-01" purity="3.8138660788536072e-01" nType="-99"/>
        </Node>
      </Node>
    </BinaryTree>
    <BinaryTree type="DecisionTree" boostWeight="1.0000000000000000e+00" itree="362">
      <Node pos="s" depth="0" NCoef="0" IVar="3" Cut="4.4626618750000000e+05" cType="1" res="-8.1434126286694664e-07" rms="3.3330428600311279e-01" purity="5.0000000000000000e-01" nType="0">
        <Node pos="l" depth="1" NCoef="0" IVar="9" Cut="2.0924948437500000e+05" cType="1" res="-8.1731457612477243e-05" rms="3.3730989694595337e-01" purity="5.1428800821304321e-01" nType="0">
          <Node pos="l" depth="2" NCoef="0" IVar="21" Cut="1.5473118750000000e+05" cType="1" res="4.5235504512675107e-04" rms="3.4177234768867493e-01" purity="5.2250623703002930e-01" nType="0">
            <Node pos="l" depth="3" NCoef="0" IVar="7" Cut="6.4500394531250000e+04" cType="1" res="6.3148116169031709e-05" rms="3.4390336275100708e-01" purity="5.2189505100250244e-01" nType="0">
              <Node pos="l" depth="4" NCoef="0" IVar="-1" Cut="0.0000000000000000e+00" cType="1" res="1.7103720456361771e-03" rms="3.4985348582267761e-01" purity="6.4599037170410156e-01" nType="-99"/>
              <Node pos="r" depth="4" NCoef="0" IVar="-1" Cut="0.0000000000000000e+00" cType="1" res="-2.4054262321442366e-03" rms="3.3573272824287415e-01" purity="3.5539954900741577e-01" nType="-99"/>
            </Node>
            <Node pos="r" depth="3" NCoef="0" IVar="15" Cut="2.0231361389160156e+00" cType="1" res="1.1614029295742512e-02" rms="2.7345040440559387e-01" purity="5.4003560543060303e-01" nType="0">
              <Node pos="l" depth="4" NCoef="0" IVar="-1" Cut="0.0000000000000000e+00" cType="1" res="2.3596244864165783e-03" rms="2.8541252017021179e-01" purity="5.0002670288085938e-01" nType="-99"/>
              <Node pos="r" depth="4" NCoef="0" IVar="-1" Cut="0.0000000000000000e+00" cType="1" res="3.3890757709741592e-02" rms="2.5906971096992493e-01" purity="5.8455854654312134e-01" nType="-99"/>
            </Node>
          </Node>
          <Node pos="r" depth="2" NCoef="0" IVar="6" Cut="3.4216221875000000e+05" cType="1" res="-5.4493630304932594e-03" rms="2.8860148787498474e-01" purity="4.3169397115707397e-01" nType="0">
            <Node pos="l" depth="3" NCoef="0" IVar="2" Cut="4.4689953125000000e+05" cType="1" res="-1.0395487770438194e-02" rms="2.9606068134307861e-01" purity="4.4751125574111938e-01" nType="0">
              <Node pos="l" depth="4" NCoef="0" IVar="-1" Cut="0.0000000000000000e+00" cType="1" res="2.3376890458166599e-03" rms="3.0129578709602356e-01" purity="5.6140357255935669e-01" nType="-99"/>
              <Node pos="r" depth="4" NCoef="0" IVar="-1" Cut="0.0000000000000000e+00" cType="1" res="-1.9913261756300926e-02" rms="2.9276731610298157e-01" purity="3.8207861781120300e-01" nType="-99"/>
            </Node>
            <Node pos="r" depth="3" NCoef="0" IVar="16" Cut="1.4271029233932495e+00" cType="1" res="9.6003971993923187e-03" rms="2.6404586434364319e-01" purity="3.8356608152389526e-01" nType="0">
              <Node pos="l" depth="4" NCoef="0" IVar="-1" Cut="0.0000000000000000e+00" cType="1" res="1.6880328767001629e-03" rms="2.6111188530921936e-01" purity="5.1409131288528442e-01" nType="-99"/>
              <Node pos="r" depth="4" NCoef="0" IVar="-1" Cut="0.0000000000000000e+00" cType="1" res="2.6494892314076424e-02" rms="2.6691865921020508e-01" purity="2.4086967110633850e-01" nType="-99"/>
            </Node>
          </Node>
        </Node>
        <Node pos="r" depth="1" NCoef="0" IVar="16" Cut="1.7091932296752930e+00" cType="1" res="1.9818975124508142e-03" rms="2.1276022493839264e-01" purity="1.4990006387233734e-01" nType="0">
          <Node pos="l" depth="2" NCoef="0" IVar="-1" Cut="0.0000000000000000e+00" cType="1" res="1.1083475314080715e-02" rms="2.2858780622482300e-01" purity="2.1672813594341278e-01" nType="-99"/>
          <Node pos="r" depth="2" NCoef="0" IVar="-1" Cut="0.0000000000000000e+00" cType="1" res="-5.9456252492964268e-03" rms="1.9430327415466309e-01" purity="7.8391358256340027e-02" nType="-99"/>
        </Node>
      </Node>
    </BinaryTree>
    <BinaryTree type="DecisionTree" boostWeight="1.0000000000000000e+00" itree="363">
      <Node pos="s" depth="0" NCoef="0" IVar="12" Cut="3.4113523960113525e+00" cType="1" res="-1.3409619725734956e-07" rms="3.3326721191406250e-01" purity="5.0000000000000000e-01" nType="0">
        <Node pos="l" depth="1" NCoef="0" IVar="15" Cut="3.3024377822875977e+00" cType="1" res="-1.3741085422225296e-04" rms="3.3468914031982422e-01" purity="5.0542724132537842e-01" nType="0">
          <Node pos="l" depth="2" NCoef="0" IVar="12" Cut="2.1863167285919189e+00" cType="1" res="9.1515112217166461e-06" rms="3.3481433987617493e-01" purity="5.0773066282272339e-01" nType="0">
            <Node pos="l" depth="3" NCoef="0" IVar="12" Cut="2.0915045738220215e+00" cType="1" res="-1.4405671972781420e-03" rms="3.5318407416343689e-01" purity="3.9894753694534302e-01" nType="0">
              <Node pos="l" depth="4" NCoef="0" IVar="-1" Cut="0.0000000000000000e+00" cType="1" res="-1.6512205183971673e-04" rms="3.5232979059219360e-01" purity="3.8493782281875610e-01" nType="-99"/>
              <Node pos="r" depth="4" NCoef="0" IVar="-1" Cut="0.0000000000000000e+00" cType="1" res="-6.9441529922187328e-03" rms="3.5840570926666260e-01" purity="4.8690253496170044e-01" nType="-99"/>
            </Node>
            <Node pos="r" depth="3" NCoef="0" IVar="12" Cut="2.2446534633636475e+00" cType="1" res="5.1930104382336140e-04" rms="3.2810404896736145e-01" purity="5.4601091146469116e-01" nType="0">
              <Node pos="l" depth="4" NCoef="0" IVar="-1" Cut="0.0000000000000000e+00" cType="1" res="1.2888205237686634e-02" rms="3.5635969042778015e-01" purity="5.3776931762695312e-01" nType="-99"/>
              <Node pos="r" depth="4" NCoef="0" IVar="-1" Cut="0.0000000000000000e+00" cType="1" res="-5.7452765759080648e-05" rms="3.2704105973243713e-01" purity="5.4630345106124878e-01" nType="-99"/>
            </Node>
          </Node>
          <Node pos="r" depth="2" NCoef="0" IVar="-1" Cut="0.0000000000000000e+00" cType="1" res="-7.6991529203951359e-03" rms="3.2699337601661682e-01" purity="3.6764410138130188e-01" nType="-99"/>
        </Node>
        <Node pos="r" depth="1" NCoef="0" IVar="14" Cut="2.5702321529388428e+00" cType="1" res="1.6037847381085157e-03" rms="3.1617563962936401e-01" purity="4.3658885359764099e-01" nType="0">
          <Node pos="l" depth="2" NCoef="0" IVar="18" Cut="1.0096111718750000e+05" cType="1" res="-1.6184196574613452e-03" rms="3.1617784500122070e-01" purity="3.8300421833992004e-01" nType="0">
            <Node pos="l" depth="3" NCoef="0" IVar="18" Cut="1.8861148437500000e+04" cType="1" res="2.0139028783887625e-03" rms="3.3003357052803040e-01" purity="4.1142427921295166e-01" nType="0">
              <Node pos="l" depth="4" NCoef="0" IVar="-1" Cut="0.0000000000000000e+00" cType="1" res="1.0441436432301998e-02" rms="3.1989166140556335e-01" purity="4.2107990384101868e-01" nType="-99"/>
              <Node pos="r" depth="4" NCoef="0" IVar="-1" Cut="0.0000000000000000e+00" cType="1" res="-5.5418354459106922e-03" rms="3.3894243836402893e-01" purity="4.0245100855827332e-01" nType="-99"/>
            </Node>
            <Node pos="r" depth="3" NCoef="0" IVar="-1" Cut="0.0000000000000000e+00" cType="1" res="-1.5378204174339771e-02" rms="2.6999717950820923e-01" purity="2.9758548736572266e-01" nType="-99"/>
          </Node>
          <Node pos="r" depth="2" NCoef="0" IVar="-1" Cut="0.0000000000000000e+00" cType="1" res="1.0016666725277901e-02" rms="3.1601193547248840e-01" purity="5.7809329032897949e-01" nType="-99"/>
        </Node>
      </Node>
    </BinaryTree>
    <BinaryTree type="DecisionTree" boostWeight="1.0000000000000000e+00" itree="364">
      <Node pos="s" depth="0" NCoef="0" IVar="12" Cut="3.4113523960113525e+00" cType="1" res="4.0257940980836793e-08" rms="3.3325147628784180e-01" purity="5.0000000000000000e-01" nType="0">
        <Node pos="l" depth="1" NCoef="0" IVar="16" Cut="3.2256813049316406e+00" cType="1" res="-1.0984544496750459e-04" rms="3.3468064665794373e-01" purity="5.0542724132537842e-01" nType="0">
          <Node pos="l" depth="2" NCoef="0" IVar="16" Cut="6.2214362621307373e-01" cType="1" res="3.3697695471346378e-05" rms="3.3473578095436096e-01" purity="5.0944525003433228e-01" nType="0">
            <Node pos="l" depth="3" NCoef="0" IVar="7" Cut="5.9771492187500000e+04" cType="1" res="2.5701567064970732e-03" rms="2.8145509958267212e-01" purity="7.7138596773147583e-01" nType="0">
              <Node pos="l" depth="4" NCoef="0" IVar="-1" Cut="0.0000000000000000e+00" cType="1" res="8.9250793680548668e-03" rms="2.5839558243751526e-01" purity="8.6413878202438354e-01" nType="-99"/>
              <Node pos="r" depth="4" NCoef="0" IVar="-1" Cut="0.0000000000000000e+00" cType="1" res="-2.3843895178288221e-03" rms="3.0803930759429932e-01" purity="6.5430611371994019e-01" nType="-99"/>
            </Node>
            <Node pos="r" depth="3" NCoef="0" IVar="14" Cut="4.9750784039497375e-01" cType="1" res="-3.3227313542738557e-04" rms="3.4173670411109924e-01" purity="4.7165134549140930e-01" nType="0">
              <Node pos="l" depth="4" NCoef="0" IVar="-1" Cut="0.0000000000000000e+00" cType="1" res="6.6244886256754398e-03" rms="3.5107550024986267e-01" purity="4.7020235657691956e-01" nType="-99"/>
              <Node pos="r" depth="4" NCoef="0" IVar="-1" Cut="0.0000000000000000e+00" cType="1" res="-4.6892691170796752e-04" rms="3.4147566556930542e-01" purity="4.7169077396392822e-01" nType="-99"/>
            </Node>
          </Node>
          <Node pos="r" depth="2" NCoef="0" IVar="-1" Cut="0.0000000000000000e+00" cType="1" res="-6.8446858786046505e-03" rms="3.3139464259147644e-01" purity="2.7469474077224731e-01" nType="-99"/>
        </Node>
        <Node pos="r" depth="1" NCoef="0" IVar="15" Cut="1.4198074340820312e+00" cType="1" res="1.2839265400543809e-03" rms="3.1607228517532349e-01" purity="4.3658885359764099e-01" nType="0">
          <Node pos="l" depth="2" NCoef="0" IVar="16" Cut="1.6554627418518066e+00" cType="1" res="-6.3497447408735752e-03" rms="3.2150119543075562e-01" purity="3.6318099498748779e-01" nType="0">
            <Node pos="l" depth="3" NCoef="0" IVar="-1" Cut="0.0000000000000000e+00" cType="1" res="7.4824397452175617e-03" rms="3.2103696465492249e-01" purity="4.9618807435035706e-01" nType="-99"/>
            <Node pos="r" depth="3" NCoef="0" IVar="-1" Cut="0.0000000000000000e+00" cType="1" res="-1.7542822286486626e-02" rms="3.2132494449615479e-01" purity="2.4068912863731384e-01" nType="-99"/>
          </Node>
          <Node pos="r" depth="2" NCoef="0" IVar="16" Cut="1.9580637216567993e+00" cType="1" res="4.3733092024922371e-03" rms="3.1379568576812744e-01" purity="4.6629732847213745e-01" nType="0">
            <Node pos="l" depth="3" NCoef="0" IVar="11" Cut="1.5842236280441284e+00" cType="1" res="-1.8040407449007034e-03" rms="3.1748628616333008e-01" purity="5.6686288118362427e-01" nType="0">
              <Node pos="l" depth="4" NCoef="0" IVar="-1" Cut="0.0000000000000000e+00" cType="1" res="-9.0247830376029015e-03" rms="3.2764521241188049e-01" purity="6.9036990404129028e-01" nType="-99"/>
              <Node pos="r" depth="4" NCoef="0" IVar="-1" Cut="0.0000000000000000e+00" cType="1" res="1.3067263178527355e-02" rms="2.9768767952919006e-01" purity="3.4354710578918457e-01" nType="-99"/>
            </Node>
            <Node pos="r" depth="3" NCoef="0" IVar="-1" Cut="0.0000000000000000e+00" cType="1" res="1.6227135434746742e-02" rms="3.0601322650909424e-01" purity="2.6775771379470825e-01" nType="-99"/>
          </Node>
        </Node>
      </Node>
    </BinaryTree>
    <BinaryTree type="DecisionTree" boostWeight="1.0000000000000000e+00" itree="365">
      <Node pos="s" depth="0" NCoef="0" IVar="13" Cut="3.2910404205322266e+00" cType="1" res="1.9629582936886436e-07" rms="3.3323237299919128e-01" purity="5.0000000000000000e-01" nType="0">
        <Node pos="l" depth="1" NCoef="0" IVar="12" Cut="3.8830318450927734e+00" cType="1" res="-1.2359936954453588e-04" rms="3.3237782120704651e-01" purity="4.9753779172897339e-01" nType="0">
          <Node pos="l" depth="2" NCoef="0" IVar="11" Cut="2.9241213798522949e+00" cType="1" res="-1.8585610087029636e-04" rms="3.3288592100143433e-01" purity="4.9995502829551697e-01" nType="0">
            <Node pos="l" depth="3" NCoef="0" IVar="12" Cut="3.3562285900115967e+00" cType="1" res="-3.4701405093073845e-04" rms="3.3404812216758728e-01" purity="5.0570666790008545e-01" nType="0">
              <Node pos="l" depth="4" NCoef="0" IVar="-1" Cut="0.0000000000000000e+00" cType="1" res="-1.2579825124703348e-04" rms="3.3435386419296265e-01" purity="5.0833964347839355e-01" nType="-99"/>
              <Node pos="r" depth="4" NCoef="0" IVar="-1" Cut="0.0000000000000000e+00" cType="1" res="-3.7140995264053345e-03" rms="3.2816022634506226e-01" purity="4.5566365122795105e-01" nType="-99"/>
            </Node>
            <Node pos="r" depth="3" NCoef="0" IVar="-1" Cut="0.0000000000000000e+00" cType="1" res="1.9825594499707222e-02" rms="2.4170531332492828e-01" purity="1.1207954585552216e-01" nType="-99"/>
          </Node>
          <Node pos="r" depth="2" NCoef="0" IVar="-1" Cut="0.0000000000000000e+00" cType="1" res="5.5724955163896084e-03" rms="2.8683531284332275e-01" purity="2.9606202244758606e-01" nType="-99"/>
        </Node>
        <Node pos="r" depth="1" NCoef="0" IVar="15" Cut="1.2837932109832764e+00" cType="1" res="1.1773707810789347e-03" rms="3.4124925732612610e-01" purity="5.2341330051422119e-01" nType="0">
          <Node pos="l" depth="2" NCoef="0" IVar="18" Cut="3.2391544921875000e+04" cType="1" res="8.1500988453626633e-03" rms="3.6659824848175049e-01" purity="4.9148994684219360e-01" nType="0">
            <Node pos="l" depth="3" NCoef="0" IVar="-1" Cut="0.0000000000000000e+00" cType="1" res="-1.8611396662890911e-03" rms="3.7383630871772766e-01" purity="5.2311474084854126e-01" nType="-99"/>
            <Node pos="r" depth="3" NCoef="0" IVar="-1" Cut="0.0000000000000000e+00" cType="1" res="1.2842334806919098e-02" rms="3.6005926132202148e-01" purity="4.6453019976615906e-01" nType="-99"/>
          </Node>
          <Node pos="r" depth="2" NCoef="0" IVar="14" Cut="1.5124893188476562e+00" cType="1" res="-9.9668139591813087e-04" rms="3.3292129635810852e-01" purity="5.3336685895919800e-01" nType="0">
            <Node pos="l" depth="3" NCoef="0" IVar="-1" Cut="0.0000000000000000e+00" cType="1" res="-8.7612839415669441e-03" rms="3.3936420083045959e-01" purity="4.0717446804046631e-01" nType="-99"/>
            <Node pos="r" depth="3" NCoef="0" IVar="16" Cut="1.9683004617691040e+00" cType="1" res="1.9307350739836693e-03" rms="3.3093419671058655e-01" purity="5.7070571184158325e-01" nType="0">
              <Node pos="l" depth="4" NCoef="0" IVar="-1" Cut="0.0000000000000000e+00" cType="1" res="-1.1227255454286933e-03" rms="3.2597190141677856e-01" purity="6.2922221422195435e-01" nType="-99"/>
              <Node pos="r" depth="4" NCoef="0" IVar="-1" Cut="0.0000000000000000e+00" cType="1" res="9.6783079206943512e-03" rms="3.4686616063117981e-01" purity="3.7416949868202209e-01" nType="-99"/>
            </Node>
          </Node>
        </Node>
      </Node>
    </BinaryTree>
    <BinaryTree type="DecisionTree" boostWeight="1.0000000000000000e+00" itree="366">
      <Node pos="s" depth="0" NCoef="0" IVar="16" Cut="9.9912786483764648e-01" cType="1" res="-4.6990983548766962e-08" rms="3.3322083950042725e-01" purity="5.0000000000000000e-01" nType="0">
        <Node pos="l" depth="1" NCoef="0" IVar="14" Cut="2.2870447635650635e+00" cType="1" res="-4.8626901116222143e-04" rms="3.0041265487670898e-01" purity="7.2007471323013306e-01" nType="0">
          <Node pos="l" depth="2" NCoef="0" IVar="14" Cut="1.7462888956069946e+00" cType="1" res="-2.5073233991861343e-03" rms="3.1402587890625000e-01" purity="6.8515634536743164e-01" nType="0">
            <Node pos="l" depth="3" NCoef="0" IVar="17" Cut="3.9411601562500000e+04" cType="1" res="1.6102453228086233e-03" rms="3.2078620791435242e-01" purity="6.6943150758743286e-01" nType="0">
              <Node pos="l" depth="4" NCoef="0" IVar="-1" Cut="0.0000000000000000e+00" cType="1" res="7.7551468275487423e-03" rms="3.1105381250381470e-01" purity="7.2026628255844116e-01" nType="-99"/>
              <Node pos="r" depth="4" NCoef="0" IVar="-1" Cut="0.0000000000000000e+00" cType="1" res="-4.5365896075963974e-03" rms="3.3038461208343506e-01" purity="6.1703997850418091e-01" nType="-99"/>
            </Node>
            <Node pos="r" depth="3" NCoef="0" IVar="20" Cut="5.5091539062500000e+04" cType="1" res="-8.1494748592376709e-03" rms="3.0442839860916138e-01" purity="7.0670354366302490e-01" nType="0">
              <Node pos="l" depth="4" NCoef="0" IVar="-1" Cut="0.0000000000000000e+00" cType="1" res="-2.1501672454178333e-03" rms="3.0122122168540955e-01" purity="8.1827270984649658e-01" nType="-99"/>
              <Node pos="r" depth="4" NCoef="0" IVar="-1" Cut="0.0000000000000000e+00" cType="1" res="-2.2779006510972977e-02" rms="3.1177744269371033e-01" purity="4.2783516645431519e-01" nType="-99"/>
            </Node>
          </Node>
          <Node pos="r" depth="2" NCoef="0" IVar="13" Cut="1.9549881219863892e+00" cType="1" res="2.5181171949952841e-03" rms="2.7892380952835083e-01" purity="7.7198237180709839e-01" nType="0">
            <Node pos="l" depth="3" NCoef="0" IVar="-1" Cut="0.0000000000000000e+00" cType="1" res="1.4593192376196384e-02" rms="3.2296308875083923e-01" purity="4.9683156609535217e-01" nType="-99"/>
            <Node pos="r" depth="3" NCoef="0" IVar="19" Cut="2.0303767578125000e+04" cType="1" res="8.7976123904809356e-04" rms="2.7337247133255005e-01" purity="8.0353766679763794e-01" nType="0">
              <Node pos="l" depth="4" NCoef="0" IVar="-1" Cut="0.0000000000000000e+00" cType="1" res="8.9762480929493904e-03" rms="3.3932882547378540e-01" purity="6.4346551895141602e-01" nType="-99"/>
              <Node pos="r" depth="4" NCoef="0" IVar="-1" Cut="0.0000000000000000e+00" cType="1" res="-1.9895457662642002e-03" rms="2.5694945454597473e-01" purity="8.3792233467102051e-01" nType="-99"/>
            </Node>
          </Node>
        </Node>
        <Node pos="r" depth="1" NCoef="0" IVar="1" Cut="2.1656515625000000e+05" cType="1" res="2.3197627160698175e-04" rms="3.4778741002082825e-01" purity="3.9498117566108704e-01" nType="0">
          <Node pos="l" depth="2" NCoef="0" IVar="5" Cut="6.3952118750000000e+05" cType="1" res="4.2837837827391922e-04" rms="3.4852850437164307e-01" purity="3.9803442358970642e-01" nType="0">
            <Node pos="l" depth="3" NCoef="0" IVar="1" Cut="1.7533359375000000e+05" cType="1" res="1.9789698126260191e-04" rms="3.4991690516471863e-01" purity="4.0276312828063965e-01" nType="0">
              <Node pos="l" depth="4" NCoef="0" IVar="-1" Cut="0.0000000000000000e+00" cType="1" res="3.3711653668433428e-04" rms="3.4973421692848206e-01" purity="4.0205472707748413e-01" nType="-99"/>
              <Node pos="r" depth="4" NCoef="0" IVar="-1" Cut="0.0000000000000000e+00" cType="1" res="-8.9695388451218605e-03" rms="3.5873880982398987e-01" purity="4.3821108341217041e-01" nType="-99"/>
            </Node>
            <Node pos="r" depth="3" NCoef="0" IVar="-1" Cut="0.0000000000000000e+00" cType="1" res="2.3457787930965424e-02" rms="2.5166362524032593e-01" purity="1.1547729372978210e-01" nType="-99"/>
          </Node>
          <Node pos="r" depth="2" NCoef="0" IVar="-1" Cut="0.0000000000000000e+00" cType="1" res="-8.0065475776791573e-03" rms="3.1344029307365417e-01" purity="2.6105502247810364e-01" nType="-99"/>
        </Node>
      </Node>
    </BinaryTree>
    <BinaryTree type="DecisionTree" boostWeight="1.0000000000000000e+00" itree="367">
      <Node pos="s" depth="0" NCoef="0" IVar="15" Cut="3.0486736297607422e+00" cType="1" res="3.3218432804460463e-07" rms="3.3319109678268433e-01" purity="5.0000000000000000e-01" nType="0">
        <Node pos="l" depth="1" NCoef="0" IVar="18" Cut="3.6590390625000000e+05" cType="1" res="-8.2069018390029669e-05" rms="3.3378720283508301e-01" purity="5.0211989879608154e-01" nType="0">
          <Node pos="l" depth="2" NCoef="0" IVar="19" Cut="2.0238096875000000e+05" cType="1" res="-1.6092402802314609e-04" rms="3.3490681648254395e-01" purity="5.0657433271408081e-01" nType="0">
            <Node pos="l" depth="3" NCoef="0" IVar="19" Cut="1.7336357812500000e+05" cType="1" res="1.4639744767919183e-04" rms="3.3738145232200623e-01" purity="5.2809524536132812e-01" nType="0">
              <Node pos="l" depth="4" NCoef="0" IVar="-1" Cut="0.0000000000000000e+00" cType="1" res="-7.7790209616068751e-05" rms="3.3724454045295715e-01" purity="5.3511506319046021e-01" nType="-99"/>
              <Node pos="r" depth="4" NCoef="0" IVar="-1" Cut="0.0000000000000000e+00" cType="1" res="6.8341828882694244e-03" rms="3.4185743331909180e-01" purity="2.9194205999374390e-01" nType="-99"/>
            </Node>
            <Node pos="r" depth="3" NCoef="0" IVar="6" Cut="2.0151935937500000e+05" cType="1" res="-4.3311347253620625e-03" rms="2.9928001761436462e-01" purity="2.1454536914825439e-01" nType="0">
              <Node pos="l" depth="4" NCoef="0" IVar="-1" Cut="0.0000000000000000e+00" cType="1" res="-1.0264921933412552e-02" rms="3.5499593615531921e-01" purity="2.7379471063613892e-01" nType="-99"/>
              <Node pos="r" depth="4" NCoef="0" IVar="-1" Cut="0.0000000000000000e+00" cType="1" res="1.1141833965666592e-05" rms="2.7197045087814331e-01" purity="1.8929158151149750e-01" nType="-99"/>
            </Node>
          </Node>
          <Node pos="r" depth="2" NCoef="0" IVar="-1" Cut="0.0000000000000000e+00" cType="1" res="9.1602625325322151e-03" rms="2.4046906828880310e-01" purity="1.8347585201263428e-01" nType="-99"/>
        </Node>
        <Node pos="r" depth="1" NCoef="0" IVar="2" Cut="3.2817337500000000e+05" cType="1" res="1.4380225911736488e-03" rms="3.2261005043983459e-01" purity="4.6301230788230896e-01" nType="0">
          <Node pos="l" depth="2" NCoef="0" IVar="-1" Cut="0.0000000000000000e+00" cType="1" res="-1.1208216659724712e-02" rms="3.3764895796775818e-01" purity="5.2257078886032104e-01" nType="-99"/>
          <Node pos="r" depth="2" NCoef="0" IVar="11" Cut="1.0665563344955444e+00" cType="1" res="5.1505276933312416e-03" rms="3.1876391172409058e-01" purity="4.4864135980606079e-01" nType="0">
            <Node pos="l" depth="3" NCoef="0" IVar="6" Cut="2.1663942187500000e+05" cType="1" res="-2.2312843066174537e-04" rms="3.2729554176330566e-01" purity="5.7129359245300293e-01" nType="0">
              <Node pos="l" depth="4" NCoef="0" IVar="-1" Cut="0.0000000000000000e+00" cType="1" res="3.7106999661773443e-03" rms="3.5832622647285461e-01" purity="6.2876665592193604e-01" nType="-99"/>
              <Node pos="r" depth="4" NCoef="0" IVar="-1" Cut="0.0000000000000000e+00" cType="1" res="-7.7404300682246685e-03" rms="2.8424161672592163e-01" purity="5.0036627054214478e-01" nType="-99"/>
            </Node>
            <Node pos="r" depth="3" NCoef="0" IVar="-1" Cut="0.0000000000000000e+00" cType="1" res="1.1861179023981094e-02" rms="3.0833682417869568e-01" purity="3.0477660894393921e-01" nType="-99"/>
          </Node>
        </Node>
      </Node>
    </BinaryTree>
    <BinaryTree type="DecisionTree" boostWeight="1.0000000000000000e+00" itree="368">
      <Node pos="s" depth="0" NCoef="0" IVar="13" Cut="3.2910404205322266e+00" cType="1" res="3.9454857159171297e-08" rms="3.3318096399307251e-01" purity="5.0000000000000000e-01" nType="0">
        <Node pos="l" depth="1" NCoef="0" IVar="15" Cut="2.4574902057647705e+00" cType="1" res="-1.0123116953764111e-04" rms="3.3233168721199036e-01" purity="4.9753779172897339e-01" nType="0">
          <Node pos="l" depth="2" NCoef="0" IVar="15" Cut="2.3406188488006592e+00" cType="1" res="-4.2634844430722296e-04" rms="3.3950203657150269e-01" purity="4.9194061756134033e-01" nType="0">
            <Node pos="l" depth="3" NCoef="0" IVar="13" Cut="2.6640682220458984e+00" cType="1" res="-2.7687634428730235e-05" rms="3.4145346283912659e-01" purity="4.9035796523094177e-01" nType="0">
              <Node pos="l" depth="4" NCoef="0" IVar="-1" Cut="0.0000000000000000e+00" cType="1" res="-9.4714364968240261e-04" rms="3.3925867080688477e-01" purity="3.9682313799858093e-01" nType="-99"/>
              <Node pos="r" depth="4" NCoef="0" IVar="-1" Cut="0.0000000000000000e+00" cType="1" res="1.2787618907168508e-03" rms="3.4457665681838989e-01" purity="6.2477725744247437e-01" nType="-99"/>
            </Node>
            <Node pos="r" depth="3" NCoef="0" IVar="18" Cut="5.7123378906250000e+04" cType="1" res="-5.8842590078711510e-03" rms="3.1150808930397034e-01" purity="5.1360821723937988e-01" nType="0">
              <Node pos="l" depth="4" NCoef="0" IVar="-1" Cut="0.0000000000000000e+00" cType="1" res="-2.2773904725909233e-02" rms="3.1091076135635376e-01" purity="4.1453811526298523e-01" nType="-99"/>
              <Node pos="r" depth="4" NCoef="0" IVar="-1" Cut="0.0000000000000000e+00" cType="1" res="-1.7760468472260982e-04" rms="3.1146267056465149e-01" purity="5.4346108436584473e-01" nType="-99"/>
            </Node>
          </Node>
          <Node pos="r" depth="2" NCoef="0" IVar="13" Cut="2.9775719642639160e+00" cType="1" res="8.0528517719358206e-04" rms="3.1146633625030518e-01" purity="5.1314425468444824e-01" nType="0">
            <Node pos="l" depth="3" NCoef="0" IVar="11" Cut="2.0001764297485352e+00" cType="1" res="2.2201524116098881e-03" rms="3.1461122632026672e-01" purity="4.6968501806259155e-01" nType="0">
              <Node pos="l" depth="4" NCoef="0" IVar="-1" Cut="0.0000000000000000e+00" cType="1" res="3.0806071590632200e-03" rms="3.2449406385421753e-01" purity="5.2260583639144897e-01" nType="-99"/>
              <Node pos="r" depth="4" NCoef="0" IVar="-1" Cut="0.0000000000000000e+00" cType="1" res="-8.1335967406630516e-03" rms="2.4083037674427032e-01" purity="1.2688677012920380e-01" nType="-99"/>
            </Node>
            <Node pos="r" depth="3" NCoef="0" IVar="17" Cut="9.0928140625000000e+04" cType="1" res="-5.8332290500402451e-03" rms="2.9617497324943542e-01" purity="7.1705359220504761e-01" nType="0">
              <Node pos="l" depth="4" NCoef="0" IVar="-1" Cut="0.0000000000000000e+00" cType="1" res="-1.2776093557476997e-02" rms="3.2346174120903015e-01" purity="6.8011111021041870e-01" nType="-99"/>
              <Node pos="r" depth="4" NCoef="0" IVar="-1" Cut="0.0000000000000000e+00" cType="1" res="7.4429000960662961e-04" rms="2.7257627248764038e-01" purity="7.4617469310760498e-01" nType="-99"/>
            </Node>
          </Node>
        </Node>
        <Node pos="r" depth="1" NCoef="0" IVar="15" Cut="1.2837932109832764e+00" cType="1" res="9.6302310703322291e-04" rms="3.4114977717399597e-01" purity="5.2341330051422119e-01" nType="0">
          <Node pos="l" depth="2" NCoef="0" IVar="18" Cut="3.2391544921875000e+04" cType="1" res="6.6137965768575668e-03" rms="3.6647370457649231e-01" purity="4.9148994684219360e-01" nType="0">
            <Node pos="l" depth="3" NCoef="0" IVar="-1" Cut="0.0000000000000000e+00" cType="1" res="-1.5488449716940522e-03" rms="3.7384057044982910e-01" purity="5.2311474084854126e-01" nType="-99"/>
            <Node pos="r" depth="3" NCoef="0" IVar="-1" Cut="0.0000000000000000e+00" cType="1" res="1.0472512803971767e-02" rms="3.5990527272224426e-01" purity="4.6453019976615906e-01" nType="-99"/>
          </Node>
          <Node pos="r" depth="2" NCoef="0" IVar="10" Cut="1.5218053125000000e+05" cType="1" res="-7.9885206650942564e-04" rms="3.3284056186676025e-01" purity="5.3336685895919800e-01" nType="0">
            <Node pos="l" depth="3" NCoef="0" IVar="9" Cut="9.5198882812500000e+04" cType="1" res="5.0537614151835442e-03" rms="3.6159253120422363e-01" purity="6.5796989202499390e-01" nType="0">
              <Node pos="l" depth="4" NCoef="0" IVar="-1" Cut="0.0000000000000000e+00" cType="1" res="8.5836304351687431e-03" rms="3.8629570603370667e-01" purity="6.4082723855972290e-01" nType="-99"/>
              <Node pos="r" depth="4" NCoef="0" IVar="-1" Cut="0.0000000000000000e+00" cType="1" res="-1.3146667042747140e-03" rms="3.3936327695846558e-01" purity="6.7233729362487793e-01" nType="-99"/>
            </Node>
            <Node pos="r" depth="3" NCoef="0" IVar="14" Cut="1.9984830617904663e+00" cType="1" res="-4.6676509082317352e-03" rms="3.1232473254203796e-01" purity="4.5099949836730957e-01" nType="0">
              <Node pos="l" depth="4" NCoef="0" IVar="-1" Cut="0.0000000000000000e+00" cType="1" res="-1.3933324255049229e-02" rms="3.0752947926521301e-01" purity="3.4707307815551758e-01" nType="-99"/>
              <Node pos="r" depth="4" NCoef="0" IVar="-1" Cut="0.0000000000000000e+00" cType="1" res="2.5748484767973423e-03" rms="3.1554934382438660e-01" purity="5.2639448642730713e-01" nType="-99"/>
            </Node>
          </Node>
        </Node>
      </Node>
    </BinaryTree>
    <BinaryTree type="DecisionTree" boostWeight="1.0000000000000000e+00" itree="369">
      <Node pos="s" depth="0" NCoef="0" IVar="18" Cut="1.4775275000000000e+05" cType="1" res="1.2733167409351154e-07" rms="3.3316451311111450e-01" purity="5.0000000000000000e-01" nType="0">
        <Node pos="l" depth="1" NCoef="0" IVar="5" Cut="3.6301143750000000e+05" cType="1" res="1.6145799600053579e-04" rms="3.4131866693496704e-01" purity="5.1551795005798340e-01" nType="0">
          <Node pos="l" depth="2" NCoef="0" IVar="2" Cut="2.0771914062500000e+05" cType="1" res="-9.4598952273372561e-05" rms="3.4219747781753540e-01" purity="5.2484607696533203e-01" nType="0">
            <Node pos="l" depth="3" NCoef="0" IVar="5" Cut="6.8372789062500000e+04" cType="1" res="4.3433764949440956e-03" rms="3.7378397583961487e-01" purity="4.8445007205009460e-01" nType="0">
              <Node pos="l" depth="4" NCoef="0" IVar="-1" Cut="0.0000000000000000e+00" cType="1" res="-1.8525461200624704e-03" rms="3.7279513478279114e-01" purity="4.5789128541946411e-01" nType="-99"/>
              <Node pos="r" depth="4" NCoef="0" IVar="-1" Cut="0.0000000000000000e+00" cType="1" res="1.9236935302615166e-02" rms="3.7628793716430664e-01" purity="5.8335083723068237e-01" nType="-99"/>
            </Node>
            <Node pos="r" depth="3" NCoef="0" IVar="12" Cut="2.9037971496582031e+00" cType="1" res="-8.7064912077039480e-04" rms="3.3636349439620972e-01" purity="5.3190994262695312e-01" nType="0">
              <Node pos="l" depth="4" NCoef="0" IVar="-1" Cut="0.0000000000000000e+00" cType="1" res="-2.1632311400026083e-03" rms="3.4719514846801758e-01" purity="5.2045303583145142e-01" nType="-99"/>
              <Node pos="r" depth="4" NCoef="0" IVar="-1" Cut="0.0000000000000000e+00" cType="1" res="1.7194694373756647e-03" rms="3.1980594992637634e-01" purity="5.4870223999023438e-01" nType="-99"/>
            </Node>
          </Node>
          <Node pos="r" depth="2" NCoef="0" IVar="5" Cut="4.5958656250000000e+05" cType="1" res="6.6427080892026424e-03" rms="3.1819939613342285e-01" purity="2.7940699458122253e-01" nType="0">
            <Node pos="l" depth="3" NCoef="0" IVar="-1" Cut="0.0000000000000000e+00" cType="1" res="1.5484654344618320e-02" rms="3.4031257033348083e-01" purity="3.5154911875724792e-01" nType="-99"/>
            <Node pos="r" depth="3" NCoef="0" IVar="-1" Cut="0.0000000000000000e+00" cType="1" res="-8.1442324444651604e-03" rms="2.8922104835510254e-01" purity="1.9409713149070740e-01" nType="-99"/>
          </Node>
        </Node>
        <Node pos="r" depth="1" NCoef="0" IVar="16" Cut="2.2394375801086426e+00" cType="1" res="-7.2320783510804176e-04" rms="2.9383504390716553e-01" purity="4.3042436242103577e-01" nType="0">
          <Node pos="l" depth="2" NCoef="0" IVar="15" Cut="2.5688288211822510e+00" cType="1" res="7.3439307743683457e-04" rms="2.9667311906814575e-01" purity="5.0438809394836426e-01" nType="0">
            <Node pos="l" depth="3" NCoef="0" IVar="5" Cut="4.3483246875000000e+05" cType="1" res="-3.2963680569082499e-03" rms="2.9127719998359680e-01" purity="4.3568009138107300e-01" nType="0">
              <Node pos="l" depth="4" NCoef="0" IVar="-1" Cut="0.0000000000000000e+00" cType="1" res="-7.1960524655878544e-03" rms="2.9395779967308044e-01" purity="5.0193428993225098e-01" nType="-99"/>
              <Node pos="r" depth="4" NCoef="0" IVar="-1" Cut="0.0000000000000000e+00" cType="1" res="9.3079777434468269e-03" rms="2.8228998184204102e-01" purity="2.2467795014381409e-01" nType="-99"/>
            </Node>
            <Node pos="r" depth="3" NCoef="0" IVar="12" Cut="2.2813413143157959e+00" cType="1" res="4.9093496054410934e-03" rms="3.0210381746292114e-01" purity="5.7555413246154785e-01" nType="0">
              <Node pos="l" depth="4" NCoef="0" IVar="-1" Cut="0.0000000000000000e+00" cType="1" res="1.6993738710880280e-02" rms="3.3856663107872009e-01" purity="4.5337179303169250e-01" nType="-99"/>
              <Node pos="r" depth="4" NCoef="0" IVar="-1" Cut="0.0000000000000000e+00" cType="1" res="4.4137475197203457e-04" rms="2.8911891579627991e-01" purity="6.1527127027511597e-01" nType="-99"/>
            </Node>
          </Node>
          <Node pos="r" depth="2" NCoef="0" IVar="3" Cut="2.0420557812500000e+05" cType="1" res="-5.2793063223361969e-03" rms="2.8473353385925293e-01" purity="1.9923195242881775e-01" nType="0">
            <Node pos="l" depth="3" NCoef="0" IVar="18" Cut="2.2607960937500000e+05" cType="1" res="-1.1710910126566887e-02" rms="3.1987312436103821e-01" purity="2.1840296685695648e-01" nType="0">
              <Node pos="l" depth="4" NCoef="0" IVar="-1" Cut="0.0000000000000000e+00" cType="1" res="-1.9068717956542969e-02" rms="3.1949582695960999e-01" purity="2.2617824375629425e-01" nType="-99"/>
              <Node pos="r" depth="4" NCoef="0" IVar="-1" Cut="0.0000000000000000e+00" cType="1" res="2.2913643624633551e-03" rms="3.1979522109031677e-01" purity="2.0848943293094635e-01" nType="-99"/>
            </Node>
            <Node pos="r" depth="3" NCoef="0" IVar="-1" Cut="0.0000000000000000e+00" cType="1" res="3.7863105535507202e-03" rms="2.3566934466362000e-01" purity="1.7629024386405945e-01" nType="-99"/>
          </Node>
        </Node>
      </Node>
    </BinaryTree>
    <BinaryTree type="DecisionTree" boostWeight="1.0000000000000000e+00" itree="370">
      <Node pos="s" depth="0" NCoef="0" IVar="15" Cut="2.5411450862884521e+00" cType="1" res="-1.9193125311289805e-08" rms="3.3312225341796875e-01" purity="5.0000000000000000e-01" nType="0">
        <Node pos="l" depth="1" NCoef="0" IVar="15" Cut="2.4203004837036133e+00" cType="1" res="1.7986694001592696e-04" rms="3.3924570679664612e-01" purity="4.9447363615036011e-01" nType="0">
          <Node pos="l" depth="2" NCoef="0" IVar="14" Cut="1.8406275510787964e+00" cType="1" res="-9.7760188509710133e-05" rms="3.4099507331848145e-01" purity="4.9117550253868103e-01" nType="0">
            <Node pos="l" depth="3" NCoef="0" IVar="14" Cut="1.7531840801239014e+00" cType="1" res="-9.8668376449495554e-04" rms="3.4710735082626343e-01" purity="4.7844311594963074e-01" nType="0">
              <Node pos="l" depth="4" NCoef="0" IVar="-1" Cut="0.0000000000000000e+00" cType="1" res="-1.6718734696041793e-04" rms="3.4826546907424927e-01" purity="4.7673425078392029e-01" nType="-99"/>
              <Node pos="r" depth="4" NCoef="0" IVar="-1" Cut="0.0000000000000000e+00" cType="1" res="-9.1524869203567505e-03" rms="3.3155664801597595e-01" purity="5.0060755014419556e-01" nType="-99"/>
            </Node>
            <Node pos="r" depth="3" NCoef="0" IVar="14" Cut="2.2668876647949219e+00" cType="1" res="1.1906449217349291e-03" rms="3.3193200826644897e-01" purity="5.0962978601455688e-01" nType="0">
              <Node pos="l" depth="4" NCoef="0" IVar="-1" Cut="0.0000000000000000e+00" cType="1" res="3.6799726076424122e-03" rms="3.3863511681556702e-01" purity="5.2534383535385132e-01" nType="-99"/>
              <Node pos="r" depth="4" NCoef="0" IVar="-1" Cut="0.0000000000000000e+00" cType="1" res="-1.5061567537486553e-03" rms="3.2567805051803589e-01" purity="4.9531421065330505e-01" nType="-99"/>
            </Node>
          </Node>
          <Node pos="r" depth="2" NCoef="0" IVar="0" Cut="3.3333332538604736e+00" cType="1" res="3.9303405210375786e-03" rms="3.1463751196861267e-01" purity="5.3902858495712280e-01" nType="0">
            <Node pos="l" depth="3" NCoef="0" IVar="-1" Cut="0.0000000000000000e+00" cType="1" res="1.3732695952057838e-02" rms="3.3187747001647949e-01" purity="5.1957350969314575e-01" nType="-99"/>
            <Node pos="r" depth="3" NCoef="0" IVar="7" Cut="6.2902105468750000e+04" cType="1" res="-2.4522412568330765e-03" rms="3.0505299568176270e-01" purity="5.4918849468231201e-01" nType="0">
              <Node pos="l" depth="4" NCoef="0" IVar="-1" Cut="0.0000000000000000e+00" cType="1" res="6.6144340671598911e-03" rms="3.2130548357963562e-01" purity="7.1048837900161743e-01" nType="-99"/>
              <Node pos="r" depth="4" NCoef="0" IVar="-1" Cut="0.0000000000000000e+00" cType="1" res="-1.7595333978533745e-02" rms="2.7994912862777710e-01" purity="3.2147806882858276e-01" nType="-99"/>
            </Node>
          </Node>
        </Node>
        <Node pos="r" depth="1" NCoef="0" IVar="11" Cut="2.0001764297485352e+00" cType="1" res="-5.9835874708369374e-04" rms="3.1188985705375671e-01" purity="5.1838177442550659e-01" nType="0">
          <Node pos="l" depth="2" NCoef="0" IVar="12" Cut="2.8007223606109619e+00" cType="1" res="2.5812556850723922e-04" rms="3.1934943795204163e-01" purity="5.7059949636459351e-01" nType="0">
            <Node pos="l" depth="3" NCoef="0" IVar="16" Cut="1.5093940496444702e+00" cType="1" res="2.7277723420411348e-03" rms="3.2721430063247681e-01" purity="4.9525412917137146e-01" nType="0">
              <Node pos="l" depth="4" NCoef="0" IVar="-1" Cut="0.0000000000000000e+00" cType="1" res="8.0071678385138512e-03" rms="3.0967390537261963e-01" purity="7.3157244920730591e-01" nType="-99"/>
              <Node pos="r" depth="4" NCoef="0" IVar="-1" Cut="0.0000000000000000e+00" cType="1" res="-2.1343287080526352e-03" rms="3.4298604726791382e-01" purity="2.7042767405509949e-01" nType="-99"/>
            </Node>
            <Node pos="r" depth="3" NCoef="0" IVar="12" Cut="3.3465454578399658e+00" cType="1" res="-3.4660736564546824e-03" rms="3.0707105994224548e-01" purity="6.8421941995620728e-01" nType="0">
              <Node pos="l" depth="4" NCoef="0" IVar="-1" Cut="0.0000000000000000e+00" cType="1" res="-6.0448008589446545e-03" rms="2.9978549480438232e-01" purity="6.9382745027542114e-01" nType="-99"/>
              <Node pos="r" depth="4" NCoef="0" IVar="-1" Cut="0.0000000000000000e+00" cType="1" res="4.7283270396292210e-03" rms="3.3272960782051086e-01" purity="6.4833992719650269e-01" nType="-99"/>
            </Node>
          </Node>
          <Node pos="r" depth="2" NCoef="0" IVar="12" Cut="2.8742549419403076e+00" cType="1" res="-6.8254917860031128e-03" rms="2.5098955631256104e-01" purity="1.3872897624969482e-01" nType="0">
            <Node pos="l" depth="3" NCoef="0" IVar="-1" Cut="0.0000000000000000e+00" cType="1" res="-2.8284817934036255e-02" rms="2.5223976373672485e-01" purity="1.2609808146953583e-01" nType="-99"/>
            <Node pos="r" depth="3" NCoef="0" IVar="-1" Cut="0.0000000000000000e+00" cType="1" res="1.6436363803222775e-03" rms="2.4992738664150238e-01" purity="1.4592123031616211e-01" nType="-99"/>
          </Node>
        </Node>
      </Node>
    </BinaryTree>
    <BinaryTree type="DecisionTree" boostWeight="1.0000000000000000e+00" itree="371">
      <Node pos="s" depth="0" NCoef="0" IVar="11" Cut="1.4541230201721191e+00" cType="1" res="5.7557610233516243e-08" rms="3.3309629559516907e-01" purity="5.0000000000000000e-01" nType="0">
        <Node pos="l" depth="1" NCoef="0" IVar="14" Cut="4.9750784039497375e-01" cType="1" res="-2.4399804533459246e-04" rms="3.4044289588928223e-01" purity="5.9860068559646606e-01" nType="0">
          <Node pos="l" depth="2" NCoef="0" IVar="-1" Cut="0.0000000000000000e+00" cType="1" res="8.2832071930170059e-03" rms="3.5799518227577209e-01" purity="6.0325211286544800e-01" nType="-99"/>
          <Node pos="r" depth="2" NCoef="0" IVar="14" Cut="9.4315260648727417e-01" cType="1" res="-5.2193790907040238e-04" rms="3.4000840783119202e-01" purity="5.9848970174789429e-01" nType="0">
            <Node pos="l" depth="3" NCoef="0" IVar="16" Cut="1.9336494207382202e+00" cType="1" res="-7.0895375683903694e-03" rms="3.6481964588165283e-01" purity="5.5558729171752930e-01" nType="0">
              <Node pos="l" depth="4" NCoef="0" IVar="-1" Cut="0.0000000000000000e+00" cType="1" res="-1.0178967379033566e-02" rms="3.4723144769668579e-01" purity="6.0724240541458130e-01" nType="-99"/>
              <Node pos="r" depth="4" NCoef="0" IVar="-1" Cut="0.0000000000000000e+00" cType="1" res="2.6669001672416925e-03" rms="3.9663311839103699e-01" purity="4.5486077666282654e-01" nType="-99"/>
            </Node>
            <Node pos="r" depth="3" NCoef="0" IVar="10" Cut="1.0621904687500000e+05" cType="1" res="2.0061545365024358e-04" rms="3.3715945482254028e-01" purity="6.0320979356765747e-01" nType="0">
              <Node pos="l" depth="4" NCoef="0" IVar="-1" Cut="0.0000000000000000e+00" cType="1" res="-1.2322145048528910e-03" rms="3.5443493723869324e-01" purity="5.5451101064682007e-01" nType="-99"/>
              <Node pos="r" depth="4" NCoef="0" IVar="-1" Cut="0.0000000000000000e+00" cType="1" res="1.6926921671256423e-03" rms="3.2106849551200867e-01" purity="6.4635807275772095e-01" nType="-99"/>
            </Node>
          </Node>
        </Node>
        <Node pos="r" depth="1" NCoef="0" IVar="1" Cut="1.6699337500000000e+05" cType="1" res="5.2480382146313787e-04" rms="3.1672304868698120e-01" purity="2.8799775242805481e-01" nType="0">
          <Node pos="l" depth="2" NCoef="0" IVar="0" Cut="2.3333332538604736e+00" cType="1" res="1.1861254461109638e-03" rms="3.1885254383087158e-01" purity="2.8978532552719116e-01" nType="0">
            <Node pos="l" depth="3" NCoef="0" IVar="16" Cut="1.9051343202590942e+00" cType="1" res="6.2151169404387474e-03" rms="3.1454804539680481e-01" purity="2.5861164927482605e-01" nType="0">
              <Node pos="l" depth="4" NCoef="0" IVar="-1" Cut="0.0000000000000000e+00" cType="1" res="1.1143859475851059e-02" rms="3.2809427380561829e-01" purity="3.1600296497344971e-01" nType="-99"/>
              <Node pos="r" depth="4" NCoef="0" IVar="-1" Cut="0.0000000000000000e+00" cType="1" res="-4.2266645468771458e-03" rms="2.9141867160797119e-01" purity="1.6731949150562286e-01" nType="-99"/>
            </Node>
            <Node pos="r" depth="3" NCoef="0" IVar="0" Cut="4.1904764175415039e+00" cType="1" res="-4.6718423254787922e-04" rms="3.2023778557777405e-01" purity="3.0003389716148376e-01" nType="0">
              <Node pos="l" depth="4" NCoef="0" IVar="-1" Cut="0.0000000000000000e+00" cType="1" res="-8.3670970052480698e-03" rms="3.4026554226875305e-01" purity="4.4030615687370300e-01" nType="-99"/>
              <Node pos="r" depth="4" NCoef="0" IVar="-1" Cut="0.0000000000000000e+00" cType="1" res="1.9120597280561924e-03" rms="3.1474861502647400e-01" purity="2.6338848471641541e-01" nType="-99"/>
            </Node>
          </Node>
          <Node pos="r" depth="2" NCoef="0" IVar="-1" Cut="0.0000000000000000e+00" cType="1" res="-2.0998677238821983e-02" rms="2.5338092446327209e-01" purity="2.4072200059890747e-01" nType="-99"/>
        </Node>
      </Node>
    </BinaryTree>
    <BinaryTree type="DecisionTree" boostWeight="1.0000000000000000e+00" itree="372">
      <Node pos="s" depth="0" NCoef="0" IVar="13" Cut="2.7425336837768555e+00" cType="1" res="1.7500502735856571e-07" rms="3.3306685090065002e-01" purity="5.0000000000000000e-01" nType="0">
        <Node pos="l" depth="1" NCoef="0" IVar="13" Cut="2.6119270324707031e+00" cType="1" res="3.2583408756181598e-04" rms="3.3273646235466003e-01" purity="4.1426411271095276e-01" nType="0">
          <Node pos="l" depth="2" NCoef="0" IVar="10" Cut="1.6236025000000000e+05" cType="1" res="-1.9781220180448145e-04" rms="3.3261567354202271e-01" purity="3.8488382101058960e-01" nType="0">
            <Node pos="l" depth="3" NCoef="0" IVar="10" Cut="3.8092859375000000e+04" cType="1" res="4.0022176108323038e-04" rms="3.3935812115669250e-01" purity="3.9678275585174561e-01" nType="0">
              <Node pos="l" depth="4" NCoef="0" IVar="-1" Cut="0.0000000000000000e+00" cType="1" res="4.2300689965486526e-03" rms="3.4603735804557800e-01" purity="2.7506178617477417e-01" nType="-99"/>
              <Node pos="r" depth="4" NCoef="0" IVar="-1" Cut="0.0000000000000000e+00" cType="1" res="-5.8705033734440804e-04" rms="3.3784320950508118e-01" purity="4.2388120293617249e-01" nType="-99"/>
            </Node>
            <Node pos="r" depth="3" NCoef="0" IVar="18" Cut="1.4801259375000000e+05" cType="1" res="-5.5676335468888283e-03" rms="2.6442226767539978e-01" purity="2.7804198861122131e-01" nType="0">
              <Node pos="l" depth="4" NCoef="0" IVar="-1" Cut="0.0000000000000000e+00" cType="1" res="-1.8481263890862465e-02" rms="2.6481610536575317e-01" purity="3.0201494693756104e-01" nType="-99"/>
              <Node pos="r" depth="4" NCoef="0" IVar="-1" Cut="0.0000000000000000e+00" cType="1" res="7.0183607749640942e-03" rms="2.6358225941658020e-01" purity="2.5112813711166382e-01" nType="-99"/>
            </Node>
          </Node>
          <Node pos="r" depth="2" NCoef="0" IVar="3" Cut="2.6716412500000000e+05" cType="1" res="4.1129523888230324e-03" rms="3.3358410000801086e-01" purity="6.2674838304519653e-01" nType="0">
            <Node pos="l" depth="3" NCoef="0" IVar="3" Cut="2.0419885937500000e+05" cType="1" res="7.6210801489651203e-03" rms="3.4483581781387329e-01" purity="6.7572528123855591e-01" nType="0">
              <Node pos="l" depth="4" NCoef="0" IVar="-1" Cut="0.0000000000000000e+00" cType="1" res="1.6962436493486166e-03" rms="3.5152626037597656e-01" purity="6.7986512184143066e-01" nType="-99"/>
              <Node pos="r" depth="4" NCoef="0" IVar="-1" Cut="0.0000000000000000e+00" cType="1" res="2.1494222804903984e-02" rms="3.2388234138488770e-01" purity="6.6356992721557617e-01" nType="-99"/>
            </Node>
            <Node pos="r" depth="3" NCoef="0" IVar="-1" Cut="0.0000000000000000e+00" cType="1" res="-1.5868371352553368e-02" rms="2.7279460430145264e-01" purity="3.9242503046989441e-01" nType="-99"/>
          </Node>
        </Node>
        <Node pos="r" depth="1" NCoef="0" IVar="18" Cut="1.2264396093750000e+05" cType="1" res="-4.6478584408760071e-04" rms="3.3353748917579651e-01" purity="6.2240970134735107e-01" nType="0">
          <Node pos="l" depth="2" NCoef="0" IVar="17" Cut="1.5461879687500000e+05" cType="1" res="-1.4042144175618887e-03" rms="3.4482365846633911e-01" purity="6.2463515996932983e-01" nType="0">
            <Node pos="l" depth="3" NCoef="0" IVar="1" Cut="8.3228843750000000e+04" cType="1" res="-5.8288604486733675e-04" rms="3.4849613904953003e-01" purity="6.3048517704010010e-01" nType="0">
              <Node pos="l" depth="4" NCoef="0" IVar="-1" Cut="0.0000000000000000e+00" cType="1" res="-1.9319388084113598e-03" rms="3.5785728693008423e-01" purity="5.8497941493988037e-01" nType="-99"/>
              <Node pos="r" depth="4" NCoef="0" IVar="-1" Cut="0.0000000000000000e+00" cType="1" res="4.3453327380120754e-03" rms="3.2213711738586426e-01" purity="7.5186967849731445e-01" nType="-99"/>
            </Node>
            <Node pos="r" depth="3" NCoef="0" IVar="-1" Cut="0.0000000000000000e+00" cType="1" res="-1.5987426042556763e-02" rms="2.8293967247009277e-01" purity="5.3576004505157471e-01" nType="-99"/>
          </Node>
          <Node pos="r" depth="2" NCoef="0" IVar="12" Cut="2.2607796192169189e+00" cType="1" res="2.2946929093450308e-03" rms="2.9790607094764709e-01" purity="6.1587274074554443e-01" nType="0">
            <Node pos="l" depth="3" NCoef="0" IVar="-1" Cut="0.0000000000000000e+00" cType="1" res="1.0742039419710636e-02" rms="3.3706477284431458e-01" purity="4.9032446742057800e-01" nType="-99"/>
            <Node pos="r" depth="3" NCoef="0" IVar="18" Cut="2.4008203125000000e+05" cType="1" res="7.0711539592593908e-04" rms="2.9137393832206726e-01" purity="6.3521337509155273e-01" nType="0">
              <Node pos="l" depth="4" NCoef="0" IVar="-1" Cut="0.0000000000000000e+00" cType="1" res="3.1774914823472500e-03" rms="2.9525452852249146e-01" purity="6.7513519525527954e-01" nType="-99"/>
              <Node pos="r" depth="4" NCoef="0" IVar="-1" Cut="0.0000000000000000e+00" cType="1" res="-8.7996395304799080e-03" rms="2.7604195475578308e-01" purity="4.8420479893684387e-01" nType="-99"/>
            </Node>
          </Node>
        </Node>
      </Node>
    </BinaryTree>
    <BinaryTree type="DecisionTree" boostWeight="1.0000000000000000e+00" itree="373">
      <Node pos="s" depth="0" NCoef="0" IVar="18" Cut="1.4775275000000000e+05" cType="1" res="6.3831373608991271e-07" rms="3.3303493261337280e-01" purity="5.0000000000000000e-01" nType="0">
        <Node pos="l" depth="1" NCoef="0" IVar="18" Cut="4.1739875000000000e+04" cType="1" res="2.1453887165989727e-04" rms="3.4119978547096252e-01" purity="5.1551795005798340e-01" nType="0">
          <Node pos="l" depth="2" NCoef="0" IVar="13" Cut="8.0000871419906616e-01" cType="1" res="-1.1362988734617829e-03" rms="3.4068101644515991e-01" purity="4.8729655146598816e-01" nType="0">
            <Node pos="l" depth="3" NCoef="0" IVar="-1" Cut="0.0000000000000000e+00" cType="1" res="-1.6854126006364822e-02" rms="2.7666887640953064e-01" purity="1.6592037677764893e-01" nType="-99"/>
            <Node pos="r" depth="3" NCoef="0" IVar="15" Cut="2.0944604873657227e+00" cType="1" res="-4.1353199048899114e-04" rms="3.4352132678031921e-01" purity="5.0319075584411621e-01" nType="0">
              <Node pos="l" depth="4" NCoef="0" IVar="-1" Cut="0.0000000000000000e+00" cType="1" res="9.8476151470094919e-04" rms="3.4824067354202271e-01" purity="5.1329386234283447e-01" nType="-99"/>
              <Node pos="r" depth="4" NCoef="0" IVar="-1" Cut="0.0000000000000000e+00" cType="1" res="-4.9607991240918636e-03" rms="3.2846149802207947e-01" purity="4.7198399901390076e-01" nType="-99"/>
            </Node>
          </Node>
          <Node pos="r" depth="2" NCoef="0" IVar="15" Cut="1.9982408285140991e+00" cType="1" res="1.2430486967787147e-03" rms="3.4159064292907715e-01" purity="5.3700536489486694e-01" nType="0">
            <Node pos="l" depth="3" NCoef="0" IVar="15" Cut="9.3077456951141357e-01" cType="1" res="-1.2846146710216999e-03" rms="3.5288298130035400e-01" purity="4.9216237664222717e-01" nType="0">
              <Node pos="l" depth="4" NCoef="0" IVar="-1" Cut="0.0000000000000000e+00" cType="1" res="8.7473429739475250e-03" rms="3.5752564668655396e-01" purity="4.6510866284370422e-01" nType="-99"/>
              <Node pos="r" depth="4" NCoef="0" IVar="-1" Cut="0.0000000000000000e+00" cType="1" res="-2.5311724748462439e-03" rms="3.5209900140762329e-01" purity="4.9645951390266418e-01" nType="-99"/>
            </Node>
            <Node pos="r" depth="3" NCoef="0" IVar="1" Cut="5.1345113281250000e+04" cType="1" res="4.0973583236336708e-03" rms="3.2834911346435547e-01" purity="5.8764332532882690e-01" nType="0">
              <Node pos="l" depth="4" NCoef="0" IVar="-1" Cut="0.0000000000000000e+00" cType="1" res="-4.3445546180009842e-04" rms="3.3764332532882690e-01" purity="4.4724988937377930e-01" nType="-99"/>
              <Node pos="r" depth="4" NCoef="0" IVar="-1" Cut="0.0000000000000000e+00" cType="1" res="7.4990629218518734e-03" rms="3.1996506452560425e-01" purity="7.1013826131820679e-01" nType="-99"/>
            </Node>
          </Node>
        </Node>
        <Node pos="r" depth="1" NCoef="0" IVar="10" Cut="2.3366242187500000e+05" cType="1" res="-9.5839693676680326e-04" rms="2.9364776611328125e-01" purity="4.3042436242103577e-01" nType="0">
          <Node pos="l" depth="2" NCoef="0" IVar="12" Cut="2.5996222496032715e+00" cType="1" res="-2.2278409451246262e-03" rms="3.0049201846122742e-01" purity="4.5285120606422424e-01" nType="0">
            <Node pos="l" depth="3" NCoef="0" IVar="1" Cut="1.0871885937500000e+05" cType="1" res="-6.0626212507486343e-03" rms="3.1108438968658447e-01" purity="3.6977466940879822e-01" nType="0">
              <Node pos="l" depth="4" NCoef="0" IVar="-1" Cut="0.0000000000000000e+00" cType="1" res="-2.2650142200291157e-03" rms="3.0518108606338501e-01" purity="3.5923954844474792e-01" nType="-99"/>
              <Node pos="r" depth="4" NCoef="0" IVar="-1" Cut="0.0000000000000000e+00" cType="1" res="-1.5683535486459732e-02" rms="3.2850071787834167e-01" purity="4.0256083011627197e-01" nType="-99"/>
            </Node>
            <Node pos="r" depth="3" NCoef="0" IVar="12" Cut="2.9773914813995361e+00" cType="1" res="2.1220312919467688e-03" rms="2.8794384002685547e-01" purity="5.4708665609359741e-01" nType="0">
              <Node pos="l" depth="4" NCoef="0" IVar="-1" Cut="0.0000000000000000e+00" cType="1" res="1.2328624725341797e-02" rms="2.9877156019210815e-01" purity="5.6744664907455444e-01" nType="-99"/>
              <Node pos="r" depth="4" NCoef="0" IVar="-1" Cut="0.0000000000000000e+00" cType="1" res="-8.3170831203460693e-03" rms="2.7668255567550659e-01" purity="5.2724981307983398e-01" nType="-99"/>
            </Node>
          </Node>
          <Node pos="r" depth="2" NCoef="0" IVar="11" Cut="7.7423429489135742e-01" cType="1" res="4.1158432140946388e-03" rms="2.6446619629859924e-01" purity="3.4077948331832886e-01" nType="0">
            <Node pos="l" depth="3" NCoef="0" IVar="-1" Cut="0.0000000000000000e+00" cType="1" res="-5.0281547009944916e-03" rms="2.9848226904869080e-01" purity="5.2641040086746216e-01" nType="-99"/>
            <Node pos="r" depth="3" NCoef="0" IVar="-1" Cut="0.0000000000000000e+00" cType="1" res="1.9713822752237320e-02" rms="2.3230564594268799e-01" purity="1.8701884150505066e-01" nType="-99"/>
          </Node>
        </Node>
      </Node>
    </BinaryTree>
    <BinaryTree type="DecisionTree" boostWeight="1.0000000000000000e+00" itree="374">
      <Node pos="s" depth="0" NCoef="0" IVar="13" Cut="2.7425336837768555e+00" cType="1" res="7.0701224785807426e-07" rms="3.3300322294235229e-01" purity="5.0000000000000000e-01" nType="0">
        <Node pos="l" depth="1" NCoef="0" IVar="12" Cut="3.5617487430572510e+00" cType="1" res="3.3326962147839367e-04" rms="3.3266934752464294e-01" purity="4.1426411271095276e-01" nType="0">
          <Node pos="l" depth="2" NCoef="0" IVar="16" Cut="3.2256813049316406e+00" cType="1" res="5.5330566829070449e-04" rms="3.3441752195358276e-01" purity="4.1881772875785828e-01" nType="0">
            <Node pos="l" depth="3" NCoef="0" IVar="16" Cut="2.7662260532379150e+00" cType="1" res="7.2504067793488503e-04" rms="3.3469626307487488e-01" purity="4.2264750599861145e-01" nType="0">
              <Node pos="l" depth="4" NCoef="0" IVar="-1" Cut="0.0000000000000000e+00" cType="1" res="2.0017594215460122e-04" rms="3.3530688285827637e-01" purity="4.3577161431312561e-01" nType="-99"/>
              <Node pos="r" depth="4" NCoef="0" IVar="-1" Cut="0.0000000000000000e+00" cType="1" res="6.2974742613732815e-03" rms="3.2648769021034241e-01" purity="2.4995830655097961e-01" nType="-99"/>
            </Node>
            <Node pos="r" depth="3" NCoef="0" IVar="-1" Cut="0.0000000000000000e+00" cType="1" res="-8.0207632854580879e-03" rms="3.1896111369132996e-01" purity="2.1323658525943756e-01" nType="-99"/>
          </Node>
          <Node pos="r" depth="2" NCoef="0" IVar="-1" Cut="0.0000000000000000e+00" cType="1" res="-8.4585910663008690e-03" rms="2.6697108149528503e-01" purity="2.6065695285797119e-01" nType="-99"/>
        </Node>
        <Node pos="r" depth="1" NCoef="0" IVar="19" Cut="2.9273018750000000e+05" cType="1" res="-4.7411039122380316e-04" rms="3.3347877860069275e-01" purity="6.2240970134735107e-01" nType="0">
          <Node pos="l" depth="2" NCoef="0" IVar="19" Cut="1.3250607421875000e+04" cType="1" res="-2.3223533935379237e-04" rms="3.3435434103012085e-01" purity="6.3238215446472168e-01" nType="0">
            <Node pos="l" depth="3" NCoef="0" IVar="14" Cut="1.3524481058120728e+00" cType="1" res="4.2986371554434299e-03" rms="3.6319941282272339e-01" purity="4.9592056870460510e-01" nType="0">
              <Node pos="l" depth="4" NCoef="0" IVar="-1" Cut="0.0000000000000000e+00" cType="1" res="-9.3469731509685516e-03" rms="3.6388036608695984e-01" purity="4.5177122950553894e-01" nType="-99"/>
              <Node pos="r" depth="4" NCoef="0" IVar="-1" Cut="0.0000000000000000e+00" cType="1" res="8.4492648020386696e-03" rms="3.6266326904296875e-01" purity="5.1405948400497437e-01" nType="-99"/>
            </Node>
            <Node pos="r" depth="3" NCoef="0" IVar="18" Cut="7.9277265625000000e+04" cType="1" res="-1.3276153476908803e-03" rms="3.2698965072631836e-01" purity="6.6537296772003174e-01" nType="0">
              <Node pos="l" depth="4" NCoef="0" IVar="-1" Cut="0.0000000000000000e+00" cType="1" res="-3.7254674825817347e-03" rms="3.4684178233146667e-01" purity="6.6152119636535645e-01" nType="-99"/>
              <Node pos="r" depth="4" NCoef="0" IVar="-1" Cut="0.0000000000000000e+00" cType="1" res="2.1244485396891832e-03" rms="3.0502584576606750e-01" purity="6.6936343908309937e-01" nType="-99"/>
            </Node>
          </Node>
          <Node pos="r" depth="2" NCoef="0" IVar="-1" Cut="0.0000000000000000e+00" cType="1" res="-1.0027597658336163e-02" rms="2.9645991325378418e-01" purity="2.2630707919597626e-01" nType="-99"/>
        </Node>
      </Node>
    </BinaryTree>
    <BinaryTree type="DecisionTree" boostWeight="1.0000000000000000e+00" itree="375">
      <Node pos="s" depth="0" NCoef="0" IVar="16" Cut="3.2256813049316406e+00" cType="1" res="6.0738784668501467e-07" rms="3.3298447728157043e-01" purity="5.0000000000000000e-01" nType="0">
        <Node pos="l" depth="1" NCoef="0" IVar="11" Cut="2.1707923412322998e+00" cType="1" res="-6.8812070821877569e-05" rms="3.3304867148399353e-01" purity="5.0438487529754639e-01" nType="0">
          <Node pos="l" depth="2" NCoef="0" IVar="11" Cut="2.0684080123901367e+00" cType="1" res="-2.7291738661006093e-04" rms="3.3999022841453552e-01" purity="5.4743248224258423e-01" nType="0">
            <Node pos="l" depth="3" NCoef="0" IVar="13" Cut="1.3720427751541138e+00" cType="1" res="-1.0137729259440675e-04" rms="3.4097224473953247e-01" purity="5.5461245775222778e-01" nType="0">
              <Node pos="l" depth="4" NCoef="0" IVar="-1" Cut="0.0000000000000000e+00" cType="1" res="-2.5272213388234377e-03" rms="3.2761770486831665e-01" purity="2.3322223126888275e-01" nType="-99"/>
              <Node pos="r" depth="4" NCoef="0" IVar="-1" Cut="0.0000000000000000e+00" cType="1" res="2.0108501485083252e-04" rms="3.4258067607879639e-01" purity="5.9422671794891357e-01" nType="-99"/>
            </Node>
            <Node pos="r" depth="3" NCoef="0" IVar="-1" Cut="0.0000000000000000e+00" cType="1" res="-7.4774147942662239e-03" rms="2.9472944140434265e-01" purity="2.3958133161067963e-01" nType="-99"/>
          </Node>
          <Node pos="r" depth="2" NCoef="0" IVar="1" Cut="8.3566031250000000e+04" cType="1" res="1.5721000963822007e-03" rms="2.7084711194038391e-01" purity="1.5830214321613312e-01" nType="0">
            <Node pos="l" depth="3" NCoef="0" IVar="1" Cut="3.9863964843750000e+04" cType="1" res="4.4038435444235802e-03" rms="2.7018699049949646e-01" purity="1.4667016267776489e-01" nType="0">
              <Node pos="l" depth="4" NCoef="0" IVar="-1" Cut="0.0000000000000000e+00" cType="1" res="-3.0621392652392387e-03" rms="2.3220646381378174e-01" purity="8.8484585285186768e-02" nType="-99"/>
              <Node pos="r" depth="4" NCoef="0" IVar="-1" Cut="0.0000000000000000e+00" cType="1" res="1.2411745265126228e-02" rms="3.0964076519012451e-01" purity="2.1673372387886047e-01" nType="-99"/>
            </Node>
            <Node pos="r" depth="3" NCoef="0" IVar="0" Cut="5.3333334922790527e+00" cType="1" res="-1.0186529718339443e-02" rms="2.7325740456581116e-01" purity="2.0660303533077240e-01" nType="0">
              <Node pos="l" depth="4" NCoef="0" IVar="-1" Cut="0.0000000000000000e+00" cType="1" res="-2.6351856067776680e-02" rms="2.7798566222190857e-01" purity="2.1821063756942749e-01" nType="-99"/>
              <Node pos="r" depth="4" NCoef="0" IVar="-1" Cut="0.0000000000000000e+00" cType="1" res="5.9239781694486737e-04" rms="2.6837399601936340e-01" purity="1.9588260352611542e-01" nType="-99"/>
            </Node>
          </Node>
        </Node>
        <Node pos="r" depth="1" NCoef="0" IVar="-1" Cut="0.0000000000000000e+00" cType="1" res="3.0343802645802498e-03" rms="3.2963350415229797e-01" purity="2.7357205748558044e-01" nType="-99"/>
      </Node>
    </BinaryTree>
    <BinaryTree type="DecisionTree" boostWeight="1.0000000000000000e+00" itree="376">
      <Node pos="s" depth="0" NCoef="0" IVar="15" Cut="2.5411450862884521e+00" cType="1" res="2.1446163955829434e-08" rms="3.3297228813171387e-01" purity="5.0000000000000000e-01" nType="0">
        <Node pos="l" depth="1" NCoef="0" IVar="14" Cut="2.7587239742279053e+00" cType="1" res="2.4638202739879489e-04" rms="3.3909755945205688e-01" purity="4.9447363615036011e-01" nType="0">
          <Node pos="l" depth="2" NCoef="0" IVar="14" Cut="2.6275587081909180e+00" cType="1" res="-2.5918961910065264e-05" rms="3.4038650989532471e-01" purity="4.9594086408615112e-01" nType="0">
            <Node pos="l" depth="3" NCoef="0" IVar="15" Cut="2.4202737808227539e+00" cType="1" res="3.3498019911348820e-04" rms="3.4126168489456177e-01" purity="4.9525353312492371e-01" nType="0">
              <Node pos="l" depth="4" NCoef="0" IVar="-1" Cut="0.0000000000000000e+00" cType="1" res="-2.9412353796942625e-06" rms="3.4287273883819580e-01" purity="4.9379599094390869e-01" nType="-99"/>
              <Node pos="r" depth="4" NCoef="0" IVar="-1" Cut="0.0000000000000000e+00" cType="1" res="5.5816052481532097e-03" rms="3.1282579898834229e-01" purity="5.1980471611022949e-01" nType="-99"/>
            </Node>
            <Node pos="r" depth="3" NCoef="0" IVar="12" Cut="2.7236013412475586e+00" cType="1" res="-9.6626244485378265e-03" rms="3.1597077846527100e-01" purity="5.1429331302642822e-01" nType="0">
              <Node pos="l" depth="4" NCoef="0" IVar="-1" Cut="0.0000000000000000e+00" cType="1" res="-1.7402743920683861e-02" rms="3.2674291729927063e-01" purity="4.3211978673934937e-01" nType="-99"/>
              <Node pos="r" depth="4" NCoef="0" IVar="-1" Cut="0.0000000000000000e+00" cType="1" res="1.7235174309462309e-03" rms="3.0411577224731445e-01" purity="5.9849590063095093e-01" nType="-99"/>
            </Node>
          </Node>
          <Node pos="r" depth="2" NCoef="0" IVar="3" Cut="1.2812060156250000e+05" cType="1" res="3.7348202895373106e-03" rms="3.2210826873779297e-01" purity="4.7567752003669739e-01" nType="0">
            <Node pos="l" depth="3" NCoef="0" IVar="-1" Cut="0.0000000000000000e+00" cType="1" res="1.2394580058753490e-02" rms="3.7802627682685852e-01" purity="5.3333449363708496e-01" nType="-99"/>
            <Node pos="r" depth="3" NCoef="0" IVar="16" Cut="1.7185437679290771e+00" cType="1" res="-1.5886881155893207e-03" rms="2.9950994253158569e-01" purity="4.5514845848083496e-01" nType="0">
              <Node pos="l" depth="4" NCoef="0" IVar="-1" Cut="0.0000000000000000e+00" cType="1" res="5.9788390062749386e-03" rms="3.0271840095520020e-01" purity="5.5595397949218750e-01" nType="-99"/>
              <Node pos="r" depth="4" NCoef="0" IVar="-1" Cut="0.0000000000000000e+00" cType="1" res="-1.9070798531174660e-02" rms="2.9125154018402100e-01" purity="2.2160889208316803e-01" nType="-99"/>
            </Node>
          </Node>
        </Node>
        <Node pos="r" depth="1" NCoef="0" IVar="15" Cut="2.6740696430206299e+00" cType="1" res="-8.1942620454356074e-04" rms="3.1173229217529297e-01" purity="5.1838177442550659e-01" nType="0">
          <Node pos="l" depth="2" NCoef="0" IVar="4" Cut="4.3892440625000000e+05" cType="1" res="-5.0199716351926327e-03" rms="3.1043469905853271e-01" purity="5.3129822015762329e-01" nType="0">
            <Node pos="l" depth="3" NCoef="0" IVar="2" Cut="4.1398500000000000e+05" cType="1" res="-9.1569209471344948e-03" rms="3.2047125697135925e-01" purity="5.7423359155654907e-01" nType="0">
              <Node pos="l" depth="4" NCoef="0" IVar="-1" Cut="0.0000000000000000e+00" cType="1" res="-2.6428916025906801e-03" rms="3.2431983947753906e-01" purity="6.1020898818969727e-01" nType="-99"/>
              <Node pos="r" depth="4" NCoef="0" IVar="-1" Cut="0.0000000000000000e+00" cType="1" res="-2.4967664852738380e-02" rms="3.1035280227661133e-01" purity="4.8645436763763428e-01" nType="-99"/>
            </Node>
            <Node pos="r" depth="3" NCoef="0" IVar="-1" Cut="0.0000000000000000e+00" cType="1" res="9.8043167963624001e-03" rms="2.7637618780136108e-01" purity="3.9727553725242615e-01" nType="-99"/>
          </Node>
          <Node pos="r" depth="2" NCoef="0" IVar="1" Cut="9.4517734375000000e+04" cType="1" res="4.5846577268093824e-04" rms="3.1211474537849426e-01" purity="5.1445233821868896e-01" nType="0">
            <Node pos="l" depth="3" NCoef="0" IVar="1" Cut="6.7574414062500000e+04" cType="1" res="2.5830443482846022e-03" rms="3.1712052226066589e-01" purity="4.8527604341506958e-01" nType="0">
              <Node pos="l" depth="4" NCoef="0" IVar="-1" Cut="0.0000000000000000e+00" cType="1" res="-6.2455941224470735e-04" rms="3.1835618615150452e-01" purity="4.3809884786605835e-01" nType="-99"/>
              <Node pos="r" depth="4" NCoef="0" IVar="-1" Cut="0.0000000000000000e+00" cType="1" res="1.3390912674367428e-02" rms="3.1247809529304504e-01" purity="6.5087872743606567e-01" nType="-99"/>
            </Node>
            <Node pos="r" depth="3" NCoef="0" IVar="13" Cut="2.4128079414367676e+00" cType="1" res="-6.9926055148243904e-03" rms="2.9376456141471863e-01" purity="6.1677581071853638e-01" nType="0">
              <Node pos="l" depth="4" NCoef="0" IVar="-1" Cut="0.0000000000000000e+00" cType="1" res="-1.5772385522723198e-02" rms="3.2064732909202576e-01" purity="3.7823519110679626e-01" nType="-99"/>
              <Node pos="r" depth="4" NCoef="0" IVar="-1" Cut="0.0000000000000000e+00" cType="1" res="-7.8228127676993608e-05" rms="2.7512016892433167e-01" purity="7.6816952228546143e-01" nType="-99"/>
            </Node>
          </Node>
        </Node>
      </Node>
    </BinaryTree>
    <BinaryTree type="DecisionTree" boostWeight="1.0000000000000000e+00" itree="377">
      <Node pos="s" depth="0" NCoef="0" IVar="16" Cut="9.9912786483764648e-01" cType="1" res="2.0538317357932101e-07" rms="3.3294010162353516e-01" purity="5.0000000000000000e-01" nType="0">
        <Node pos="l" depth="1" NCoef="0" IVar="19" Cut="8.1751718750000000e+04" cType="1" res="-6.3095131190493703e-04" rms="3.0012905597686768e-01" purity="7.2007471323013306e-01" nType="0">
          <Node pos="l" depth="2" NCoef="0" IVar="19" Cut="3.8794847656250000e+04" cType="1" res="-7.5845295214094222e-05" rms="2.9974061250686646e-01" purity="7.3999035358428955e-01" nType="0">
            <Node pos="l" depth="3" NCoef="0" IVar="10" Cut="6.8909835937500000e+04" cType="1" res="-2.6702124159783125e-03" rms="3.2165858149528503e-01" purity="6.6868573427200317e-01" nType="0">
              <Node pos="l" depth="4" NCoef="0" IVar="-1" Cut="0.0000000000000000e+00" cType="1" res="5.5655282922089100e-03" rms="3.6004048585891724e-01" purity="5.0731140375137329e-01" nType="-99"/>
              <Node pos="r" depth="4" NCoef="0" IVar="-1" Cut="0.0000000000000000e+00" cType="1" res="-6.9604315795004368e-03" rms="3.0551457405090332e-01" purity="7.3078417778015137e-01" nType="-99"/>
            </Node>
            <Node pos="r" depth="3" NCoef="0" IVar="16" Cut="6.4991199970245361e-01" cType="1" res="2.6397660840302706e-03" rms="2.7490672469139099e-01" purity="8.1462717056274414e-01" nType="0">
              <Node pos="l" depth="4" NCoef="0" IVar="-1" Cut="0.0000000000000000e+00" cType="1" res="1.6327762976288795e-02" rms="2.3465269804000854e-01" purity="8.7107539176940918e-01" nType="-99"/>
              <Node pos="r" depth="4" NCoef="0" IVar="-1" Cut="0.0000000000000000e+00" cType="1" res="-1.2975799618288875e-03" rms="2.9357042908668518e-01" purity="7.8531092405319214e-01" nType="-99"/>
            </Node>
          </Node>
          <Node pos="r" depth="2" NCoef="0" IVar="-1" Cut="0.0000000000000000e+00" cType="1" res="-9.2857191339135170e-03" rms="3.0624964833259583e-01" purity="3.9542677998542786e-01" nType="-99"/>
        </Node>
        <Node pos="r" depth="1" NCoef="0" IVar="2" Cut="3.7264334375000000e+05" cType="1" res="3.0139091541059315e-04" rms="3.4750682115554810e-01" purity="3.9498117566108704e-01" nType="0">
          <Node pos="l" depth="2" NCoef="0" IVar="21" Cut="3.0268550781250000e+04" cType="1" res="-9.4702473143115640e-04" rms="3.7235578894615173e-01" purity="4.7620615363121033e-01" nType="0">
            <Node pos="l" depth="3" NCoef="0" IVar="19" Cut="1.0206810156250000e+05" cType="1" res="-7.5950608588755131e-03" rms="3.6272707581520081e-01" purity="5.8093017339706421e-01" nType="0">
              <Node pos="l" depth="4" NCoef="0" IVar="-1" Cut="0.0000000000000000e+00" cType="1" res="-9.1041401028633118e-03" rms="3.5609659552574158e-01" purity="5.9535717964172363e-01" nType="-99"/>
              <Node pos="r" depth="4" NCoef="0" IVar="-1" Cut="0.0000000000000000e+00" cType="1" res="1.1114276014268398e-02" rms="3.9760288596153259e-01" purity="4.9832648038864136e-01" nType="-99"/>
            </Node>
            <Node pos="r" depth="3" NCoef="0" IVar="21" Cut="5.7654882812500000e+04" cType="1" res="3.0232833232730627e-03" rms="3.7793347239494324e-01" purity="4.1366341710090637e-01" nType="0">
              <Node pos="l" depth="4" NCoef="0" IVar="-1" Cut="0.0000000000000000e+00" cType="1" res="5.9446273371577263e-03" rms="4.0140742063522339e-01" purity="5.1904946565628052e-01" nType="-99"/>
              <Node pos="r" depth="4" NCoef="0" IVar="-1" Cut="0.0000000000000000e+00" cType="1" res="-2.5558068882673979e-03" rms="3.5538899898529053e-01" purity="3.1892836093902588e-01" nType="-99"/>
            </Node>
          </Node>
          <Node pos="r" depth="2" NCoef="0" IVar="13" Cut="2.1940269470214844e+00" cType="1" res="1.4977005776017904e-03" rms="3.2189565896987915e-01" purity="3.1714633107185364e-01" nType="0">
            <Node pos="l" depth="3" NCoef="0" IVar="15" Cut="2.9666247367858887e+00" cType="1" res="4.8167654313147068e-03" rms="2.9342189431190491e-01" purity="1.8521332740783691e-01" nType="0">
              <Node pos="l" depth="4" NCoef="0" IVar="-1" Cut="0.0000000000000000e+00" cType="1" res="3.3000099938362837e-03" rms="2.9063013195991516e-01" purity="1.7815794050693512e-01" nType="-99"/>
              <Node pos="r" depth="4" NCoef="0" IVar="-1" Cut="0.0000000000000000e+00" cType="1" res="1.6576424241065979e-02" rms="3.0952501296997070e-01" purity="2.2788254916667938e-01" nType="-99"/>
            </Node>
            <Node pos="r" depth="3" NCoef="0" IVar="13" Cut="2.3638174533843994e+00" cType="1" res="-7.1852566907182336e-04" rms="3.3956348896026611e-01" purity="4.0524148941040039e-01" nType="0">
              <Node pos="l" depth="4" NCoef="0" IVar="-1" Cut="0.0000000000000000e+00" cType="1" res="-1.1542801745235920e-02" rms="3.3365061879158020e-01" purity="3.1032869219779968e-01" nType="-99"/>
              <Node pos="r" depth="4" NCoef="0" IVar="-1" Cut="0.0000000000000000e+00" cType="1" res="5.7620549341663718e-04" rms="3.4018421173095703e-01" purity="4.1579091548919678e-01" nType="-99"/>
            </Node>
          </Node>
        </Node>
      </Node>
    </BinaryTree>
    <BinaryTree type="DecisionTree" boostWeight="1.0000000000000000e+00" itree="378">
      <Node pos="s" depth="0" NCoef="0" IVar="18" Cut="1.4775275000000000e+05" cType="1" res="1.3068042790109757e-06" rms="3.3288860321044922e-01" purity="5.0000000000000000e-01" nType="0">
        <Node pos="l" depth="1" NCoef="0" IVar="13" Cut="3.5652937889099121e+00" cType="1" res="2.6034002075903118e-04" rms="3.4106585383415222e-01" purity="5.1551795005798340e-01" nType="0">
          <Node pos="l" depth="2" NCoef="0" IVar="9" Cut="2.6200375000000000e+05" cType="1" res="2.1430474589578807e-05" rms="3.4070885181427002e-01" purity="5.1713269948959351e-01" nType="0">
            <Node pos="l" depth="3" NCoef="0" IVar="3" Cut="8.3660742187500000e+04" cType="1" res="3.6906442255713046e-04" rms="3.4526282548904419e-01" purity="5.3126168251037598e-01" nType="0">
              <Node pos="l" depth="4" NCoef="0" IVar="-1" Cut="0.0000000000000000e+00" cType="1" res="-2.8777909465134144e-03" rms="3.6526253819465637e-01" purity="3.5810652375221252e-01" nType="-99"/>
              <Node pos="r" depth="4" NCoef="0" IVar="-1" Cut="0.0000000000000000e+00" cType="1" res="1.0394934797659516e-03" rms="3.4133675694465637e-01" purity="5.6404805183410645e-01" nType="-99"/>
            </Node>
            <Node pos="r" depth="3" NCoef="0" IVar="15" Cut="1.5391080379486084e+00" cType="1" res="-6.1300457455217838e-03" rms="2.4650427699089050e-01" purity="2.6711630821228027e-01" nType="0">
              <Node pos="l" depth="4" NCoef="0" IVar="-1" Cut="0.0000000000000000e+00" cType="1" res="4.3126987293362617e-03" rms="2.5094777345657349e-01" purity="2.4264229834079742e-01" nType="-99"/>
              <Node pos="r" depth="4" NCoef="0" IVar="-1" Cut="0.0000000000000000e+00" cType="1" res="-2.2255768999457359e-02" rms="2.4192956089973450e-01" purity="2.9020494222640991e-01" nType="-99"/>
            </Node>
          </Node>
          <Node pos="r" depth="2" NCoef="0" IVar="15" Cut="1.4080172777175903e+00" cType="1" res="5.5559375323355198e-03" rms="3.4884387254714966e-01" purity="4.7972682118415833e-01" nType="0">
            <Node pos="l" depth="3" NCoef="0" IVar="-1" Cut="0.0000000000000000e+00" cType="1" res="-4.3921726755797863e-03" rms="3.4769022464752197e-01" purity="4.2121940851211548e-01" nType="-99"/>
            <Node pos="r" depth="3" NCoef="0" IVar="12" Cut="3.3425374031066895e+00" cType="1" res="1.0427304543554783e-02" rms="3.4922289848327637e-01" purity="5.0475817918777466e-01" nType="0">
              <Node pos="l" depth="4" NCoef="0" IVar="-1" Cut="0.0000000000000000e+00" cType="1" res="2.2798883728682995e-03" rms="3.6494126915931702e-01" purity="4.5561352372169495e-01" nType="-99"/>
              <Node pos="r" depth="4" NCoef="0" IVar="-1" Cut="0.0000000000000000e+00" cType="1" res="1.4703810214996338e-02" rms="3.3129772543907166e-01" purity="5.5762082338333130e-01" nType="-99"/>
            </Node>
          </Node>
        </Node>
        <Node pos="r" depth="1" NCoef="0" IVar="13" Cut="8.0896902084350586e-01" cType="1" res="-1.1600833386182785e-03" rms="2.9343450069427490e-01" purity="4.3042436242103577e-01" nType="0">
          <Node pos="l" depth="2" NCoef="0" IVar="-1" Cut="0.0000000000000000e+00" cType="1" res="9.7294049337506294e-03" rms="2.9431599378585815e-01" purity="1.3556958734989166e-01" nType="-99"/>
          <Node pos="r" depth="2" NCoef="0" IVar="16" Cut="2.2394375801086426e+00" cType="1" res="-1.7462533432990313e-03" rms="2.9336902499198914e-01" purity="4.4898733496665955e-01" nType="0">
            <Node pos="l" depth="3" NCoef="0" IVar="16" Cut="2.0280978679656982e+00" cType="1" res="-1.5047749911900610e-04" rms="2.9721981287002563e-01" purity="5.1351141929626465e-01" nType="0">
              <Node pos="l" depth="4" NCoef="0" IVar="-1" Cut="0.0000000000000000e+00" cType="1" res="-1.5163068892434239e-03" rms="2.9543584585189819e-01" purity="5.3642576932907104e-01" nType="-99"/>
              <Node pos="r" depth="4" NCoef="0" IVar="-1" Cut="0.0000000000000000e+00" cType="1" res="1.5495798550546169e-02" rms="3.1763848662376404e-01" purity="2.3601101338863373e-01" nType="-99"/>
            </Node>
            <Node pos="r" depth="3" NCoef="0" IVar="17" Cut="1.0375503125000000e+05" cType="1" res="-7.6765175908803940e-03" rms="2.7851241827011108e-01" purity="2.0920135080814362e-01" nType="0">
              <Node pos="l" depth="4" NCoef="0" IVar="-1" Cut="0.0000000000000000e+00" cType="1" res="-2.2313239052891731e-02" rms="2.6524373888969421e-01" purity="1.7881934344768524e-01" nType="-99"/>
              <Node pos="r" depth="4" NCoef="0" IVar="-1" Cut="0.0000000000000000e+00" cType="1" res="-2.2646000143140554e-03" rms="2.8393980860710144e-01" purity="2.2249460220336914e-01" nType="-99"/>
            </Node>
          </Node>
        </Node>
      </Node>
    </BinaryTree>
    <BinaryTree type="DecisionTree" boostWeight="1.0000000000000000e+00" itree="379">
      <Node pos="s" depth="0" NCoef="0" IVar="18" Cut="1.4775275000000000e+05" cType="1" res="6.7533608216763241e-07" rms="3.3287134766578674e-01" purity="5.0000000000000000e-01" nType="0">
        <Node pos="l" depth="1" NCoef="0" IVar="2" Cut="3.3400731250000000e+05" cType="1" res="2.0835029135923833e-04" rms="3.4105271100997925e-01" purity="5.1551795005798340e-01" nType="0">
          <Node pos="l" depth="2" NCoef="0" IVar="5" Cut="1.6994451562500000e+05" cType="1" res="1.3088216073811054e-03" rms="3.5671398043632507e-01" purity="5.7041960954666138e-01" nType="0">
            <Node pos="l" depth="3" NCoef="0" IVar="6" Cut="1.3012723437500000e+05" cType="1" res="1.7976155504584312e-04" rms="3.5541474819183350e-01" purity="5.6347686052322388e-01" nType="0">
              <Node pos="l" depth="4" NCoef="0" IVar="-1" Cut="0.0000000000000000e+00" cType="1" res="-2.3997500538825989e-03" rms="3.7777242064476013e-01" purity="4.6731719374656677e-01" nType="-99"/>
              <Node pos="r" depth="4" NCoef="0" IVar="-1" Cut="0.0000000000000000e+00" cType="1" res="3.3520506694912910e-03" rms="3.3187556266784668e-01" purity="6.5821731090545654e-01" nType="-99"/>
            </Node>
            <Node pos="r" depth="3" NCoef="0" IVar="-1" Cut="0.0000000000000000e+00" cType="1" res="1.4535825699567795e-02" rms="3.7827500700950623e-01" purity="6.9245833158493042e-01" nType="-99"/>
          </Node>
          <Node pos="r" depth="2" NCoef="0" IVar="16" Cut="1.5057002305984497e+00" cType="1" res="-9.3816383741796017e-04" rms="3.2392781972885132e-01" purity="4.5831930637359619e-01" nType="0">
            <Node pos="l" depth="3" NCoef="0" IVar="9" Cut="1.3096814062500000e+05" cType="1" res="-3.5917845088988543e-03" rms="3.0925261974334717e-01" purity="6.0166186094284058e-01" nType="0">
              <Node pos="l" depth="4" NCoef="0" IVar="-1" Cut="0.0000000000000000e+00" cType="1" res="-7.4290614575147629e-03" rms="3.3854025602340698e-01" purity="5.8461880683898926e-01" nType="-99"/>
              <Node pos="r" depth="4" NCoef="0" IVar="-1" Cut="0.0000000000000000e+00" cType="1" res="1.0119072394445539e-03" rms="2.8279584646224976e-01" purity="6.1569339036941528e-01" nType="-99"/>
            </Node>
            <Node pos="r" depth="3" NCoef="0" IVar="0" Cut="1.3333333730697632e+00" cType="1" res="1.7117229290306568e-03" rms="3.3792629837989807e-01" purity="3.1517839431762695e-01" nType="0">
              <Node pos="l" depth="4" NCoef="0" IVar="-1" Cut="0.0000000000000000e+00" cType="1" res="1.0316134430468082e-02" rms="3.2988211512565613e-01" purity="2.4567250907421112e-01" nType="-99"/>
              <Node pos="r" depth="4" NCoef="0" IVar="-1" Cut="0.0000000000000000e+00" cType="1" res="9.9790398962795734e-05" rms="3.3911341428756714e-01" purity="3.2582387328147888e-01" nType="-99"/>
            </Node>
          </Node>
        </Node>
        <Node pos="r" depth="1" NCoef="0" IVar="14" Cut="2.0208415985107422e+00" cType="1" res="-9.3044713139533997e-04" rms="2.9339680075645447e-01" purity="4.3042436242103577e-01" nType="0">
          <Node pos="l" depth="2" NCoef="0" IVar="1" Cut="8.3951234375000000e+04" cType="1" res="1.9976233597844839e-03" rms="2.8553751111030579e-01" purity="2.9972711205482483e-01" nType="0">
            <Node pos="l" depth="3" NCoef="0" IVar="7" Cut="9.3226890625000000e+04" cType="1" res="7.1271467022597790e-03" rms="2.7743873000144958e-01" purity="2.6660516858100891e-01" nType="0">
              <Node pos="l" depth="4" NCoef="0" IVar="-1" Cut="0.0000000000000000e+00" cType="1" res="1.3586902059614658e-02" rms="3.3123889565467834e-01" purity="3.8374534249305725e-01" nType="-99"/>
              <Node pos="r" depth="4" NCoef="0" IVar="-1" Cut="0.0000000000000000e+00" cType="1" res="-1.8072314560413361e-02" rms="1.6103756427764893e-01" purity="8.4993131458759308e-02" nType="-99"/>
            </Node>
            <Node pos="r" depth="3" NCoef="0" IVar="3" Cut="2.1113101562500000e+05" cType="1" res="-6.1349621973931789e-03" rms="2.9774573445320129e-01" purity="3.5224020481109619e-01" nType="0">
              <Node pos="l" depth="4" NCoef="0" IVar="-1" Cut="0.0000000000000000e+00" cType="1" res="-1.4222523197531700e-02" rms="3.3902895450592041e-01" purity="4.3584331870079041e-01" nType="-99"/>
              <Node pos="r" depth="4" NCoef="0" IVar="-1" Cut="0.0000000000000000e+00" cType="1" res="3.8477506022900343e-03" rms="2.6002869009971619e-01" purity="2.8588822484016418e-01" nType="-99"/>
            </Node>
          </Node>
          <Node pos="r" depth="2" NCoef="0" IVar="13" Cut="2.1016228199005127e+00" cType="1" res="-2.3859494831413031e-03" rms="2.9721552133560181e-01" purity="4.9539211392402649e-01" nType="0">
            <Node pos="l" depth="3" NCoef="0" IVar="12" Cut="1.8059159517288208e+00" cType="1" res="-9.3599762767553329e-03" rms="2.9438707232475281e-01" purity="1.9626295566558838e-01" nType="0">
              <Node pos="l" depth="4" NCoef="0" IVar="-1" Cut="0.0000000000000000e+00" cType="1" res="-1.9896943122148514e-03" rms="3.0606636404991150e-01" purity="1.8826395273208618e-01" nType="-99"/>
              <Node pos="r" depth="4" NCoef="0" IVar="-1" Cut="0.0000000000000000e+00" cType="1" res="-2.2615248337388039e-02" rms="2.7767801284790039e-01" purity="2.0697352290153503e-01" nType="-99"/>
            </Node>
            <Node pos="r" depth="3" NCoef="0" IVar="5" Cut="3.7556200000000000e+05" cType="1" res="5.8130564866587520e-04" rms="2.9836139082908630e-01" purity="6.2266331911087036e-01" nType="0">
              <Node pos="l" depth="4" NCoef="0" IVar="-1" Cut="0.0000000000000000e+00" cType="1" res="2.9938407242298126e-03" rms="3.0156105756759644e-01" purity="6.6297811269760132e-01" nType="-99"/>
              <Node pos="r" depth="4" NCoef="0" IVar="-1" Cut="0.0000000000000000e+00" cType="1" res="-1.4789273962378502e-02" rms="2.7724224328994751e-01" purity="3.7233829498291016e-01" nType="-99"/>
            </Node>
          </Node>
        </Node>
      </Node>
    </BinaryTree>
    <BinaryTree type="DecisionTree" boostWeight="1.0000000000000000e+00" itree="380">
      <Node pos="s" depth="0" NCoef="0" IVar="13" Cut="2.7425336837768555e+00" cType="1" res="5.7862155244947644e-07" rms="3.3283075690269470e-01" purity="5.0000000000000000e-01" nType="0">
        <Node pos="l" depth="1" NCoef="0" IVar="10" Cut="1.1658386718750000e+05" cType="1" res="3.9703756920062006e-04" rms="3.3249801397323608e-01" purity="4.1426411271095276e-01" nType="0">
          <Node pos="l" depth="2" NCoef="0" IVar="14" Cut="7.7417421340942383e-01" cType="1" res="1.1682279873639345e-03" rms="3.4462556242942810e-01" purity="4.1204687952995300e-01" nType="0">
            <Node pos="l" depth="3" NCoef="0" IVar="13" Cut="1.8277819156646729e+00" cType="1" res="9.0782549232244492e-03" rms="3.5612645745277405e-01" purity="3.7575545907020569e-01" nType="0">
              <Node pos="l" depth="4" NCoef="0" IVar="-1" Cut="0.0000000000000000e+00" cType="1" res="-1.6490506241098046e-03" rms="3.1675100326538086e-01" purity="2.2521458566188812e-01" nType="-99"/>
              <Node pos="r" depth="4" NCoef="0" IVar="-1" Cut="0.0000000000000000e+00" cType="1" res="1.3116477057337761e-02" rms="3.9172452688217163e-01" purity="5.2838736772537231e-01" nType="-99"/>
            </Node>
            <Node pos="r" depth="3" NCoef="0" IVar="16" Cut="2.9782865047454834e+00" cType="1" res="4.0051306132227182e-04" rms="3.4347912669181824e-01" purity="4.1556915640830994e-01" nType="0">
              <Node pos="l" depth="4" NCoef="0" IVar="-1" Cut="0.0000000000000000e+00" cType="1" res="-1.2872631486970931e-04" rms="3.4362971782684326e-01" purity="4.2379528284072876e-01" nType="-99"/>
              <Node pos="r" depth="4" NCoef="0" IVar="-1" Cut="0.0000000000000000e+00" cType="1" res="9.7953779622912407e-03" rms="3.4025937318801880e-01" purity="2.5110548734664917e-01" nType="-99"/>
            </Node>
          </Node>
          <Node pos="r" depth="2" NCoef="0" IVar="13" Cut="2.0616865158081055e+00" cType="1" res="-1.6226384323090315e-03" rms="2.9840108752250671e-01" purity="4.2007082700729370e-01" nType="0">
            <Node pos="l" depth="3" NCoef="0" IVar="12" Cut="1.9773343801498413e+00" cType="1" res="-8.4111718460917473e-03" rms="2.3952394723892212e-01" purity="1.2490104138851166e-01" nType="0">
              <Node pos="l" depth="4" NCoef="0" IVar="-1" Cut="0.0000000000000000e+00" cType="1" res="3.8802684284746647e-03" rms="2.6460498571395874e-01" purity="1.4003859460353851e-01" nType="-99"/>
              <Node pos="r" depth="4" NCoef="0" IVar="-1" Cut="0.0000000000000000e+00" cType="1" res="-2.6613375172019005e-02" rms="2.2427543997764587e-01" purity="1.1656285077333450e-01" nType="-99"/>
            </Node>
            <Node pos="r" depth="3" NCoef="0" IVar="6" Cut="2.1532325000000000e+05" cType="1" res="4.0092098060995340e-04" rms="3.1379321217536926e-01" purity="5.0805646181106567e-01" nType="0">
              <Node pos="l" depth="4" NCoef="0" IVar="-1" Cut="0.0000000000000000e+00" cType="1" res="-4.5794625766575336e-03" rms="3.4055903553962708e-01" purity="5.6978994607925415e-01" nType="-99"/>
              <Node pos="r" depth="4" NCoef="0" IVar="-1" Cut="0.0000000000000000e+00" cType="1" res="6.2547782436013222e-03" rms="2.8953954577445984e-01" purity="4.5668092370033264e-01" nType="-99"/>
            </Node>
          </Node>
        </Node>
        <Node pos="r" depth="1" NCoef="0" IVar="3" Cut="4.7258050000000000e+05" cType="1" res="-5.6546699488535523e-04" rms="3.3330443501472473e-01" purity="6.2240970134735107e-01" nType="0">
          <Node pos="l" depth="2" NCoef="0" IVar="17" Cut="2.0671512500000000e+05" cType="1" res="-9.0950727462768555e-04" rms="3.3781436085700989e-01" purity="6.4657455682754517e-01" nType="0">
            <Node pos="l" depth="3" NCoef="0" IVar="6" Cut="3.3164387500000000e+05" cType="1" res="-1.5291261661332101e-04" rms="3.4085327386856079e-01" purity="6.5281105041503906e-01" nType="0">
              <Node pos="l" depth="4" NCoef="0" IVar="-1" Cut="0.0000000000000000e+00" cType="1" res="-6.8503670627251267e-04" rms="3.4259051084518433e-01" purity="6.5575408935546875e-01" nType="-99"/>
              <Node pos="r" depth="4" NCoef="0" IVar="-1" Cut="0.0000000000000000e+00" cType="1" res="1.4473383314907551e-02" rms="3.0299940705299377e-01" purity="5.9291416406631470e-01" nType="-99"/>
            </Node>
            <Node pos="r" depth="3" NCoef="0" IVar="9" Cut="1.8426620312500000e+05" cType="1" res="-1.3417724519968033e-02" rms="2.8258833289146423e-01" purity="5.4347079992294312e-01" nType="0">
              <Node pos="l" depth="4" NCoef="0" IVar="-1" Cut="0.0000000000000000e+00" cType="1" res="-1.4764733612537384e-02" rms="2.8966212272644043e-01" purity="5.7581543922424316e-01" nType="-99"/>
              <Node pos="r" depth="4" NCoef="0" IVar="-1" Cut="0.0000000000000000e+00" cType="1" res="-1.6901802271604538e-02" rms="2.7455586194992065e-01" purity="5.0771218538284302e-01" nType="-99"/>
            </Node>
          </Node>
          <Node pos="r" depth="2" NCoef="0" IVar="10" Cut="4.1054709375000000e+05" cType="1" res="5.5234818719327450e-03" rms="2.3976089060306549e-01" purity="1.9473192095756531e-01" nType="0">
            <Node pos="l" depth="3" NCoef="0" IVar="-1" Cut="0.0000000000000000e+00" cType="1" res="1.9558716565370560e-02" rms="2.5015738606452942e-01" purity="2.3290243744850159e-01" nType="-99"/>
            <Node pos="r" depth="3" NCoef="0" IVar="-1" Cut="0.0000000000000000e+00" cType="1" res="-2.3186714388430119e-03" rms="2.3007526993751526e-01" purity="1.6138298809528351e-01" nType="-99"/>
          </Node>
        </Node>
      </Node>
    </BinaryTree>
    <BinaryTree type="DecisionTree" boostWeight="1.0000000000000000e+00" itree="381">
      <Node pos="s" depth="0" NCoef="0" IVar="13" Cut="2.7425336837768555e+00" cType="1" res="1.4778952106553334e-07" rms="3.3279550075531006e-01" purity="5.0000000000000000e-01" nType="0">
        <Node pos="l" depth="1" NCoef="0" IVar="10" Cut="1.7524593750000000e+05" cType="1" res="3.1671990291215479e-04" rms="3.3246043324470520e-01" purity="4.1426411271095276e-01" nType="0">
          <Node pos="l" depth="2" NCoef="0" IVar="1" Cut="1.4024484375000000e+05" cType="1" res="6.8523164372891188e-04" rms="3.3825463056564331e-01" purity="4.2466828227043152e-01" nType="0">
            <Node pos="l" depth="3" NCoef="0" IVar="14" Cut="1.5439133644104004e+00" cType="1" res="2.3775086447130889e-04" rms="3.3790117502212524e-01" purity="4.1796293854713440e-01" nType="0">
              <Node pos="l" depth="4" NCoef="0" IVar="-1" Cut="0.0000000000000000e+00" cType="1" res="2.5613438338041306e-03" rms="3.4633395075798035e-01" purity="3.7732273340225220e-01" nType="-99"/>
              <Node pos="r" depth="4" NCoef="0" IVar="-1" Cut="0.0000000000000000e+00" cType="1" res="-1.2135870056226850e-03" rms="3.3301779627799988e-01" purity="4.4098430871963501e-01" nType="-99"/>
            </Node>
            <Node pos="r" depth="3" NCoef="0" IVar="14" Cut="1.6143866777420044e+00" cType="1" res="5.8293915353715420e-03" rms="3.4224963188171387e-01" purity="5.0175166130065918e-01" nType="0">
              <Node pos="l" depth="4" NCoef="0" IVar="-1" Cut="0.0000000000000000e+00" cType="1" res="-1.0074811056256294e-02" rms="3.5062825679779053e-01" purity="4.2110928893089294e-01" nType="-99"/>
              <Node pos="r" depth="4" NCoef="0" IVar="-1" Cut="0.0000000000000000e+00" cType="1" res="1.2896544300019741e-02" rms="3.3737960457801819e-01" purity="5.4410803318023682e-01" nType="-99"/>
            </Node>
          </Node>
          <Node pos="r" depth="2" NCoef="0" IVar="16" Cut="2.4816024303436279e+00" cType="1" res="-3.2580676488578320e-03" rms="2.6984584331512451e-01" purity="3.1333717703819275e-01" nType="0">
            <Node pos="l" depth="3" NCoef="0" IVar="11" Cut="1.2165920734405518e+00" cType="1" res="-6.0183461755514145e-03" rms="2.6967790722846985e-01" purity="3.4374466538429260e-01" nType="0">
              <Node pos="l" depth="4" NCoef="0" IVar="-1" Cut="0.0000000000000000e+00" cType="1" res="-1.1692741885781288e-02" rms="2.9921227693557739e-01" purity="4.7762018442153931e-01" nType="-99"/>
              <Node pos="r" depth="4" NCoef="0" IVar="-1" Cut="0.0000000000000000e+00" cType="1" res="7.3155988939106464e-03" rms="2.0780295133590698e-01" purity="1.0942616313695908e-01" nType="-99"/>
            </Node>
            <Node pos="r" depth="3" NCoef="0" IVar="-1" Cut="0.0000000000000000e+00" cType="1" res="1.1653944849967957e-02" rms="2.7024552226066589e-01" purity="1.8276716768741608e-01" nType="-99"/>
          </Node>
        </Node>
        <Node pos="r" depth="1" NCoef="0" IVar="19" Cut="2.9273018750000000e+05" cType="1" res="-4.5183912152424455e-04" rms="3.3327281475067139e-01" purity="6.2240970134735107e-01" nType="0">
          <Node pos="l" depth="2" NCoef="0" IVar="19" Cut="2.2285710937500000e+05" cType="1" res="-2.5491201085969806e-04" rms="3.3414170145988464e-01" purity="6.3238215446472168e-01" nType="0">
            <Node pos="l" depth="3" NCoef="0" IVar="19" Cut="6.3150242187500000e+04" cType="1" res="-5.8864866150543094e-04" rms="3.3389025926589966e-01" purity="6.4024573564529419e-01" nType="0">
              <Node pos="l" depth="4" NCoef="0" IVar="-1" Cut="0.0000000000000000e+00" cType="1" res="1.3585921842604876e-03" rms="3.1955504417419434e-01" purity="7.0533460378646851e-01" nType="-99"/>
              <Node pos="r" depth="4" NCoef="0" IVar="-1" Cut="0.0000000000000000e+00" cType="1" res="-2.8996611945331097e-03" rms="3.5526674985885620e-01" purity="5.3776299953460693e-01" nType="-99"/>
            </Node>
            <Node pos="r" depth="3" NCoef="0" IVar="-1" Cut="0.0000000000000000e+00" cType="1" res="9.3171354383230209e-03" rms="3.4298133850097656e-01" purity="3.4498739242553711e-01" nType="-99"/>
          </Node>
          <Node pos="r" depth="2" NCoef="0" IVar="-1" Cut="0.0000000000000000e+00" cType="1" res="-8.2509890198707581e-03" rms="2.9660534858703613e-01" purity="2.2630707919597626e-01" nType="-99"/>
        </Node>
      </Node>
    </BinaryTree>
    <BinaryTree type="DecisionTree" boostWeight="1.0000000000000000e+00" itree="382">
      <Node pos="s" depth="0" NCoef="0" IVar="14" Cut="5.1759451627731323e-01" cType="1" res="2.3996992126740224e-07" rms="3.3277744054794312e-01" purity="5.0000000000000000e-01" nType="0">
        <Node pos="l" depth="1" NCoef="0" IVar="15" Cut="1.1668922901153564e+00" cType="1" res="-2.3407659027725458e-03" rms="3.4353357553482056e-01" purity="4.6852934360504150e-01" nType="0">
          <Node pos="l" depth="2" NCoef="0" IVar="-1" Cut="0.0000000000000000e+00" cType="1" res="-7.3714936152100563e-03" rms="3.4590226411819458e-01" purity="5.8680862188339233e-01" nType="-99"/>
          <Node pos="r" depth="2" NCoef="0" IVar="-1" Cut="0.0000000000000000e+00" cType="1" res="5.5137122981250286e-03" rms="3.4050208330154419e-01" purity="3.2854402065277100e-01" nType="-99"/>
        </Node>
        <Node pos="r" depth="1" NCoef="0" IVar="14" Cut="2.1426088809967041e+00" cType="1" res="6.6901629907079041e-05" rms="3.3246579766273499e-01" purity="5.0089615583419800e-01" nType="0">
          <Node pos="l" depth="2" NCoef="0" IVar="14" Cut="2.0652003288269043e+00" cType="1" res="5.5439304560422897e-04" rms="3.4126055240631104e-01" purity="4.6989440917968750e-01" nType="0">
            <Node pos="l" depth="3" NCoef="0" IVar="17" Cut="6.1189488281250000e+04" cType="1" res="2.9336652005440556e-05" rms="3.4146657586097717e-01" purity="4.6578031778335571e-01" nType="0">
              <Node pos="l" depth="4" NCoef="0" IVar="-1" Cut="0.0000000000000000e+00" cType="1" res="1.4688533265143633e-03" rms="3.5310724377632141e-01" purity="4.9918222427368164e-01" nType="-99"/>
              <Node pos="r" depth="4" NCoef="0" IVar="-1" Cut="0.0000000000000000e+00" cType="1" res="-2.9473928734660149e-03" rms="3.2104271650314331e-01" purity="4.0994811058044434e-01" nType="-99"/>
            </Node>
            <Node pos="r" depth="3" NCoef="0" IVar="9" Cut="9.3863523437500000e+04" cType="1" res="8.7581891566514969e-03" rms="3.3791920542716980e-01" purity="5.3417587280273438e-01" nType="0">
              <Node pos="l" depth="4" NCoef="0" IVar="-1" Cut="0.0000000000000000e+00" cType="1" res="1.4479593373835087e-02" rms="3.6073267459869385e-01" purity="5.6358301639556885e-01" nType="-99"/>
              <Node pos="r" depth="4" NCoef="0" IVar="-1" Cut="0.0000000000000000e+00" cType="1" res="-8.7734463158994913e-04" rms="3.1689369678497314e-01" purity="5.0914520025253296e-01" nType="-99"/>
            </Node>
          </Node>
          <Node pos="r" depth="2" NCoef="0" IVar="16" Cut="5.2089786529541016e-01" cType="1" res="-6.6049059387296438e-04" rms="3.1889101862907410e-01" purity="5.4715418815612793e-01" nType="0">
            <Node pos="l" depth="3" NCoef="0" IVar="-1" Cut="0.0000000000000000e+00" cType="1" res="8.3544999361038208e-03" rms="2.5920352339744568e-01" purity="8.0731642246246338e-01" nType="-99"/>
            <Node pos="r" depth="3" NCoef="0" IVar="11" Cut="1.9319025278091431e+00" cType="1" res="-1.2944487389177084e-03" rms="3.2391154766082764e-01" purity="5.2278625965118408e-01" nType="0">
              <Node pos="l" depth="4" NCoef="0" IVar="-1" Cut="0.0000000000000000e+00" cType="1" res="-1.9590256270021200e-03" rms="3.2809573411941528e-01" purity="5.6414532661437988e-01" nType="-99"/>
              <Node pos="r" depth="4" NCoef="0" IVar="-1" Cut="0.0000000000000000e+00" cType="1" res="6.0798935592174530e-03" rms="2.9306653141975403e-01" purity="2.3505716025829315e-01" nType="-99"/>
            </Node>
          </Node>
        </Node>
      </Node>
    </BinaryTree>
    <BinaryTree type="DecisionTree" boostWeight="1.0000000000000000e+00" itree="383">
      <Node pos="s" depth="0" NCoef="0" IVar="11" Cut="7.3745375871658325e-01" cType="1" res="3.7815999576196191e-07" rms="3.3276584744453430e-01" purity="5.0000000000000000e-01" nType="0">
        <Node pos="l" depth="1" NCoef="0" IVar="12" Cut="3.0149750709533691e+00" cType="1" res="6.4876273972913623e-04" rms="3.2172375917434692e-01" purity="6.6764646768569946e-01" nType="0">
          <Node pos="l" depth="2" NCoef="0" IVar="19" Cut="1.4195581250000000e+05" cType="1" res="-5.3117581410333514e-04" rms="3.2663875818252563e-01" purity="6.2829548120498657e-01" nType="0">
            <Node pos="l" depth="3" NCoef="0" IVar="19" Cut="1.1483190625000000e+05" cType="1" res="5.9909856645390391e-04" rms="3.2364982366561890e-01" purity="6.9028156995773315e-01" nType="0">
              <Node pos="l" depth="4" NCoef="0" IVar="-1" Cut="0.0000000000000000e+00" cType="1" res="-7.9725479008629918e-04" rms="3.1802085041999817e-01" purity="7.0839285850524902e-01" nType="-99"/>
              <Node pos="r" depth="4" NCoef="0" IVar="-1" Cut="0.0000000000000000e+00" cType="1" res="1.3098735362291336e-02" rms="3.9034715294837952e-01" purity="4.4947150349617004e-01" nType="-99"/>
            </Node>
            <Node pos="r" depth="3" NCoef="0" IVar="10" Cut="9.7583601562500000e+04" cType="1" res="-6.3540036790072918e-03" rms="3.4156343340873718e-01" purity="3.0896252393722534e-01" nType="0">
              <Node pos="l" depth="4" NCoef="0" IVar="-1" Cut="0.0000000000000000e+00" cType="1" res="-1.8537703901529312e-02" rms="3.2154214382171631e-01" purity="1.9874452054500580e-01" nType="-99"/>
              <Node pos="r" depth="4" NCoef="0" IVar="-1" Cut="0.0000000000000000e+00" cType="1" res="8.8646746007725596e-04" rms="3.5037845373153687e-01" purity="3.6105936765670776e-01" nType="-99"/>
            </Node>
          </Node>
          <Node pos="r" depth="2" NCoef="0" IVar="8" Cut="1.9614298828125000e+04" cType="1" res="3.8158767856657505e-03" rms="3.0812153220176697e-01" purity="7.7326971292495728e-01" nType="0">
            <Node pos="l" depth="3" NCoef="0" IVar="-1" Cut="0.0000000000000000e+00" cType="1" res="1.0845338925719261e-02" rms="3.4539514780044556e-01" purity="6.9202905893325806e-01" nType="-99"/>
            <Node pos="r" depth="3" NCoef="0" IVar="17" Cut="8.4656914062500000e+04" cType="1" res="3.9526328328065574e-04" rms="2.9441320896148682e-01" purity="8.0066233873367310e-01" nType="0">
              <Node pos="l" depth="4" NCoef="0" IVar="-1" Cut="0.0000000000000000e+00" cType="1" res="-6.1032567173242569e-03" rms="3.0796581506729126e-01" purity="8.0030065774917603e-01" nType="-99"/>
              <Node pos="r" depth="4" NCoef="0" IVar="-1" Cut="0.0000000000000000e+00" cType="1" res="7.7249696478247643e-03" rms="2.8097119927406311e-01" purity="8.0100166797637939e-01" nType="-99"/>
            </Node>
          </Node>
        </Node>
        <Node pos="r" depth="1" NCoef="0" IVar="12" Cut="1.2315862178802490e+00" cType="1" res="-2.9631610959768295e-04" rms="3.3769780397415161e-01" purity="4.2328667640686035e-01" nType="0">
          <Node pos="l" depth="2" NCoef="0" IVar="-1" Cut="0.0000000000000000e+00" cType="1" res="4.1115148924291134e-03" rms="3.5503646731376648e-01" purity="2.8171971440315247e-01" nType="-99"/>
          <Node pos="r" depth="2" NCoef="0" IVar="5" Cut="2.2984054687500000e+05" cType="1" res="-4.0727099985815585e-04" rms="3.3735233545303345e-01" purity="4.2602759599685669e-01" nType="0">
            <Node pos="l" depth="3" NCoef="0" IVar="18" Cut="9.3607757812500000e+04" cType="1" res="-8.5309991845861077e-04" rms="3.4349209070205688e-01" purity="4.5417642593383789e-01" nType="0">
              <Node pos="l" depth="4" NCoef="0" IVar="-1" Cut="0.0000000000000000e+00" cType="1" res="1.7306223162449896e-04" rms="3.5212987661361694e-01" purity="4.5956945419311523e-01" nType="-99"/>
              <Node pos="r" depth="4" NCoef="0" IVar="-1" Cut="0.0000000000000000e+00" cType="1" res="-3.6881838459521532e-03" rms="3.1756871938705444e-01" purity="4.3880671262741089e-01" nType="-99"/>
            </Node>
            <Node pos="r" depth="3" NCoef="0" IVar="16" Cut="7.7084559202194214e-01" cType="1" res="1.7601541476324201e-03" rms="3.0574268102645874e-01" purity="2.8918015956878662e-01" nType="0">
              <Node pos="l" depth="4" NCoef="0" IVar="-1" Cut="0.0000000000000000e+00" cType="1" res="-9.3963621184229851e-03" rms="3.1425884366035461e-01" purity="5.5384266376495361e-01" nType="-99"/>
              <Node pos="r" depth="4" NCoef="0" IVar="-1" Cut="0.0000000000000000e+00" cType="1" res="3.9661508053541183e-03" rms="3.0409517884254456e-01" purity="2.4026460945606232e-01" nType="-99"/>
            </Node>
          </Node>
        </Node>
      </Node>
    </BinaryTree>
    <BinaryTree type="DecisionTree" boostWeight="1.0000000000000000e+00" itree="384">
      <Node pos="s" depth="0" NCoef="0" IVar="15" Cut="1.0185593366622925e+00" cType="1" res="2.7197754093322146e-07" rms="3.3274558186531067e-01" purity="5.0000000000000000e-01" nType="0">
        <Node pos="l" depth="1" NCoef="0" IVar="18" Cut="6.4829375000000000e+04" cType="1" res="-9.2838413547724485e-04" rms="3.5622239112854004e-01" purity="4.9199137091636658e-01" nType="0">
          <Node pos="l" depth="2" NCoef="0" IVar="4" Cut="5.0899943750000000e+05" cType="1" res="3.4908566158264875e-04" rms="3.6165350675582886e-01" purity="5.1307857036590576e-01" nType="0">
            <Node pos="l" depth="3" NCoef="0" IVar="9" Cut="7.7661726562500000e+04" cType="1" res="-1.4202944003045559e-03" rms="3.6473876237869263e-01" purity="5.3090369701385498e-01" nType="0">
              <Node pos="l" depth="4" NCoef="0" IVar="-1" Cut="0.0000000000000000e+00" cType="1" res="5.5531915277242661e-03" rms="3.8555425405502319e-01" purity="5.6492644548416138e-01" nType="-99"/>
              <Node pos="r" depth="4" NCoef="0" IVar="-1" Cut="0.0000000000000000e+00" cType="1" res="-6.4122164621949196e-03" rms="3.4996750950813293e-01" purity="5.0815445184707642e-01" nType="-99"/>
            </Node>
            <Node pos="r" depth="3" NCoef="0" IVar="-1" Cut="0.0000000000000000e+00" cType="1" res="2.0576747134327888e-02" rms="3.2237386703491211e-01" purity="3.0312335491180420e-01" nType="-99"/>
          </Node>
          <Node pos="r" depth="2" NCoef="0" IVar="-1" Cut="0.0000000000000000e+00" cType="1" res="-1.0878881439566612e-02" rms="3.0843430757522583e-01" purity="3.2085415720939636e-01" nType="-99"/>
        </Node>
        <Node pos="r" depth="1" NCoef="0" IVar="16" Cut="3.2256813049316406e+00" cType="1" res="1.7479665984865278e-04" rms="3.2814577221870422e-01" purity="5.0150507688522339e-01" nType="0">
          <Node pos="l" depth="2" NCoef="0" IVar="19" Cut="1.4166668750000000e+05" cType="1" res="5.6992081226781011e-05" rms="3.2819595932960510e-01" purity="5.0622445344924927e-01" nType="0">
            <Node pos="l" depth="3" NCoef="0" IVar="18" Cut="2.8791540625000000e+05" cType="1" res="5.5888609495013952e-04" rms="3.3257159590721130e-01" purity="5.5200731754302979e-01" nType="0">
              <Node pos="l" depth="4" NCoef="0" IVar="-1" Cut="0.0000000000000000e+00" cType="1" res="6.4720551017671824e-04" rms="3.3374461531639099e-01" purity="5.5609583854675293e-01" nType="-99"/>
              <Node pos="r" depth="4" NCoef="0" IVar="-1" Cut="0.0000000000000000e+00" cType="1" res="-7.5101265683770180e-03" rms="2.8547874093055725e-01" purity="4.0005248785018921e-01" nType="-99"/>
            </Node>
            <Node pos="r" depth="3" NCoef="0" IVar="6" Cut="1.8996631250000000e+05" cType="1" res="-3.1116877216845751e-03" rms="2.9907694458961487e-01" purity="2.1717688441276550e-01" nType="0">
              <Node pos="l" depth="4" NCoef="0" IVar="-1" Cut="0.0000000000000000e+00" cType="1" res="-8.4749711677432060e-03" rms="3.5316622257232666e-01" purity="2.7772009372711182e-01" nType="-99"/>
              <Node pos="r" depth="4" NCoef="0" IVar="-1" Cut="0.0000000000000000e+00" cType="1" res="1.4132735086604953e-03" rms="2.6952880620956421e-01" purity="1.8843866884708405e-01" nType="-99"/>
            </Node>
          </Node>
          <Node pos="r" depth="2" NCoef="0" IVar="-1" Cut="0.0000000000000000e+00" cType="1" res="5.1840618252754211e-03" rms="3.2560941576957703e-01" purity="2.6874959468841553e-01" nType="-99"/>
        </Node>
      </Node>
    </BinaryTree>
    <BinaryTree type="DecisionTree" boostWeight="1.0000000000000000e+00" itree="385">
      <Node pos="s" depth="0" NCoef="0" IVar="11" Cut="7.3745375871658325e-01" cType="1" res="-9.2371363891174951e-09" rms="3.3272653818130493e-01" purity="5.0000000000000000e-01" nType="0">
        <Node pos="l" depth="1" NCoef="0" IVar="19" Cut="2.8433121875000000e+05" cType="1" res="5.3289980860427022e-04" rms="3.2166483998298645e-01" purity="6.6764646768569946e-01" nType="0">
          <Node pos="l" depth="2" NCoef="0" IVar="19" Cut="2.1653284375000000e+05" cType="1" res="1.8373402417637408e-04" rms="3.2197177410125732e-01" purity="6.8448507785797119e-01" nType="0">
            <Node pos="l" depth="3" NCoef="0" IVar="19" Cut="1.4419648437500000e+05" cType="1" res="-3.2127209124155343e-04" rms="3.2100105285644531e-01" purity="6.9603359699249268e-01" nType="0">
              <Node pos="l" depth="4" NCoef="0" IVar="-1" Cut="0.0000000000000000e+00" cType="1" res="8.4046175470575690e-04" rms="3.1743893027305603e-01" purity="7.2318863868713379e-01" nType="-99"/>
              <Node pos="r" depth="4" NCoef="0" IVar="-1" Cut="0.0000000000000000e+00" cType="1" res="-1.0343623347580433e-02" rms="3.5983964800834656e-01" purity="3.7766012549400330e-01" nType="-99"/>
            </Node>
            <Node pos="r" depth="3" NCoef="0" IVar="-1" Cut="0.0000000000000000e+00" cType="1" res="1.0412324219942093e-02" rms="3.4720540046691895e-01" purity="3.6838611960411072e-01" nType="-99"/>
          </Node>
          <Node pos="r" depth="2" NCoef="0" IVar="-1" Cut="0.0000000000000000e+00" cType="1" res="8.7776118889451027e-03" rms="3.1382125616073608e-01" purity="2.4947814643383026e-01" nType="-99"/>
        </Node>
        <Node pos="r" depth="1" NCoef="0" IVar="14" Cut="2.5702321529388428e+00" cType="1" res="-2.4386304721701890e-04" rms="3.3766716718673706e-01" purity="4.2328667640686035e-01" nType="0">
          <Node pos="l" depth="2" NCoef="0" IVar="13" Cut="5.4845935106277466e-01" cType="1" res="-6.4185762312263250e-04" rms="3.4045380353927612e-01" purity="4.1251963376998901e-01" nType="0">
            <Node pos="l" depth="3" NCoef="0" IVar="-1" Cut="0.0000000000000000e+00" cType="1" res="-1.2133150361478329e-02" rms="2.8155279159545898e-01" purity="1.5244887769222260e-01" nType="-99"/>
            <Node pos="r" depth="3" NCoef="0" IVar="12" Cut="1.4461122751235962e+00" cType="1" res="-4.0973484283313155e-04" rms="3.4165906906127930e-01" purity="4.1837301850318909e-01" nType="0">
              <Node pos="l" depth="4" NCoef="0" IVar="-1" Cut="0.0000000000000000e+00" cType="1" res="6.1401356942951679e-03" rms="3.6411780118942261e-01" purity="3.5242024064064026e-01" nType="-99"/>
              <Node pos="r" depth="4" NCoef="0" IVar="-1" Cut="0.0000000000000000e+00" cType="1" res="-5.9386610519140959e-04" rms="3.4083145856857300e-01" purity="4.2071101069450378e-01" nType="-99"/>
            </Node>
          </Node>
          <Node pos="r" depth="2" NCoef="0" IVar="15" Cut="1.3335415124893188e+00" cType="1" res="1.5119226882234216e-03" rms="3.2508292794227600e-01" purity="4.7078633308410645e-01" nType="0">
            <Node pos="l" depth="3" NCoef="0" IVar="-1" Cut="0.0000000000000000e+00" cType="1" res="-1.4854730106890202e-02" rms="2.9694026708602905e-01" purity="2.6328870654106140e-01" nType="-99"/>
            <Node pos="r" depth="3" NCoef="0" IVar="10" Cut="8.0456218750000000e+04" cType="1" res="2.9409911949187517e-03" rms="3.2738718390464783e-01" purity="4.8890864849090576e-01" nType="0">
              <Node pos="l" depth="4" NCoef="0" IVar="-1" Cut="0.0000000000000000e+00" cType="1" res="7.9064471647143364e-03" rms="3.4831729531288147e-01" purity="4.5217600464820862e-01" nType="-99"/>
              <Node pos="r" depth="4" NCoef="0" IVar="-1" Cut="0.0000000000000000e+00" cType="1" res="-1.0625601280480623e-03" rms="3.1506481766700745e-01" purity="5.0935131311416626e-01" nType="-99"/>
            </Node>
          </Node>
        </Node>
      </Node>
    </BinaryTree>
    <BinaryTree type="DecisionTree" boostWeight="1.0000000000000000e+00" itree="386">
      <Node pos="s" depth="0" NCoef="0" IVar="5" Cut="2.2984054687500000e+05" cType="1" res="-3.4404399684717646e-07" rms="3.3271312713623047e-01" purity="5.0000000000000000e-01" nType="0">
        <Node pos="l" depth="1" NCoef="0" IVar="18" Cut="2.7317665625000000e+05" cType="1" res="-1.6164239787030965e-04" rms="3.3717599511146545e-01" purity="5.3397262096405029e-01" nType="0">
          <Node pos="l" depth="2" NCoef="0" IVar="18" Cut="2.2101178125000000e+05" cType="1" res="-2.7321212110109627e-04" rms="3.3760839700698853e-01" purity="5.3539627790451050e-01" nType="0">
            <Node pos="l" depth="3" NCoef="0" IVar="18" Cut="1.8933981250000000e+05" cType="1" res="-6.1101745814085007e-05" rms="3.3830979466438293e-01" purity="5.3606230020523071e-01" nType="0">
              <Node pos="l" depth="4" NCoef="0" IVar="-1" Cut="0.0000000000000000e+00" cType="1" res="-2.9395174351520836e-04" rms="3.3913835883140564e-01" purity="5.3561264276504517e-01" nType="-99"/>
              <Node pos="r" depth="4" NCoef="0" IVar="-1" Cut="0.0000000000000000e+00" cType="1" res="1.2993252836167812e-02" rms="3.0082944035530090e-01" purity="5.5512249469757080e-01" nType="-99"/>
            </Node>
            <Node pos="r" depth="3" NCoef="0" IVar="-1" Cut="0.0000000000000000e+00" cType="1" res="-1.3204175047576427e-02" rms="2.9541796445846558e-01" purity="4.9807739257812500e-01" nType="-99"/>
          </Node>
          <Node pos="r" depth="2" NCoef="0" IVar="-1" Cut="0.0000000000000000e+00" cType="1" res="8.6547713726758957e-03" rms="3.0316644906997681e-01" purity="4.2805495858192444e-01" nType="-99"/>
        </Node>
        <Node pos="r" depth="1" NCoef="0" IVar="14" Cut="1.2089014053344727e+00" cType="1" res="6.7188998218625784e-04" rms="3.1342896819114685e-01" purity="3.5841417312622070e-01" nType="0">
          <Node pos="l" depth="2" NCoef="0" IVar="20" Cut="4.7574019531250000e+04" cType="1" res="-3.8282191380858421e-03" rms="3.2283145189285278e-01" purity="2.9813373088836670e-01" nType="0">
            <Node pos="l" depth="3" NCoef="0" IVar="-1" Cut="0.0000000000000000e+00" cType="1" res="-8.7223658338189125e-03" rms="3.7593141198158264e-01" purity="4.3703290820121765e-01" nType="-99"/>
            <Node pos="r" depth="3" NCoef="0" IVar="11" Cut="1.6007742881774902e+00" cType="1" res="3.5991854965686798e-03" rms="2.7293497323989868e-01" purity="1.8731798231601715e-01" nType="0">
              <Node pos="l" depth="4" NCoef="0" IVar="-1" Cut="0.0000000000000000e+00" cType="1" res="-9.0698078274726868e-03" rms="2.8976324200630188e-01" purity="2.3168207705020905e-01" nType="-99"/>
              <Node pos="r" depth="4" NCoef="0" IVar="-1" Cut="0.0000000000000000e+00" cType="1" res="2.8191158547997475e-02" rms="2.5135812163352966e-01" purity="1.3599959015846252e-01" nType="-99"/>
            </Node>
          </Node>
          <Node pos="r" depth="2" NCoef="0" IVar="14" Cut="1.3889534473419189e+00" cType="1" res="1.8438627012073994e-03" rms="3.1092292070388794e-01" purity="3.7411308288574219e-01" nType="0">
            <Node pos="l" depth="3" NCoef="0" IVar="-1" Cut="0.0000000000000000e+00" cType="1" res="1.7841866239905357e-02" rms="3.2084721326828003e-01" purity="3.3274549245834351e-01" nType="-99"/>
            <Node pos="r" depth="3" NCoef="0" IVar="11" Cut="6.9075554609298706e-01" cType="1" res="2.0654105173889548e-04" rms="3.0995500087738037e-01" purity="3.7786543369293213e-01" nType="0">
              <Node pos="l" depth="4" NCoef="0" IVar="-1" Cut="0.0000000000000000e+00" cType="1" res="-3.6681345663964748e-03" rms="3.2197353243827820e-01" purity="5.0189459323883057e-01" nType="-99"/>
              <Node pos="r" depth="4" NCoef="0" IVar="-1" Cut="0.0000000000000000e+00" cType="1" res="2.7911153156310320e-03" rms="3.0260375142097473e-01" purity="3.0460628867149353e-01" nType="-99"/>
            </Node>
          </Node>
        </Node>
      </Node>
    </BinaryTree>
    <BinaryTree type="DecisionTree" boostWeight="1.0000000000000000e+00" itree="387">
      <Node pos="s" depth="0" NCoef="0" IVar="11" Cut="7.3745375871658325e-01" cType="1" res="-6.4337962157878792e-07" rms="3.3269265294075012e-01" purity="5.0000000000000000e-01" nType="0">
        <Node pos="l" depth="1" NCoef="0" IVar="14" Cut="2.7184875011444092e+00" cType="1" res="5.8479915605857968e-04" rms="3.2161787152290344e-01" purity="6.6764646768569946e-01" nType="0">
          <Node pos="l" depth="2" NCoef="0" IVar="8" Cut="3.3631308593750000e+04" cType="1" res="1.3633936177939177e-03" rms="3.2674458622932434e-01" purity="6.6764414310455322e-01" nType="0">
            <Node pos="l" depth="3" NCoef="0" IVar="15" Cut="2.4203915596008301e+00" cType="1" res="-3.8544664857909083e-04" rms="3.4023624658584595e-01" purity="6.5652257204055786e-01" nType="0">
              <Node pos="l" depth="4" NCoef="0" IVar="-1" Cut="0.0000000000000000e+00" cType="1" res="-1.8624310614541173e-03" rms="3.4453111886978149e-01" purity="6.4760619401931763e-01" nType="-99"/>
              <Node pos="r" depth="4" NCoef="0" IVar="-1" Cut="0.0000000000000000e+00" cType="1" res="7.8073586337268353e-03" rms="3.2014203071594238e-01" purity="6.9646841287612915e-01" nType="-99"/>
            </Node>
            <Node pos="r" depth="3" NCoef="0" IVar="8" Cut="4.6700246093750000e+04" cType="1" res="5.2188793197274208e-03" rms="2.9479137063026428e-01" purity="6.9216251373291016e-01" nType="0">
              <Node pos="l" depth="4" NCoef="0" IVar="-1" Cut="0.0000000000000000e+00" cType="1" res="1.0721148923039436e-02" rms="2.9894876480102539e-01" purity="8.1381618976593018e-01" nType="-99"/>
              <Node pos="r" depth="4" NCoef="0" IVar="-1" Cut="0.0000000000000000e+00" cType="1" res="-2.3994578514248133e-03" rms="2.8842908143997192e-01" purity="5.1378399133682251e-01" nType="-99"/>
            </Node>
          </Node>
          <Node pos="r" depth="2" NCoef="0" IVar="16" Cut="2.1439719200134277e+00" cType="1" res="-2.7665523812174797e-03" rms="2.9852414131164551e-01" purity="6.6765671968460083e-01" nType="0">
            <Node pos="l" depth="3" NCoef="0" IVar="16" Cut="1.3493028879165649e+00" cType="1" res="1.5397784591186792e-04" rms="2.8670912981033325e-01" purity="7.8056043386459351e-01" nType="0">
              <Node pos="l" depth="4" NCoef="0" IVar="-1" Cut="0.0000000000000000e+00" cType="1" res="-6.1830170452594757e-03" rms="2.5845465064048767e-01" purity="8.5891485214233398e-01" nType="-99"/>
              <Node pos="r" depth="4" NCoef="0" IVar="-1" Cut="0.0000000000000000e+00" cType="1" res="1.0693432763218880e-02" rms="3.6119598150253296e-01" purity="5.3371512889862061e-01" nType="-99"/>
            </Node>
            <Node pos="r" depth="3" NCoef="0" IVar="-1" Cut="0.0000000000000000e+00" cType="1" res="-1.0169303975999355e-02" rms="3.3586108684539795e-01" purity="2.7876931428909302e-01" nType="-99"/>
          </Node>
        </Node>
        <Node pos="r" depth="1" NCoef="0" IVar="13" Cut="3.5649859905242920e+00" cType="1" res="-2.6853597955778241e-04" rms="3.3763888478279114e-01" purity="4.2328667640686035e-01" nType="0">
          <Node pos="l" depth="2" NCoef="0" IVar="11" Cut="2.9898440837860107e+00" cType="1" res="-4.3461969471536577e-04" rms="3.3758613467216492e-01" purity="4.2397332191467285e-01" nType="0">
            <Node pos="l" depth="3" NCoef="0" IVar="11" Cut="2.6680579185485840e+00" cType="1" res="-5.6505680549889803e-04" rms="3.3925139904022217e-01" purity="4.3000683188438416e-01" nType="0">
              <Node pos="l" depth="4" NCoef="0" IVar="-1" Cut="0.0000000000000000e+00" cType="1" res="-2.2509977861773223e-04" rms="3.4294614195823669e-01" purity="4.4334664940834045e-01" nType="-99"/>
              <Node pos="r" depth="4" NCoef="0" IVar="-1" Cut="0.0000000000000000e+00" cType="1" res="-1.3855475001037121e-02" rms="2.2717544436454773e-01" purity="9.4313077628612518e-02" nType="-99"/>
            </Node>
            <Node pos="r" depth="3" NCoef="0" IVar="-1" Cut="0.0000000000000000e+00" cType="1" res="1.2243191711604595e-02" rms="2.3424755036830902e-01" purity="1.0790237039327621e-01" nType="-99"/>
          </Node>
          <Node pos="r" depth="2" NCoef="0" IVar="6" Cut="1.2713258593750000e+05" cType="1" res="3.0159901361912489e-03" rms="3.3866414427757263e-01" purity="4.0970730781555176e-01" nType="0">
            <Node pos="l" depth="3" NCoef="0" IVar="-1" Cut="0.0000000000000000e+00" cType="1" res="-7.0915338583290577e-03" rms="3.9104670286178589e-01" purity="5.2800685167312622e-01" nType="-99"/>
            <Node pos="r" depth="3" NCoef="0" IVar="11" Cut="1.5111324787139893e+00" cType="1" res="1.1940618976950645e-02" rms="3.0102351307868958e-01" purity="3.3582898974418640e-01" nType="0">
              <Node pos="l" depth="4" NCoef="0" IVar="-1" Cut="0.0000000000000000e+00" cType="1" res="6.0733323916792870e-03" rms="3.2640287280082703e-01" purity="4.8547118902206421e-01" nType="-99"/>
              <Node pos="r" depth="4" NCoef="0" IVar="-1" Cut="0.0000000000000000e+00" cType="1" res="2.1849155426025391e-02" rms="2.7254202961921692e-01" purity="1.8270055949687958e-01" nType="-99"/>
            </Node>
          </Node>
        </Node>
      </Node>
    </BinaryTree>
    <BinaryTree type="DecisionTree" boostWeight="1.0000000000000000e+00" itree="388">
      <Node pos="s" depth="0" NCoef="0" IVar="11" Cut="7.3745375871658325e-01" cType="1" res="-4.9671893975755665e-07" rms="3.3267164230346680e-01" purity="5.0000000000000000e-01" nType="0">
        <Node pos="l" depth="1" NCoef="0" IVar="12" Cut="3.0149750709533691e+00" cType="1" res="4.6936291619203985e-04" rms="3.2157996296882629e-01" purity="6.6764646768569946e-01" nType="0">
          <Node pos="l" depth="2" NCoef="0" IVar="13" Cut="1.7645400762557983e+00" cType="1" res="-4.8370478907600045e-04" rms="3.2649582624435425e-01" purity="6.2829548120498657e-01" nType="0">
            <Node pos="l" depth="3" NCoef="0" IVar="3" Cut="6.8001445312500000e+04" cType="1" res="3.9156191051006317e-03" rms="3.4534716606140137e-01" purity="2.8938433527946472e-01" nType="0">
              <Node pos="l" depth="4" NCoef="0" IVar="-1" Cut="0.0000000000000000e+00" cType="1" res="8.7288198992609978e-03" rms="3.8339862227439880e-01" purity="3.3757650852203369e-01" nType="-99"/>
              <Node pos="r" depth="4" NCoef="0" IVar="-1" Cut="0.0000000000000000e+00" cType="1" res="-2.6424438692629337e-03" rms="3.1400221586227417e-01" purity="2.5365549325942993e-01" nType="-99"/>
            </Node>
            <Node pos="r" depth="3" NCoef="0" IVar="13" Cut="2.0416426658630371e+00" cType="1" res="-1.8136601429432631e-03" rms="3.2056689262390137e-01" purity="7.3075145483016968e-01" nType="0">
              <Node pos="l" depth="4" NCoef="0" IVar="-1" Cut="0.0000000000000000e+00" cType="1" res="-8.7126409634947777e-03" rms="3.5683146119117737e-01" purity="5.2893429994583130e-01" nType="-99"/>
              <Node pos="r" depth="4" NCoef="0" IVar="-1" Cut="0.0000000000000000e+00" cType="1" res="-6.5778760472312570e-04" rms="3.1637150049209595e-01" purity="7.5259983539581299e-01" nType="-99"/>
            </Node>
          </Node>
          <Node pos="r" depth="2" NCoef="0" IVar="8" Cut="1.9614298828125000e+04" cType="1" res="3.0275250319391489e-03" rms="3.0798286199569702e-01" purity="7.7326971292495728e-01" nType="0">
            <Node pos="l" depth="3" NCoef="0" IVar="-1" Cut="0.0000000000000000e+00" cType="1" res="8.9881895110011101e-03" rms="3.4522902965545654e-01" purity="6.9202905893325806e-01" nType="-99"/>
            <Node pos="r" depth="3" NCoef="0" IVar="17" Cut="8.4656914062500000e+04" cType="1" res="1.6005424549803138e-04" rms="2.9430833458900452e-01" purity="8.0066233873367310e-01" nType="0">
              <Node pos="l" depth="4" NCoef="0" IVar="-1" Cut="0.0000000000000000e+00" cType="1" res="-5.0222077406942844e-03" rms="3.0789929628372192e-01" purity="8.0030065774917603e-01" nType="-99"/>
              <Node pos="r" depth="4" NCoef="0" IVar="-1" Cut="0.0000000000000000e+00" cType="1" res="6.0343244113028049e-03" rms="2.8087487816810608e-01" purity="8.0100166797637939e-01" nType="-99"/>
            </Node>
          </Node>
        </Node>
        <Node pos="r" depth="1" NCoef="0" IVar="9" Cut="4.2437840625000000e+05" cType="1" res="-2.1549974917434156e-04" rms="3.3762538433074951e-01" purity="4.2328667640686035e-01" nType="0">
          <Node pos="l" depth="2" NCoef="0" IVar="6" Cut="1.2464279687500000e+05" cType="1" res="-3.0614918796345592e-04" rms="3.3997094631195068e-01" purity="4.2962729930877686e-01" nType="0">
            <Node pos="l" depth="3" NCoef="0" IVar="7" Cut="9.7363257812500000e+04" cType="1" res="-2.7667409740388393e-03" rms="3.8264471292495728e-01" purity="4.7168248891830444e-01" nType="0">
              <Node pos="l" depth="4" NCoef="0" IVar="-1" Cut="0.0000000000000000e+00" cType="1" res="-2.9810627456754446e-03" rms="3.8319376111030579e-01" purity="4.7680222988128662e-01" nType="-99"/>
              <Node pos="r" depth="4" NCoef="0" IVar="-1" Cut="0.0000000000000000e+00" cType="1" res="1.3359136879444122e-02" rms="3.7522599101066589e-01" purity="4.0979424118995667e-01" nType="-99"/>
            </Node>
            <Node pos="r" depth="3" NCoef="0" IVar="9" Cut="7.0927656250000000e+04" cType="1" res="8.3215540507808328e-04" rms="3.1829330325126648e-01" purity="4.1017198562622070e-01" nType="0">
              <Node pos="l" depth="4" NCoef="0" IVar="-1" Cut="0.0000000000000000e+00" cType="1" res="7.7065918594598770e-03" rms="3.6484479904174805e-01" purity="5.7132416963577271e-01" nType="-99"/>
              <Node pos="r" depth="4" NCoef="0" IVar="-1" Cut="0.0000000000000000e+00" cType="1" res="-1.1463714763522148e-03" rms="3.0821740627288818e-01" purity="3.7830328941345215e-01" nType="-99"/>
            </Node>
          </Node>
          <Node pos="r" depth="2" NCoef="0" IVar="-1" Cut="0.0000000000000000e+00" cType="1" res="2.5871103629469872e-02" rms="1.3882315158843994e-01" purity="4.5525442808866501e-02" nType="-99"/>
        </Node>
      </Node>
    </BinaryTree>
    <BinaryTree type="DecisionTree" boostWeight="1.0000000000000000e+00" itree="389">
      <Node pos="s" depth="0" NCoef="0" IVar="13" Cut="2.7425336837768555e+00" cType="1" res="-3.9386489447679196e-07" rms="3.3264350891113281e-01" purity="5.0000000000000000e-01" nType="0">
        <Node pos="l" depth="1" NCoef="0" IVar="16" Cut="3.2256813049316406e+00" cType="1" res="3.2015630858950317e-04" rms="3.3231377601623535e-01" purity="4.1426411271095276e-01" nType="0">
          <Node pos="l" depth="2" NCoef="0" IVar="16" Cut="2.7662260532379150e+00" cType="1" res="4.8468037857674062e-04" rms="3.3262559771537781e-01" purity="4.1821658611297607e-01" nType="0">
            <Node pos="l" depth="3" NCoef="0" IVar="12" Cut="3.5729863643646240e+00" cType="1" res="8.8604276243131608e-05" rms="3.3330893516540527e-01" purity="4.3146970868110657e-01" nType="0">
              <Node pos="l" depth="4" NCoef="0" IVar="-1" Cut="0.0000000000000000e+00" cType="1" res="2.8893240960314870e-04" rms="3.3494791388511658e-01" purity="4.3556916713714600e-01" nType="-99"/>
              <Node pos="r" depth="4" NCoef="0" IVar="-1" Cut="0.0000000000000000e+00" cType="1" res="-1.0742158629000187e-02" rms="2.6567527651786804e-01" purity="2.8017488121986389e-01" nType="-99"/>
            </Node>
            <Node pos="r" depth="3" NCoef="0" IVar="7" Cut="8.6333437500000000e+04" cType="1" res="5.6238514371216297e-03" rms="3.2358470559120178e-01" purity="2.4625413119792938e-01" nType="0">
              <Node pos="l" depth="4" NCoef="0" IVar="-1" Cut="0.0000000000000000e+00" cType="1" res="1.0467312531545758e-03" rms="3.4784483909606934e-01" purity="2.8867825865745544e-01" nType="-99"/>
              <Node pos="r" depth="4" NCoef="0" IVar="-1" Cut="0.0000000000000000e+00" cType="1" res="2.6316313073039055e-02" rms="2.4892346560955048e-01" purity="1.3537466526031494e-01" nType="-99"/>
            </Node>
          </Node>
          <Node pos="r" depth="2" NCoef="0" IVar="-1" Cut="0.0000000000000000e+00" cType="1" res="-7.7682496048510075e-03" rms="3.1553179025650024e-01" purity="2.0845074951648712e-01" nType="-99"/>
        </Node>
        <Node pos="r" depth="1" NCoef="0" IVar="11" Cut="1.3328739404678345e+00" cType="1" res="-4.5806047273799777e-04" rms="3.3311319351196289e-01" purity="6.2240970134735107e-01" nType="0">
          <Node pos="l" depth="2" NCoef="0" IVar="2" Cut="7.1868075000000000e+05" cType="1" res="3.4553516888990998e-04" rms="3.2844477891921997e-01" purity="7.1529519557952881e-01" nType="0">
            <Node pos="l" depth="3" NCoef="0" IVar="17" Cut="1.3066743750000000e+05" cType="1" res="1.2851618230342865e-03" rms="3.3148956298828125e-01" purity="7.5443303585052490e-01" nType="0">
              <Node pos="l" depth="4" NCoef="0" IVar="-1" Cut="0.0000000000000000e+00" cType="1" res="2.7234354056417942e-03" rms="3.4071481227874756e-01" purity="7.4446958303451538e-01" nType="-99"/>
              <Node pos="r" depth="4" NCoef="0" IVar="-1" Cut="0.0000000000000000e+00" cType="1" res="-9.6303736791014671e-03" rms="2.8279516100883484e-01" purity="8.0231523513793945e-01" nType="-99"/>
            </Node>
            <Node pos="r" depth="3" NCoef="0" IVar="14" Cut="1.6724051237106323e+00" cType="1" res="-6.8570920266211033e-03" rms="3.0399793386459351e-01" purity="4.1528806090354919e-01" nType="0">
              <Node pos="l" depth="4" NCoef="0" IVar="-1" Cut="0.0000000000000000e+00" cType="1" res="-2.0495366305112839e-02" rms="2.9988756775856018e-01" purity="2.7321681380271912e-01" nType="-99"/>
              <Node pos="r" depth="4" NCoef="0" IVar="-1" Cut="0.0000000000000000e+00" cType="1" res="-2.9598790570162237e-04" rms="3.0556613206863403e-01" purity="4.7800937294960022e-01" nType="-99"/>
            </Node>
          </Node>
          <Node pos="r" depth="2" NCoef="0" IVar="0" Cut="1.3333333730697632e+00" cType="1" res="-2.3329290561378002e-03" rms="3.4375137090682983e-01" purity="4.0569856762886047e-01" nType="0">
            <Node pos="l" depth="3" NCoef="0" IVar="-1" Cut="0.0000000000000000e+00" cType="1" res="-1.2645529583096504e-02" rms="3.2667118310928345e-01" purity="2.8613522648811340e-01" nType="-99"/>
            <Node pos="r" depth="3" NCoef="0" IVar="14" Cut="2.4585299491882324e+00" cType="1" res="-6.4831099007278681e-04" rms="3.4584608674049377e-01" purity="4.2104175686836243e-01" nType="0">
              <Node pos="l" depth="4" NCoef="0" IVar="-1" Cut="0.0000000000000000e+00" cType="1" res="-2.8496319428086281e-03" rms="3.5016816854476929e-01" purity="4.1255176067352295e-01" nType="-99"/>
              <Node pos="r" depth="4" NCoef="0" IVar="-1" Cut="0.0000000000000000e+00" cType="1" res="7.9226912930607796e-03" rms="3.3108076453208923e-01" purity="4.4888773560523987e-01" nType="-99"/>
            </Node>
          </Node>
        </Node>
      </Node>
    </BinaryTree>
    <BinaryTree type="DecisionTree" boostWeight="1.0000000000000000e+00" itree="390">
      <Node pos="s" depth="0" NCoef="0" IVar="12" Cut="1.2675663232803345e+00" cType="1" res="-4.9216748720937176e-07" rms="3.3262273669242859e-01" purity="5.0000000000000000e-01" nType="0">
        <Node pos="l" depth="1" NCoef="0" IVar="20" Cut="2.4724835937500000e+04" cType="1" res="-1.6402397304773331e-03" rms="3.3904674649238586e-01" purity="2.4588495492935181e-01" nType="0">
          <Node pos="l" depth="2" NCoef="0" IVar="19" Cut="6.7625250000000000e+04" cType="1" res="3.4524700604379177e-03" rms="3.5019922256469727e-01" purity="2.6402410864830017e-01" nType="0">
            <Node pos="l" depth="3" NCoef="0" IVar="-1" Cut="0.0000000000000000e+00" cType="1" res="-4.3109171092510223e-03" rms="3.4296992421150208e-01" purity="2.9277992248535156e-01" nType="-99"/>
            <Node pos="r" depth="3" NCoef="0" IVar="-1" Cut="0.0000000000000000e+00" cType="1" res="9.1779669746756554e-03" rms="3.5666343569755554e-01" purity="2.3688086867332458e-01" nType="-99"/>
          </Node>
          <Node pos="r" depth="2" NCoef="0" IVar="-1" Cut="0.0000000000000000e+00" cType="1" res="-7.2566387243568897e-03" rms="3.2415157556533813e-01" purity="2.2275155782699585e-01" nType="-99"/>
        </Node>
        <Node pos="r" depth="1" NCoef="0" IVar="12" Cut="2.1352896690368652e+00" cType="1" res="7.7299708209466189e-05" rms="3.3231469988822937e-01" purity="5.1205557584762573e-01" nType="0">
          <Node pos="l" depth="2" NCoef="0" IVar="14" Cut="9.4390416145324707e-01" cType="1" res="-9.9863088689744473e-04" rms="3.5528361797332764e-01" purity="4.2351746559143066e-01" nType="0">
            <Node pos="l" depth="3" NCoef="0" IVar="-1" Cut="0.0000000000000000e+00" cType="1" res="-8.2650007680058479e-03" rms="3.7462693452835083e-01" purity="4.3098136782646179e-01" nType="-99"/>
            <Node pos="r" depth="3" NCoef="0" IVar="0" Cut="2.3333332538604736e+00" cType="1" res="3.3106745104305446e-04" rms="3.5279414057731628e-01" purity="4.2259413003921509e-01" nType="0">
              <Node pos="l" depth="4" NCoef="0" IVar="-1" Cut="0.0000000000000000e+00" cType="1" res="-7.2746621444821358e-03" rms="3.5229519009590149e-01" purity="3.5667103528976440e-01" nType="-99"/>
              <Node pos="r" depth="4" NCoef="0" IVar="-1" Cut="0.0000000000000000e+00" cType="1" res="2.7441321872174740e-03" rms="3.5289043188095093e-01" purity="4.4352915883064270e-01" nType="-99"/>
            </Node>
          </Node>
          <Node pos="r" depth="2" NCoef="0" IVar="12" Cut="2.3109035491943359e+00" cType="1" res="3.2053858740255237e-04" rms="3.2689794898033142e-01" purity="5.3207165002822876e-01" nType="0">
            <Node pos="l" depth="3" NCoef="0" IVar="9" Cut="8.1614906250000000e+04" cType="1" res="6.3528064638376236e-03" rms="3.5804635286331177e-01" purity="5.1567429304122925e-01" nType="0">
              <Node pos="l" depth="4" NCoef="0" IVar="-1" Cut="0.0000000000000000e+00" cType="1" res="9.6818879246711731e-03" rms="3.8095158338546753e-01" purity="5.6167781352996826e-01" nType="-99"/>
              <Node pos="r" depth="4" NCoef="0" IVar="-1" Cut="0.0000000000000000e+00" cType="1" res="-1.6084895469248295e-03" rms="3.3290666341781616e-01" purity="4.6882522106170654e-01" nType="-99"/>
            </Node>
            <Node pos="r" depth="3" NCoef="0" IVar="0" Cut="7.3333334922790527e+00" cType="1" res="-2.6586436433717608e-04" rms="3.2370418310165405e-01" purity="5.3366559743881226e-01" nType="0">
              <Node pos="l" depth="4" NCoef="0" IVar="-1" Cut="0.0000000000000000e+00" cType="1" res="2.0958320237696171e-04" rms="3.1978121399879456e-01" purity="5.7769107818603516e-01" nType="-99"/>
              <Node pos="r" depth="4" NCoef="0" IVar="-1" Cut="0.0000000000000000e+00" cType="1" res="-1.7572101205587387e-03" rms="3.3785697817802429e-01" purity="3.7030047178268433e-01" nType="-99"/>
            </Node>
          </Node>
        </Node>
      </Node>
    </BinaryTree>
    <BinaryTree type="DecisionTree" boostWeight="1.0000000000000000e+00" itree="391">
      <Node pos="s" depth="0" NCoef="0" IVar="0" Cut="5.3333334922790527e+00" cType="1" res="-5.7478467851979076e-07" rms="3.3260694146156311e-01" purity="5.0000000000000000e-01" nType="0">
        <Node pos="l" depth="1" NCoef="0" IVar="10" Cut="9.8189859375000000e+04" cType="1" res="3.9776373887434602e-04" rms="3.2190328836441040e-01" purity="5.9258693456649780e-01" nType="0">
          <Node pos="l" depth="2" NCoef="0" IVar="4" Cut="2.2520978125000000e+05" cType="1" res="2.3611134383827448e-03" rms="3.4375205636024475e-01" purity="5.4441696405410767e-01" nType="0">
            <Node pos="l" depth="3" NCoef="0" IVar="12" Cut="2.0326995849609375e+00" cType="1" res="7.3473686352372169e-03" rms="3.6040592193603516e-01" purity="5.5227470397949219e-01" nType="0">
              <Node pos="l" depth="4" NCoef="0" IVar="-1" Cut="0.0000000000000000e+00" cType="1" res="1.5475060790777206e-02" rms="3.7660053372383118e-01" purity="5.5592137575149536e-01" nType="-99"/>
              <Node pos="r" depth="4" NCoef="0" IVar="-1" Cut="0.0000000000000000e+00" cType="1" res="1.9241188419982791e-03" rms="3.5534158349037170e-01" purity="5.5119723081588745e-01" nType="-99"/>
            </Node>
            <Node pos="r" depth="3" NCoef="0" IVar="1" Cut="5.1289734375000000e+04" cType="1" res="-1.3805897906422615e-03" rms="3.3065521717071533e-01" purity="5.3852051496505737e-01" nType="0">
              <Node pos="l" depth="4" NCoef="0" IVar="-1" Cut="0.0000000000000000e+00" cType="1" res="6.6493349149823189e-03" rms="3.1989836692810059e-01" purity="4.3452328443527222e-01" nType="-99"/>
              <Node pos="r" depth="4" NCoef="0" IVar="-1" Cut="0.0000000000000000e+00" cType="1" res="-5.9663983993232250e-03" rms="3.3734765648841858e-01" purity="6.0610520839691162e-01" nType="-99"/>
            </Node>
          </Node>
          <Node pos="r" depth="2" NCoef="0" IVar="20" Cut="5.9170558593750000e+04" cType="1" res="-1.1321394704282284e-03" rms="3.0378189682960510e-01" purity="6.3012242317199707e-01" nType="0">
            <Node pos="l" depth="3" NCoef="0" IVar="11" Cut="1.0106145143508911e+00" cType="1" res="-2.9335424769669771e-03" rms="3.1345725059509277e-01" purity="7.8639912605285645e-01" nType="0">
              <Node pos="l" depth="4" NCoef="0" IVar="-1" Cut="0.0000000000000000e+00" cType="1" res="1.9296728714834899e-04" rms="2.9528045654296875e-01" purity="8.1738698482513428e-01" nType="-99"/>
              <Node pos="r" depth="4" NCoef="0" IVar="-1" Cut="0.0000000000000000e+00" cType="1" res="-8.2347728312015533e-03" rms="3.5661926865577698e-01" purity="7.0514464378356934e-01" nType="-99"/>
            </Node>
            <Node pos="r" depth="3" NCoef="0" IVar="12" Cut="2.7955253124237061e+00" cType="1" res="2.6250313967466354e-03" rms="2.8250089287757874e-01" purity="3.0417743325233459e-01" nType="0">
              <Node pos="l" depth="4" NCoef="0" IVar="-1" Cut="0.0000000000000000e+00" cType="1" res="-3.3986282069236040e-03" rms="2.8097873926162720e-01" purity="2.9396814107894897e-01" nType="-99"/>
              <Node pos="r" depth="4" NCoef="0" IVar="-1" Cut="0.0000000000000000e+00" cType="1" res="9.2189125716686249e-03" rms="2.8379836678504944e-01" purity="3.1357851624488831e-01" nType="-99"/>
            </Node>
          </Node>
        </Node>
        <Node pos="r" depth="1" NCoef="0" IVar="11" Cut="2.8874616622924805e+00" cType="1" res="-3.7855905247852206e-04" rms="3.4245401620864868e-01" purity="4.1214406490325928e-01" nType="0">
          <Node pos="l" depth="2" NCoef="0" IVar="11" Cut="2.2048695087432861e+00" cType="1" res="-1.6427107038907707e-04" rms="3.4506922960281372e-01" purity="4.1981074213981628e-01" nType="0">
            <Node pos="l" depth="3" NCoef="0" IVar="19" Cut="1.2900694531250000e+05" cType="1" res="-7.5004366226494312e-04" rms="3.5248091816902161e-01" purity="4.5071277022361755e-01" nType="0">
              <Node pos="l" depth="4" NCoef="0" IVar="-1" Cut="0.0000000000000000e+00" cType="1" res="-1.2073478428646922e-03" rms="3.6029124259948730e-01" purity="5.0823754072189331e-01" nType="-99"/>
              <Node pos="r" depth="4" NCoef="0" IVar="-1" Cut="0.0000000000000000e+00" cType="1" res="2.8577658813446760e-03" rms="3.1722328066825867e-01" purity="2.0691317319869995e-01" nType="-99"/>
            </Node>
            <Node pos="r" depth="3" NCoef="0" IVar="16" Cut="1.9203023910522461e+00" cType="1" res="5.2827950567007065e-03" rms="2.6639103889465332e-01" purity="1.3245464861392975e-01" nType="0">
              <Node pos="l" depth="4" NCoef="0" IVar="-1" Cut="0.0000000000000000e+00" cType="1" res="1.9448973238468170e-02" rms="2.9340475797653198e-01" purity="1.7133180797100067e-01" nType="-99"/>
              <Node pos="r" depth="4" NCoef="0" IVar="-1" Cut="0.0000000000000000e+00" cType="1" res="-1.5379504300653934e-02" rms="2.2380368411540985e-01" purity="7.9749673604965210e-02" nType="-99"/>
            </Node>
          </Node>
          <Node pos="r" depth="2" NCoef="0" IVar="-1" Cut="0.0000000000000000e+00" cType="1" res="-2.1446419879794121e-02" rms="1.9109679758548737e-01" purity="6.8203814327716827e-02" nType="-99"/>
        </Node>
      </Node>
    </BinaryTree>
    <BinaryTree type="DecisionTree" boostWeight="1.0000000000000000e+00" itree="392">
      <Node pos="s" depth="0" NCoef="0" IVar="12" Cut="1.2675663232803345e+00" cType="1" res="-1.2456612239475362e-06" rms="3.3256882429122925e-01" purity="5.0000000000000000e-01" nType="0">
        <Node pos="l" depth="1" NCoef="0" IVar="12" Cut="1.1144330501556396e+00" cType="1" res="-1.6591728199273348e-03" rms="3.3892256021499634e-01" purity="2.4588495492935181e-01" nType="0">
          <Node pos="l" depth="2" NCoef="0" IVar="8" Cut="2.2430992187500000e+04" cType="1" res="1.8186353845521808e-03" rms="3.4333702921867371e-01" purity="2.3806543648242950e-01" nType="0">
            <Node pos="l" depth="3" NCoef="0" IVar="-1" Cut="0.0000000000000000e+00" cType="1" res="-4.7079036012291908e-03" rms="3.3806765079498291e-01" purity="2.2152668237686157e-01" nType="-99"/>
            <Node pos="r" depth="3" NCoef="0" IVar="-1" Cut="0.0000000000000000e+00" cType="1" res="7.4232504703104496e-03" rms="3.4802627563476562e-01" purity="2.5350791215896606e-01" nType="-99"/>
          </Node>
          <Node pos="r" depth="2" NCoef="0" IVar="-1" Cut="0.0000000000000000e+00" cType="1" res="-7.7277068048715591e-03" rms="3.2834517955780029e-01" purity="2.6396879553794861e-01" nType="-99"/>
        </Node>
        <Node pos="r" depth="1" NCoef="0" IVar="12" Cut="1.4844975471496582e+00" cType="1" res="7.7408680226653814e-05" rms="3.3226418495178223e-01" purity="5.1205557584762573e-01" nType="0">
          <Node pos="l" depth="2" NCoef="0" IVar="16" Cut="1.8821898698806763e+00" cType="1" res="-3.1185303814709187e-03" rms="3.5510635375976562e-01" purity="3.3304110169410706e-01" nType="0">
            <Node pos="l" depth="3" NCoef="0" IVar="-1" Cut="0.0000000000000000e+00" cType="1" res="-1.2363941408693790e-02" rms="3.7002855539321899e-01" purity="3.9519339799880981e-01" nType="-99"/>
            <Node pos="r" depth="3" NCoef="0" IVar="-1" Cut="0.0000000000000000e+00" cType="1" res="7.7447760850191116e-03" rms="3.4112325310707092e-01" purity="2.7908974885940552e-01" nType="-99"/>
          </Node>
          <Node pos="r" depth="2" NCoef="0" IVar="12" Cut="2.3109056949615479e+00" cType="1" res="1.6866586520336568e-04" rms="3.3158838748931885e-01" purity="5.1716721057891846e-01" nType="0">
            <Node pos="l" depth="3" NCoef="0" IVar="9" Cut="7.7110117187500000e+04" cType="1" res="1.3167584547773004e-03" rms="3.5610085725784302e-01" purity="4.6358585357666016e-01" nType="0">
              <Node pos="l" depth="4" NCoef="0" IVar="-1" Cut="0.0000000000000000e+00" cType="1" res="3.4243490081280470e-03" rms="3.8145747780799866e-01" purity="5.4236447811126709e-01" nType="-99"/>
              <Node pos="r" depth="4" NCoef="0" IVar="-1" Cut="0.0000000000000000e+00" cType="1" res="-3.0635918956249952e-03" rms="3.2293543219566345e-01" purity="3.6889007687568665e-01" nType="-99"/>
            </Node>
            <Node pos="r" depth="3" NCoef="0" IVar="0" Cut="7.3333334922790527e+00" cType="1" res="-1.8484851170796901e-04" rms="3.2366621494293213e-01" purity="5.3366559743881226e-01" nType="0">
              <Node pos="l" depth="4" NCoef="0" IVar="-1" Cut="0.0000000000000000e+00" cType="1" res="1.8789569730870426e-04" rms="3.1974047422409058e-01" purity="5.7769107818603516e-01" nType="-99"/>
              <Node pos="r" depth="4" NCoef="0" IVar="-1" Cut="0.0000000000000000e+00" cType="1" res="-1.3645412400364876e-03" rms="3.3783105015754700e-01" purity="3.7030047178268433e-01" nType="-99"/>
            </Node>
          </Node>
        </Node>
      </Node>
    </BinaryTree>
    <BinaryTree type="DecisionTree" boostWeight="1.0000000000000000e+00" itree="393">
      <Node pos="s" depth="0" NCoef="0" IVar="5" Cut="2.2984054687500000e+05" cType="1" res="-1.1976857194895274e-06" rms="3.3255943655967712e-01" purity="5.0000000000000000e-01" nType="0">
        <Node pos="l" depth="1" NCoef="0" IVar="12" Cut="1.8679429292678833e+00" cType="1" res="-1.8423931032884866e-04" rms="3.3704209327697754e-01" purity="5.3397262096405029e-01" nType="0">
          <Node pos="l" depth="2" NCoef="0" IVar="1" Cut="3.6955406250000000e+04" cType="1" res="-2.7061060536652803e-03" rms="3.6864843964576721e-01" purity="4.1580381989479065e-01" nType="0">
            <Node pos="l" depth="3" NCoef="0" IVar="5" Cut="8.3522007812500000e+04" cType="1" res="8.0072274431586266e-03" rms="3.3727511763572693e-01" purity="2.3357081413269043e-01" nType="0">
              <Node pos="l" depth="4" NCoef="0" IVar="-1" Cut="0.0000000000000000e+00" cType="1" res="2.8978215530514717e-02" rms="3.6890938878059387e-01" purity="2.9155755043029785e-01" nType="-99"/>
              <Node pos="r" depth="4" NCoef="0" IVar="-1" Cut="0.0000000000000000e+00" cType="1" res="-6.7130019888281822e-03" rms="3.1854972243309021e-01" purity="2.0352670550346375e-01" nType="-99"/>
            </Node>
            <Node pos="r" depth="3" NCoef="0" IVar="0" Cut="2.3333332538604736e+00" cType="1" res="-8.9719835668802261e-03" rms="3.8567918539047241e-01" purity="5.2238589525222778e-01" nType="0">
              <Node pos="l" depth="4" NCoef="0" IVar="-1" Cut="0.0000000000000000e+00" cType="1" res="-1.6371615231037140e-02" rms="3.9149206876754761e-01" purity="4.5251584053039551e-01" nType="-99"/>
              <Node pos="r" depth="4" NCoef="0" IVar="-1" Cut="0.0000000000000000e+00" cType="1" res="-2.2584430407732725e-03" rms="3.8381785154342651e-01" purity="5.4247736930847168e-01" nType="-99"/>
            </Node>
          </Node>
          <Node pos="r" depth="2" NCoef="0" IVar="5" Cut="1.2254192968750000e+05" cType="1" res="1.4764512889087200e-04" rms="3.3265766501426697e-01" purity="5.4952394962310791e-01" nType="0">
            <Node pos="l" depth="3" NCoef="0" IVar="6" Cut="2.1104093750000000e+05" cType="1" res="-1.0432134149596095e-03" rms="3.3574569225311279e-01" purity="5.3630542755126953e-01" nType="0">
              <Node pos="l" depth="4" NCoef="0" IVar="-1" Cut="0.0000000000000000e+00" cType="1" res="-2.1833928767591715e-03" rms="3.5055601596832275e-01" purity="5.2870064973831177e-01" nType="-99"/>
              <Node pos="r" depth="4" NCoef="0" IVar="-1" Cut="0.0000000000000000e+00" cType="1" res="5.6412140838801861e-03" rms="2.8358224034309387e-01" purity="5.6044369935989380e-01" nType="-99"/>
            </Node>
            <Node pos="r" depth="3" NCoef="0" IVar="13" Cut="3.1247615814208984e+00" cType="1" res="2.7082157321274281e-03" rms="3.2590404152870178e-01" purity="5.7794636487960815e-01" nType="0">
              <Node pos="l" depth="4" NCoef="0" IVar="-1" Cut="0.0000000000000000e+00" cType="1" res="4.7603624989278615e-04" rms="3.2455417513847351e-01" purity="5.6312388181686401e-01" nType="-99"/>
              <Node pos="r" depth="4" NCoef="0" IVar="-1" Cut="0.0000000000000000e+00" cType="1" res="1.0635442100465298e-02" rms="3.3149963617324829e-01" purity="6.4189553260803223e-01" nType="-99"/>
            </Node>
          </Node>
        </Node>
        <Node pos="r" depth="1" NCoef="0" IVar="13" Cut="3.2911906242370605e+00" cType="1" res="7.6165451901033521e-04" rms="3.1318596005439758e-01" purity="3.5841417312622070e-01" nType="0">
          <Node pos="l" depth="2" NCoef="0" IVar="13" Cut="2.5076181888580322e+00" cType="1" res="1.3704112498089671e-03" rms="3.1458270549774170e-01" purity="3.5852220654487610e-01" nType="0">
            <Node pos="l" depth="3" NCoef="0" IVar="12" Cut="3.1011404991149902e+00" cType="1" res="-7.0561928441748023e-04" rms="3.0661141872406006e-01" purity="2.5831106305122375e-01" nType="0">
              <Node pos="l" depth="4" NCoef="0" IVar="-1" Cut="0.0000000000000000e+00" cType="1" res="9.4866513973101974e-04" rms="3.1057202816009521e-01" purity="2.6385241746902466e-01" nType="-99"/>
              <Node pos="r" depth="4" NCoef="0" IVar="-1" Cut="0.0000000000000000e+00" cType="1" res="-2.2304447367787361e-02" rms="2.6337125897407532e-01" purity="2.0314159989356995e-01" nType="-99"/>
            </Node>
            <Node pos="r" depth="3" NCoef="0" IVar="14" Cut="2.0928716659545898e+00" cType="1" res="4.8918742686510086e-03" rms="3.2763075828552246e-01" purity="5.2850502729415894e-01" nType="0">
              <Node pos="l" depth="4" NCoef="0" IVar="-1" Cut="0.0000000000000000e+00" cType="1" res="8.9458292350172997e-03" rms="3.4463787078857422e-01" purity="4.9021917581558228e-01" nType="-99"/>
              <Node pos="r" depth="4" NCoef="0" IVar="-1" Cut="0.0000000000000000e+00" cType="1" res="-3.8385507650673389e-03" rms="3.0290839076042175e-01" purity="5.8028292655944824e-01" nType="-99"/>
            </Node>
          </Node>
          <Node pos="r" depth="2" NCoef="0" IVar="-1" Cut="0.0000000000000000e+00" cType="1" res="-7.3808394372463226e-03" rms="2.9327091574668884e-01" purity="3.5693541169166565e-01" nType="-99"/>
        </Node>
      </Node>
    </BinaryTree>
    <BinaryTree type="DecisionTree" boostWeight="1.0000000000000000e+00" itree="394">
      <Node pos="s" depth="0" NCoef="0" IVar="13" Cut="2.7425336837768555e+00" cType="1" res="-1.6159551705641206e-06" rms="3.3251875638961792e-01" purity="5.0000000000000000e-01" nType="0">
        <Node pos="l" depth="1" NCoef="0" IVar="10" Cut="1.7524593750000000e+05" cType="1" res="3.6892481148242950e-04" rms="3.3215948939323425e-01" purity="4.1426411271095276e-01" nType="0">
          <Node pos="l" depth="2" NCoef="0" IVar="6" Cut="1.6825068750000000e+05" cType="1" res="7.0864829467609525e-04" rms="3.3796805143356323e-01" purity="4.2466828227043152e-01" nType="0">
            <Node pos="l" depth="3" NCoef="0" IVar="17" Cut="1.6270271875000000e+05" cType="1" res="-5.3741288138553500e-04" rms="3.6574864387512207e-01" purity="4.4940185546875000e-01" nType="0">
              <Node pos="l" depth="4" NCoef="0" IVar="-1" Cut="0.0000000000000000e+00" cType="1" res="2.3108959430828691e-04" rms="3.6612042784690857e-01" purity="4.5160239934921265e-01" nType="-99"/>
              <Node pos="r" depth="4" NCoef="0" IVar="-1" Cut="0.0000000000000000e+00" cType="1" res="-1.2421687133610249e-02" rms="3.5834369063377380e-01" purity="4.0827897191047668e-01" nType="-99"/>
            </Node>
            <Node pos="r" depth="3" NCoef="0" IVar="12" Cut="1.6035730838775635e+00" cType="1" res="2.6271606329828501e-03" rms="2.9002839326858521e-01" purity="3.8658696413040161e-01" nType="0">
              <Node pos="l" depth="4" NCoef="0" IVar="-1" Cut="0.0000000000000000e+00" cType="1" res="-6.9669899530708790e-03" rms="2.8865799307823181e-01" purity="1.7284269630908966e-01" nType="-99"/>
              <Node pos="r" depth="4" NCoef="0" IVar="-1" Cut="0.0000000000000000e+00" cType="1" res="4.7778282314538956e-03" rms="2.9023975133895874e-01" purity="4.2415520548820496e-01" nType="-99"/>
            </Node>
          </Node>
          <Node pos="r" depth="2" NCoef="0" IVar="17" Cut="1.5489579687500000e+05" cType="1" res="-2.9265987686812878e-03" rms="2.6936709880828857e-01" purity="3.1333717703819275e-01" nType="0">
            <Node pos="l" depth="3" NCoef="0" IVar="20" Cut="6.1300273437500000e+04" cType="1" res="-6.3499924726784229e-03" rms="2.8407445549964905e-01" purity="3.5398074984550476e-01" nType="0">
              <Node pos="l" depth="4" NCoef="0" IVar="-1" Cut="0.0000000000000000e+00" cType="1" res="-1.4436957426369190e-02" rms="3.4042587876319885e-01" purity="6.0720598697662354e-01" nType="-99"/>
              <Node pos="r" depth="4" NCoef="0" IVar="-1" Cut="0.0000000000000000e+00" cType="1" res="9.2004211619496346e-03" rms="2.1869789063930511e-01" purity="1.1924407631158829e-01" nType="-99"/>
            </Node>
            <Node pos="r" depth="3" NCoef="0" IVar="-1" Cut="0.0000000000000000e+00" cType="1" res="1.0177263990044594e-02" rms="2.2798600792884827e-01" purity="2.1108809113502502e-01" nType="-99"/>
          </Node>
        </Node>
        <Node pos="r" depth="1" NCoef="0" IVar="19" Cut="2.9273018750000000e+05" cType="1" res="-5.3065677639096975e-04" rms="3.3303034305572510e-01" purity="6.2240970134735107e-01" nType="0">
          <Node pos="l" depth="2" NCoef="0" IVar="19" Cut="1.3250607421875000e+04" cType="1" res="-3.5023089731112123e-04" rms="3.3390167355537415e-01" purity="6.3238215446472168e-01" nType="0">
            <Node pos="l" depth="3" NCoef="0" IVar="5" Cut="7.2776125000000000e+04" cType="1" res="3.2008122652769089e-03" rms="3.6273202300071716e-01" purity="4.9592056870460510e-01" nType="0">
              <Node pos="l" depth="4" NCoef="0" IVar="-1" Cut="0.0000000000000000e+00" cType="1" res="6.6324309445917606e-03" rms="3.6384400725364685e-01" purity="5.0839102268218994e-01" nType="-99"/>
              <Node pos="r" depth="4" NCoef="0" IVar="-1" Cut="0.0000000000000000e+00" cType="1" res="-1.2136448174715042e-02" rms="3.5851529240608215e-01" purity="4.5671075582504272e-01" nType="-99"/>
            </Node>
            <Node pos="r" depth="3" NCoef="0" IVar="18" Cut="7.9277265625000000e+04" cType="1" res="-1.2087281793355942e-03" rms="3.2654401659965515e-01" purity="6.6537296772003174e-01" nType="0">
              <Node pos="l" depth="4" NCoef="0" IVar="-1" Cut="0.0000000000000000e+00" cType="1" res="-3.2102912664413452e-03" rms="3.4647390246391296e-01" purity="6.6152119636535645e-01" nType="-99"/>
              <Node pos="r" depth="4" NCoef="0" IVar="-1" Cut="0.0000000000000000e+00" cType="1" res="1.7011709278449416e-03" rms="3.0449756979942322e-01" purity="6.6936343908309937e-01" nType="-99"/>
            </Node>
          </Node>
          <Node pos="r" depth="2" NCoef="0" IVar="-1" Cut="0.0000000000000000e+00" cType="1" res="-7.6923160813748837e-03" rms="2.9626807570457458e-01" purity="2.2630707919597626e-01" nType="-99"/>
        </Node>
      </Node>
    </BinaryTree>
    <BinaryTree type="DecisionTree" boostWeight="1.0000000000000000e+00" itree="395">
      <Node pos="s" depth="0" NCoef="0" IVar="13" Cut="2.7425336837768555e+00" cType="1" res="-1.2308744317124365e-06" rms="3.3249056339263916e-01" purity="5.0000000000000000e-01" nType="0">
        <Node pos="l" depth="1" NCoef="0" IVar="10" Cut="1.1658386718750000e+05" cType="1" res="2.9495541821233928e-04" rms="3.3213245868682861e-01" purity="4.1426411271095276e-01" nType="0">
          <Node pos="l" depth="2" NCoef="0" IVar="14" Cut="7.7417421340942383e-01" cType="1" res="9.2286732979118824e-04" rms="3.4431299567222595e-01" purity="4.1204687952995300e-01" nType="0">
            <Node pos="l" depth="3" NCoef="0" IVar="16" Cut="2.0827410221099854e+00" cType="1" res="7.5678615830838680e-03" rms="3.5585039854049683e-01" purity="3.7575545907020569e-01" nType="0">
              <Node pos="l" depth="4" NCoef="0" IVar="-1" Cut="0.0000000000000000e+00" cType="1" res="-2.6915700800600462e-05" rms="3.5818141698837280e-01" purity="4.2419940233230591e-01" nType="-99"/>
              <Node pos="r" depth="4" NCoef="0" IVar="-1" Cut="0.0000000000000000e+00" cType="1" res="1.7408655956387520e-02" rms="3.5099646449089050e-01" purity="2.8495976328849792e-01" nType="-99"/>
            </Node>
            <Node pos="r" depth="3" NCoef="0" IVar="16" Cut="5.0433826446533203e-01" cType="1" res="2.7793130720965564e-04" rms="3.4316572546958923e-01" purity="4.1556915640830994e-01" nType="0">
              <Node pos="l" depth="4" NCoef="0" IVar="-1" Cut="0.0000000000000000e+00" cType="1" res="-9.3703372403979301e-03" rms="3.2397884130477905e-01" purity="6.0796451568603516e-01" nType="-99"/>
              <Node pos="r" depth="4" NCoef="0" IVar="-1" Cut="0.0000000000000000e+00" cType="1" res="5.7418848155066371e-04" rms="3.4395715594291687e-01" purity="4.0732315182685852e-01" nType="-99"/>
            </Node>
          </Node>
          <Node pos="r" depth="2" NCoef="0" IVar="14" Cut="9.4048106670379639e-01" cType="1" res="-1.3494874583557248e-03" rms="2.9787552356719971e-01" purity="4.2007082700729370e-01" nType="0">
            <Node pos="l" depth="3" NCoef="0" IVar="5" Cut="1.4031485937500000e+05" cType="1" res="-9.9121341481804848e-03" rms="2.9995509982109070e-01" purity="3.3512419462203979e-01" nType="0">
              <Node pos="l" depth="4" NCoef="0" IVar="-1" Cut="0.0000000000000000e+00" cType="1" res="-1.7530003562569618e-02" rms="3.0174678564071655e-01" purity="4.1117560863494873e-01" nType="-99"/>
              <Node pos="r" depth="4" NCoef="0" IVar="-1" Cut="0.0000000000000000e+00" cType="1" res="-1.2683805543929338e-03" rms="2.9773774743080139e-01" purity="2.5185957551002502e-01" nType="-99"/>
            </Node>
            <Node pos="r" depth="3" NCoef="0" IVar="13" Cut="2.1751470565795898e+00" cType="1" res="-2.3891667296993546e-05" rms="2.9753026366233826e-01" purity="4.3322154879570007e-01" nType="0">
              <Node pos="l" depth="4" NCoef="0" IVar="-1" Cut="0.0000000000000000e+00" cType="1" res="-9.1320984065532684e-03" rms="2.5766342878341675e-01" purity="1.7670038342475891e-01" nType="-99"/>
              <Node pos="r" depth="4" NCoef="0" IVar="-1" Cut="0.0000000000000000e+00" cType="1" res="2.6021555531769991e-03" rms="3.1274554133415222e-01" purity="5.4112803936004639e-01" nType="-99"/>
            </Node>
          </Node>
        </Node>
        <Node pos="r" depth="1" NCoef="0" IVar="15" Cut="7.7519947290420532e-01" cType="1" res="-4.2411187314428389e-04" rms="3.3300068974494934e-01" purity="6.2240970134735107e-01" nType="0">
          <Node pos="l" depth="2" NCoef="0" IVar="10" Cut="1.1790728906250000e+05" cType="1" res="3.4192050807178020e-03" rms="3.6010551452636719e-01" purity="5.9408080577850342e-01" nType="0">
            <Node pos="l" depth="3" NCoef="0" IVar="-1" Cut="0.0000000000000000e+00" cType="1" res="-6.1728879809379578e-03" rms="3.8064792752265930e-01" purity="6.1296343803405762e-01" nType="-99"/>
            <Node pos="r" depth="3" NCoef="0" IVar="12" Cut="2.8764038085937500e+00" cType="1" res="1.0411786846816540e-02" rms="3.4810218214988708e-01" purity="5.8370316028594971e-01" nType="0">
              <Node pos="l" depth="4" NCoef="0" IVar="-1" Cut="0.0000000000000000e+00" cType="1" res="2.7285369578748941e-03" rms="3.5407626628875732e-01" purity="5.8796536922454834e-01" nType="-99"/>
              <Node pos="r" depth="4" NCoef="0" IVar="-1" Cut="0.0000000000000000e+00" cType="1" res="1.4406722038984299e-02" rms="3.4140703082084656e-01" purity="5.7911795377731323e-01" nType="-99"/>
            </Node>
          </Node>
          <Node pos="r" depth="2" NCoef="0" IVar="16" Cut="2.9819102287292480e+00" cType="1" res="-8.3460763562470675e-04" rms="3.2997149229049683e-01" purity="6.2543553113937378e-01" nType="0">
            <Node pos="l" depth="3" NCoef="0" IVar="16" Cut="2.7004997730255127e+00" cType="1" res="-1.2215750757604837e-03" rms="3.2964614033699036e-01" purity="6.3404321670532227e-01" nType="0">
              <Node pos="l" depth="4" NCoef="0" IVar="-1" Cut="0.0000000000000000e+00" cType="1" res="-4.4723824248649180e-04" rms="3.2871460914611816e-01" purity="6.4266312122344971e-01" nType="-99"/>
              <Node pos="r" depth="4" NCoef="0" IVar="-1" Cut="0.0000000000000000e+00" cType="1" res="-1.8826333805918694e-02" rms="3.5844710469245911e-01" purity="3.4736293554306030e-01" nType="-99"/>
            </Node>
            <Node pos="r" depth="3" NCoef="0" IVar="-1" Cut="0.0000000000000000e+00" cType="1" res="8.0318618565797806e-03" rms="3.3927431702613831e-01" purity="3.7024286389350891e-01" nType="-99"/>
          </Node>
        </Node>
      </Node>
    </BinaryTree>
    <BinaryTree type="DecisionTree" boostWeight="1.0000000000000000e+00" itree="396">
      <Node pos="s" depth="0" NCoef="0" IVar="5" Cut="2.2984054687500000e+05" cType="1" res="-1.1961489008172066e-06" rms="3.3246237039566040e-01" purity="5.0000000000000000e-01" nType="0">
        <Node pos="l" depth="1" NCoef="0" IVar="15" Cut="3.3024377822875977e+00" cType="1" res="-1.8125407223124057e-04" rms="3.3694374561309814e-01" purity="5.3397262096405029e-01" nType="0">
          <Node pos="l" depth="2" NCoef="0" IVar="14" Cut="3.1500356197357178e+00" cType="1" res="-3.0167622026056051e-04" rms="3.3698722720146179e-01" purity="5.3545933961868286e-01" nType="0">
            <Node pos="l" depth="3" NCoef="0" IVar="19" Cut="1.5226435937500000e+05" cType="1" res="-5.3767806093674153e-05" rms="3.3756133913993835e-01" purity="5.3666502237319946e-01" nType="0">
              <Node pos="l" depth="4" NCoef="0" IVar="-1" Cut="0.0000000000000000e+00" cType="1" res="2.6682598399929702e-04" rms="3.3825418353080750e-01" purity="5.5604493618011475e-01" nType="-99"/>
              <Node pos="r" depth="4" NCoef="0" IVar="-1" Cut="0.0000000000000000e+00" cType="1" res="-3.9899735711514950e-03" rms="3.2867741584777832e-01" purity="2.9268768429756165e-01" nType="-99"/>
            </Node>
            <Node pos="r" depth="3" NCoef="0" IVar="-1" Cut="0.0000000000000000e+00" cType="1" res="-8.9807035401463509e-03" rms="3.1455171108245850e-01" purity="4.9022555351257324e-01" nType="-99"/>
          </Node>
          <Node pos="r" depth="2" NCoef="0" IVar="-1" Cut="0.0000000000000000e+00" cType="1" res="5.4763248190283775e-03" rms="3.3442941308021545e-01" purity="4.5066887140274048e-01" nType="-99"/>
        </Node>
        <Node pos="r" depth="1" NCoef="0" IVar="4" Cut="1.1598218750000000e+06" cType="1" res="7.4922107160091400e-04" rms="3.1309452652931213e-01" purity="3.5841417312622070e-01" nType="0">
          <Node pos="l" depth="2" NCoef="0" IVar="7" Cut="1.0587064062500000e+05" cType="1" res="1.2724691769108176e-03" rms="3.1929698586463928e-01" purity="3.7567850947380066e-01" nType="0">
            <Node pos="l" depth="3" NCoef="0" IVar="17" Cut="7.7512546875000000e+04" cType="1" res="-1.2752659386023879e-03" rms="3.3845219016075134e-01" purity="4.0745311975479126e-01" nType="0">
              <Node pos="l" depth="4" NCoef="0" IVar="-1" Cut="0.0000000000000000e+00" cType="1" res="-6.5729902125895023e-03" rms="3.5135850310325623e-01" purity="4.0171894431114197e-01" nType="-99"/>
              <Node pos="r" depth="4" NCoef="0" IVar="-1" Cut="0.0000000000000000e+00" cType="1" res="1.5449145575985312e-03" rms="3.3304056525230408e-01" purity="4.0977239608764648e-01" nType="-99"/>
            </Node>
            <Node pos="r" depth="3" NCoef="0" IVar="17" Cut="1.0372970312500000e+05" cType="1" res="9.0100876986980438e-03" rms="2.5220263004302979e-01" purity="2.7917718887329102e-01" nType="0">
              <Node pos="l" depth="4" NCoef="0" IVar="-1" Cut="0.0000000000000000e+00" cType="1" res="3.1461484730243683e-02" rms="2.9768109321594238e-01" purity="2.8830397129058838e-01" nType="-99"/>
              <Node pos="r" depth="4" NCoef="0" IVar="-1" Cut="0.0000000000000000e+00" cType="1" res="2.4581246543675661e-03" rms="2.3100337386131287e-01" purity="2.7551120519638062e-01" nType="-99"/>
            </Node>
          </Node>
          <Node pos="r" depth="2" NCoef="0" IVar="-1" Cut="0.0000000000000000e+00" cType="1" res="-2.6061227545142174e-02" rms="1.6342785954475403e-01" purity="4.4920135289430618e-02" nType="-99"/>
        </Node>
      </Node>
    </BinaryTree>
    <BinaryTree type="DecisionTree" boostWeight="1.0000000000000000e+00" itree="397">
      <Node pos="s" depth="0" NCoef="0" IVar="19" Cut="1.4166668750000000e+05" cType="1" res="-1.3957653663965175e-06" rms="3.3244231343269348e-01" purity="5.0000000000000000e-01" nType="0">
        <Node pos="l" depth="1" NCoef="0" IVar="19" Cut="4.6739921875000000e+04" cType="1" res="-1.6171336756087840e-04" rms="3.3586847782135010e-01" purity="5.4588431119918823e-01" nType="0">
          <Node pos="l" depth="2" NCoef="0" IVar="16" Cut="1.9088933467864990e+00" cType="1" res="-1.4655783306807280e-03" rms="3.2818308472633362e-01" purity="5.5268085002899170e-01" nType="0">
            <Node pos="l" depth="3" NCoef="0" IVar="16" Cut="1.1853318214416504e+00" cType="1" res="-3.5870576539309695e-05" rms="3.2699871063232422e-01" purity="6.0765480995178223e-01" nType="0">
              <Node pos="l" depth="4" NCoef="0" IVar="-1" Cut="0.0000000000000000e+00" cType="1" res="-2.1452016662806273e-03" rms="3.1606060266494751e-01" purity="6.7891883850097656e-01" nType="-99"/>
              <Node pos="r" depth="4" NCoef="0" IVar="-1" Cut="0.0000000000000000e+00" cType="1" res="4.6285078860819340e-03" rms="3.5567671060562134e-01" purity="4.0877425670623779e-01" nType="-99"/>
            </Node>
            <Node pos="r" depth="3" NCoef="0" IVar="18" Cut="4.3086000000000000e+04" cType="1" res="-7.5781573541462421e-03" rms="3.3313003182411194e-01" purity="3.1764501333236694e-01" nType="0">
              <Node pos="l" depth="4" NCoef="0" IVar="-1" Cut="0.0000000000000000e+00" cType="1" res="-1.6848606755957007e-03" rms="3.3064919710159302e-01" purity="3.2541450858116150e-01" nType="-99"/>
              <Node pos="r" depth="4" NCoef="0" IVar="-1" Cut="0.0000000000000000e+00" cType="1" res="-1.9793953746557236e-02" rms="3.4011191129684448e-01" purity="2.9365244507789612e-01" nType="-99"/>
            </Node>
          </Node>
          <Node pos="r" depth="2" NCoef="0" IVar="19" Cut="6.0302343750000000e+04" cType="1" res="9.8907155916094780e-04" rms="3.4250420331954956e-01" purity="5.3988569974899292e-01" nType="0">
            <Node pos="l" depth="3" NCoef="0" IVar="14" Cut="2.0730552673339844e+00" cType="1" res="6.0225953347980976e-03" rms="3.1962481141090393e-01" purity="7.0851516723632812e-01" nType="0">
              <Node pos="l" depth="4" NCoef="0" IVar="-1" Cut="0.0000000000000000e+00" cType="1" res="1.0851087979972363e-02" rms="3.3460739254951477e-01" purity="6.7691785097122192e-01" nType="-99"/>
              <Node pos="r" depth="4" NCoef="0" IVar="-1" Cut="0.0000000000000000e+00" cType="1" res="-1.9941781647503376e-03" rms="3.0095225572586060e-01" purity="7.4548918008804321e-01" nType="-99"/>
            </Node>
            <Node pos="r" depth="3" NCoef="0" IVar="10" Cut="7.3000109375000000e+04" cType="1" res="-8.7420281488448381e-04" rms="3.5057675838470459e-01" purity="4.7746360301971436e-01" nType="0">
              <Node pos="l" depth="4" NCoef="0" IVar="-1" Cut="0.0000000000000000e+00" cType="1" res="-4.5118350535631180e-03" rms="3.6056214570999146e-01" purity="3.2323136925697327e-01" nType="-99"/>
              <Node pos="r" depth="4" NCoef="0" IVar="-1" Cut="0.0000000000000000e+00" cType="1" res="8.7024661479517817e-04" rms="3.4680828452110291e-01" purity="5.3423374891281128e-01" nType="-99"/>
            </Node>
          </Node>
        </Node>
        <Node pos="r" depth="1" NCoef="0" IVar="16" Cut="2.0122904777526855e+00" cType="1" res="9.0478407219052315e-04" rms="3.1236910820007324e-01" purity="2.4064338207244873e-01" nType="0">
          <Node pos="l" depth="2" NCoef="0" IVar="1" Cut="8.3858835937500000e+04" cType="1" res="-5.3775683045387268e-03" rms="2.8723993897438049e-01" purity="2.0753510296344757e-01" nType="0">
            <Node pos="l" depth="3" NCoef="0" IVar="8" Cut="6.4450003906250000e+04" cType="1" res="-1.6498764976859093e-02" rms="2.5308555364608765e-01" purity="1.3501203060150146e-01" nType="0">
              <Node pos="l" depth="4" NCoef="0" IVar="-1" Cut="0.0000000000000000e+00" cType="1" res="-3.0628640204668045e-02" rms="3.3001571893692017e-01" purity="2.6109024882316589e-01" nType="-99"/>
              <Node pos="r" depth="4" NCoef="0" IVar="-1" Cut="0.0000000000000000e+00" cType="1" res="1.3120318762958050e-02" rms="1.6856713593006134e-01" purity="3.7424195557832718e-02" nType="-99"/>
            </Node>
            <Node pos="r" depth="3" NCoef="0" IVar="-1" Cut="0.0000000000000000e+00" cType="1" res="9.3079218640923500e-03" rms="3.2910302281379700e-01" purity="3.1060519814491272e-01" nType="-99"/>
          </Node>
          <Node pos="r" depth="2" NCoef="0" IVar="16" Cut="2.3164043426513672e+00" cType="1" res="3.3116163685917854e-03" rms="3.2144379615783691e-01" purity="2.5332748889923096e-01" nType="0">
            <Node pos="l" depth="3" NCoef="0" IVar="2" Cut="6.6467962500000000e+05" cType="1" res="1.2374575249850750e-02" rms="3.2751452922821045e-01" purity="2.5673913955688477e-01" nType="0">
              <Node pos="l" depth="4" NCoef="0" IVar="-1" Cut="0.0000000000000000e+00" cType="1" res="1.5755122527480125e-02" rms="3.6798328161239624e-01" purity="3.2514584064483643e-01" nType="-99"/>
              <Node pos="r" depth="4" NCoef="0" IVar="-1" Cut="0.0000000000000000e+00" cType="1" res="2.2320086136460304e-03" rms="2.7017319202423096e-01" purity="1.7393909394741058e-01" nType="-99"/>
            </Node>
            <Node pos="r" depth="3" NCoef="0" IVar="16" Cut="2.5914955139160156e+00" cType="1" res="4.6948392991907895e-04" rms="3.1946331262588501e-01" purity="2.5225761532783508e-01" nType="0">
              <Node pos="l" depth="4" NCoef="0" IVar="-1" Cut="0.0000000000000000e+00" cType="1" res="-7.7205458655953407e-03" rms="3.1300219893455505e-01" purity="2.4378818273544312e-01" nType="-99"/>
              <Node pos="r" depth="4" NCoef="0" IVar="-1" Cut="0.0000000000000000e+00" cType="1" res="3.9091398939490318e-03" rms="3.2212251424789429e-01" purity="2.5589787960052490e-01" nType="-99"/>
            </Node>
          </Node>
        </Node>
      </Node>
    </BinaryTree>
    <BinaryTree type="DecisionTree" boostWeight="1.0000000000000000e+00" itree="398">
      <Node pos="s" depth="0" NCoef="0" IVar="16" Cut="2.2361018657684326e+00" cType="1" res="-2.0284071524656611e-06" rms="3.3239337801933289e-01" purity="5.0000000000000000e-01" nType="0">
        <Node pos="l" depth="1" NCoef="0" IVar="13" Cut="3.8395471572875977e+00" cType="1" res="-2.2575994080398232e-04" rms="3.3082252740859985e-01" purity="5.5145055055618286e-01" nType="0">
          <Node pos="l" depth="2" NCoef="0" IVar="13" Cut="3.4736108779907227e+00" cType="1" res="-3.5683871828950942e-04" rms="3.3054870367050171e-01" purity="5.5250841379165649e-01" nType="0">
            <Node pos="l" depth="3" NCoef="0" IVar="14" Cut="7.0746541023254395e-01" cType="1" res="-5.6976976338773966e-05" rms="3.3045363426208496e-01" purity="5.5226862430572510e-01" nType="0">
              <Node pos="l" depth="4" NCoef="0" IVar="-1" Cut="0.0000000000000000e+00" cType="1" res="-3.5397263709455729e-03" rms="3.4371113777160645e-01" purity="5.0209808349609375e-01" nType="-99"/>
              <Node pos="r" depth="4" NCoef="0" IVar="-1" Cut="0.0000000000000000e+00" cType="1" res="2.0696905266959220e-04" rms="3.2954290509223938e-01" purity="5.5563503503799438e-01" nType="-99"/>
            </Node>
            <Node pos="r" depth="3" NCoef="0" IVar="18" Cut="9.2361414062500000e+04" cType="1" res="-8.7163774296641350e-03" rms="3.3307984471321106e-01" purity="5.5919086933135986e-01" nType="0">
              <Node pos="l" depth="4" NCoef="0" IVar="-1" Cut="0.0000000000000000e+00" cType="1" res="-4.1460289503447711e-04" rms="3.5763129591941833e-01" purity="5.7846879959106445e-01" nType="-99"/>
              <Node pos="r" depth="4" NCoef="0" IVar="-1" Cut="0.0000000000000000e+00" cType="1" res="-2.0267467945814133e-02" rms="2.9225316643714905e-01" purity="5.3044885396957397e-01" nType="-99"/>
            </Node>
          </Node>
          <Node pos="r" depth="2" NCoef="0" IVar="-1" Cut="0.0000000000000000e+00" cType="1" res="5.9822611510753632e-03" rms="3.4614676237106323e-01" purity="4.9051591753959656e-01" nType="-99"/>
        </Node>
        <Node pos="r" depth="1" NCoef="0" IVar="13" Cut="2.1940546035766602e+00" cType="1" res="8.4466056432574987e-04" rms="3.3827069401741028e-01" purity="3.0529049038887024e-01" nType="0">
          <Node pos="l" depth="2" NCoef="0" IVar="0" Cut="4.3333334922790527e+00" cType="1" res="3.4935870207846165e-03" rms="3.1403490900993347e-01" purity="2.0180939137935638e-01" nType="0">
            <Node pos="l" depth="3" NCoef="0" IVar="15" Cut="2.0498228073120117e+00" cType="1" res="1.3302697800099850e-02" rms="3.2878375053405762e-01" purity="2.4754886329174042e-01" nType="0">
              <Node pos="l" depth="4" NCoef="0" IVar="-1" Cut="0.0000000000000000e+00" cType="1" res="2.6325905695557594e-02" rms="3.6498454213142395e-01" purity="3.2072803378105164e-01" nType="-99"/>
              <Node pos="r" depth="4" NCoef="0" IVar="-1" Cut="0.0000000000000000e+00" cType="1" res="2.1001391578465700e-03" rms="3.0724173784255981e-01" purity="2.0866174995899200e-01" nType="-99"/>
            </Node>
            <Node pos="r" depth="3" NCoef="0" IVar="14" Cut="1.9162234067916870e+00" cType="1" res="-2.9476024210453033e-03" rms="3.0378881096839905e-01" purity="1.7177438735961914e-01" nType="0">
              <Node pos="l" depth="4" NCoef="0" IVar="-1" Cut="0.0000000000000000e+00" cType="1" res="-1.1181920766830444e-02" rms="2.8577074408531189e-01" purity="1.5673087537288666e-01" nType="-99"/>
              <Node pos="r" depth="4" NCoef="0" IVar="-1" Cut="0.0000000000000000e+00" cType="1" res="3.3067734912037849e-03" rms="3.1907907128334045e-01" purity="1.8538513779640198e-01" nType="-99"/>
            </Node>
          </Node>
          <Node pos="r" depth="2" NCoef="0" IVar="0" Cut="2.3333332538604736e+00" cType="1" res="-1.5874856617301702e-03" rms="3.5906830430030823e-01" purity="4.0030294656753540e-01" nType="0">
            <Node pos="l" depth="3" NCoef="0" IVar="5" Cut="1.4185318750000000e+05" cType="1" res="-1.2199050746858120e-02" rms="3.6009880900382996e-01" purity="3.4791192412376404e-01" nType="0">
              <Node pos="l" depth="4" NCoef="0" IVar="-1" Cut="0.0000000000000000e+00" cType="1" res="-1.6540266573429108e-02" rms="3.5768127441406250e-01" purity="3.5866510868072510e-01" nType="-99"/>
              <Node pos="r" depth="4" NCoef="0" IVar="-1" Cut="0.0000000000000000e+00" cType="1" res="5.4716505110263824e-03" rms="3.6301180720329285e-01" purity="3.3081170916557312e-01" nType="-99"/>
            </Node>
            <Node pos="r" depth="3" NCoef="0" IVar="15" Cut="1.4403899908065796e+00" cType="1" res="2.0995920058339834e-03" rms="3.5863605141639709e-01" purity="4.1850671172142029e-01" nType="0">
              <Node pos="l" depth="4" NCoef="0" IVar="-1" Cut="0.0000000000000000e+00" cType="1" res="-3.3320239745080471e-03" rms="3.6830240488052368e-01" purity="4.4057148694992065e-01" nType="-99"/>
              <Node pos="r" depth="4" NCoef="0" IVar="-1" Cut="0.0000000000000000e+00" cType="1" res="6.5427785739302635e-03" rms="3.4909182786941528e-01" purity="3.9757481217384338e-01" nType="-99"/>
            </Node>
          </Node>
        </Node>
      </Node>
    </BinaryTree>
    <BinaryTree type="DecisionTree" boostWeight="1.0000000000000000e+00" itree="399">
      <Node pos="s" depth="0" NCoef="0" IVar="16" Cut="2.2361018657684326e+00" cType="1" res="-2.2568287931790110e-06" rms="3.3235636353492737e-01" purity="5.0000000000000000e-01" nType="0">
        <Node pos="l" depth="1" NCoef="0" IVar="16" Cut="1.5999374389648438e+00" cType="1" res="-1.8038311100099236e-04" rms="3.3081561326980591e-01" purity="5.5145055055618286e-01" nType="0">
          <Node pos="l" depth="2" NCoef="0" IVar="12" Cut="2.5151054859161377e+00" cType="1" res="3.6796153290197253e-04" rms="3.2354575395584106e-01" purity="6.2501567602157593e-01" nType="0">
            <Node pos="l" depth="3" NCoef="0" IVar="11" Cut="1.9157851934432983e+00" cType="1" res="2.6572833303362131e-03" rms="3.4778848290443420e-01" purity="5.7128930091857910e-01" nType="0">
              <Node pos="l" depth="4" NCoef="0" IVar="-1" Cut="0.0000000000000000e+00" cType="1" res="9.3247176846489310e-04" rms="3.4739050269126892e-01" purity="5.8878797292709351e-01" nType="-99"/>
              <Node pos="r" depth="4" NCoef="0" IVar="-1" Cut="0.0000000000000000e+00" cType="1" res="1.9132306799292564e-02" rms="3.5242822766304016e-01" purity="3.4013196825981140e-01" nType="-99"/>
            </Node>
            <Node pos="r" depth="3" NCoef="0" IVar="0" Cut="1.3333333730697632e+00" cType="1" res="-7.9101836308836937e-04" rms="3.1054559350013733e-01" purity="6.5221482515335083e-01" nType="0">
              <Node pos="l" depth="4" NCoef="0" IVar="-1" Cut="0.0000000000000000e+00" cType="1" res="-8.5068019106984138e-03" rms="3.3759787678718567e-01" purity="5.2044671773910522e-01" nType="-99"/>
              <Node pos="r" depth="4" NCoef="0" IVar="-1" Cut="0.0000000000000000e+00" cType="1" res="3.3887094468809664e-04" rms="3.0704247951507568e-01" purity="6.6838574409484863e-01" nType="-99"/>
            </Node>
          </Node>
          <Node pos="r" depth="2" NCoef="0" IVar="16" Cut="1.6605511903762817e+00" cType="1" res="-1.6815733397379518e-03" rms="3.4994184970855713e-01" purity="3.5005339980125427e-01" nType="0">
            <Node pos="l" depth="3" NCoef="0" IVar="13" Cut="2.3996191024780273e+00" cType="1" res="-1.8370935693383217e-02" rms="3.3872717618942261e-01" purity="3.8578552007675171e-01" nType="0">
              <Node pos="l" depth="4" NCoef="0" IVar="-1" Cut="0.0000000000000000e+00" cType="1" res="-2.2016579285264015e-02" rms="3.1050670146942139e-01" purity="2.6868316531181335e-01" nType="-99"/>
              <Node pos="r" depth="4" NCoef="0" IVar="-1" Cut="0.0000000000000000e+00" cType="1" res="-8.7555525824427605e-03" rms="3.6082059144973755e-01" purity="4.8510327935218811e-01" nType="-99"/>
            </Node>
            <Node pos="r" depth="3" NCoef="0" IVar="14" Cut="1.4222432374954224e+00" cType="1" res="2.6241215527988970e-04" rms="3.5117328166961670e-01" purity="3.4589129686355591e-01" nType="0">
              <Node pos="l" depth="4" NCoef="0" IVar="-1" Cut="0.0000000000000000e+00" cType="1" res="4.6078204177320004e-03" rms="3.5797682404518127e-01" purity="3.5682499408721924e-01" nType="-99"/>
              <Node pos="r" depth="4" NCoef="0" IVar="-1" Cut="0.0000000000000000e+00" cType="1" res="-2.5458328891545534e-03" rms="3.4700614213943481e-01" purity="3.3937203884124756e-01" nType="-99"/>
            </Node>
          </Node>
        </Node>
        <Node pos="r" depth="1" NCoef="0" IVar="15" Cut="1.0185593366622925e+00" cType="1" res="6.7184376530349255e-04" rms="3.3812281489372253e-01" purity="3.0529049038887024e-01" nType="0">
          <Node pos="l" depth="2" NCoef="0" IVar="12" Cut="2.5895738601684570e+00" cType="1" res="6.1290115118026733e-03" rms="3.7799593806266785e-01" purity="4.4241431355476379e-01" nType="0">
            <Node pos="l" depth="3" NCoef="0" IVar="-1" Cut="0.0000000000000000e+00" cType="1" res="1.4612670056521893e-02" rms="3.8373032212257385e-01" purity="5.1509654521942139e-01" nType="-99"/>
            <Node pos="r" depth="3" NCoef="0" IVar="1" Cut="5.9294402343750000e+04" cType="1" res="-6.6111050546169281e-03" rms="3.7310644984245300e-01" purity="3.8758647441864014e-01" nType="0">
              <Node pos="l" depth="4" NCoef="0" IVar="-1" Cut="0.0000000000000000e+00" cType="1" res="2.7999687008559704e-03" rms="3.6682593822479248e-01" purity="2.9638621211051941e-01" nType="-99"/>
              <Node pos="r" depth="4" NCoef="0" IVar="-1" Cut="0.0000000000000000e+00" cType="1" res="-1.1658870615065098e-02" rms="3.7923222780227661e-01" purity="4.8272439837455750e-01" nType="-99"/>
            </Node>
          </Node>
          <Node pos="r" depth="2" NCoef="0" IVar="15" Cut="1.4294327497482300e+00" cType="1" res="-5.0430290866643190e-04" rms="3.2888478040695190e-01" purity="2.7573710680007935e-01" nType="0">
            <Node pos="l" depth="3" NCoef="0" IVar="14" Cut="1.3219373226165771e+00" cType="1" res="-1.2623323127627373e-02" rms="3.5316205024719238e-01" purity="3.5570612549781799e-01" nType="0">
              <Node pos="l" depth="4" NCoef="0" IVar="-1" Cut="0.0000000000000000e+00" cType="1" res="-1.6078392043709755e-02" rms="3.6004921793937683e-01" purity="3.6172518134117126e-01" nType="-99"/>
              <Node pos="r" depth="4" NCoef="0" IVar="-1" Cut="0.0000000000000000e+00" cType="1" res="-2.5961869396269321e-03" rms="3.4633681178092957e-01" purity="3.5006743669509888e-01" nType="-99"/>
            </Node>
            <Node pos="r" depth="3" NCoef="0" IVar="1" Cut="6.8658085937500000e+04" cType="1" res="1.9060248741880059e-03" rms="3.2378536462783813e-01" purity="2.5983220338821411e-01" nType="0">
              <Node pos="l" depth="4" NCoef="0" IVar="-1" Cut="0.0000000000000000e+00" cType="1" res="-1.9463197095319629e-03" rms="3.0750155448913574e-01" purity="1.9497755169868469e-01" nType="-99"/>
              <Node pos="r" depth="4" NCoef="0" IVar="-1" Cut="0.0000000000000000e+00" cType="1" res="6.9135180674493313e-03" rms="3.5162502527236938e-01" purity="3.7896624207496643e-01" nType="-99"/>
            </Node>
          </Node>
        </Node>
      </Node>
    </BinaryTree>
    <BinaryTree type="DecisionTree" boostWeight="1.0000000000000000e+00" itree="400">
      <Node pos="s" depth="0" NCoef="0" IVar="0" Cut="5.3333334922790527e+00" cType="1" res="-2.0585794118233025e-06" rms="3.3232137560844421e-01" purity="5.0000000000000000e-01" nType="0">
        <Node pos="l" depth="1" NCoef="0" IVar="10" Cut="9.8189859375000000e+04" cType="1" res="3.6331365117803216e-04" rms="3.2158771157264709e-01" purity="5.9258693456649780e-01" nType="0">
          <Node pos="l" depth="2" NCoef="0" IVar="19" Cut="6.6994734375000000e+04" cType="1" res="1.9533277954906225e-03" rms="3.4337896108627319e-01" purity="5.4441696405410767e-01" nType="0">
            <Node pos="l" depth="3" NCoef="0" IVar="15" Cut="8.9435786008834839e-01" cType="1" res="4.5495699159801006e-03" rms="3.3481037616729736e-01" purity="6.1906027793884277e-01" nType="0">
              <Node pos="l" depth="4" NCoef="0" IVar="-1" Cut="0.0000000000000000e+00" cType="1" res="-1.3393306173384190e-02" rms="3.5268026590347290e-01" purity="5.2341139316558838e-01" nType="-99"/>
              <Node pos="r" depth="4" NCoef="0" IVar="-1" Cut="0.0000000000000000e+00" cType="1" res="6.5552266314625740e-03" rms="3.3214265108108521e-01" purity="6.3231199979782104e-01" nType="-99"/>
            </Node>
            <Node pos="r" depth="3" NCoef="0" IVar="15" Cut="1.1329030990600586e+00" cType="1" res="-2.8665978461503983e-03" rms="3.5869449377059937e-01" purity="4.0584164857864380e-01" nType="0">
              <Node pos="l" depth="4" NCoef="0" IVar="-1" Cut="0.0000000000000000e+00" cType="1" res="1.3716658577322960e-02" rms="3.8786554336547852e-01" purity="5.1960122585296631e-01" nType="-99"/>
              <Node pos="r" depth="4" NCoef="0" IVar="-1" Cut="0.0000000000000000e+00" cType="1" res="-6.3031264580786228e-03" rms="3.5148751735687256e-01" purity="3.7992247939109802e-01" nType="-99"/>
            </Node>
          </Node>
          <Node pos="r" depth="2" NCoef="0" IVar="13" Cut="1.7853918075561523e+00" cType="1" res="-8.7567488662898540e-04" rms="3.0351889133453369e-01" purity="6.3012242317199707e-01" nType="0">
            <Node pos="l" depth="3" NCoef="0" IVar="-1" Cut="0.0000000000000000e+00" cType="1" res="-1.9708799198269844e-02" rms="2.1822567284107208e-01" purity="1.0901759564876556e-01" nType="-99"/>
            <Node pos="r" depth="3" NCoef="0" IVar="8" Cut="6.0225308593750000e+04" cType="1" res="-3.2586770248599350e-04" rms="3.0726951360702515e-01" purity="6.5701985359191895e-01" nType="0">
              <Node pos="l" depth="4" NCoef="0" IVar="-1" Cut="0.0000000000000000e+00" cType="1" res="-2.1045540925115347e-03" rms="3.1028035283088684e-01" purity="8.0565428733825684e-01" nType="-99"/>
              <Node pos="r" depth="4" NCoef="0" IVar="-1" Cut="0.0000000000000000e+00" cType="1" res="3.7550330162048340e-03" rms="3.0066704750061035e-01" purity="3.3793315291404724e-01" nType="-99"/>
            </Node>
          </Node>
        </Node>
        <Node pos="r" depth="1" NCoef="0" IVar="12" Cut="3.4113523960113525e+00" cType="1" res="-3.4876106656156480e-04" rms="3.4219503402709961e-01" purity="4.1214406490325928e-01" nType="0">
          <Node pos="l" depth="2" NCoef="0" IVar="15" Cut="3.1936867237091064e+00" cType="1" res="-7.2672299575060606e-04" rms="3.4393867850303650e-01" purity="4.1604068875312805e-01" nType="0">
            <Node pos="l" depth="3" NCoef="0" IVar="18" Cut="3.0302253125000000e+05" cType="1" res="-4.0106385131366551e-04" rms="3.4446653723716736e-01" purity="4.1916662454605103e-01" nType="0">
              <Node pos="l" depth="4" NCoef="0" IVar="-1" Cut="0.0000000000000000e+00" cType="1" res="-1.8435410311212763e-05" rms="3.4747478365898132e-01" purity="4.2705705761909485e-01" nType="-99"/>
              <Node pos="r" depth="4" NCoef="0" IVar="-1" Cut="0.0000000000000000e+00" cType="1" res="-2.0024115219712257e-02" rms="2.2739621996879578e-01" purity="1.6595967113971710e-01" nType="-99"/>
            </Node>
            <Node pos="r" depth="3" NCoef="0" IVar="-1" Cut="0.0000000000000000e+00" cType="1" res="-1.0117734782397747e-02" rms="3.2480114698410034e-01" purity="3.0708894133567810e-01" nType="-99"/>
          </Node>
          <Node pos="r" depth="2" NCoef="0" IVar="12" Cut="3.7559113502502441e+00" cType="1" res="3.7243633996695280e-03" rms="3.2277962565422058e-01" purity="3.7015232443809509e-01" nType="0">
            <Node pos="l" depth="3" NCoef="0" IVar="16" Cut="1.4630365371704102e+00" cType="1" res="9.3317450955510139e-03" rms="3.3473321795463562e-01" purity="4.1225376725196838e-01" nType="0">
              <Node pos="l" depth="4" NCoef="0" IVar="-1" Cut="0.0000000000000000e+00" cType="1" res="1.5455804532393813e-04" rms="3.2928422093391418e-01" purity="5.6027650833129883e-01" nType="-99"/>
              <Node pos="r" depth="4" NCoef="0" IVar="-1" Cut="0.0000000000000000e+00" cType="1" res="1.5869339928030968e-02" rms="3.3981707692146301e-01" purity="2.6517349481582642e-01" nType="-99"/>
            </Node>
            <Node pos="r" depth="3" NCoef="0" IVar="-1" Cut="0.0000000000000000e+00" cType="1" res="-4.8633995465934277e-03" rms="3.0305773019790649e-01" purity="3.0470556020736694e-01" nType="-99"/>
          </Node>
        </Node>
      </Node>
    </BinaryTree>
    <BinaryTree type="DecisionTree" boostWeight="1.0000000000000000e+00" itree="401">
      <Node pos="s" depth="0" NCoef="0" IVar="5" Cut="4.3468087500000000e+05" cType="1" res="-1.8649027424544329e-06" rms="3.3229163289070129e-01" purity="5.0000000000000000e-01" nType="0">
        <Node pos="l" depth="1" NCoef="0" IVar="10" Cut="2.1378921875000000e+05" cType="1" res="-9.8649128631222993e-05" rms="3.3490478992462158e-01" purity="5.1539814472198486e-01" nType="0">
          <Node pos="l" depth="2" NCoef="0" IVar="10" Cut="3.0193570312500000e+04" cType="1" res="1.7063916311599314e-04" rms="3.3998772501945496e-01" purity="5.2619749307632446e-01" nType="0">
            <Node pos="l" depth="3" NCoef="0" IVar="13" Cut="7.6365548372268677e-01" cType="1" res="8.2182893529534340e-03" rms="3.3989408612251282e-01" purity="2.6124760508537292e-01" nType="0">
              <Node pos="l" depth="4" NCoef="0" IVar="-1" Cut="0.0000000000000000e+00" cType="1" res="-4.7266446053981781e-03" rms="3.1352043151855469e-01" purity="2.0667256414890289e-01" nType="-99"/>
              <Node pos="r" depth="4" NCoef="0" IVar="-1" Cut="0.0000000000000000e+00" cType="1" res="1.8994854763150215e-02" rms="3.7147843837738037e-01" purity="3.3421871066093445e-01" nType="-99"/>
            </Node>
            <Node pos="r" depth="3" NCoef="0" IVar="10" Cut="5.6421492187500000e+04" cType="1" res="-3.5199217381887138e-04" rms="3.3998721837997437e-01" purity="5.4340392351150513e-01" nType="0">
              <Node pos="l" depth="4" NCoef="0" IVar="-1" Cut="0.0000000000000000e+00" cType="1" res="-4.4821980409324169e-03" rms="3.5550162196159363e-01" purity="3.6128941178321838e-01" nType="-99"/>
              <Node pos="r" depth="4" NCoef="0" IVar="-1" Cut="0.0000000000000000e+00" cType="1" res="5.9576105559244752e-04" rms="3.3705738186836243e-01" purity="5.7676070928573608e-01" nType="-99"/>
            </Node>
          </Node>
          <Node pos="r" depth="2" NCoef="0" IVar="6" Cut="2.2795381250000000e+05" cType="1" res="-2.3058531805872917e-03" rms="2.8989386558532715e-01" purity="4.2688184976577759e-01" nType="0">
            <Node pos="l" depth="3" NCoef="0" IVar="9" Cut="1.4998734375000000e+05" cType="1" res="-1.7547959461808205e-02" rms="3.2210993766784668e-01" purity="3.9374947547912598e-01" nType="0">
              <Node pos="l" depth="4" NCoef="0" IVar="-1" Cut="0.0000000000000000e+00" cType="1" res="-2.1633522585034370e-02" rms="3.3977052569389343e-01" purity="3.9853915572166443e-01" nType="-99"/>
              <Node pos="r" depth="4" NCoef="0" IVar="-1" Cut="0.0000000000000000e+00" cType="1" res="-5.8000078424811363e-03" rms="3.0082595348358154e-01" purity="3.8841781020164490e-01" nType="-99"/>
            </Node>
            <Node pos="r" depth="3" NCoef="0" IVar="2" Cut="4.5763887500000000e+05" cType="1" res="2.0332622807472944e-03" rms="2.7989399433135986e-01" purity="4.3631392717361450e-01" nType="0">
              <Node pos="l" depth="4" NCoef="0" IVar="-1" Cut="0.0000000000000000e+00" cType="1" res="1.2900259345769882e-02" rms="3.0042302608489990e-01" purity="7.1688264608383179e-01" nType="-99"/>
              <Node pos="r" depth="4" NCoef="0" IVar="-1" Cut="0.0000000000000000e+00" cType="1" res="-1.1566689936444163e-03" rms="2.7391469478607178e-01" purity="3.5928863286972046e-01" nType="-99"/>
            </Node>
          </Node>
        </Node>
        <Node pos="r" depth="1" NCoef="0" IVar="11" Cut="9.0663868188858032e-01" cType="1" res="1.8337960354983807e-03" rms="2.7811196446418762e-01" purity="2.0795036852359772e-01" nType="0">
          <Node pos="l" depth="2" NCoef="0" IVar="1" Cut="1.0880637500000000e+05" cType="1" res="5.9288144111633301e-03" rms="3.0225163698196411e-01" purity="2.7807313203811646e-01" nType="0">
            <Node pos="l" depth="3" NCoef="0" IVar="-1" Cut="0.0000000000000000e+00" cType="1" res="-3.2402530778199434e-03" rms="2.7368736267089844e-01" purity="2.1438370645046234e-01" nType="-99"/>
            <Node pos="r" depth="3" NCoef="0" IVar="-1" Cut="0.0000000000000000e+00" cType="1" res="1.4692905358970165e-02" rms="3.3426481485366821e-01" purity="3.5779350996017456e-01" nType="-99"/>
          </Node>
          <Node pos="r" depth="2" NCoef="0" IVar="10" Cut="1.1646107812500000e+05" cType="1" res="-2.7592442929744720e-03" rms="2.4817889928817749e-01" purity="1.2929953634738922e-01" nType="0">
            <Node pos="l" depth="3" NCoef="0" IVar="-1" Cut="0.0000000000000000e+00" cType="1" res="6.3904230482876301e-03" rms="2.9016897082328796e-01" purity="1.8611650168895721e-01" nType="-99"/>
            <Node pos="r" depth="3" NCoef="0" IVar="-1" Cut="0.0000000000000000e+00" cType="1" res="-2.2827064618468285e-02" rms="1.9869612157344818e-01" purity="7.4078381061553955e-02" nType="-99"/>
          </Node>
        </Node>
      </Node>
    </BinaryTree>
    <BinaryTree type="DecisionTree" boostWeight="1.0000000000000000e+00" itree="402">
      <Node pos="s" depth="0" NCoef="0" IVar="14" Cut="2.5702321529388428e+00" cType="1" res="-2.2870506199978990e-06" rms="3.3225950598716736e-01" purity="5.0000000000000000e-01" nType="0">
        <Node pos="l" depth="1" NCoef="0" IVar="11" Cut="2.8033944964408875e-01" cType="1" res="-2.0949763711541891e-04" rms="3.3649063110351562e-01" purity="4.8695713281631470e-01" nType="0">
          <Node pos="l" depth="2" NCoef="0" IVar="-1" Cut="0.0000000000000000e+00" cType="1" res="5.4669114761054516e-03" rms="3.0620199441909790e-01" purity="7.5479847192764282e-01" nType="-99"/>
          <Node pos="r" depth="2" NCoef="0" IVar="9" Cut="4.2009631250000000e+05" cType="1" res="-3.4126974060200155e-04" rms="3.3716407418251038e-01" purity="4.8070445656776428e-01" nType="0">
            <Node pos="l" depth="3" NCoef="0" IVar="20" Cut="2.4499019531250000e+04" cType="1" res="-1.9934540614485741e-04" rms="3.3921000361442566e-01" purity="4.8709627985954285e-01" nType="0">
              <Node pos="l" depth="4" NCoef="0" IVar="-1" Cut="0.0000000000000000e+00" cType="1" res="-2.8793448582291603e-03" rms="3.6288040876388550e-01" purity="5.2352946996688843e-01" nType="-99"/>
              <Node pos="r" depth="4" NCoef="0" IVar="-1" Cut="0.0000000000000000e+00" cType="1" res="5.2594626322388649e-04" rms="3.3399301767349243e-01" purity="4.7940516471862793e-01" nType="-99"/>
            </Node>
            <Node pos="r" depth="3" NCoef="0" IVar="-1" Cut="0.0000000000000000e+00" cType="1" res="-2.8280613943934441e-02" rms="1.6176779568195343e-01" purity="7.6872006058692932e-02" nType="-99"/>
          </Node>
        </Node>
        <Node pos="r" depth="1" NCoef="0" IVar="5" Cut="3.1517759375000000e+05" cType="1" res="7.9111423110589385e-04" rms="3.1553336977958679e-01" purity="5.4994070529937744e-01" nType="0">
          <Node pos="l" depth="2" NCoef="0" IVar="5" Cut="3.8817664062500000e+04" cType="1" res="1.8251222791150212e-03" rms="3.1962239742279053e-01" purity="5.8319813013076782e-01" nType="0">
            <Node pos="l" depth="3" NCoef="0" IVar="-1" Cut="0.0000000000000000e+00" cType="1" res="-1.0544534772634506e-02" rms="3.3468440175056458e-01" purity="4.8079109191894531e-01" nType="-99"/>
            <Node pos="r" depth="3" NCoef="0" IVar="13" Cut="1.0666779279708862e+00" cType="1" res="3.4158336929976940e-03" rms="3.1792804598808289e-01" purity="5.9415102005004883e-01" nType="0">
              <Node pos="l" depth="4" NCoef="0" IVar="-1" Cut="0.0000000000000000e+00" cType="1" res="1.6171973198652267e-02" rms="3.5005691647529602e-01" purity="2.4280819296836853e-01" nType="-99"/>
              <Node pos="r" depth="4" NCoef="0" IVar="-1" Cut="0.0000000000000000e+00" cType="1" res="1.9557010382413864e-03" rms="3.1501919031143188e-01" purity="6.2390702962875366e-01" nType="-99"/>
            </Node>
          </Node>
          <Node pos="r" depth="2" NCoef="0" IVar="14" Cut="2.8978774547576904e+00" cType="1" res="-7.5489385053515434e-03" rms="2.8024077415466309e-01" purity="2.8169417381286621e-01" nType="0">
            <Node pos="l" depth="3" NCoef="0" IVar="-1" Cut="0.0000000000000000e+00" cType="1" res="-2.4604760110378265e-02" rms="2.7256816625595093e-01" purity="2.7098596096038818e-01" nType="-99"/>
            <Node pos="r" depth="3" NCoef="0" IVar="-1" Cut="0.0000000000000000e+00" cType="1" res="6.6473125480115414e-03" rms="2.8750354051589966e-01" purity="2.9297831654548645e-01" nType="-99"/>
          </Node>
        </Node>
      </Node>
    </BinaryTree>
    <BinaryTree type="DecisionTree" boostWeight="1.0000000000000000e+00" itree="403">
      <Node pos="s" depth="0" NCoef="0" IVar="13" Cut="3.2910404205322266e+00" cType="1" res="-2.3553382106911158e-06" rms="3.3224514126777649e-01" purity="5.0000000000000000e-01" nType="0">
        <Node pos="l" depth="1" NCoef="0" IVar="12" Cut="3.8830318450927734e+00" cType="1" res="-1.3872537238057703e-04" rms="3.3140730857849121e-01" purity="4.9753779172897339e-01" nType="0">
          <Node pos="l" depth="2" NCoef="0" IVar="11" Cut="2.9241213798522949e+00" cType="1" res="-2.1720115910284221e-04" rms="3.3191177248954773e-01" purity="4.9995502829551697e-01" nType="0">
            <Node pos="l" depth="3" NCoef="0" IVar="11" Cut="1.4033236503601074e+00" cType="1" res="-3.5144964931532741e-04" rms="3.3307757973670959e-01" purity="5.0570666790008545e-01" nType="0">
              <Node pos="l" depth="4" NCoef="0" IVar="-1" Cut="0.0000000000000000e+00" cType="1" res="2.5849349913187325e-04" rms="3.3904483914375305e-01" purity="6.0045832395553589e-01" nType="-99"/>
              <Node pos="r" depth="4" NCoef="0" IVar="-1" Cut="0.0000000000000000e+00" cType="1" res="-1.6208101296797395e-03" rms="3.1980672478675842e-01" purity="3.0108597874641418e-01" nType="-99"/>
            </Node>
            <Node pos="r" depth="3" NCoef="0" IVar="-1" Cut="0.0000000000000000e+00" cType="1" res="1.6232054680585861e-02" rms="2.4041724205017090e-01" purity="1.1207954585552216e-01" nType="-99"/>
          </Node>
          <Node pos="r" depth="2" NCoef="0" IVar="-1" Cut="0.0000000000000000e+00" cType="1" res="7.0786331780254841e-03" rms="2.8617706894874573e-01" purity="2.9606202244758606e-01" nType="-99"/>
        </Node>
        <Node pos="r" depth="1" NCoef="0" IVar="15" Cut="1.2837932109832764e+00" cType="1" res="1.2943890178576112e-03" rms="3.4010636806488037e-01" purity="5.2341330051422119e-01" nType="0">
          <Node pos="l" depth="2" NCoef="0" IVar="13" Cut="3.5261659622192383e+00" cType="1" res="7.9997023567557335e-03" rms="3.6539900302886963e-01" purity="4.9148994684219360e-01" nType="0">
            <Node pos="l" depth="3" NCoef="0" IVar="-1" Cut="0.0000000000000000e+00" cType="1" res="1.0466514155268669e-02" rms="3.7885034084320068e-01" purity="5.4663217067718506e-01" nType="-99"/>
            <Node pos="r" depth="3" NCoef="0" IVar="-1" Cut="0.0000000000000000e+00" cType="1" res="5.0338334403932095e-05" rms="3.4863483905792236e-01" purity="4.2619666457176208e-01" nType="-99"/>
          </Node>
          <Node pos="r" depth="2" NCoef="0" IVar="16" Cut="1.9683004617691040e+00" cType="1" res="-7.9628516687080264e-04" rms="3.3179858326911926e-01" purity="5.3336685895919800e-01" nType="0">
            <Node pos="l" depth="3" NCoef="0" IVar="12" Cut="2.6232001781463623e+00" cType="1" res="-3.5315128043293953e-03" rms="3.2786750793457031e-01" purity="6.0161745548248291e-01" nType="0">
              <Node pos="l" depth="4" NCoef="0" IVar="-1" Cut="0.0000000000000000e+00" cType="1" res="-1.4786229468882084e-02" rms="3.4695553779602051e-01" purity="5.0082433223724365e-01" nType="-99"/>
              <Node pos="r" depth="4" NCoef="0" IVar="-1" Cut="0.0000000000000000e+00" cType="1" res="1.0410476534161717e-04" rms="3.2310020923614502e-01" purity="6.2535458803176880e-01" nType="-99"/>
            </Node>
            <Node pos="r" depth="3" NCoef="0" IVar="-1" Cut="0.0000000000000000e+00" cType="1" res="5.1875296048820019e-03" rms="3.4207412600517273e-01" purity="3.4915611147880554e-01" nType="-99"/>
          </Node>
        </Node>
      </Node>
    </BinaryTree>
    <BinaryTree type="DecisionTree" boostWeight="1.0000000000000000e+00" itree="404">
      <Node pos="s" depth="0" NCoef="0" IVar="5" Cut="4.3468087500000000e+05" cType="1" res="-1.9693995909619844e-06" rms="3.3223694562911987e-01" purity="5.0000000000000000e-01" nType="0">
        <Node pos="l" depth="1" NCoef="0" IVar="5" Cut="2.5910317187500000e+05" cType="1" res="-8.9939887402579188e-05" rms="3.3485722541809082e-01" purity="5.1539814472198486e-01" nType="0">
          <Node pos="l" depth="2" NCoef="0" IVar="5" Cut="1.8106351562500000e+05" cType="1" res="-3.7028978113085032e-04" rms="3.3665499091148376e-01" purity="5.3072005510330200e-01" nType="0">
            <Node pos="l" depth="3" NCoef="0" IVar="5" Cut="1.3647387500000000e+05" cType="1" res="9.7326214017812163e-05" rms="3.3758252859115601e-01" purity="5.3685384988784790e-01" nType="0">
              <Node pos="l" depth="4" NCoef="0" IVar="-1" Cut="0.0000000000000000e+00" cType="1" res="-4.8516751849092543e-04" rms="3.3912330865859985e-01" purity="5.3213280439376831e-01" nType="-99"/>
              <Node pos="r" depth="4" NCoef="0" IVar="-1" Cut="0.0000000000000000e+00" cType="1" res="2.9028384014964104e-03" rms="3.3028572797775269e-01" purity="5.5886310338973999e-01" nType="-99"/>
            </Node>
            <Node pos="r" depth="3" NCoef="0" IVar="20" Cut="5.9274914062500000e+04" cType="1" res="-3.0083484016358852e-03" rms="3.3136126399040222e-01" purity="4.9611636996269226e-01" nType="0">
              <Node pos="l" depth="4" NCoef="0" IVar="-1" Cut="0.0000000000000000e+00" cType="1" res="-5.1830210722982883e-03" rms="3.5402709245681763e-01" purity="6.3425940275192261e-01" nType="-99"/>
              <Node pos="r" depth="4" NCoef="0" IVar="-1" Cut="0.0000000000000000e+00" cType="1" res="5.9074396267533302e-03" rms="2.7938222885131836e-01" purity="2.1459992229938507e-01" nType="-99"/>
            </Node>
          </Node>
          <Node pos="r" depth="2" NCoef="0" IVar="2" Cut="5.6214487500000000e+05" cType="1" res="2.1310867741703987e-03" rms="3.2024958729743958e-01" purity="3.9401257038116455e-01" nType="0">
            <Node pos="l" depth="3" NCoef="0" IVar="4" Cut="4.7734996875000000e+05" cType="1" res="1.1472549289464951e-02" rms="3.5862839221954346e-01" purity="5.7297384738922119e-01" nType="0">
              <Node pos="l" depth="4" NCoef="0" IVar="-1" Cut="0.0000000000000000e+00" cType="1" res="-2.9198681004345417e-03" rms="3.6985737085342407e-01" purity="5.6854945421218872e-01" nType="-99"/>
              <Node pos="r" depth="4" NCoef="0" IVar="-1" Cut="0.0000000000000000e+00" cType="1" res="2.4947488680481911e-02" rms="3.4308108687400818e-01" purity="5.7849711179733276e-01" nType="-99"/>
            </Node>
            <Node pos="r" depth="3" NCoef="0" IVar="12" Cut="2.2634818553924561e+00" cType="1" res="-3.0863785650581121e-03" rms="2.9653275012969971e-01" purity="2.9405772686004639e-01" nType="0">
              <Node pos="l" depth="4" NCoef="0" IVar="-1" Cut="0.0000000000000000e+00" cType="1" res="7.8601967543363571e-03" rms="2.9777428507804871e-01" purity="2.1025498211383820e-01" nType="-99"/>
              <Node pos="r" depth="4" NCoef="0" IVar="-1" Cut="0.0000000000000000e+00" cType="1" res="-1.0438327677547932e-02" rms="2.9553022980690002e-01" purity="3.4808924794197083e-01" nType="-99"/>
            </Node>
          </Node>
        </Node>
        <Node pos="r" depth="1" NCoef="0" IVar="11" Cut="6.8517512083053589e-01" cType="1" res="1.6665256116539240e-03" rms="2.7789482474327087e-01" purity="2.0795036852359772e-01" nType="0">
          <Node pos="l" depth="2" NCoef="0" IVar="-1" Cut="0.0000000000000000e+00" cType="1" res="-3.8704117760062218e-03" rms="3.0091333389282227e-01" purity="2.7868616580963135e-01" nType="-99"/>
          <Node pos="r" depth="2" NCoef="0" IVar="0" Cut="6.3333334922790527e+00" cType="1" res="4.8870770260691643e-03" rms="2.6351884007453918e-01" purity="1.6677679121494293e-01" nType="0">
            <Node pos="l" depth="3" NCoef="0" IVar="-1" Cut="0.0000000000000000e+00" cType="1" res="1.4049031771719456e-02" rms="2.9499930143356323e-01" purity="2.2417269647121429e-01" nType="-99"/>
            <Node pos="r" depth="3" NCoef="0" IVar="-1" Cut="0.0000000000000000e+00" cType="1" res="-8.5696624591946602e-03" rms="2.1635034680366516e-01" purity="9.3465946614742279e-02" nType="-99"/>
          </Node>
        </Node>
      </Node>
    </BinaryTree>
    <BinaryTree type="DecisionTree" boostWeight="1.0000000000000000e+00" itree="405">
      <Node pos="s" depth="0" NCoef="0" IVar="11" Cut="7.3745375871658325e-01" cType="1" res="-1.5714074379502563e-06" rms="3.3220496773719788e-01" purity="5.0000000000000000e-01" nType="0">
        <Node pos="l" depth="1" NCoef="0" IVar="17" Cut="1.5516185937500000e+05" cType="1" res="5.8620056370273232e-04" rms="3.2110765576362610e-01" purity="6.6764646768569946e-01" nType="0">
          <Node pos="l" depth="2" NCoef="0" IVar="19" Cut="2.1792151562500000e+05" cType="1" res="-3.0660961056128144e-04" rms="3.2668638229370117e-01" purity="6.8309718370437622e-01" nType="0">
            <Node pos="l" depth="3" NCoef="0" IVar="4" Cut="4.4671290625000000e+05" cType="1" res="-9.5851102378219366e-04" rms="3.2500538229942322e-01" purity="6.9803076982498169e-01" nType="0">
              <Node pos="l" depth="4" NCoef="0" IVar="-1" Cut="0.0000000000000000e+00" cType="1" res="5.7075946824625134e-04" rms="3.2489997148513794e-01" purity="7.2042781114578247e-01" nType="-99"/>
              <Node pos="r" depth="4" NCoef="0" IVar="-1" Cut="0.0000000000000000e+00" cType="1" res="-8.8768098503351212e-03" rms="3.2544401288032532e-01" purity="5.7496070861816406e-01" nType="-99"/>
            </Node>
            <Node pos="r" depth="3" NCoef="0" IVar="-1" Cut="0.0000000000000000e+00" cType="1" res="9.5292571932077408e-03" rms="3.5995182394981384e-01" purity="3.6904379725456238e-01" nType="-99"/>
          </Node>
          <Node pos="r" depth="2" NCoef="0" IVar="10" Cut="1.0183021875000000e+05" cType="1" res="3.9889873005449772e-03" rms="2.9886758327484131e-01" purity="6.0875892639160156e-01" nType="0">
            <Node pos="l" depth="3" NCoef="0" IVar="-1" Cut="0.0000000000000000e+00" cType="1" res="-2.6782839559018612e-03" rms="3.1565979123115540e-01" purity="5.6517267227172852e-01" nType="-99"/>
            <Node pos="r" depth="3" NCoef="0" IVar="13" Cut="2.7337582111358643e+00" cType="1" res="7.7504408545792103e-03" rms="2.8918310999870300e-01" purity="6.3264429569244385e-01" nType="0">
              <Node pos="l" depth="4" NCoef="0" IVar="-1" Cut="0.0000000000000000e+00" cType="1" res="1.5885757282376289e-02" rms="3.0448099970817566e-01" purity="5.2038115262985229e-01" nType="-99"/>
              <Node pos="r" depth="4" NCoef="0" IVar="-1" Cut="0.0000000000000000e+00" cType="1" res="1.2302213581278920e-03" rms="2.7483323216438293e-01" purity="7.3149752616882324e-01" nType="-99"/>
            </Node>
          </Node>
        </Node>
        <Node pos="r" depth="1" NCoef="0" IVar="13" Cut="3.5649859905242920e+00" cType="1" res="-2.7052994119003415e-04" rms="3.3716085553169250e-01" purity="4.2328667640686035e-01" nType="0">
          <Node pos="l" depth="2" NCoef="0" IVar="0" Cut="6.3333334922790527e+00" cType="1" res="-4.8735915333963931e-04" rms="3.3712276816368103e-01" purity="4.2397332191467285e-01" nType="0">
            <Node pos="l" depth="3" NCoef="0" IVar="12" Cut="3.7722609043121338e+00" cType="1" res="-1.3910224661231041e-03" rms="3.3588492870330811e-01" purity="4.8640874028205872e-01" nType="0">
              <Node pos="l" depth="4" NCoef="0" IVar="-1" Cut="0.0000000000000000e+00" cType="1" res="-1.5150678809732199e-03" rms="3.3694440126419067e-01" purity="4.8754256963729858e-01" nType="-99"/>
              <Node pos="r" depth="4" NCoef="0" IVar="-1" Cut="0.0000000000000000e+00" cType="1" res="1.4743344858288765e-02" rms="2.9208412766456604e-01" purity="4.4308215379714966e-01" nType="-99"/>
            </Node>
            <Node pos="r" depth="3" NCoef="0" IVar="12" Cut="3.5931708812713623e+00" cType="1" res="8.7320740567520261e-04" rms="3.3897343277931213e-01" purity="3.2996973395347595e-01" nType="0">
              <Node pos="l" depth="4" NCoef="0" IVar="-1" Cut="0.0000000000000000e+00" cType="1" res="1.3831079704686999e-03" rms="3.4152665734291077e-01" purity="3.3536234498023987e-01" nType="-99"/>
              <Node pos="r" depth="4" NCoef="0" IVar="-1" Cut="0.0000000000000000e+00" cType="1" res="-1.5184773132205009e-02" rms="2.8853851556777954e-01" purity="2.3248298466205597e-01" nType="-99"/>
            </Node>
          </Node>
          <Node pos="r" depth="2" NCoef="0" IVar="17" Cut="7.8629976562500000e+04" cType="1" res="4.0175556205213070e-03" rms="3.3788433670997620e-01" purity="4.0970730781555176e-01" nType="0">
            <Node pos="l" depth="3" NCoef="0" IVar="18" Cut="3.5093937500000000e+04" cType="1" res="1.2075765058398247e-02" rms="3.5638236999511719e-01" purity="4.3709766864776611e-01" nType="0">
              <Node pos="l" depth="4" NCoef="0" IVar="-1" Cut="0.0000000000000000e+00" cType="1" res="1.4313209801912308e-02" rms="3.6149659752845764e-01" purity="4.4647485017776489e-01" nType="-99"/>
              <Node pos="r" depth="4" NCoef="0" IVar="-1" Cut="0.0000000000000000e+00" cType="1" res="3.7206232082098722e-03" rms="3.5109356045722961e-01" purity="4.2779746651649475e-01" nType="-99"/>
            </Node>
            <Node pos="r" depth="3" NCoef="0" IVar="-1" Cut="0.0000000000000000e+00" cType="1" res="-1.1925487779080868e-02" rms="2.9752570390701294e-01" purity="3.5582220554351807e-01" nType="-99"/>
          </Node>
        </Node>
      </Node>
    </BinaryTree>
    <BinaryTree type="DecisionTree" boostWeight="1.0000000000000000e+00" itree="406">
      <Node pos="s" depth="0" NCoef="0" IVar="16" Cut="2.7308914661407471e+00" cType="1" res="-1.2007325267404667e-06" rms="3.3218348026275635e-01" purity="5.0000000000000000e-01" nType="0">
        <Node pos="l" depth="1" NCoef="0" IVar="16" Cut="2.6013019084930420e+00" cType="1" res="1.0741846926975995e-04" rms="3.3238920569419861e-01" purity="5.2008587121963501e-01" nType="0">
          <Node pos="l" depth="2" NCoef="0" IVar="15" Cut="1.9193526506423950e+00" cType="1" res="-1.0099230712512508e-04" rms="3.3166134357452393e-01" purity="5.2628415822982788e-01" nType="0">
            <Node pos="l" depth="3" NCoef="0" IVar="16" Cut="2.3544597625732422e+00" cType="1" res="-9.6483592642471194e-04" rms="3.4466764330863953e-01" purity="4.9564346671104431e-01" nType="0">
              <Node pos="l" depth="4" NCoef="0" IVar="-1" Cut="0.0000000000000000e+00" cType="1" res="-1.8348093726672232e-04" rms="3.4356844425201416e-01" purity="5.0561773777008057e-01" nType="-99"/>
              <Node pos="r" depth="4" NCoef="0" IVar="-1" Cut="0.0000000000000000e+00" cType="1" res="-7.6262056827545166e-03" rms="3.5857266187667847e-01" purity="3.6540538072586060e-01" nType="-99"/>
            </Node>
            <Node pos="r" depth="3" NCoef="0" IVar="16" Cut="2.3562006950378418e+00" cType="1" res="7.6756003545597196e-04" rms="3.1804597377777100e-01" purity="5.5709183216094971e-01" nType="0">
              <Node pos="l" depth="4" NCoef="0" IVar="-1" Cut="0.0000000000000000e+00" cType="1" res="-1.2660284119192511e-04" rms="3.1769329309463501e-01" purity="5.7873904705047607e-01" nType="-99"/>
              <Node pos="r" depth="4" NCoef="0" IVar="-1" Cut="0.0000000000000000e+00" cType="1" res="1.1550487019121647e-02" rms="3.2251730561256409e-01" purity="2.6519238948822021e-01" nType="-99"/>
            </Node>
          </Node>
          <Node pos="r" depth="2" NCoef="0" IVar="12" Cut="2.6789295673370361e+00" cType="1" res="6.8421540781855583e-03" rms="3.5504186153411865e-01" purity="3.1979098916053772e-01" nType="0">
            <Node pos="l" depth="3" NCoef="0" IVar="-1" Cut="0.0000000000000000e+00" cType="1" res="-1.5328327426686883e-03" rms="3.5642063617706299e-01" purity="3.1121557950973511e-01" nType="-99"/>
            <Node pos="r" depth="3" NCoef="0" IVar="-1" Cut="0.0000000000000000e+00" cType="1" res="1.5441818162798882e-02" rms="3.5289490222930908e-01" purity="3.3101308345794678e-01" nType="-99"/>
          </Node>
        </Node>
        <Node pos="r" depth="1" NCoef="0" IVar="12" Cut="2.0027306079864502e+00" cType="1" res="-1.1744002113118768e-03" rms="3.2995122671127319e-01" purity="2.8305149078369141e-01" nType="0">
          <Node pos="l" depth="2" NCoef="0" IVar="16" Cut="2.9665584564208984e+00" cType="1" res="-8.7287230417132378e-03" rms="3.2861590385437012e-01" purity="2.3553736507892609e-01" nType="0">
            <Node pos="l" depth="3" NCoef="0" IVar="-1" Cut="0.0000000000000000e+00" cType="1" res="-4.8075467930175364e-04" rms="3.4113442897796631e-01" purity="2.4405778944492340e-01" nType="-99"/>
            <Node pos="r" depth="3" NCoef="0" IVar="-1" Cut="0.0000000000000000e+00" cType="1" res="-1.4031275175511837e-02" rms="3.1546825170516968e-01" purity="2.2706554830074310e-01" nType="-99"/>
          </Node>
          <Node pos="r" depth="2" NCoef="0" IVar="17" Cut="9.0809492187500000e+04" cType="1" res="1.7637412529438734e-03" rms="3.3042246103286743e-01" purity="3.0153140425682068e-01" nType="0">
            <Node pos="l" depth="3" NCoef="0" IVar="19" Cut="1.8502367187500000e+05" cType="1" res="-2.7927299961447716e-03" rms="3.3997893333435059e-01" purity="3.1129720807075500e-01" nType="0">
              <Node pos="l" depth="4" NCoef="0" IVar="-1" Cut="0.0000000000000000e+00" cType="1" res="3.2409981358796358e-03" rms="3.4622621536254883e-01" purity="3.3324733376502991e-01" nType="-99"/>
              <Node pos="r" depth="4" NCoef="0" IVar="-1" Cut="0.0000000000000000e+00" cType="1" res="-1.7078030854463577e-02" rms="3.2205948233604431e-01" purity="2.5292959809303284e-01" nType="-99"/>
            </Node>
            <Node pos="r" depth="3" NCoef="0" IVar="-1" Cut="0.0000000000000000e+00" cType="1" res="1.2199880555272102e-02" rms="3.0678582191467285e-01" purity="2.7881780266761780e-01" nType="-99"/>
          </Node>
        </Node>
      </Node>
    </BinaryTree>
    <BinaryTree type="DecisionTree" boostWeight="1.0000000000000000e+00" itree="407">
      <Node pos="s" depth="0" NCoef="0" IVar="15" Cut="1.5260878801345825e+00" cType="1" res="-1.6797738453533384e-06" rms="3.3216413855552673e-01" purity="5.0000000000000000e-01" nType="0">
        <Node pos="l" depth="1" NCoef="0" IVar="17" Cut="1.2276909375000000e+05" cType="1" res="5.0174846546724439e-04" rms="3.5185784101486206e-01" purity="4.8203909397125244e-01" nType="0">
          <Node pos="l" depth="2" NCoef="0" IVar="19" Cut="8.0989664062500000e+04" cType="1" res="1.2118843151256442e-03" rms="3.6053362488746643e-01" purity="5.1169705390930176e-01" nType="0">
            <Node pos="l" depth="3" NCoef="0" IVar="17" Cut="5.3251875000000000e+03" cType="1" res="-9.0477656340226531e-04" rms="3.5090720653533936e-01" purity="5.5694961547851562e-01" nType="0">
              <Node pos="l" depth="4" NCoef="0" IVar="-1" Cut="0.0000000000000000e+00" cType="1" res="5.6503769010305405e-03" rms="3.3402696251869202e-01" purity="5.5866652727127075e-01" nType="-99"/>
              <Node pos="r" depth="4" NCoef="0" IVar="-1" Cut="0.0000000000000000e+00" cType="1" res="-5.5330735631287098e-03" rms="3.6474800109863281e-01" purity="5.5546444654464722e-01" nType="-99"/>
            </Node>
            <Node pos="r" depth="3" NCoef="0" IVar="12" Cut="1.8505345582962036e+00" cType="1" res="5.3958185017108917e-03" rms="3.7880814075469971e-01" purity="4.2224779725074768e-01" nType="0">
              <Node pos="l" depth="4" NCoef="0" IVar="-1" Cut="0.0000000000000000e+00" cType="1" res="2.6573475450277328e-02" rms="3.8353586196899414e-01" purity="3.9671778678894043e-01" nType="-99"/>
              <Node pos="r" depth="4" NCoef="0" IVar="-1" Cut="0.0000000000000000e+00" cType="1" res="7.0744374534115195e-04" rms="3.7797185778617859e-01" purity="4.2557102441787720e-01" nType="-99"/>
            </Node>
          </Node>
          <Node pos="r" depth="2" NCoef="0" IVar="3" Cut="2.9411821875000000e+05" cType="1" res="-5.4821041412651539e-03" rms="2.6773941516876221e-01" purity="2.3213057219982147e-01" nType="0">
            <Node pos="l" depth="3" NCoef="0" IVar="8" Cut="7.2154000000000000e+04" cType="1" res="-1.0576072148978710e-02" rms="2.9902765154838562e-01" purity="2.9518002271652222e-01" nType="0">
              <Node pos="l" depth="4" NCoef="0" IVar="-1" Cut="0.0000000000000000e+00" cType="1" res="-1.6197793185710907e-02" rms="3.5720661282539368e-01" purity="4.8588398098945618e-01" nType="-99"/>
              <Node pos="r" depth="4" NCoef="0" IVar="-1" Cut="0.0000000000000000e+00" cType="1" res="4.6107722446322441e-03" rms="2.2712028026580811e-01" purity="1.0794475674629211e-01" nType="-99"/>
            </Node>
            <Node pos="r" depth="3" NCoef="0" IVar="-1" Cut="0.0000000000000000e+00" cType="1" res="1.0826203040778637e-02" rms="1.9372165203094482e-01" purity="1.1120553314685822e-01" nType="-99"/>
          </Node>
        </Node>
        <Node pos="r" depth="1" NCoef="0" IVar="16" Cut="3.2300150394439697e+00" cType="1" res="-2.5719113182276487e-04" rms="3.2170754671096802e-01" purity="5.0911593437194824e-01" nType="0">
          <Node pos="l" depth="2" NCoef="0" IVar="16" Cut="1.0906040668487549e+00" cType="1" res="-4.5836137724108994e-04" rms="3.2164737582206726e-01" purity="5.1443803310394287e-01" nType="0">
            <Node pos="l" depth="3" NCoef="0" IVar="16" Cut="9.8872923851013184e-01" cType="1" res="1.0313397506251931e-03" rms="2.9649481177330017e-01" purity="7.3900175094604492e-01" nType="0">
              <Node pos="l" depth="4" NCoef="0" IVar="-1" Cut="0.0000000000000000e+00" cType="1" res="-1.4451456081587821e-04" rms="2.9043495655059814e-01" purity="7.5551462173461914e-01" nType="-99"/>
              <Node pos="r" depth="4" NCoef="0" IVar="-1" Cut="0.0000000000000000e+00" cType="1" res="7.4687311425805092e-03" rms="3.3496856689453125e-01" purity="6.2587070465087891e-01" nType="-99"/>
            </Node>
            <Node pos="r" depth="3" NCoef="0" IVar="15" Cut="2.0698866844177246e+00" cType="1" res="-1.4676341088488698e-03" rms="3.3762136101722717e-01" purity="3.6229607462882996e-01" nType="0">
              <Node pos="l" depth="4" NCoef="0" IVar="-1" Cut="0.0000000000000000e+00" cType="1" res="1.6828856896609068e-03" rms="3.4637314081192017e-01" purity="3.8383308053016663e-01" nType="-99"/>
              <Node pos="r" depth="4" NCoef="0" IVar="-1" Cut="0.0000000000000000e+00" cType="1" res="-2.9888567514717579e-03" rms="3.3255627751350403e-01" purity="3.5012513399124146e-01" nType="-99"/>
            </Node>
          </Node>
          <Node pos="r" depth="2" NCoef="0" IVar="-1" Cut="0.0000000000000000e+00" cType="1" res="8.1680472940206528e-03" rms="3.2438689470291138e-01" purity="2.5858071446418762e-01" nType="-99"/>
        </Node>
      </Node>
    </BinaryTree>
    <BinaryTree type="DecisionTree" boostWeight="1.0000000000000000e+00" itree="408">
      <Node pos="s" depth="0" NCoef="0" IVar="16" Cut="2.7308914661407471e+00" cType="1" res="-1.5010235756562906e-06" rms="3.3213028311729431e-01" purity="5.0000000000000000e-01" nType="0">
        <Node pos="l" depth="1" NCoef="0" IVar="16" Cut="2.6013019084930420e+00" cType="1" res="1.1907520820386708e-04" rms="3.3234599232673645e-01" purity="5.2008587121963501e-01" nType="0">
          <Node pos="l" depth="2" NCoef="0" IVar="15" Cut="1.9193526506423950e+00" cType="1" res="-4.4734257244272158e-05" rms="3.3162286877632141e-01" purity="5.2628415822982788e-01" nType="0">
            <Node pos="l" depth="3" NCoef="0" IVar="15" Cut="1.8281050920486450e+00" cType="1" res="-9.0657349210232496e-04" rms="3.4461858868598938e-01" purity="4.9564346671104431e-01" nType="0">
              <Node pos="l" depth="4" NCoef="0" IVar="-1" Cut="0.0000000000000000e+00" cType="1" res="-1.1850157170556486e-04" rms="3.4642079472541809e-01" purity="4.9434775114059448e-01" nType="-99"/>
              <Node pos="r" depth="4" NCoef="0" IVar="-1" Cut="0.0000000000000000e+00" cType="1" res="-8.2155568525195122e-03" rms="3.2274082303047180e-01" purity="5.1074582338333130e-01" nType="-99"/>
            </Node>
            <Node pos="r" depth="3" NCoef="0" IVar="16" Cut="2.3562006950378418e+00" cType="1" res="8.2180276513099670e-04" rms="3.1801903247833252e-01" purity="5.5709183216094971e-01" nType="0">
              <Node pos="l" depth="4" NCoef="0" IVar="-1" Cut="0.0000000000000000e+00" cType="1" res="7.1904352807905525e-05" rms="3.1768143177032471e-01" purity="5.7873904705047607e-01" nType="-99"/>
              <Node pos="r" depth="4" NCoef="0" IVar="-1" Cut="0.0000000000000000e+00" cType="1" res="9.6606295555830002e-03" rms="3.2236891984939575e-01" purity="2.6519238948822021e-01" nType="-99"/>
            </Node>
          </Node>
          <Node pos="r" depth="2" NCoef="0" IVar="14" Cut="1.8175988197326660e+00" cType="1" res="5.4125320166349411e-03" rms="3.5488036274909973e-01" purity="3.1979098916053772e-01" nType="0">
            <Node pos="l" depth="3" NCoef="0" IVar="-1" Cut="0.0000000000000000e+00" cType="1" res="-2.1459457930177450e-03" rms="3.4792500734329224e-01" purity="3.3003717660903931e-01" nType="-99"/>
            <Node pos="r" depth="3" NCoef="0" IVar="-1" Cut="0.0000000000000000e+00" cType="1" res="1.1903734877705574e-02" rms="3.6247727274894714e-01" purity="3.0802521109580994e-01" nType="-99"/>
          </Node>
        </Node>
        <Node pos="r" depth="1" NCoef="0" IVar="19" Cut="1.4166829687500000e+05" cType="1" res="-1.3038488104939461e-03" rms="3.2978874444961548e-01" purity="2.8305149078369141e-01" nType="0">
          <Node pos="l" depth="2" NCoef="0" IVar="0" Cut="5.3333334922790527e+00" cType="1" res="-6.2078861519694328e-03" rms="3.4168040752410889e-01" purity="3.1996512413024902e-01" nType="0">
            <Node pos="l" depth="3" NCoef="0" IVar="-1" Cut="0.0000000000000000e+00" cType="1" res="4.5312736183404922e-03" rms="3.5223093628883362e-01" purity="4.2496815323829651e-01" nType="-99"/>
            <Node pos="r" depth="3" NCoef="0" IVar="19" Cut="6.0291207031250000e+04" cType="1" res="-1.6148842871189117e-02" rms="3.3247730135917664e-01" purity="2.3413069546222687e-01" nType="0">
              <Node pos="l" depth="4" NCoef="0" IVar="-1" Cut="0.0000000000000000e+00" cType="1" res="-2.6139910332858562e-03" rms="3.2687309384346008e-01" purity="2.4208593368530273e-01" nType="-99"/>
              <Node pos="r" depth="4" NCoef="0" IVar="-1" Cut="0.0000000000000000e+00" cType="1" res="-2.2472387179732323e-02" rms="3.3732748031616211e-01" purity="2.2644351422786713e-01" nType="-99"/>
            </Node>
          </Node>
          <Node pos="r" depth="2" NCoef="0" IVar="4" Cut="3.9831118750000000e+05" cType="1" res="2.9543470591306686e-03" rms="3.1904277205467224e-01" purity="2.5099924206733704e-01" nType="0">
            <Node pos="l" depth="3" NCoef="0" IVar="10" Cut="1.0630668750000000e+05" cType="1" res="1.3153169304132462e-02" rms="3.5676628351211548e-01" purity="3.1972780823707581e-01" nType="0">
              <Node pos="l" depth="4" NCoef="0" IVar="-1" Cut="0.0000000000000000e+00" cType="1" res="1.9498024135828018e-02" rms="3.5996645689010620e-01" purity="2.9204678535461426e-01" nType="-99"/>
              <Node pos="r" depth="4" NCoef="0" IVar="-1" Cut="0.0000000000000000e+00" cType="1" res="6.1778799863532186e-04" rms="3.5321217775344849e-01" purity="3.4645211696624756e-01" nType="-99"/>
            </Node>
            <Node pos="r" depth="3" NCoef="0" IVar="11" Cut="1.1165906190872192e+00" cType="1" res="-6.6488892771303654e-03" rms="2.7855524420738220e-01" purity="1.8628422915935516e-01" nType="0">
